/**
  ******************************************************************************
  * @file    weights/conv1d.cc
  * @author  Pierre-Emmanuel Novac <penovac@unice.fr>, LEAT, CNRS, Université Côte d'Azur, France
  * @version 1.0.0
  * @date    24 march 2020
  * @brief   Template generating plain C code for the implementation of Convolutional Neural Networks on MCU
  */

#include <stdint.h>

#define INPUT_CHANNELS    16
#define CONV_FILTERS      32
#define CONV_KERNEL_SIZE  3
#define CONV_GROUPS       1


const float  conv1d_6_bias[CONV_FILTERS] = {0x0.0p+0, 0x0.0p+0, 0x0.0p+0, 0x0.0p+0, 0x0.0p+0, 0x0.0p+0, 0x0.0p+0, 0x0.0p+0, 0x0.0p+0, 0x0.0p+0, 0x0.0p+0, 0x0.0p+0, 0x0.0p+0, 0x0.0p+0, 0x0.0p+0, 0x0.0p+0, 0x0.0p+0, 0x0.0p+0, 0x0.0p+0, 0x0.0p+0, 0x0.0p+0, 0x0.0p+0, 0x0.0p+0, 0x0.0p+0, 0x0.0p+0, 0x0.0p+0, 0x0.0p+0, 0x0.0p+0, 0x0.0p+0, 0x0.0p+0, 0x0.0p+0, 0x0.0p+0}
;

const float  conv1d_6_kernel[CONV_FILTERS][CONV_KERNEL_SIZE][INPUT_CHANNELS / CONV_GROUPS] = {{{-0x1.db27440000000p-4, 0x1.5393940000000p-3, -0x1.7504e60000000p-4, -0x1.5383f60000000p-3, -0x1.df9fbe0000000p-4, -0x1.d23f800000000p-8, -0x1.0f1f8c0000000p-3, 0x1.7c69e00000000p-5, 0x1.81bf380000000p-4, 0x1.3b08080000000p-5, -0x1.8a74380000000p-3, 0x1.3b6ec00000000p-3, -0x1.ba39000000000p-9, 0x1.8952a40000000p-3, 0x1.325c600000000p-4, 0x1.254df80000000p-3}
, {0x1.32d7d80000000p-3, 0x1.d593900000000p-5, 0x1.551f600000000p-4, 0x1.1c8a380000000p-5, -0x1.11c3240000000p-3, -0x1.0b7b300000000p-4, -0x1.378a040000000p-3, -0x1.4a83400000000p-4, 0x1.2f95b00000000p-3, 0x1.e5bea00000000p-6, 0x1.9bf8b80000000p-3, -0x1.cd6d940000000p-4, 0x1.4375b80000000p-4, -0x1.9e007a0000000p-3, 0x1.a0600c0000000p-3, 0x1.0951300000000p-4}
, {-0x1.936c400000000p-8, -0x1.c780300000000p-6, 0x1.90e7c80000000p-4, 0x1.821fc80000000p-4, -0x1.2d97500000000p-5, 0x1.1da5580000000p-5, -0x1.081e980000000p-5, 0x1.b955480000000p-4, 0x1.0a3ae80000000p-5, 0x1.95a7580000000p-3, -0x1.ec3bdc0000000p-4, -0x1.062c900000000p-3, 0x1.7fc6680000000p-3, 0x1.44f1f00000000p-4, -0x1.78ca820000000p-4, -0x1.12fdf00000000p-5}
}
, {{-0x1.8f37ea0000000p-3, -0x1.1570000000000p-6, -0x1.5d62800000000p-5, -0x1.954c560000000p-3, -0x1.8f8bce0000000p-4, 0x1.6399b00000000p-6, -0x1.35cca80000000p-4, -0x1.8c9fe60000000p-4, -0x1.b6a5d00000000p-5, 0x1.ec78d80000000p-4, -0x1.46f4300000000p-4, 0x1.aed9100000000p-4, 0x1.68d2100000000p-4, -0x1.55cd700000000p-3, 0x1.3e8ca80000000p-4, 0x1.4a60f80000000p-4}
, {0x1.a774f00000000p-5, -0x1.ec84460000000p-4, 0x1.55a7800000000p-6, 0x1.1aa13c0000000p-3, -0x1.9734020000000p-4, 0x1.9784480000000p-3, 0x1.1b49c00000000p-5, 0x1.52bf100000000p-3, -0x1.01d7580000000p-3, -0x1.7d312c0000000p-3, 0x1.97d8080000000p-3, 0x1.5fe4200000000p-7, 0x1.292d680000000p-3, -0x1.666b8a0000000p-4, 0x1.cb9e800000000p-7, -0x1.182fac0000000p-3}
, {0x1.ea8ff00000000p-5, -0x1.55bfd80000000p-3, 0x1.77c1000000000p-3, -0x1.a1d7140000000p-4, -0x1.28d1040000000p-4, 0x1.00eae80000000p-4, 0x1.d7c2800000000p-7, -0x1.9e09a20000000p-3, 0x1.5e74c00000000p-5, 0x1.0104740000000p-3, -0x1.81876e0000000p-3, 0x1.6371100000000p-3, 0x1.e43cd80000000p-4, -0x1.03e5f80000000p-5, 0x1.5afef40000000p-3, -0x1.0657f00000000p-3}
}
, {{-0x1.48f1820000000p-3, -0x1.9217680000000p-5, 0x1.4d3da00000000p-3, 0x1.6464f80000000p-4, -0x1.99b3600000000p-4, -0x1.ec37fc0000000p-4, 0x1.7d1c000000000p-8, -0x1.32a5340000000p-4, -0x1.82d1380000000p-4, 0x1.4685a80000000p-4, -0x1.2e4c920000000p-3, -0x1.b7dc800000000p-9, 0x1.547a8c0000000p-3, -0x1.9771120000000p-3, 0x1.3496200000000p-4, -0x1.9ef5e20000000p-3}
, {0x1.7bb5800000000p-9, 0x1.3292600000000p-3, -0x1.2c1fd20000000p-3, 0x1.45d1180000000p-5, -0x1.8a94000000000p-8, 0x1.1454000000000p-7, -0x1.1fb4d80000000p-4, 0x1.0843a00000000p-3, -0x1.33e1580000000p-4, -0x1.1c71000000000p-9, 0x1.9fb8600000000p-4, -0x1.2fb5840000000p-3, -0x1.129f2a0000000p-3, -0x1.4d27340000000p-3, 0x1.df7da00000000p-5, -0x1.2362da0000000p-3}
, {-0x1.3d086c0000000p-3, 0x1.7534f80000000p-4, -0x1.738fe40000000p-3, 0x1.d936100000000p-4, 0x1.67a0580000000p-4, -0x1.6d97ca0000000p-3, 0x1.18ab180000000p-5, 0x1.c33fc00000000p-5, -0x1.72a6320000000p-4, 0x1.ce05c00000000p-7, 0x1.55de200000000p-3, 0x1.2aee9c0000000p-3, 0x1.f009780000000p-4, 0x1.5cf1940000000p-3, -0x1.2dbe500000000p-6, -0x1.eb95600000000p-6}
}
, {{-0x1.1e39440000000p-4, -0x1.335c0c0000000p-4, -0x1.5bb6f80000000p-5, 0x1.8ad48c0000000p-3, -0x1.58afc20000000p-3, 0x1.1cf4b80000000p-4, -0x1.0cf64c0000000p-4, 0x1.57d2900000000p-3, -0x1.255a000000000p-9, 0x1.8854980000000p-4, -0x1.a18ed20000000p-4, -0x1.b503900000000p-5, -0x1.2b05b80000000p-4, -0x1.6d709a0000000p-4, -0x1.53ed2a0000000p-3, -0x1.2044300000000p-6}
, {-0x1.ca25ea0000000p-4, -0x1.9ba5200000000p-5, -0x1.7860880000000p-5, -0x1.e1b7500000000p-4, -0x1.7a9ab00000000p-3, 0x1.7921300000000p-5, -0x1.1b6c080000000p-5, 0x1.32a1880000000p-3, 0x1.511f000000000p-3, -0x1.4e6c600000000p-4, 0x1.2f79fc0000000p-3, -0x1.6510000000000p-12, 0x1.47c6080000000p-3, 0x1.551cc00000000p-3, -0x1.2afa980000000p-4, 0x1.7901f40000000p-3}
, {-0x1.4be5180000000p-4, 0x1.dc9e600000000p-6, 0x1.67aa480000000p-5, -0x1.d929fa0000000p-4, -0x1.5a77a00000000p-6, 0x1.fa49f80000000p-4, 0x1.31caf80000000p-3, 0x1.bca0c00000000p-6, 0x1.8ff5300000000p-5, -0x1.84be960000000p-3, 0x1.6a45900000000p-5, -0x1.ea21e00000000p-7, -0x1.8f37a80000000p-3, -0x1.91a3460000000p-3, -0x1.d1b6cc0000000p-4, -0x1.e572e00000000p-7}
}
, {{-0x1.2519300000000p-4, -0x1.fbb8600000000p-5, 0x1.86b01c0000000p-3, -0x1.1bc1f80000000p-3, 0x1.1e04f80000000p-5, -0x1.691a160000000p-3, 0x1.bf8e380000000p-4, 0x1.5390580000000p-3, 0x1.1567000000000p-5, -0x1.8612b00000000p-3, 0x1.6c3c600000000p-4, -0x1.12055c0000000p-3, 0x1.63a1b80000000p-4, 0x1.6e9d000000000p-3, 0x1.5622800000000p-8, -0x1.e6b4020000000p-4}
, {0x1.4cbe7c0000000p-3, -0x1.6373800000000p-9, -0x1.99ce000000000p-10, 0x1.b70f200000000p-5, -0x1.279f9e0000000p-3, 0x1.11f8500000000p-3, -0x1.24a3d00000000p-3, 0x1.0034e80000000p-4, 0x1.264a400000000p-3, -0x1.770d000000000p-7, 0x1.7d88200000000p-4, -0x1.7ec7880000000p-3, -0x1.45c3140000000p-3, -0x1.7ab4000000000p-11, -0x1.59c20c0000000p-3, 0x1.ba74600000000p-4}
, {-0x1.0cced80000000p-5, 0x1.7d17400000000p-3, -0x1.8f99400000000p-3, 0x1.2aaf240000000p-3, 0x1.9428c80000000p-4, 0x1.9bccf00000000p-6, -0x1.f4bf4c0000000p-4, -0x1.3cabd00000000p-5, 0x1.45ab180000000p-4, 0x1.9defa80000000p-3, -0x1.72de060000000p-4, -0x1.dbf3560000000p-4, -0x1.22f2120000000p-3, 0x1.26b9080000000p-4, -0x1.2a48c80000000p-3, -0x1.7b794a0000000p-4}
}
, {{0x1.a1fd7c0000000p-3, 0x1.e187b00000000p-4, 0x1.89299c0000000p-3, 0x1.8f76800000000p-7, -0x1.d2e78e0000000p-4, 0x1.6037d00000000p-4, 0x1.fe4c180000000p-4, -0x1.21b8880000000p-3, -0x1.8011d60000000p-3, -0x1.cdff2a0000000p-4, 0x1.9d65600000000p-5, -0x1.8f284c0000000p-4, 0x1.54e2e80000000p-4, -0x1.b29e780000000p-5, 0x1.a536f00000000p-4, 0x1.6ccc7c0000000p-3}
, {-0x1.5e92000000000p-10, -0x1.189f0c0000000p-3, -0x1.7ea2800000000p-5, -0x1.733fc60000000p-3, 0x1.e45c700000000p-6, -0x1.7fb5400000000p-6, 0x1.7003900000000p-4, -0x1.3771e00000000p-6, 0x1.12d5980000000p-3, -0x1.5ba2260000000p-3, -0x1.993de80000000p-3, 0x1.990e200000000p-4, -0x1.8d87a80000000p-3, 0x1.8289500000000p-4, 0x1.9c48700000000p-6, -0x1.267b700000000p-5}
, {0x1.9908e80000000p-3, -0x1.fc5de80000000p-5, 0x1.68e0640000000p-3, -0x1.012c380000000p-4, 0x1.0db5e80000000p-3, 0x1.ddc7f00000000p-5, -0x1.0401240000000p-3, 0x1.fe91d00000000p-6, -0x1.8b8c600000000p-3, -0x1.770c400000000p-6, -0x1.ae37a00000000p-6, -0x1.6b844e0000000p-4, -0x1.8470ec0000000p-4, -0x1.1c0b5a0000000p-3, -0x1.b670800000000p-6, 0x1.264a0c0000000p-3}
}
, {{-0x1.ffb9ae0000000p-4, 0x1.13e50c0000000p-3, -0x1.d9ca900000000p-5, 0x1.9f02b00000000p-3, -0x1.bd6e980000000p-5, 0x1.cbd8a00000000p-6, 0x1.65a0c00000000p-3, -0x1.91a7400000000p-5, -0x1.be2b260000000p-4, -0x1.6ac9a80000000p-3, 0x1.b2ab400000000p-5, 0x1.9083100000000p-5, -0x1.052dd40000000p-4, -0x1.b900120000000p-4, 0x1.e02a000000000p-8, -0x1.5e0ee40000000p-4}
, {0x1.afb1480000000p-4, -0x1.26ce800000000p-8, 0x1.6d81e00000000p-3, -0x1.c5e9000000000p-7, -0x1.a193300000000p-6, -0x1.990b140000000p-4, 0x1.733a800000000p-7, -0x1.894a000000000p-5, -0x1.632a9c0000000p-4, -0x1.7cb44e0000000p-3, -0x1.d306040000000p-4, -0x1.586f680000000p-4, 0x1.6dfa3c0000000p-3, -0x1.8a81280000000p-3, 0x1.3d94000000000p-10, 0x1.65ce600000000p-5}
, {-0x1.e83ce00000000p-6, 0x1.5633200000000p-7, -0x1.4baf640000000p-3, 0x1.3d77000000000p-5, -0x1.ddee480000000p-5, 0x1.662a100000000p-3, -0x1.b26e000000000p-6, 0x1.aa90280000000p-4, -0x1.ffae4c0000000p-4, -0x1.9083d20000000p-4, -0x1.06d6c00000000p-3, -0x1.304d3c0000000p-4, 0x1.534e000000000p-10, 0x1.54aa100000000p-4, 0x1.0af6080000000p-4, 0x1.23c0000000000p-5}
}
, {{-0x1.7b23980000000p-5, -0x1.82a0d00000000p-3, 0x1.b367200000000p-5, 0x1.8d2b080000000p-3, 0x1.be4f000000000p-6, 0x1.2655280000000p-5, -0x1.47cee80000000p-4, -0x1.4ecfc00000000p-7, 0x1.9105cc0000000p-3, 0x1.a0b6fc0000000p-3, 0x1.7d29e00000000p-6, -0x1.52c1fe0000000p-4, 0x1.76442c0000000p-3, -0x1.32b6520000000p-3, 0x1.3265e80000000p-4, -0x1.137aba0000000p-3}
, {-0x1.99bca40000000p-3, 0x1.5a14580000000p-3, -0x1.3127c00000000p-5, 0x1.c2a1a00000000p-7, -0x1.99975c0000000p-4, -0x1.09d5500000000p-3, 0x1.3422e00000000p-4, 0x1.715d680000000p-3, -0x1.487c840000000p-4, 0x1.7a4be00000000p-5, 0x1.8a49f00000000p-5, -0x1.89df360000000p-3, -0x1.49c7680000000p-5, 0x1.7dba800000000p-4, -0x1.fc475a0000000p-4, -0x1.564cd80000000p-3}
, {0x1.e385680000000p-4, -0x1.d749d00000000p-5, 0x1.a48f000000000p-9, -0x1.240da00000000p-4, -0x1.a3475e0000000p-4, 0x1.c55c200000000p-5, 0x1.721d380000000p-5, 0x1.33764c0000000p-3, -0x1.4791440000000p-4, -0x1.9c14d20000000p-3, -0x1.ebefd40000000p-4, 0x1.49a8b00000000p-6, -0x1.3123f00000000p-3, 0x1.734d980000000p-3, 0x1.3384700000000p-3, 0x1.9dc9d00000000p-4}
}
, {{0x1.4165780000000p-3, 0x1.8046000000000p-7, 0x1.544ab00000000p-4, -0x1.541dc80000000p-5, 0x1.b5d3180000000p-4, -0x1.9b71560000000p-3, 0x1.b373a00000000p-4, -0x1.fbac5e0000000p-4, -0x1.0bc4680000000p-3, -0x1.76fcc80000000p-4, -0x1.8bac0c0000000p-3, 0x1.40e93c0000000p-3, 0x1.1dbc400000000p-7, -0x1.0e8a0c0000000p-3, -0x1.349f380000000p-4, 0x1.e46f280000000p-4}
, {0x1.b048a00000000p-7, 0x1.7829200000000p-5, -0x1.936d340000000p-3, 0x1.e01d600000000p-5, 0x1.a6fed80000000p-4, 0x1.71c6f00000000p-4, -0x1.9094000000000p-5, -0x1.65e7dc0000000p-3, -0x1.8678020000000p-4, 0x1.388f680000000p-4, 0x1.7eaec80000000p-3, 0x1.3adf340000000p-3, -0x1.0ca4140000000p-4, 0x1.0ff8400000000p-3, -0x1.3b00a00000000p-4, 0x1.3352f40000000p-3}
, {0x1.c25e400000000p-8, 0x1.8633e00000000p-4, -0x1.9e1ce00000000p-6, -0x1.13c1f00000000p-3, -0x1.16afcc0000000p-4, 0x1.0002b40000000p-3, 0x1.4ce9a80000000p-4, 0x1.32a2a80000000p-4, -0x1.0e538c0000000p-4, 0x1.00fc600000000p-6, -0x1.3f26f60000000p-3, 0x1.004cb00000000p-4, -0x1.537c800000000p-6, 0x1.0a2e0c0000000p-3, -0x1.5ccb1a0000000p-3, -0x1.6cabd40000000p-3}
}
, {{-0x1.38ba500000000p-6, -0x1.ab0bb00000000p-5, 0x1.09312c0000000p-3, -0x1.a553300000000p-5, -0x1.0449c80000000p-3, 0x1.47c0a00000000p-5, 0x1.7a3c380000000p-4, -0x1.4c2aa80000000p-3, 0x1.18a8080000000p-3, -0x1.3ef0420000000p-3, 0x1.201c600000000p-4, 0x1.269e840000000p-3, 0x1.e3e0000000000p-5, -0x1.c660200000000p-6, -0x1.a9ddca0000000p-4, -0x1.38f0600000000p-6}
, {0x1.6fdd1c0000000p-3, 0x1.97b3a00000000p-4, -0x1.264bc00000000p-8, 0x1.77fa500000000p-4, 0x1.1a88340000000p-3, 0x1.6e36780000000p-3, 0x1.5b15000000000p-3, -0x1.4fd7900000000p-3, 0x1.83ee380000000p-4, 0x1.9df3b00000000p-3, 0x1.0a2b8c0000000p-3, 0x1.c54c600000000p-5, -0x1.830f5a0000000p-3, 0x1.1fbb000000000p-6, -0x1.9da69c0000000p-3, 0x1.18e80c0000000p-3}
, {-0x1.7b7de20000000p-4, 0x1.7105ac0000000p-3, -0x1.3b516e0000000p-3, 0x1.3ec4300000000p-3, -0x1.8e19ce0000000p-3, -0x1.487cfa0000000p-4, 0x1.4875880000000p-3, 0x1.f6db000000000p-4, -0x1.500e100000000p-5, 0x1.1796680000000p-4, -0x1.1793a00000000p-6, 0x1.1ceb7c0000000p-3, -0x1.492e5c0000000p-3, -0x1.bb3a180000000p-5, -0x1.27c6d00000000p-3, 0x1.f84b200000000p-7}
}
, {{-0x1.5574d40000000p-3, -0x1.488ba00000000p-4, 0x1.d1e5700000000p-5, -0x1.8d5fac0000000p-3, 0x1.ee7d080000000p-4, -0x1.a3699c0000000p-4, -0x1.2635a00000000p-5, -0x1.0a06000000000p-11, -0x1.1c1d5c0000000p-3, 0x1.7ec7a00000000p-4, 0x1.8760800000000p-4, 0x1.d9c4980000000p-4, -0x1.5461560000000p-4, 0x1.3f82840000000p-3, 0x1.5019780000000p-3, 0x1.fdcd000000000p-6}
, {0x1.5778380000000p-4, 0x1.5688ac0000000p-3, -0x1.72dfa80000000p-3, 0x1.98c5880000000p-4, -0x1.6cc2000000000p-6, -0x1.1312a40000000p-4, -0x1.91679e0000000p-3, -0x1.1aa0700000000p-6, 0x1.94f4f00000000p-6, 0x1.348bac0000000p-3, -0x1.327cfc0000000p-3, -0x1.4d76c40000000p-3, 0x1.0d12200000000p-3, -0x1.5b16ae0000000p-3, -0x1.90149e0000000p-4, 0x1.686c300000000p-4}
, {-0x1.d0c3100000000p-5, 0x1.f8e4580000000p-4, -0x1.7c913e0000000p-3, 0x1.3ad4f80000000p-3, -0x1.637f200000000p-6, 0x1.5047700000000p-5, -0x1.7266400000000p-3, 0x1.99ac7c0000000p-3, -0x1.60589a0000000p-3, -0x1.92af160000000p-4, -0x1.7ac77e0000000p-4, -0x1.629f460000000p-3, -0x1.6264e40000000p-3, -0x1.41fb040000000p-4, 0x1.d5d8600000000p-5, 0x1.1a4f740000000p-3}
}
, {{0x1.903e400000000p-5, -0x1.5e19d00000000p-4, -0x1.3b46b00000000p-6, -0x1.8596f60000000p-3, 0x1.5966ac0000000p-3, -0x1.dc60980000000p-4, 0x1.afda000000000p-11, 0x1.69ad800000000p-7, 0x1.8608e00000000p-5, 0x1.320d740000000p-3, -0x1.1d84000000000p-12, 0x1.3003300000000p-4, 0x1.43115c0000000p-3, 0x1.4711340000000p-3, 0x1.ba44200000000p-5, 0x1.729a900000000p-4}
, {-0x1.a5c2c00000000p-5, -0x1.8c4c5c0000000p-3, 0x1.dd41080000000p-4, 0x1.5fb93c0000000p-3, 0x1.4bd3580000000p-3, 0x1.7ac4080000000p-3, 0x1.bdfe000000000p-6, 0x1.d14ce00000000p-6, 0x1.8c54ac0000000p-3, 0x1.c902f00000000p-4, -0x1.67c05a0000000p-3, 0x1.64cb140000000p-3, -0x1.f8b4000000000p-12, 0x1.30f5800000000p-6, -0x1.2ee6c80000000p-3, 0x1.a69c100000000p-6}
, {0x1.d4d3480000000p-4, 0x1.6f3d000000000p-8, -0x1.c48c680000000p-5, -0x1.e495e60000000p-4, -0x1.0274000000000p-7, -0x1.1509400000000p-3, 0x1.712f240000000p-3, 0x1.0a0b580000000p-4, -0x1.4d10500000000p-3, -0x1.535cd20000000p-3, -0x1.7064040000000p-4, -0x1.1a70e20000000p-3, 0x1.9358080000000p-3, 0x1.3d5f340000000p-3, -0x1.f2d5800000000p-9, -0x1.7f65c20000000p-3}
}
, {{0x1.660cac0000000p-3, -0x1.4d35000000000p-8, 0x1.bf19d00000000p-5, -0x1.88e9800000000p-7, 0x1.da18200000000p-4, -0x1.653fbc0000000p-3, 0x1.2d7d140000000p-3, -0x1.f6e5000000000p-5, -0x1.5202100000000p-6, -0x1.2bcadc0000000p-4, 0x1.1276180000000p-4, 0x1.8e98600000000p-4, -0x1.8edf000000000p-10, 0x1.288df80000000p-4, 0x1.06f6400000000p-4, 0x1.8e88240000000p-3}
, {0x1.94b9f00000000p-6, 0x1.6382c40000000p-3, 0x1.358a200000000p-4, 0x1.9c82180000000p-3, -0x1.282c9e0000000p-3, 0x1.2272f40000000p-3, 0x1.9201500000000p-4, 0x1.155f780000000p-3, 0x1.a358a80000000p-4, -0x1.15f0660000000p-3, -0x1.25b6000000000p-4, -0x1.783bfc0000000p-4, -0x1.02d4be0000000p-3, 0x1.62bf400000000p-5, 0x1.7a09940000000p-3, 0x1.2eaebc0000000p-3}
, {-0x1.dced7e0000000p-4, 0x1.e155b00000000p-5, 0x1.278ed00000000p-4, 0x1.b979800000000p-5, 0x1.17ede00000000p-4, -0x1.3974100000000p-5, 0x1.3193d00000000p-4, 0x1.9a28940000000p-3, -0x1.427a200000000p-6, -0x1.56beb00000000p-3, 0x1.e331e80000000p-4, -0x1.1071ac0000000p-3, 0x1.14b8780000000p-4, -0x1.39c9700000000p-4, -0x1.05d4880000000p-3, 0x1.1fc4b80000000p-5}
}
, {{0x1.477bc80000000p-4, 0x1.de44d80000000p-4, -0x1.715a560000000p-4, -0x1.4b1b5e0000000p-4, -0x1.2c11340000000p-3, 0x1.74267c0000000p-3, -0x1.d50d340000000p-4, 0x1.3adc000000000p-11, -0x1.e71c020000000p-4, 0x1.bae0b00000000p-6, 0x1.5ae0c80000000p-4, 0x1.46005c0000000p-3, 0x1.90c9100000000p-5, -0x1.3a838c0000000p-3, -0x1.17f0200000000p-6, -0x1.c18c480000000p-5}
, {0x1.888c100000000p-5, -0x1.c6dba00000000p-6, -0x1.bd4d880000000p-5, -0x1.0e57000000000p-8, 0x1.06c7d00000000p-4, -0x1.795b300000000p-6, -0x1.981b700000000p-5, -0x1.5724440000000p-4, 0x1.df06100000000p-5, 0x1.085bb80000000p-5, -0x1.0bee180000000p-5, -0x1.34d4900000000p-5, 0x1.65b5e00000000p-4, -0x1.3091b60000000p-3, -0x1.4526580000000p-5, -0x1.456a760000000p-3}
, {-0x1.5208380000000p-3, 0x1.5033200000000p-6, 0x1.0774b00000000p-3, 0x1.a00d880000000p-3, 0x1.996be80000000p-3, -0x1.ef17f00000000p-5, -0x1.335b480000000p-3, -0x1.8bee5c0000000p-4, -0x1.2205f80000000p-5, -0x1.4deb800000000p-7, -0x1.e3d6d80000000p-4, -0x1.8dc2e00000000p-3, 0x1.53e5ec0000000p-3, 0x1.7cb1e80000000p-4, 0x1.571fa80000000p-3, 0x1.861cd00000000p-3}
}
, {{0x1.60def80000000p-3, 0x1.8fc7900000000p-3, 0x1.8c90b00000000p-4, -0x1.d761dc0000000p-4, -0x1.5a72360000000p-4, 0x1.db89000000000p-6, 0x1.5052800000000p-3, -0x1.0cfae80000000p-3, 0x1.4ac1d80000000p-3, -0x1.3cc6a40000000p-4, 0x1.189c200000000p-4, 0x1.7953400000000p-3, -0x1.52df580000000p-5, 0x1.a97a480000000p-4, 0x1.4ce7280000000p-5, 0x1.3eb9f00000000p-6}
, {0x1.53138c0000000p-3, 0x1.9f25240000000p-3, 0x1.461c280000000p-3, 0x1.29f3180000000p-3, -0x1.771aca0000000p-3, 0x1.1e630c0000000p-3, 0x1.6de3500000000p-4, 0x1.79f3b00000000p-6, -0x1.b72e0e0000000p-4, 0x1.0105200000000p-4, 0x1.42bf600000000p-4, -0x1.8ff8c20000000p-4, 0x1.17ea380000000p-3, -0x1.4c3d260000000p-3, 0x1.179fc80000000p-3, 0x1.47cc800000000p-4}
, {0x1.92b2f00000000p-3, -0x1.503c320000000p-3, 0x1.6704c00000000p-4, -0x1.7862d00000000p-4, 0x1.6744880000000p-3, 0x1.4013b80000000p-5, 0x1.dd61480000000p-4, 0x1.74e3880000000p-3, 0x1.0e98600000000p-6, -0x1.801ce80000000p-3, 0x1.b9d1900000000p-4, 0x1.1a9b380000000p-3, 0x1.2908280000000p-3, -0x1.18e86c0000000p-4, 0x1.0bfdf00000000p-6, 0x1.5a7db00000000p-3}
}
, {{-0x1.1b17440000000p-4, 0x1.da19000000000p-9, -0x1.492b000000000p-7, -0x1.8b36580000000p-4, 0x1.1d4e7c0000000p-3, 0x1.3be4000000000p-3, -0x1.9c956a0000000p-3, 0x1.9c0fdc0000000p-3, -0x1.156cf80000000p-3, 0x1.08b8800000000p-5, 0x1.4ddca00000000p-3, -0x1.2028940000000p-4, 0x1.14f4840000000p-3, 0x1.0cd4180000000p-4, 0x1.3ba4080000000p-3, 0x1.b735c00000000p-4}
, {-0x1.3545c40000000p-3, 0x1.05fde00000000p-7, 0x1.ccf8400000000p-6, 0x1.a5fc600000000p-4, 0x1.19d0380000000p-4, -0x1.5236a00000000p-5, 0x1.d0b2600000000p-7, 0x1.777e580000000p-3, -0x1.529af40000000p-3, 0x1.6df9800000000p-9, 0x1.85f4480000000p-4, -0x1.a3f08a0000000p-4, 0x1.8d80700000000p-4, 0x1.df90080000000p-4, 0x1.7d3de80000000p-3, 0x1.2ad7140000000p-3}
, {0x1.8aae300000000p-5, -0x1.f0c2440000000p-4, -0x1.5998680000000p-3, -0x1.82c1380000000p-3, -0x1.36f88c0000000p-3, 0x1.cfb8e00000000p-5, -0x1.2a5a000000000p-7, 0x1.4220200000000p-4, 0x1.2012300000000p-6, 0x1.9e19e40000000p-3, 0x1.d1a8300000000p-4, 0x1.3d8c8c0000000p-3, -0x1.68adee0000000p-4, 0x1.8dcc380000000p-3, 0x1.290d700000000p-5, 0x1.5a6d000000000p-10}
}
, {{-0x1.2106900000000p-3, -0x1.9990d40000000p-3, 0x1.3db1a00000000p-6, -0x1.abb1980000000p-4, -0x1.d730500000000p-5, 0x1.4926dc0000000p-3, -0x1.9f9a0c0000000p-3, -0x1.7437520000000p-3, -0x1.9f95400000000p-3, -0x1.a187ee0000000p-3, -0x1.0a83040000000p-4, 0x1.0035e00000000p-4, -0x1.024bc00000000p-3, -0x1.50a2840000000p-3, -0x1.052a300000000p-3, 0x1.1404600000000p-7}
, {-0x1.183f5c0000000p-4, -0x1.4586fc0000000p-3, -0x1.d238c60000000p-4, 0x1.7713000000000p-3, 0x1.e6b8900000000p-5, 0x1.35a1c00000000p-3, 0x1.54aed80000000p-3, 0x1.af92400000000p-7, 0x1.0f82c00000000p-6, 0x1.892b080000000p-4, 0x1.419b080000000p-4, 0x1.1d33b00000000p-4, 0x1.4f10000000000p-3, -0x1.34be3a0000000p-3, -0x1.8f4f960000000p-3, 0x1.21e7080000000p-3}
, {-0x1.6d416c0000000p-3, 0x1.1f3f400000000p-8, 0x1.9e45ec0000000p-3, 0x1.6fc3a40000000p-3, -0x1.3312740000000p-3, -0x1.96484c0000000p-4, -0x1.4e89800000000p-5, -0x1.8c3fe00000000p-6, -0x1.1da7d40000000p-4, 0x1.164be40000000p-3, -0x1.83f3be0000000p-3, 0x1.ffdb800000000p-8, -0x1.50f5400000000p-6, 0x1.5915a00000000p-4, -0x1.6e36b40000000p-4, -0x1.fd39a60000000p-4}
}
, {{0x1.073f300000000p-4, -0x1.350e800000000p-3, 0x1.19a90c0000000p-3, 0x1.c317680000000p-4, -0x1.49ade40000000p-3, -0x1.5bc0840000000p-4, 0x1.87bb980000000p-3, 0x1.7105fc0000000p-3, 0x1.9917f80000000p-3, 0x1.8303d80000000p-3, 0x1.170cd00000000p-3, -0x1.85cf940000000p-3, -0x1.8875d40000000p-3, 0x1.4492980000000p-3, 0x1.372bb00000000p-3, 0x1.225c900000000p-4}
, {-0x1.49b76e0000000p-3, -0x1.046d800000000p-3, -0x1.3ce9460000000p-3, -0x1.3c21380000000p-5, 0x1.15f5f40000000p-3, -0x1.c0f7c00000000p-7, -0x1.429ee00000000p-4, 0x1.3111b00000000p-6, -0x1.d4f01e0000000p-4, 0x1.fa94900000000p-6, 0x1.82dbbc0000000p-3, 0x1.80b27c0000000p-3, -0x1.a030f20000000p-3, 0x1.bcff680000000p-4, -0x1.9fad220000000p-3, -0x1.986b4c0000000p-3}
, {0x1.2708300000000p-5, -0x1.b1a0000000000p-10, -0x1.5f48800000000p-3, 0x1.27e7300000000p-4, -0x1.34d86c0000000p-4, -0x1.92e6f80000000p-3, -0x1.8e82520000000p-3, -0x1.f3cd280000000p-4, -0x1.8a74800000000p-3, -0x1.163c0c0000000p-4, -0x1.2b5ad00000000p-3, -0x1.c99a160000000p-4, -0x1.881b1a0000000p-3, -0x1.9e4f440000000p-3, -0x1.8edbc00000000p-4, -0x1.799b540000000p-3}
}
, {{-0x1.3c24c00000000p-3, 0x1.572cf00000000p-3, 0x1.f99b800000000p-7, 0x1.6956c80000000p-4, 0x1.30a26c0000000p-3, 0x1.af4e600000000p-4, 0x1.8848000000000p-6, 0x1.6ed0800000000p-8, -0x1.9bc3fc0000000p-3, 0x1.719ae40000000p-3, -0x1.76328c0000000p-3, -0x1.7d802c0000000p-3, -0x1.0b44100000000p-4, -0x1.445c600000000p-4, 0x1.2781700000000p-6, -0x1.44ceaa0000000p-3}
, {-0x1.88468e0000000p-4, 0x1.05850c0000000p-3, -0x1.788bb20000000p-4, 0x1.f5d5700000000p-5, 0x1.2d52c80000000p-4, -0x1.8474b80000000p-3, -0x1.0e97ac0000000p-4, 0x1.144d500000000p-4, 0x1.f96d300000000p-6, 0x1.7b17640000000p-3, 0x1.25e5500000000p-3, 0x1.5e02f80000000p-3, -0x1.a18ed20000000p-4, -0x1.24cf580000000p-4, 0x1.7791cc0000000p-3, -0x1.4e8f5c0000000p-3}
, {-0x1.6f35b40000000p-3, -0x1.993ed20000000p-4, 0x1.f25fd00000000p-4, 0x1.226e7c0000000p-3, -0x1.7d4be00000000p-5, -0x1.74b7e60000000p-4, 0x1.2972180000000p-3, -0x1.1e82680000000p-3, 0x1.3535680000000p-3, -0x1.8238d80000000p-3, -0x1.70c10a0000000p-4, 0x1.5da2a00000000p-6, 0x1.983ea40000000p-3, -0x1.fc0bcc0000000p-4, -0x1.29f4d40000000p-3, -0x1.3a34580000000p-5}
}
, {{0x1.8682400000000p-4, -0x1.272d700000000p-4, -0x1.9449480000000p-5, 0x1.5e9af80000000p-4, 0x1.98f0080000000p-4, -0x1.2267ee0000000p-3, 0x1.811f300000000p-4, 0x1.fffd500000000p-6, -0x1.7184e00000000p-6, -0x1.7901ee0000000p-3, 0x1.354a080000000p-3, -0x1.0b23620000000p-3, 0x1.6860600000000p-5, -0x1.0864000000000p-10, -0x1.5bce380000000p-3, 0x1.75e1e40000000p-3}
, {-0x1.3b51400000000p-3, -0x1.96c9f80000000p-3, 0x1.6efec00000000p-4, 0x1.47e8500000000p-5, -0x1.0682d40000000p-3, 0x1.b815f00000000p-5, -0x1.ef8ac60000000p-4, -0x1.c034060000000p-4, 0x1.7e44f40000000p-3, -0x1.7f5cc00000000p-3, -0x1.6af0e00000000p-4, -0x1.0250e00000000p-7, -0x1.1fa9800000000p-9, -0x1.7a85680000000p-5, 0x1.3e50340000000p-3, 0x1.5319b00000000p-6}
, {0x1.7d29d80000000p-3, -0x1.b81b080000000p-5, -0x1.0bc72c0000000p-3, -0x1.d8e7b00000000p-5, -0x1.456a200000000p-4, 0x1.63894c0000000p-3, -0x1.cd43600000000p-7, -0x1.4d196c0000000p-3, 0x1.4b85480000000p-3, -0x1.94d8f80000000p-5, 0x1.7ec5180000000p-4, -0x1.1021060000000p-3, -0x1.76e5000000000p-7, -0x1.6bd7aa0000000p-3, 0x1.e3b8400000000p-5, -0x1.23e6200000000p-7}
}
, {{0x1.52a5d40000000p-3, 0x1.61ef840000000p-3, -0x1.8f1d4c0000000p-3, 0x1.148b400000000p-3, 0x1.3f1ecc0000000p-3, -0x1.238da40000000p-4, 0x1.ed77200000000p-7, -0x1.9af4600000000p-6, 0x1.2b69880000000p-4, -0x1.5664a60000000p-3, -0x1.2c8f040000000p-4, 0x1.1b7b580000000p-4, -0x1.a0a9e00000000p-7, -0x1.941eaa0000000p-3, -0x1.32103e0000000p-3, 0x1.05b6cc0000000p-3}
, {0x1.5af4340000000p-3, 0x1.d378e00000000p-5, -0x1.7e03ae0000000p-4, 0x1.7991900000000p-3, 0x1.3294900000000p-3, -0x1.9b59f80000000p-4, 0x1.3b65b80000000p-3, 0x1.8360b80000000p-3, -0x1.8e94de0000000p-4, -0x1.2ac3b60000000p-3, -0x1.da08780000000p-4, 0x1.ea77f00000000p-4, 0x1.2367380000000p-5, 0x1.5d2e3c0000000p-3, 0x1.6eb6c00000000p-4, -0x1.a073b20000000p-4}
, {-0x1.7987600000000p-3, 0x1.95f6580000000p-3, 0x1.5f88880000000p-5, -0x1.d07cc00000000p-8, -0x1.086dc00000000p-7, -0x1.9f9b540000000p-3, 0x1.831d700000000p-3, 0x1.7ebd340000000p-3, 0x1.0457f00000000p-3, 0x1.b06fb80000000p-4, -0x1.1ae7400000000p-8, -0x1.1751680000000p-5, 0x1.9fa50c0000000p-3, -0x1.6bca640000000p-3, 0x1.fca8700000000p-5, 0x1.346c800000000p-4}
}
, {{-0x1.2e88460000000p-3, 0x1.93c7400000000p-5, -0x1.e303d40000000p-4, 0x1.2043600000000p-7, 0x1.2665440000000p-3, -0x1.0223400000000p-4, 0x1.a381600000000p-7, 0x1.055f480000000p-4, -0x1.4b9dc20000000p-4, 0x1.c6f2c00000000p-4, 0x1.94a0340000000p-3, -0x1.17ea980000000p-4, -0x1.0e3d0c0000000p-4, 0x1.852f280000000p-3, 0x1.8c42400000000p-8, 0x1.e98a700000000p-6}
, {0x1.d5cc680000000p-4, 0x1.6706200000000p-4, -0x1.1bdda80000000p-3, 0x1.52d3d40000000p-3, 0x1.08b1d80000000p-3, -0x1.2088a60000000p-3, 0x1.989de00000000p-7, -0x1.6073640000000p-3, -0x1.4fd6640000000p-3, -0x1.2270c80000000p-4, -0x1.0152480000000p-3, -0x1.8b604a0000000p-3, 0x1.4ea54c0000000p-3, 0x1.354dd80000000p-3, 0x1.81b4a00000000p-7, -0x1.521cc20000000p-4}
, {0x1.8772d00000000p-4, -0x1.50837c0000000p-3, 0x1.4e02800000000p-5, 0x1.080bdc0000000p-3, 0x1.5bab080000000p-5, -0x1.9f5d480000000p-5, -0x1.6c05e00000000p-3, -0x1.1e93ac0000000p-3, -0x1.b4a0900000000p-6, 0x1.1e5a500000000p-6, -0x1.4a9bb00000000p-5, 0x1.2064340000000p-3, 0x1.6780d80000000p-4, -0x1.1d69700000000p-5, 0x1.e35a400000000p-5, 0x1.3354600000000p-5}
}
, {{0x1.5ff1a80000000p-4, -0x1.5843780000000p-3, 0x1.7e05000000000p-10, 0x1.6003940000000p-3, -0x1.f914d00000000p-6, -0x1.e341800000000p-6, 0x1.582e180000000p-3, 0x1.86b4940000000p-3, -0x1.e23fec0000000p-4, -0x1.2d73880000000p-3, 0x1.293e700000000p-5, -0x1.d007e00000000p-5, -0x1.6680220000000p-3, 0x1.0366480000000p-4, -0x1.762dc00000000p-3, 0x1.9579000000000p-6}
, {0x1.b5fd180000000p-4, -0x1.2ee7300000000p-5, -0x1.76c0e60000000p-3, -0x1.c1a1c40000000p-4, -0x1.89a76e0000000p-3, -0x1.ae5d600000000p-6, -0x1.c1b0340000000p-4, 0x1.4c41a00000000p-5, 0x1.01f0800000000p-6, -0x1.0221380000000p-4, 0x1.39f7000000000p-3, 0x1.406ca00000000p-3, -0x1.b428a00000000p-4, -0x1.8e94000000000p-7, -0x1.0b25400000000p-5, -0x1.299dac0000000p-3}
, {0x1.20ee140000000p-3, -0x1.ba17d00000000p-5, -0x1.84b5120000000p-3, 0x1.3a79d80000000p-3, -0x1.3865980000000p-3, -0x1.4f28040000000p-3, 0x1.435fb00000000p-5, -0x1.928f660000000p-4, -0x1.6e842a0000000p-4, 0x1.b168800000000p-4, 0x1.03bd800000000p-3, 0x1.a79a000000000p-5, 0x1.2467300000000p-3, -0x1.5563a80000000p-5, -0x1.6729400000000p-7, -0x1.702ab40000000p-3}
}
, {{-0x1.9fee7c0000000p-3, 0x1.1c47f80000000p-4, -0x1.002a4c0000000p-4, -0x1.20714c0000000p-4, -0x1.21c01c0000000p-3, 0x1.5ca1840000000p-3, 0x1.c32a980000000p-4, -0x1.9604a20000000p-4, -0x1.d6ff100000000p-4, 0x1.6e0e980000000p-4, 0x1.8782200000000p-3, 0x1.89aec00000000p-5, -0x1.5ce4700000000p-3, 0x1.0a95e00000000p-6, -0x1.e233e00000000p-4, -0x1.7757920000000p-4}
, {-0x1.0e79e60000000p-3, -0x1.53d2e00000000p-6, -0x1.c075900000000p-5, 0x1.78ee980000000p-3, -0x1.2493680000000p-3, 0x1.1c46a80000000p-3, 0x1.23a4440000000p-3, -0x1.7429c00000000p-7, 0x1.40c8bc0000000p-3, -0x1.93a2b60000000p-4, -0x1.177acc0000000p-4, 0x1.85db080000000p-4, -0x1.24fe020000000p-3, -0x1.e87d300000000p-6, -0x1.c92f480000000p-4, 0x1.ab4c680000000p-4}
, {0x1.8b56080000000p-3, 0x1.d03f000000000p-5, -0x1.97b8ec0000000p-3, 0x1.0e38c00000000p-3, -0x1.4c6fc00000000p-4, 0x1.55f6b00000000p-4, 0x1.09d2d00000000p-3, -0x1.98b5a60000000p-4, 0x1.3359e80000000p-4, -0x1.7b6a7c0000000p-4, -0x1.10efa40000000p-3, -0x1.586c0a0000000p-3, 0x1.966bf80000000p-3, 0x1.9d1f800000000p-5, 0x1.95e0080000000p-4, -0x1.76c5840000000p-3}
}
, {{-0x1.7ea56c0000000p-3, 0x1.496e380000000p-3, 0x1.03bdac0000000p-3, -0x1.a2f1540000000p-4, -0x1.724ce00000000p-7, 0x1.b686b80000000p-4, -0x1.78a1ea0000000p-3, 0x1.408aa00000000p-5, -0x1.371fdc0000000p-4, 0x1.ab79800000000p-9, 0x1.869c680000000p-4, -0x1.36ec880000000p-4, -0x1.421ff80000000p-4, 0x1.974c400000000p-4, -0x1.f270400000000p-5, 0x1.3aea940000000p-3}
, {-0x1.30dea40000000p-3, 0x1.fe3f200000000p-6, 0x1.d67e500000000p-4, 0x1.a670680000000p-4, -0x1.69d6ba0000000p-3, -0x1.4ec3760000000p-3, 0x1.9bbb9c0000000p-3, 0x1.0a34300000000p-4, -0x1.4b09c00000000p-8, -0x1.a433cc0000000p-4, -0x1.1a11e40000000p-4, 0x1.4f3a800000000p-9, 0x1.5b9ca40000000p-3, 0x1.e617300000000p-4, -0x1.187bc80000000p-3, 0x1.8c09800000000p-5}
, {-0x1.248f480000000p-5, -0x1.7437d00000000p-6, 0x1.da70600000000p-4, 0x1.bce4d00000000p-4, 0x1.9307c80000000p-4, -0x1.3e61240000000p-3, 0x1.d61a000000000p-8, 0x1.1587d40000000p-3, 0x1.3d4ad00000000p-3, -0x1.2d3fd80000000p-3, 0x1.6e73bc0000000p-3, 0x1.3cc14c0000000p-3, -0x1.45fd820000000p-3, 0x1.04a5900000000p-6, -0x1.5c60fc0000000p-3, -0x1.2fed680000000p-5}
}
, {{0x1.ece4e00000000p-5, 0x1.7f5b380000000p-3, -0x1.38ae8c0000000p-3, 0x1.fc15980000000p-4, -0x1.e334760000000p-4, 0x1.7166b00000000p-3, 0x1.6ead600000000p-7, -0x1.11c89c0000000p-3, 0x1.0b0ef80000000p-3, 0x1.3278080000000p-3, -0x1.f19ad80000000p-5, -0x1.967e300000000p-5, 0x1.894bd80000000p-4, -0x1.0dd1e00000000p-5, -0x1.d799f00000000p-5, 0x1.31b09c0000000p-3}
, {0x1.8122cc0000000p-3, 0x1.6700080000000p-4, -0x1.80f1000000000p-6, -0x1.382a000000000p-6, -0x1.c755820000000p-4, 0x1.76e8480000000p-4, -0x1.0138b00000000p-3, 0x1.03b3580000000p-5, -0x1.553d140000000p-4, -0x1.376fbc0000000p-4, -0x1.1787800000000p-9, 0x1.2c7a980000000p-4, -0x1.8657100000000p-3, 0x1.3f86280000000p-4, 0x1.5396740000000p-3, 0x1.07d4580000000p-4}
, {-0x1.2709000000000p-9, 0x1.4bf9680000000p-3, -0x1.9bb9800000000p-4, -0x1.0b6be60000000p-3, 0x1.22f6880000000p-4, 0x1.f479d00000000p-5, -0x1.6ba2620000000p-3, -0x1.5011000000000p-6, 0x1.9925c80000000p-4, 0x1.91d3700000000p-5, -0x1.e148e20000000p-4, -0x1.34dfe00000000p-4, 0x1.3800f00000000p-6, -0x1.cd9c440000000p-4, 0x1.3bc2300000000p-3, -0x1.7443020000000p-3}
}
, {{0x1.68d8e40000000p-3, 0x1.033f800000000p-3, 0x1.131ec40000000p-3, 0x1.34c9f00000000p-5, -0x1.b416f80000000p-4, 0x1.f7c1400000000p-5, 0x1.99fba40000000p-3, 0x1.b692300000000p-5, 0x1.6111c80000000p-4, -0x1.961d400000000p-3, -0x1.231a000000000p-3, -0x1.23e3bc0000000p-4, -0x1.52e5340000000p-4, 0x1.3ba99c0000000p-3, -0x1.bc67600000000p-5, 0x1.3051800000000p-5}
, {-0x1.3db8f00000000p-5, -0x1.b53aa80000000p-5, 0x1.f6d5600000000p-5, -0x1.0475800000000p-8, -0x1.6f92f00000000p-4, 0x1.e402700000000p-5, 0x1.7daa740000000p-3, 0x1.95598c0000000p-3, -0x1.10e7ca0000000p-3, 0x1.2e99200000000p-4, 0x1.75ee000000000p-11, -0x1.4c1e8e0000000p-3, -0x1.6233ee0000000p-3, -0x1.fc29000000000p-9, 0x1.5867480000000p-4, -0x1.a52b180000000p-5}
, {0x1.9f08580000000p-4, -0x1.aa24000000000p-5, 0x1.3220840000000p-3, -0x1.a275fe0000000p-4, -0x1.05048c0000000p-4, -0x1.64670e0000000p-4, -0x1.9fdeb00000000p-4, 0x1.8c08840000000p-3, -0x1.060f640000000p-3, -0x1.10450c0000000p-3, 0x1.77bed80000000p-4, -0x1.6596140000000p-3, 0x1.9ac44c0000000p-3, 0x1.fb31f00000000p-6, -0x1.8202300000000p-3, -0x1.d4479e0000000p-4}
}
, {{-0x1.1ff8400000000p-3, 0x1.fe03800000000p-7, -0x1.3373280000000p-4, -0x1.1df9620000000p-3, -0x1.09c4e00000000p-4, -0x1.48a1cc0000000p-3, -0x1.693c760000000p-4, 0x1.27a0400000000p-4, 0x1.97a8300000000p-3, 0x1.0276580000000p-4, -0x1.56240a0000000p-3, -0x1.0778220000000p-3, 0x1.e45c800000000p-7, 0x1.46cd0c0000000p-3, 0x1.00cc300000000p-4, 0x1.c34ae00000000p-5}
, {-0x1.463acc0000000p-3, -0x1.2519b80000000p-3, 0x1.97f1700000000p-4, -0x1.3984f40000000p-4, 0x1.88c75c0000000p-3, 0x1.5fd8980000000p-4, -0x1.4a975a0000000p-3, -0x1.aab0600000000p-6, 0x1.3fbca40000000p-3, 0x1.484a340000000p-3, -0x1.0b56360000000p-3, -0x1.04cae00000000p-5, -0x1.7735a20000000p-4, -0x1.6de2400000000p-3, -0x1.a269700000000p-5, -0x1.9472800000000p-5}
, {-0x1.ab30000000000p-8, -0x1.ec1ec80000000p-5, 0x1.f04a200000000p-4, -0x1.2f50940000000p-4, -0x1.5bbf220000000p-4, -0x1.88c7d60000000p-3, 0x1.7dfd880000000p-3, 0x1.a85e200000000p-6, 0x1.1600c00000000p-4, 0x1.3ca6bc0000000p-3, -0x1.04cfa00000000p-4, 0x1.9938000000000p-11, 0x1.571d900000000p-3, 0x1.9569b80000000p-3, -0x1.68b9340000000p-3, -0x1.29862c0000000p-4}
}
, {{-0x1.5d83660000000p-3, 0x1.c245c00000000p-7, -0x1.3598000000000p-3, -0x1.088df00000000p-4, 0x1.0d97600000000p-6, -0x1.79011e0000000p-3, -0x1.21bdd00000000p-6, -0x1.5444880000000p-3, -0x1.303bee0000000p-3, -0x1.91ff0e0000000p-3, -0x1.768e4c0000000p-3, -0x1.8ebdf80000000p-3, -0x1.ce5e640000000p-4, -0x1.6cd2f80000000p-5, -0x1.530c440000000p-3, 0x1.af89800000000p-5}
, {-0x1.7c5e280000000p-5, 0x1.02fa9c0000000p-3, -0x1.3782600000000p-7, -0x1.ffa4000000000p-12, -0x1.35b9460000000p-3, 0x1.90df080000000p-3, 0x1.078d900000000p-3, 0x1.d725000000000p-8, 0x1.9ba4180000000p-3, -0x1.81707e0000000p-4, 0x1.444c780000000p-5, 0x1.b4bc800000000p-5, 0x1.5e77a80000000p-4, -0x1.75a4800000000p-8, 0x1.21d8ec0000000p-3, -0x1.50efcc0000000p-3}
, {0x1.dd14980000000p-4, -0x1.425da80000000p-5, 0x1.7869100000000p-6, 0x1.2653380000000p-5, -0x1.1cc80a0000000p-3, -0x1.68ce960000000p-3, -0x1.1a28180000000p-4, -0x1.e645ae0000000p-4, -0x1.038ac40000000p-3, 0x1.5cd9b80000000p-3, -0x1.6b28d80000000p-5, 0x1.82b4180000000p-4, 0x1.0291280000000p-3, 0x1.d7bb300000000p-5, -0x1.7d14e00000000p-3, -0x1.ae3db80000000p-4}
}
, {{-0x1.4fbd500000000p-6, -0x1.8e9c780000000p-3, -0x1.70f1800000000p-7, 0x1.0242100000000p-5, 0x1.745ad80000000p-3, 0x1.97d1200000000p-4, -0x1.77de100000000p-3, -0x1.0c88e00000000p-7, 0x1.9299f00000000p-5, -0x1.60636c0000000p-3, 0x1.1cfc8c0000000p-3, 0x1.0701c80000000p-4, 0x1.8ef8380000000p-3, 0x1.108e400000000p-3, 0x1.097f240000000p-3, 0x1.47e9a00000000p-7}
, {-0x1.24cf700000000p-3, -0x1.30a5340000000p-4, -0x1.40cc260000000p-3, 0x1.84bde00000000p-3, 0x1.58be040000000p-3, -0x1.00df1c0000000p-4, -0x1.4ef0b00000000p-5, 0x1.e392f80000000p-4, 0x1.8b35a00000000p-5, -0x1.7ab3200000000p-5, 0x1.39009c0000000p-3, -0x1.1d14200000000p-6, -0x1.d330600000000p-7, 0x1.ae8a500000000p-4, 0x1.bf72500000000p-6, -0x1.77f9700000000p-6}
, {0x1.6b0bc00000000p-7, 0x1.7759f80000000p-4, -0x1.6d3d500000000p-3, 0x1.33a3bc0000000p-3, 0x1.e3c8600000000p-5, -0x1.54294e0000000p-3, 0x1.49a1580000000p-4, -0x1.8e9f060000000p-3, 0x1.cec7400000000p-7, 0x1.42dc180000000p-3, 0x1.2644dc0000000p-3, -0x1.c07f200000000p-6, -0x1.05bd640000000p-3, -0x1.86f01c0000000p-3, -0x1.3757d80000000p-4, -0x1.16e7600000000p-7}
}
, {{0x1.355c800000000p-5, 0x1.6b833c0000000p-3, -0x1.33fee80000000p-3, 0x1.4356980000000p-3, 0x1.7a82900000000p-6, -0x1.0dbdcc0000000p-3, 0x1.5a6fd80000000p-3, -0x1.7c3fe00000000p-3, -0x1.98f0700000000p-3, -0x1.54d5460000000p-4, -0x1.2d0df00000000p-5, -0x1.ac99400000000p-6, -0x1.80e5900000000p-3, 0x1.2e2b040000000p-3, 0x1.c526000000000p-9, 0x1.7286f80000000p-3}
, {0x1.366fb80000000p-4, -0x1.33cb300000000p-4, 0x1.7e52600000000p-5, 0x1.9b5c400000000p-5, -0x1.13ee280000000p-3, -0x1.7230d00000000p-5, 0x1.78f4980000000p-3, -0x1.0dc1e80000000p-3, -0x1.6c0eb00000000p-5, -0x1.0640d80000000p-3, 0x1.b978d00000000p-5, 0x1.53d3c80000000p-3, 0x1.dff9d00000000p-4, -0x1.e464980000000p-5, -0x1.85e03e0000000p-4, 0x1.8370200000000p-4}
, {-0x1.1062b80000000p-3, -0x1.8737ba0000000p-4, 0x1.c757800000000p-7, -0x1.b2e6380000000p-5, 0x1.63b0800000000p-3, 0x1.3078d00000000p-3, -0x1.cf4b6e0000000p-4, 0x1.91cf1c0000000p-3, -0x1.4fe6d20000000p-3, -0x1.97cd000000000p-10, -0x1.7260100000000p-6, -0x1.f4c06a0000000p-4, -0x1.713b300000000p-3, 0x1.58f8380000000p-3, 0x1.4b02100000000p-6, 0x1.3488b80000000p-5}
}
, {{0x1.9e81c40000000p-3, -0x1.93110a0000000p-3, 0x1.f8ff100000000p-4, -0x1.38e1500000000p-6, 0x1.9cff980000000p-4, -0x1.bc89420000000p-4, -0x1.0a6b700000000p-3, 0x1.ff21f00000000p-6, 0x1.d1ebe80000000p-4, -0x1.43cf740000000p-3, 0x1.1b4fe80000000p-3, 0x1.7463700000000p-4, -0x1.65c6fe0000000p-3, 0x1.f61a400000000p-4, 0x1.1cbb140000000p-3, 0x1.6b6bb00000000p-3}
, {0x1.9cc4300000000p-3, -0x1.9c6a040000000p-4, 0x1.a44d380000000p-4, 0x1.ad34e00000000p-4, -0x1.a0c9f80000000p-3, -0x1.e87bc00000000p-5, 0x1.8d23900000000p-3, -0x1.86aa400000000p-7, -0x1.c58e500000000p-4, -0x1.c785e00000000p-5, 0x1.e0c3c00000000p-5, -0x1.5a2ce00000000p-7, -0x1.2604000000000p-3, -0x1.dbd9fa0000000p-4, -0x1.090c800000000p-6, 0x1.b749c00000000p-8}
, {0x1.bf73780000000p-4, -0x1.821fc80000000p-4, 0x1.0db0280000000p-4, 0x1.1b6bf00000000p-4, 0x1.5368680000000p-5, 0x1.9223b00000000p-5, -0x1.5b4b800000000p-4, -0x1.8adc800000000p-3, -0x1.fb1be00000000p-6, -0x1.2c23c60000000p-3, -0x1.78e9080000000p-3, -0x1.8348f00000000p-5, 0x1.46dae00000000p-5, -0x1.1d8e380000000p-4, -0x1.c38b000000000p-4, -0x1.ade5700000000p-5}
}
}
;

#undef INPUT_CHANNELS
#undef CONV_FILTERS
#undef CONV_KERNEL_SIZE
#undef CONV_GROUPS