/**
  ******************************************************************************
  * @file    weights/conv1d.cc
  * @author  Pierre-Emmanuel Novac <penovac@unice.fr>, LEAT, CNRS, Université Côte d'Azur, France
  * @version 1.0.0
  * @date    24 march 2020
  * @brief   Template generating plain C code for the implementation of Convolutional Neural Networks on MCU
  */

#include <stdint.h>

#define INPUT_CHANNELS    1
#define CONV_FILTERS      10
#define CONV_KERNEL_SIZE  80
#define CONV_GROUPS       1


const float  conv1d_44_bias[CONV_FILTERS] = {0x1.f560d40000000p-2, -0x1.efadea0000000p-5, -0x1.4d63020000000p-3, -0x1.4056fa0000000p-5, -0x1.736f8e0000000p-5, -0x1.9bd6420000000p-6, -0x1.dfbc540000000p-5, 0x1.aaa14e0000000p-2, 0x1.4771320000000p-6, 0x1.1a464a0000000p-3}
;

const float  conv1d_44_kernel[CONV_FILTERS][CONV_KERNEL_SIZE][INPUT_CHANNELS / CONV_GROUPS] = {{{-0x1.8b1cf20000000p-6}
, {-0x1.46fc920000000p-3}
, {-0x1.47f9980000000p-3}
, {-0x1.2167480000000p-5}
, {0x1.2a16540000000p-11}
, {-0x1.c81d860000000p-5}
, {-0x1.2b561c0000000p-3}
, {-0x1.da202c0000000p-5}
, {-0x1.11314a0000000p-4}
, {-0x1.9df9700000000p-4}
, {-0x1.20f6e20000000p-4}
, {-0x1.d38f140000000p-8}
, {-0x1.2714f00000000p-5}
, {0x1.1cb6580000000p-7}
, {-0x1.6c98da0000000p-3}
, {-0x1.32ac580000000p-4}
, {-0x1.007ea20000000p-5}
, {-0x1.3b1d0a0000000p-4}
, {-0x1.4b6c8e0000000p-4}
, {-0x1.87a5380000000p-8}
, {0x1.ebd4c40000000p-8}
, {-0x1.251cda0000000p-4}
, {-0x1.6c08500000000p-4}
, {-0x1.0f73a20000000p-3}
, {-0x1.cc45440000000p-3}
, {-0x1.26e3cc0000000p-2}
, {-0x1.6686760000000p-3}
, {-0x1.57fcba0000000p-4}
, {-0x1.70aff40000000p-5}
, {-0x1.75e9660000000p-3}
, {-0x1.9e142c0000000p-4}
, {-0x1.d9ca9c0000000p-4}
, {-0x1.25812c0000000p-4}
, {-0x1.2052ea0000000p-5}
, {-0x1.8658220000000p-4}
, {0x1.63eb580000000p-6}
, {0x1.7823320000000p-4}
, {0x1.4bf0d40000000p-7}
, {-0x1.bab8660000000p-4}
, {-0x1.02c9600000000p-2}
, {-0x1.22537c0000000p-3}
, {0x1.8497740000000p-7}
, {-0x1.ba918c0000000p-4}
, {-0x1.209c4a0000000p-3}
, {-0x1.3d767c0000000p-4}
, {-0x1.26025a0000000p-5}
, {-0x1.322c040000000p-3}
, {-0x1.43f30a0000000p-2}
, {-0x1.3d9d360000000p-2}
, {-0x1.dc06f80000000p-3}
, {-0x1.a12d260000000p-7}
, {-0x1.d7315e0000000p-7}
, {0x1.3b4aac0000000p-5}
, {0x1.72df640000000p-7}
, {0x1.3cad660000000p-3}
, {0x1.400d9a0000000p-3}
, {-0x1.8bf8040000000p-7}
, {0x1.4486e00000000p-6}
, {0x1.2ea4dc0000000p-4}
, {-0x1.6e6bf20000000p-3}
, {-0x1.d9620e0000000p-3}
, {-0x1.99c06c0000000p-3}
, {-0x1.7f37b00000000p-3}
, {-0x1.3a123e0000000p-3}
, {-0x1.08acd20000000p-6}
, {0x1.2018320000000p-4}
, {0x1.2d3ddc0000000p-4}
, {0x1.1000280000000p-7}
, {0x1.223b920000000p-4}
, {-0x1.34b3be0000000p-4}
, {-0x1.053ffc0000000p-4}
, {-0x1.7b0f320000000p-5}
, {-0x1.3f77a20000000p-4}
, {-0x1.a593dc0000000p-3}
, {-0x1.23cb500000000p-2}
, {-0x1.2c13ce0000000p-3}
, {0x1.1e05000000000p-12}
, {0x1.71759e0000000p-7}
, {0x1.a31fd00000000p-6}
, {-0x1.7722ae0000000p-5}
}
, {{-0x1.61afbc0000000p-5}
, {0x1.ef42b80000000p-6}
, {0x1.1d15e00000000p-5}
, {0x1.4c122c0000000p-7}
, {-0x1.d086280000000p-4}
, {0x1.5014b20000000p-11}
, {-0x1.edbd7e0000000p-5}
, {-0x1.4bcca00000000p-10}
, {-0x1.8d4d780000000p-4}
, {0x1.5c93b80000000p-4}
, {0x1.202e740000000p-5}
, {0x1.4a7f240000000p-3}
, {-0x1.0c927a0000000p-5}
, {-0x1.1f5bf40000000p-6}
, {0x1.30865a0000000p-5}
, {0x1.09f1320000000p-5}
, {-0x1.2ad5c60000000p-3}
, {-0x1.30fa760000000p-3}
, {-0x1.55080e0000000p-4}
, {0x1.7b54d00000000p-4}
, {0x1.ab13ca0000000p-5}
, {0x1.6eed1e0000000p-4}
, {0x1.bb7b800000000p-4}
, {0x1.fd57c40000000p-6}
, {0x1.f03a2a0000000p-4}
, {-0x1.466bac0000000p-5}
, {-0x1.54d4340000000p-2}
, {-0x1.3a5eb20000000p-2}
, {-0x1.d379e60000000p-4}
, {0x1.1122f20000000p-4}
, {0x1.3c9b460000000p-4}
, {0x1.4d5df20000000p-4}
, {0x1.04f5ae0000000p-2}
, {0x1.31d9860000000p-2}
, {0x1.0fdce40000000p-3}
, {-0x1.3a09080000000p-3}
, {-0x1.0dbacc0000000p-2}
, {-0x1.26e8e60000000p-2}
, {-0x1.50f7e00000000p-4}
, {-0x1.0b34fc0000000p-4}
, {0x1.b2f5ec0000000p-5}
, {0x1.50494c0000000p-4}
, {0x1.2b01f80000000p-3}
, {0x1.1ff1b60000000p-3}
, {0x1.50f6a60000000p-5}
, {0x1.3a670c0000000p-4}
, {-0x1.1db5580000000p-3}
, {-0x1.cebdea0000000p-3}
, {-0x1.2e93900000000p-3}
, {-0x1.0821b60000000p-4}
, {0x1.bc88ba0000000p-4}
, {0x1.60c3e60000000p-4}
, {0x1.7b04060000000p-4}
, {-0x1.31409a0000000p-5}
, {-0x1.e6d0100000000p-5}
, {-0x1.51e24a0000000p-6}
, {-0x1.b275ea0000000p-4}
, {0x1.3f0fe60000000p-6}
, {0x1.d9e0de0000000p-4}
, {0x1.d8557c0000000p-3}
, {0x1.fc27f20000000p-4}
, {-0x1.459ffa0000000p-6}
, {-0x1.807af80000000p-4}
, {-0x1.a4f35c0000000p-4}
, {-0x1.ea09f20000000p-3}
, {-0x1.68e2ea0000000p-3}
, {0x1.41bc320000000p-7}
, {0x1.df559c0000000p-4}
, {0x1.d300060000000p-3}
, {0x1.15ad760000000p-6}
, {-0x1.5e163e0000000p-3}
, {-0x1.2f307a0000000p-3}
, {0x1.79042e0000000p-4}
, {-0x1.9a79a80000000p-5}
, {0x1.0f99a80000000p-4}
, {0x1.c63fca0000000p-4}
, {0x1.e1f7ce0000000p-4}
, {-0x1.00ea9a0000000p-5}
, {-0x1.2b047e0000000p-4}
, {-0x1.41d6c80000000p-3}
}
, {{0x1.77ea860000000p-7}
, {-0x1.35e59a0000000p-4}
, {-0x1.aa7ca60000000p-4}
, {0x1.4525400000000p-4}
, {0x1.934c5e0000000p-3}
, {0x1.caedf40000000p-5}
, {-0x1.8652d40000000p-5}
, {-0x1.fc905c0000000p-5}
, {0x1.47fd080000000p-5}
, {0x1.69ead40000000p-5}
, {0x1.381dee0000000p-5}
, {-0x1.6b1fb20000000p-4}
, {-0x1.a492020000000p-6}
, {-0x1.818ce80000000p-6}
, {0x1.e938c20000000p-7}
, {-0x1.62ae120000000p-7}
, {0x1.1372880000000p-3}
, {0x1.48e0520000000p-3}
, {0x1.28a1f60000000p-4}
, {0x1.19d4fa0000000p-4}
, {-0x1.11a3f00000000p-5}
, {0x1.5ded6e0000000p-5}
, {0x1.9867b20000000p-7}
, {-0x1.dc72080000000p-4}
, {-0x1.fbdbbc0000000p-4}
, {-0x1.14ddaa0000000p-6}
, {0x1.d27adc0000000p-7}
, {0x1.cdf4a00000000p-4}
, {0x1.40d1120000000p-3}
, {0x1.2af11c0000000p-3}
, {0x1.2035540000000p-4}
, {0x1.36d33c0000000p-11}
, {-0x1.9ce00a0000000p-5}
, {0x1.8321100000000p-5}
, {0x1.25c7160000000p-5}
, {-0x1.081fca0000000p-4}
, {-0x1.bd6d400000000p-3}
, {-0x1.8a306e0000000p-3}
, {0x1.5e215e0000000p-4}
, {0x1.68dfec0000000p-3}
, {0x1.01355a0000000p-5}
, {-0x1.6dcb260000000p-5}
, {-0x1.5ebd320000000p-4}
, {0x1.6804c80000000p-3}
, {0x1.f8f65e0000000p-8}
, {0x1.10bd0c0000000p-7}
, {-0x1.91c8840000000p-4}
, {0x1.e477880000000p-5}
, {-0x1.178c5a0000000p-3}
, {-0x1.8c2dea0000000p-4}
, {-0x1.4b06680000000p-3}
, {-0x1.feb3520000000p-7}
, {-0x1.e2d1980000000p-4}
, {-0x1.410b3a0000000p-4}
, {0x1.245dca0000000p-6}
, {0x1.984ca20000000p-3}
, {-0x1.17f47c0000000p-5}
, {0x1.55ea9e0000000p-6}
, {0x1.b05c240000000p-5}
, {-0x1.d95f0c0000000p-7}
, {0x1.f458480000000p-4}
, {0x1.3c7c9c0000000p-3}
, {0x1.9258cc0000000p-4}
, {-0x1.bae3500000000p-4}
, {-0x1.a1681c0000000p-7}
, {0x1.8f38700000000p-9}
, {0x1.98d8280000000p-4}
, {-0x1.dbc4fe0000000p-4}
, {-0x1.759fec0000000p-7}
, {-0x1.ce9ab60000000p-5}
, {-0x1.2f0b7a0000000p-4}
, {-0x1.71fde40000000p-4}
, {0x1.b09db20000000p-6}
, {0x1.f4b3400000000p-11}
, {0x1.f253840000000p-6}
, {-0x1.e8cde00000000p-4}
, {0x1.460d1a0000000p-7}
, {-0x1.b61c1a0000000p-5}
, {-0x1.46f6580000000p-7}
, {0x1.0177b40000000p-4}
}
, {{-0x1.f0240c0000000p-4}
, {0x1.4ca7ce0000000p-4}
, {0x1.8083da0000000p-3}
, {-0x1.de9aae0000000p-3}
, {-0x1.45d2280000000p-4}
, {0x1.1150260000000p-3}
, {0x1.afc02c0000000p-4}
, {-0x1.56f7fc0000000p-2}
, {-0x1.cf228a0000000p-6}
, {0x1.8446a40000000p-3}
, {-0x1.0dedf40000000p-2}
, {0x1.d81f260000000p-4}
, {0x1.4a451c0000000p-3}
, {-0x1.2445980000000p-2}
, {0x1.71f4e40000000p-5}
, {-0x1.e5babc0000000p-5}
, {0x1.81bcca0000000p-5}
, {0x1.d5be6c0000000p-4}
, {-0x1.2fa79e0000000p-2}
, {0x1.707a200000000p-6}
, {0x1.0538860000000p-2}
, {-0x1.ab16a20000000p-2}
, {0x1.23684a0000000p-6}
, {0x1.85972e0000000p-3}
, {0x1.e82b200000000p-5}
, {-0x1.013e7c0000000p-2}
, {-0x1.4096180000000p-3}
, {0x1.05e94c0000000p-2}
, {-0x1.578ef00000000p-3}
, {-0x1.7a05520000000p-4}
, {0x1.3c5c040000000p-2}
, {-0x1.773f120000000p-4}
, {-0x1.93f8540000000p-3}
, {0x1.94b27a0000000p-4}
, {-0x1.2d9f1c0000000p-6}
, {-0x1.0a1ef20000000p-2}
, {0x1.07ad9e0000000p-3}
, {0x1.8e87540000000p-3}
, {-0x1.7036aa0000000p-2}
, {-0x1.01111a0000000p-3}
, {0x1.6065ae0000000p-2}
, {0x1.7c6e7e0000000p-7}
, {-0x1.2a494e0000000p-2}
, {0x1.447f2a0000000p-6}
, {0x1.0646000000000p-2}
, {-0x1.a160ca0000000p-3}
, {-0x1.295fa00000000p-3}
, {0x1.07055a0000000p-2}
, {-0x1.d8960c0000000p-3}
, {-0x1.b52d740000000p-4}
, {0x1.47b28e0000000p-3}
, {-0x1.0e18c40000000p-4}
, {-0x1.1368c20000000p-4}
, {0x1.c7e3a00000000p-3}
, {-0x1.af50160000000p-7}
, {-0x1.1327ba0000000p-2}
, {0x1.c734a80000000p-3}
, {-0x1.7e4c1c0000000p-7}
, {-0x1.1d285c0000000p-6}
, {0x1.e9ccb60000000p-3}
, {-0x1.6371fe0000000p-3}
, {-0x1.c230680000000p-4}
, {0x1.7658ba0000000p-4}
, {-0x1.c1b0400000000p-4}
, {-0x1.fe48a00000000p-10}
, {0x1.c805e60000000p-3}
, {-0x1.2755340000000p-6}
, {-0x1.d777cc0000000p-4}
, {-0x1.f2940a0000000p-4}
, {0x1.b4124c0000000p-5}
, {0x1.543a3c0000000p-4}
, {0x1.0831b40000000p-4}
, {-0x1.3c4f700000000p-3}
, {0x1.0171b60000000p-5}
, {0x1.52478c0000000p-4}
, {-0x1.23b5000000000p-3}
, {0x1.3e6b220000000p-6}
, {0x1.31db8e0000000p-4}
, {-0x1.20d6b40000000p-4}
, {-0x1.9bd24c0000000p-7}
}
, {{-0x1.dd529c0000000p-5}
, {-0x1.9fec0a0000000p-8}
, {0x1.d736660000000p-4}
, {0x1.48c8fe0000000p-5}
, {-0x1.305da80000000p-6}
, {-0x1.add2340000000p-6}
, {0x1.3adba20000000p-6}
, {0x1.cbe0ce0000000p-6}
, {0x1.56d5ae0000000p-5}
, {-0x1.f605b20000000p-6}
, {0x1.0224e00000000p-3}
, {-0x1.6b5b800000000p-5}
, {-0x1.da53ee0000000p-5}
, {0x1.2bf0140000000p-3}
, {-0x1.058ddc0000000p-3}
, {-0x1.fd8d6a0000000p-6}
, {-0x1.0d211e0000000p-2}
, {-0x1.5821e20000000p-4}
, {-0x1.877b6e0000000p-6}
, {0x1.e581ce0000000p-4}
, {0x1.aab1b20000000p-4}
, {-0x1.bd9a580000000p-5}
, {0x1.4fa3fc0000000p-5}
, {-0x1.62bb4a0000000p-3}
, {-0x1.a1c3b40000000p-3}
, {0x1.eb92e40000000p-6}
, {-0x1.1aef4e0000000p-8}
, {0x1.9d65d60000000p-3}
, {0x1.c25c160000000p-5}
, {-0x1.a8f09a0000000p-7}
, {0x1.25ba6a0000000p-5}
, {0x1.398ef00000000p-6}
, {0x1.d5b4980000000p-6}
, {-0x1.44b4200000000p-2}
, {-0x1.91422a0000000p-7}
, {-0x1.c8c55e0000000p-6}
, {0x1.e0fa8e0000000p-4}
, {0x1.12b2080000000p-3}
, {0x1.1cf5aa0000000p-4}
, {-0x1.acccc00000000p-6}
, {0x1.b272860000000p-4}
, {-0x1.a5e1520000000p-3}
, {-0x1.d1d4000000000p-3}
, {-0x1.c107120000000p-2}
, {0x1.f3fd160000000p-4}
, {0x1.1012ae0000000p-2}
, {0x1.8526f80000000p-2}
, {0x1.825f1c0000000p-3}
, {-0x1.3dfd480000000p-3}
, {-0x1.224e680000000p-1}
, {-0x1.c31f160000000p-2}
, {0x1.cddf800000000p-6}
, {0x1.5afb9a0000000p-2}
, {0x1.cab91e0000000p-2}
, {0x1.3aa36c0000000p-4}
, {-0x1.9f32f80000000p-2}
, {-0x1.51cfae0000000p-4}
, {-0x1.2517960000000p-3}
, {0x1.1fe3be0000000p-5}
, {0x1.a15d7a0000000p-5}
, {0x1.4adb460000000p-3}
, {-0x1.2e71c40000000p-8}
, {-0x1.245a340000000p-4}
, {-0x1.1a0d8a0000000p-4}
, {-0x1.d457580000000p-4}
, {0x1.037d280000000p-5}
, {0x1.2ed60e0000000p-6}
, {0x1.b0240c0000000p-7}
, {0x1.24f54e0000000p-5}
, {-0x1.c845360000000p-5}
, {0x1.ff06240000000p-7}
, {-0x1.a8b3b20000000p-5}
, {-0x1.5e2fe80000000p-9}
, {-0x1.f451b80000000p-3}
, {-0x1.67a5ee0000000p-7}
, {0x1.454d860000000p-4}
, {0x1.5e675a0000000p-4}
, {-0x1.1c88080000000p-5}
, {-0x1.c2502c0000000p-4}
, {0x1.7fa4d40000000p-4}
}
, {{-0x1.8d7b6c0000000p-4}
, {0x1.d504a40000000p-4}
, {0x1.2d990e0000000p-7}
, {0x1.666c480000000p-7}
, {-0x1.8491d20000000p-4}
, {0x1.e4d8c40000000p-5}
, {-0x1.fc17020000000p-6}
, {-0x1.41e6fe0000000p-5}
, {0x1.de4ea00000000p-5}
, {0x1.2cccf00000000p-3}
, {0x1.78de160000000p-5}
, {0x1.649be80000000p-4}
, {-0x1.dd920c0000000p-3}
, {-0x1.ff872c0000000p-4}
, {0x1.05c4ee0000000p-2}
, {0x1.393f360000000p-3}
, {0x1.29f9dc0000000p-3}
, {-0x1.6191780000000p-6}
, {0x1.18642a0000000p-7}
, {-0x1.4305fe0000000p-3}
, {-0x1.422b260000000p-4}
, {0x1.47329c0000000p-2}
, {0x1.2986360000000p-2}
, {0x1.f0d0c60000000p-4}
, {0x1.4667300000000p-4}
, {-0x1.2018a60000000p-6}
, {0x1.05f6b20000000p-7}
, {0x1.23c34c0000000p-2}
, {0x1.05823e0000000p-6}
, {0x1.f8957a0000000p-3}
, {0x1.6658f40000000p-3}
, {0x1.d06aa20000000p-4}
, {0x1.19a0540000000p-4}
, {-0x1.92418e0000000p-6}
, {0x1.aecd3c0000000p-7}
, {0x1.4aa2800000000p-3}
, {0x1.0108fa0000000p-3}
, {-0x1.f7b7cc0000000p-16}
, {0x1.35fd4e0000000p-3}
, {-0x1.d3b84e0000000p-5}
, {0x1.ba84600000000p-4}
, {0x1.787c980000000p-4}
, {0x1.e9e26c0000000p-5}
, {0x1.c0560c0000000p-3}
, {0x1.332cd60000000p-5}
, {-0x1.d802240000000p-6}
, {0x1.8f2d660000000p-3}
, {-0x1.0d22760000000p-3}
, {0x1.c269e80000000p-3}
, {0x1.e4fc120000000p-4}
, {-0x1.2958980000000p-7}
, {-0x1.634f440000000p-6}
, {0x1.58b15e0000000p-3}
, {0x1.58d8de0000000p-5}
, {0x1.1042e20000000p-4}
, {0x1.6bc6e80000000p-3}
, {0x1.4dba260000000p-3}
, {-0x1.024fd40000000p-4}
, {0x1.1f08b40000000p-3}
, {-0x1.3fa54e0000000p-6}
, {0x1.4dd8500000000p-2}
, {0x1.7524ee0000000p-3}
, {-0x1.407a4e0000000p-3}
, {0x1.5b22640000000p-2}
, {0x1.6ea8740000000p-6}
, {0x1.6413c20000000p-4}
, {0x1.1779620000000p-2}
, {0x1.31e0a20000000p-6}
, {0x1.53e96e0000000p-8}
, {0x1.0345460000000p-2}
, {0x1.c24cdc0000000p-6}
, {0x1.eef8c60000000p-3}
, {0x1.0a6c900000000p-3}
, {0x1.81601e0000000p-8}
, {0x1.06d4300000000p-3}
, {0x1.685bd20000000p-4}
, {0x1.f6fcba0000000p-4}
, {-0x1.0874520000000p-5}
, {-0x1.7d0e000000000p-7}
, {0x1.f15da40000000p-5}
}
, {{0x1.a48a0c0000000p-3}
, {0x1.f661320000000p-5}
, {-0x1.0851680000000p-5}
, {0x1.05861e0000000p-5}
, {0x1.4faf840000000p-4}
, {0x1.12360e0000000p-3}
, {-0x1.38977a0000000p-4}
, {-0x1.7c56180000000p-9}
, {0x1.1c481c0000000p-3}
, {0x1.080a2e0000000p-3}
, {-0x1.9bd3640000000p-6}
, {0x1.1d2bb00000000p-4}
, {0x1.e8f9500000000p-6}
, {0x1.40abf00000000p-4}
, {0x1.a4e7420000000p-3}
, {0x1.6cae020000000p-4}
, {0x1.4398f40000000p-10}
, {0x1.30bc6c0000000p-5}
, {0x1.2697ce0000000p-7}
, {-0x1.d5b6100000000p-5}
, {0x1.0e4c680000000p-3}
, {0x1.f3cd260000000p-4}
, {0x1.9f50760000000p-3}
, {0x1.13c1b80000000p-4}
, {-0x1.157da00000000p-4}
, {-0x1.9b40720000000p-4}
, {0x1.f0e02a0000000p-4}
, {0x1.9ed3b00000000p-4}
, {0x1.7323480000000p-4}
, {-0x1.63d0e40000000p-9}
, {0x1.0ea39c0000000p-3}
, {0x1.2bd1a60000000p-4}
, {0x1.6aa8fa0000000p-5}
, {0x1.10d6b40000000p-3}
, {0x1.139fd60000000p-3}
, {0x1.b3fe5c0000000p-3}
, {0x1.65af560000000p-4}
, {-0x1.20c6740000000p-6}
, {0x1.43e1c80000000p-4}
, {-0x1.f0c1480000000p-4}
, {0x1.bfe2700000000p-5}
, {0x1.8c13a60000000p-5}
, {0x1.44e85a0000000p-4}
, {0x1.4bb1c00000000p-3}
, {0x1.ef18a40000000p-4}
, {0x1.bd04180000000p-3}
, {0x1.cfeeac0000000p-4}
, {-0x1.4bfd140000000p-5}
, {0x1.5980140000000p-6}
, {0x1.cd1b3c0000000p-4}
, {0x1.2ef5f40000000p-3}
, {0x1.bddc6c0000000p-3}
, {0x1.228b7c0000000p-4}
, {0x1.e17a520000000p-5}
, {-0x1.1d40ee0000000p-4}
, {0x1.1d82b00000000p-5}
, {0x1.4959aa0000000p-5}
, {0x1.c08e340000000p-4}
, {0x1.3bb1ee0000000p-7}
, {-0x1.77d0ba0000000p-6}
, {0x1.6681d80000000p-5}
, {0x1.b9d5a80000000p-3}
, {0x1.571c6a0000000p-5}
, {0x1.1b0b9e0000000p-5}
, {0x1.9ecf060000000p-6}
, {0x1.b5b54c0000000p-5}
, {0x1.fa28700000000p-4}
, {0x1.cc99720000000p-5}
, {0x1.0c043e0000000p-4}
, {0x1.22c32c0000000p-4}
, {0x1.8dedc20000000p-4}
, {0x1.4ca0920000000p-3}
, {0x1.3f5cc80000000p-4}
, {0x1.95e5de0000000p-5}
, {-0x1.1425820000000p-4}
, {0x1.922b3e0000000p-4}
, {-0x1.bd5c4a0000000p-6}
, {-0x1.30e7760000000p-5}
, {-0x1.a98aac0000000p-5}
, {0x1.bffe3c0000000p-3}
}
, {{0x1.3e5f900000000p-5}
, {-0x1.225c320000000p-3}
, {0x1.8dc0f20000000p-6}
, {0x1.5db9200000000p-4}
, {0x1.9e779e0000000p-6}
, {-0x1.d02b960000000p-5}
, {-0x1.3873c60000000p-3}
, {0x1.53af160000000p-7}
, {0x1.b749640000000p-4}
, {-0x1.4ebbb60000000p-4}
, {0x1.21f0840000000p-7}
, {-0x1.27177a0000000p-4}
, {-0x1.3f8eca0000000p-4}
, {0x1.ddb82e0000000p-7}
, {0x1.ac3a460000000p-3}
, {0x1.3bd6940000000p-4}
, {-0x1.7d020a0000000p-2}
, {-0x1.4493e40000000p-4}
, {0x1.43fb300000000p-2}
, {0x1.7a12420000000p-4}
, {-0x1.89fa240000000p-3}
, {-0x1.3c73b40000000p-3}
, {0x1.b2115e0000000p-5}
, {0x1.f042ae0000000p-3}
, {-0x1.6d99de0000000p-3}
, {-0x1.12d2660000000p-2}
, {0x1.48300a0000000p-3}
, {0x1.0be4a60000000p-3}
, {0x1.010d540000000p-5}
, {-0x1.1cf4820000000p-2}
, {-0x1.2a730a0000000p-3}
, {-0x1.4318700000000p-6}
, {0x1.1633760000000p-2}
, {0x1.3160b20000000p-3}
, {-0x1.30f2200000000p-2}
, {-0x1.7482ca0000000p-2}
, {0x1.0cf44c0000000p-5}
, {0x1.8e989c0000000p-3}
, {0x1.17e5e80000000p-4}
, {-0x1.6429640000000p-6}
, {-0x1.ca87de0000000p-4}
, {0x1.c270d80000000p-7}
, {-0x1.8252b20000000p-3}
, {-0x1.530e220000000p-4}
, {0x1.bd8b740000000p-3}
, {0x1.1dd0d00000000p-3}
, {-0x1.3e4c340000000p-2}
, {-0x1.8602540000000p-3}
, {0x1.b7cc060000000p-3}
, {-0x1.6794e00000000p-5}
, {-0x1.00ad740000000p-2}
, {0x1.89ddf60000000p-3}
, {0x1.797a9a0000000p-4}
, {-0x1.2c93cc0000000p-2}
, {-0x1.286a1c0000000p-4}
, {0x1.f41a500000000p-4}
, {-0x1.ed5c480000000p-4}
, {-0x1.b956880000000p-5}
, {-0x1.e071960000000p-4}
, {0x1.f743be0000000p-4}
, {0x1.34c20a0000000p-5}
, {-0x1.4659ee0000000p-4}
, {-0x1.fa8c800000000p-3}
, {-0x1.28df640000000p-3}
, {0x1.13f6f00000000p-3}
, {0x1.b413860000000p-3}
, {-0x1.50d6820000000p-4}
, {-0x1.920e160000000p-5}
, {-0x1.291d100000000p-2}
, {-0x1.e53b520000000p-4}
, {0x1.190d0a0000000p-2}
, {0x1.34c3940000000p-2}
, {0x1.0ebf520000000p-6}
, {-0x1.4e0b760000000p-2}
, {-0x1.cbab500000000p-3}
, {0x1.baced00000000p-4}
, {0x1.9366e00000000p-3}
, {-0x1.d593920000000p-5}
, {-0x1.659b200000000p-4}
, {-0x1.ae0a500000000p-7}
}
, {{-0x1.dbfda40000000p-3}
, {0x1.9884320000000p-3}
, {0x1.40b9580000000p-2}
, {-0x1.2b3eac0000000p-2}
, {-0x1.89c7cc0000000p-4}
, {-0x1.3294020000000p-3}
, {-0x1.0d23aa0000000p-3}
, {0x1.31d4480000000p-2}
, {0x1.d719a40000000p-5}
, {-0x1.ec183c0000000p-4}
, {-0x1.422b960000000p-4}
, {-0x1.89489e0000000p-4}
, {-0x1.30cbe20000000p-6}
, {0x1.57cd380000000p-5}
, {-0x1.6d97f20000000p-4}
, {-0x1.d2be000000000p-9}
, {0x1.081a740000000p-4}
, {0x1.bcecdc0000000p-5}
, {-0x1.1ede2e0000000p-3}
, {-0x1.cbe5ec0000000p-4}
, {-0x1.0518620000000p-3}
, {0x1.01e4f60000000p-5}
, {0x1.430e720000000p-3}
, {-0x1.5f0d260000000p-4}
, {0x1.0821a80000000p-6}
, {0x1.b6adec0000000p-6}
, {0x1.79e7780000000p-7}
, {-0x1.0ad5e80000000p-3}
, {-0x1.044ec60000000p-2}
, {-0x1.809be80000000p-6}
, {0x1.cc8d940000000p-4}
, {0x1.c5c59e0000000p-5}
, {0x1.b880de0000000p-5}
, {-0x1.a082320000000p-4}
, {-0x1.1700060000000p-2}
, {-0x1.037b9e0000000p-3}
, {0x1.f0218e0000000p-3}
, {0x1.1cc7200000000p-3}
, {-0x1.28cdbc0000000p-3}
, {-0x1.0389980000000p-4}
, {0x1.2d6e900000000p-5}
, {-0x1.add2120000000p-6}
, {-0x1.e1315e0000000p-3}
, {-0x1.b08b620000000p-7}
, {0x1.0647240000000p-3}
, {0x1.2944d60000000p-4}
, {-0x1.7727b60000000p-4}
, {-0x1.1f726e0000000p-3}
, {-0x1.20f1000000000p-8}
, {0x1.7f79840000000p-4}
, {0x1.88cad00000000p-8}
, {-0x1.871f580000000p-3}
, {-0x1.90c5520000000p-7}
, {0x1.ae96c00000000p-3}
, {0x1.fac5780000000p-6}
, {-0x1.2ff2e60000000p-2}
, {-0x1.55924a0000000p-3}
, {0x1.ac78aa0000000p-3}
, {0x1.067dbe0000000p-2}
, {-0x1.2dc63c0000000p-2}
, {-0x1.2549880000000p-1}
, {0x1.abd20e0000000p-3}
, {0x1.10cecc0000000p-1}
, {-0x1.66c9600000000p-5}
, {-0x1.0cb5640000000p-1}
, {-0x1.70b5ee0000000p-3}
, {0x1.1eeb480000000p-2}
, {0x1.0258d20000000p-2}
, {0x1.883bd60000000p-6}
, {-0x1.bdfaf60000000p-3}
, {-0x1.6cda640000000p-2}
, {0x1.3667f00000000p-3}
, {0x1.1337d20000000p-2}
, {0x1.3b954a0000000p-4}
, {-0x1.7840620000000p-4}
, {-0x1.1a25da0000000p-3}
, {-0x1.7700fc0000000p-6}
, {0x1.536d880000000p-4}
, {0x1.fc67480000000p-5}
, {-0x1.6c32700000000p-4}
}
, {{0x1.86899e0000000p-4}
, {-0x1.8426f80000000p-5}
, {-0x1.962fe00000000p-7}
, {0x1.3064dc0000000p-10}
, {-0x1.da81e00000000p-5}
, {-0x1.5989f80000000p-3}
, {0x1.e37e880000000p-6}
, {0x1.8f8d300000000p-5}
, {0x1.d5ad1c0000000p-6}
, {0x1.0faeaa0000000p-5}
, {0x1.1a6c7e0000000p-9}
, {0x1.17e9060000000p-4}
, {0x1.0fffc20000000p-4}
, {0x1.b7818a0000000p-5}
, {-0x1.5fa6680000000p-6}
, {-0x1.9957dc0000000p-4}
, {-0x1.1badfa0000000p-3}
, {0x1.44176c0000000p-5}
, {-0x1.e8f3bc0000000p-5}
, {-0x1.5d30ae0000000p-6}
, {-0x1.b3515a0000000p-8}
, {-0x1.11a8b20000000p-7}
, {-0x1.631d860000000p-5}
, {0x1.8d20920000000p-5}
, {0x1.83ee180000000p-7}
, {-0x1.91f60c0000000p-4}
, {-0x1.934f7c0000000p-4}
, {-0x1.cde86e0000000p-4}
, {-0x1.18fade0000000p-5}
, {-0x1.2e290c0000000p-5}
, {0x1.748bfa0000000p-6}
, {0x1.22e4420000000p-4}
, {0x1.a706d00000000p-4}
, {0x1.57c0340000000p-3}
, {0x1.6247600000000p-5}
, {-0x1.7bb3860000000p-5}
, {0x1.752e1e0000000p-5}
, {0x1.eed3440000000p-5}
, {-0x1.dee2660000000p-4}
, {-0x1.2d49440000000p-4}
, {-0x1.a66d340000000p-8}
, {-0x1.005f1e0000000p-5}
, {-0x1.c5a0ce0000000p-8}
, {-0x1.e226320000000p-6}
, {0x1.a4a9fe0000000p-4}
, {0x1.82df2a0000000p-5}
, {-0x1.1d29780000000p-7}
, {-0x1.f4396c0000000p-7}
, {0x1.57c5960000000p-6}
, {-0x1.5021ea0000000p-3}
, {-0x1.e11d2a0000000p-3}
, {-0x1.4ed20a0000000p-3}
, {-0x1.6c48400000000p-4}
, {-0x1.1e7a960000000p-5}
, {-0x1.120cd40000000p-3}
, {0x1.d6479e0000000p-7}
, {0x1.25a5540000000p-4}
, {0x1.51da700000000p-3}
, {0x1.4138aa0000000p-3}
, {0x1.0d2d820000000p-2}
, {0x1.af67d40000000p-3}
, {0x1.09ff320000000p-3}
, {0x1.4e270e0000000p-4}
, {-0x1.04e3860000000p-4}
, {0x1.57f6160000000p-7}
, {-0x1.7af4460000000p-3}
, {-0x1.9987340000000p-3}
, {-0x1.1c0fb80000000p-3}
, {-0x1.f188800000000p-3}
, {-0x1.edf2a60000000p-3}
, {-0x1.0a2e960000000p-5}
, {-0x1.273cac0000000p-4}
, {0x1.ef57c20000000p-8}
, {0x1.b74c2e0000000p-4}
, {0x1.5554980000000p-3}
, {0x1.55c5e20000000p-4}
, {-0x1.dfcf4e0000000p-5}
, {0x1.57f3660000000p-3}
, {0x1.3aa1de0000000p-4}
, {0x1.adc9260000000p-5}
}
}
;

#undef INPUT_CHANNELS
#undef CONV_FILTERS
#undef CONV_KERNEL_SIZE
#undef CONV_GROUPS