/**
  ******************************************************************************
  * @file    weights/conv1d.cc
  * @author  Pierre-Emmanuel Novac <penovac@unice.fr>, LEAT, CNRS, Université Côte d'Azur, France
  * @version 1.0.0
  * @date    24 march 2020
  * @brief   Template generating plain C code for the implementation of Convolutional Neural Networks on MCU
  */

#include <stdint.h>

#define INPUT_CHANNELS    1
#define CONV_FILTERS      12
#define CONV_KERNEL_SIZE  80
#define CONV_GROUPS       1


const float  conv1d_12_bias[CONV_FILTERS] = {0x0.0p+0, 0x0.0p+0, 0x0.0p+0, 0x0.0p+0, 0x0.0p+0, 0x0.0p+0, 0x0.0p+0, 0x0.0p+0, 0x0.0p+0, 0x0.0p+0, 0x0.0p+0, 0x0.0p+0}
;

const float  conv1d_12_kernel[CONV_FILTERS][CONV_KERNEL_SIZE][INPUT_CHANNELS / CONV_GROUPS] = {{{-0x1.2682380000000p-4}
, {-0x1.b3e7b20000000p-5}
, {0x1.6ce2c00000000p-7}
, {0x1.28edd80000000p-4}
, {0x1.1b33b00000000p-4}
, {-0x1.1caf2c0000000p-6}
, {-0x1.c5fccc0000000p-5}
, {0x1.17bc000000000p-9}
, {-0x1.bce1f40000000p-5}
, {-0x1.15c64a0000000p-5}
, {0x1.03f3440000000p-5}
, {0x1.27fae00000000p-5}
, {-0x1.aa3d420000000p-5}
, {0x1.9dfdd80000000p-6}
, {0x1.02a8e80000000p-6}
, {0x1.151a940000000p-4}
, {-0x1.17d0460000000p-4}
, {-0x1.25787c0000000p-5}
, {-0x1.8796880000000p-5}
, {0x1.29c6200000000p-8}
, {0x1.1fa4c00000000p-9}
, {-0x1.bc2b2c0000000p-5}
, {-0x1.f10b880000000p-6}
, {0x1.5121800000000p-8}
, {0x1.227f5c0000000p-4}
, {-0x1.f1a0580000000p-7}
, {-0x1.c7c3780000000p-6}
, {0x1.2688c00000000p-9}
, {-0x1.74f76c0000000p-5}
, {0x1.1690b80000000p-4}
, {-0x1.ad06980000000p-6}
, {0x1.9e88680000000p-5}
, {-0x1.81f1900000000p-5}
, {-0x1.0f4ff20000000p-5}
, {-0x1.9316f40000000p-6}
, {-0x1.de90740000000p-5}
, {-0x1.d5f8980000000p-5}
, {-0x1.2a5e700000000p-4}
, {0x1.6952500000000p-5}
, {0x1.c40b700000000p-7}
, {-0x1.7947e00000000p-7}
, {-0x1.3472740000000p-5}
, {-0x1.41002a0000000p-5}
, {0x1.d577900000000p-5}
, {-0x1.9fb7c00000000p-7}
, {0x1.d833c00000000p-8}
, {-0x1.1ea4b80000000p-6}
, {0x1.21eee40000000p-4}
, {0x1.daae400000000p-7}
, {-0x1.7f684c0000000p-6}
, {-0x1.cba5200000000p-7}
, {0x1.aade180000000p-5}
, {-0x1.86f3300000000p-5}
, {0x1.eb58000000000p-8}
, {-0x1.ce7ac00000000p-8}
, {0x1.4cb5180000000p-5}
, {0x1.0249a80000000p-5}
, {-0x1.32084e0000000p-4}
, {0x1.9b64000000000p-5}
, {-0x1.24a2540000000p-5}
, {0x1.b7fcb00000000p-5}
, {0x1.aa8d680000000p-5}
, {-0x1.1de1bc0000000p-5}
, {0x1.f939a80000000p-5}
, {0x1.4754300000000p-6}
, {0x1.0efbd80000000p-4}
, {0x1.2616200000000p-4}
, {-0x1.272df00000000p-7}
, {-0x1.7f0b400000000p-5}
, {0x1.30cb100000000p-5}
, {-0x1.1dff820000000p-4}
, {-0x1.4890580000000p-5}
, {-0x1.eb41900000000p-6}
, {-0x1.05261c0000000p-4}
, {0x1.273dec0000000p-4}
, {-0x1.e227680000000p-6}
, {0x1.0939780000000p-4}
, {-0x1.836f3c0000000p-6}
, {-0x1.caf8180000000p-7}
, {0x1.e91e900000000p-7}
}
, {{0x1.6125e80000000p-5}
, {-0x1.f14ce40000000p-5}
, {0x1.869c800000000p-6}
, {0x1.00d6f40000000p-5}
, {0x1.8a56400000000p-6}
, {-0x1.e5fcc00000000p-5}
, {0x1.2648b80000000p-6}
, {0x1.8c01e80000000p-6}
, {0x1.9640580000000p-6}
, {-0x1.38b8400000000p-5}
, {0x1.2ab7540000000p-4}
, {-0x1.6d2e280000000p-5}
, {-0x1.bde0a00000000p-7}
, {-0x1.2b11e00000000p-7}
, {0x1.3989200000000p-5}
, {0x1.1517c00000000p-8}
, {0x1.74d2800000000p-9}
, {0x1.5425380000000p-6}
, {0x1.43c8100000000p-7}
, {0x1.51fdc00000000p-5}
, {-0x1.4536b00000000p-6}
, {0x1.15c8800000000p-4}
, {-0x1.db08780000000p-6}
, {0x1.5b82c80000000p-5}
, {-0x1.0a84640000000p-5}
, {0x1.db16380000000p-5}
, {-0x1.2b19b40000000p-5}
, {-0x1.347ae00000000p-8}
, {0x1.c80e300000000p-7}
, {-0x1.3874b00000000p-7}
, {0x1.e76b180000000p-6}
, {0x1.2396900000000p-7}
, {-0x1.a5bc400000000p-5}
, {-0x1.21f88e0000000p-5}
, {-0x1.15d7140000000p-4}
, {0x1.631f280000000p-5}
, {-0x1.14b8320000000p-5}
, {0x1.c01f200000000p-5}
, {0x1.6addb40000000p-5}
, {0x1.ef40e80000000p-5}
, {0x1.8aa3c00000000p-7}
, {0x1.dcf9400000000p-5}
, {0x1.79c4d40000000p-5}
, {0x1.98aeb00000000p-7}
, {-0x1.9902900000000p-6}
, {0x1.5d43440000000p-5}
, {-0x1.f982460000000p-5}
, {-0x1.b2566c0000000p-5}
, {0x1.3616800000000p-8}
, {0x1.efbf480000000p-5}
, {-0x1.20fa240000000p-5}
, {0x1.1924d00000000p-7}
, {-0x1.961cac0000000p-5}
, {-0x1.cd1a980000000p-5}
, {-0x1.bbec880000000p-7}
, {-0x1.1547b00000000p-7}
, {0x1.01ac700000000p-7}
, {0x1.1782800000000p-4}
, {0x1.3580a80000000p-4}
, {0x1.352b680000000p-5}
, {-0x1.181d800000000p-4}
, {-0x1.b6c1800000000p-10}
, {-0x1.0192fa0000000p-5}
, {0x1.fc15e80000000p-5}
, {0x1.3d29a40000000p-5}
, {-0x1.3697920000000p-5}
, {-0x1.0c71fc0000000p-5}
, {-0x1.1b04280000000p-5}
, {0x1.16a64c0000000p-4}
, {-0x1.b7dc400000000p-9}
, {-0x1.8232f40000000p-5}
, {0x1.20bd9c0000000p-4}
, {-0x1.6eeafe0000000p-5}
, {-0x1.54b2ce0000000p-5}
, {-0x1.f8a4fc0000000p-5}
, {-0x1.3065200000000p-5}
, {-0x1.5d5b080000000p-6}
, {-0x1.4d63260000000p-5}
, {0x1.0925380000000p-6}
, {0x1.cc7df80000000p-5}
}
, {{0x1.4c1dfc0000000p-5}
, {-0x1.19e0b80000000p-4}
, {-0x1.a3afc00000000p-6}
, {0x1.6050500000000p-6}
, {0x1.0b9fc00000000p-6}
, {-0x1.2163cc0000000p-4}
, {-0x1.7457800000000p-5}
, {-0x1.89c2e80000000p-5}
, {0x1.16c4980000000p-4}
, {0x1.e9a9d00000000p-5}
, {-0x1.a24d080000000p-5}
, {0x1.d956280000000p-6}
, {-0x1.e6a3f80000000p-5}
, {0x1.2c57140000000p-4}
, {0x1.ef8a980000000p-6}
, {-0x1.f3de360000000p-5}
, {-0x1.781db00000000p-7}
, {0x1.496b480000000p-5}
, {-0x1.e118400000000p-8}
, {-0x1.04cacc0000000p-6}
, {0x1.c300b00000000p-6}
, {0x1.d52fb00000000p-5}
, {-0x1.aef33c0000000p-6}
, {-0x1.5c95a00000000p-7}
, {-0x1.74b5f40000000p-6}
, {0x1.16e1a00000000p-4}
, {0x1.be23080000000p-6}
, {-0x1.4c21240000000p-5}
, {0x1.5d39500000000p-6}
, {-0x1.b776c00000000p-5}
, {-0x1.5c08800000000p-6}
, {-0x1.78dcde0000000p-5}
, {-0x1.1424ba0000000p-4}
, {0x1.3241980000000p-4}
, {0x1.4d63600000000p-5}
, {-0x1.2647fa0000000p-4}
, {-0x1.1aca560000000p-4}
, {-0x1.9084740000000p-5}
, {0x1.ab15e00000000p-8}
, {0x1.d5b7100000000p-6}
, {0x1.dfe7580000000p-6}
, {-0x1.ae74c80000000p-6}
, {-0x1.bf34fc0000000p-6}
, {-0x1.91fa920000000p-5}
, {-0x1.4c277c0000000p-5}
, {-0x1.2723000000000p-7}
, {0x1.0822780000000p-4}
, {0x1.0462b80000000p-6}
, {-0x1.0bf1740000000p-4}
, {-0x1.d975880000000p-5}
, {0x1.261d280000000p-4}
, {0x1.1c84f40000000p-5}
, {-0x1.8b32cc0000000p-5}
, {-0x1.807cc40000000p-6}
, {-0x1.0bd3ec0000000p-5}
, {0x1.a07e200000000p-5}
, {0x1.6e20800000000p-9}
, {-0x1.28f3dc0000000p-5}
, {-0x1.2d29240000000p-4}
, {0x1.30f57c0000000p-4}
, {0x1.16d3e80000000p-4}
, {0x1.9926800000000p-6}
, {-0x1.59e9c00000000p-8}
, {-0x1.e9fb300000000p-6}
, {-0x1.e2f3940000000p-5}
, {-0x1.0934280000000p-4}
, {0x1.8cc9200000000p-5}
, {-0x1.caeb000000000p-8}
, {0x1.bf69600000000p-5}
, {0x1.05e8600000000p-5}
, {0x1.24ef640000000p-4}
, {-0x1.9c55900000000p-5}
, {-0x1.c38ff00000000p-5}
, {0x1.2656f00000000p-4}
, {-0x1.173bf40000000p-5}
, {0x1.c6f5000000000p-7}
, {0x1.e095e00000000p-5}
, {-0x1.7899600000000p-8}
, {0x1.7ddfcc0000000p-5}
, {0x1.9efbc80000000p-6}
}
, {{0x1.139df80000000p-4}
, {0x1.3615940000000p-5}
, {0x1.6a05200000000p-5}
, {0x1.1fa4a40000000p-4}
, {-0x1.2bb8000000000p-13}
, {-0x1.091ed40000000p-4}
, {-0x1.10407e0000000p-4}
, {0x1.cdb1300000000p-5}
, {0x1.8339c00000000p-7}
, {0x1.c460a80000000p-5}
, {0x1.2f5f000000000p-6}
, {0x1.f97e880000000p-5}
, {0x1.32d4800000000p-4}
, {0x1.b4d5080000000p-5}
, {-0x1.fa7b980000000p-7}
, {0x1.0d01800000000p-5}
, {0x1.e142f00000000p-5}
, {0x1.6dae000000000p-7}
, {0x1.360cb00000000p-5}
, {-0x1.bc4ea40000000p-5}
, {0x1.1c77d00000000p-5}
, {-0x1.421aae0000000p-5}
, {0x1.cc38200000000p-5}
, {-0x1.06294e0000000p-4}
, {-0x1.1be6240000000p-4}
, {0x1.c754e00000000p-6}
, {0x1.6eb63c0000000p-5}
, {-0x1.2df7560000000p-4}
, {0x1.bada800000000p-10}
, {0x1.f118100000000p-5}
, {-0x1.ce88800000000p-9}
, {0x1.9bdd580000000p-6}
, {0x1.0545e00000000p-5}
, {0x1.214af80000000p-4}
, {0x1.996c100000000p-5}
, {0x1.7244c00000000p-8}
, {0x1.dc61a00000000p-5}
, {-0x1.a132000000000p-7}
, {-0x1.baca8c0000000p-6}
, {-0x1.6458e00000000p-8}
, {-0x1.b692a00000000p-8}
, {0x1.979a600000000p-6}
, {-0x1.34038e0000000p-5}
, {0x1.32e9840000000p-4}
, {0x1.087f200000000p-5}
, {0x1.5e894c0000000p-5}
, {-0x1.27ff520000000p-5}
, {0x1.8571380000000p-6}
, {0x1.d299f80000000p-6}
, {-0x1.8dc4b00000000p-6}
, {0x1.e049300000000p-6}
, {0x1.33e2380000000p-4}
, {-0x1.eb62b00000000p-5}
, {-0x1.0ae8200000000p-7}
, {-0x1.c48e2c0000000p-6}
, {0x1.5802f00000000p-6}
, {-0x1.74d5040000000p-6}
, {0x1.1d90940000000p-4}
, {0x1.099e580000000p-4}
, {0x1.7879200000000p-8}
, {-0x1.1969d80000000p-5}
, {-0x1.657a180000000p-6}
, {-0x1.20df280000000p-4}
, {0x1.23dd9c0000000p-4}
, {-0x1.773d6e0000000p-5}
, {-0x1.191cfa0000000p-5}
, {0x1.0ad8480000000p-6}
, {-0x1.a513300000000p-7}
, {0x1.2fff480000000p-6}
, {0x1.4005a00000000p-5}
, {0x1.0d123c0000000p-4}
, {-0x1.1eff000000000p-11}
, {0x1.48c5e00000000p-8}
, {0x1.2a1e840000000p-4}
, {0x1.ebd7d80000000p-5}
, {-0x1.c295f00000000p-5}
, {0x1.90f8d00000000p-5}
, {0x1.2a49a00000000p-8}
, {-0x1.fd5b280000000p-6}
, {-0x1.1df7360000000p-4}
}
, {{-0x1.2a8e060000000p-5}
, {0x1.1368900000000p-4}
, {-0x1.773ae00000000p-7}
, {0x1.10c0c80000000p-6}
, {0x1.5c6f940000000p-5}
, {0x1.3672780000000p-4}
, {0x1.4daa400000000p-9}
, {0x1.4254240000000p-5}
, {-0x1.e734040000000p-5}
, {0x1.38f74c0000000p-5}
, {0x1.58f6e80000000p-6}
, {-0x1.009e980000000p-5}
, {0x1.cb21400000000p-7}
, {0x1.7d40a00000000p-7}
, {-0x1.e14a080000000p-5}
, {-0x1.41b2000000000p-9}
, {-0x1.1150080000000p-5}
, {0x1.b282500000000p-5}
, {-0x1.1a8ba80000000p-4}
, {-0x1.16839c0000000p-5}
, {-0x1.28ff680000000p-4}
, {-0x1.5e3dd60000000p-5}
, {0x1.1e63040000000p-5}
, {0x1.7ebed80000000p-6}
, {0x1.043c900000000p-4}
, {-0x1.b065d40000000p-6}
, {0x1.cec8480000000p-6}
, {-0x1.1c6d320000000p-4}
, {-0x1.ce24be0000000p-5}
, {0x1.2204700000000p-4}
, {-0x1.092b7a0000000p-4}
, {-0x1.cf9c4e0000000p-5}
, {0x1.f2ff600000000p-7}
, {0x1.a9d3980000000p-5}
, {0x1.a933700000000p-6}
, {-0x1.0d4c960000000p-4}
, {0x1.2752180000000p-6}
, {0x1.608a080000000p-6}
, {-0x1.acbc780000000p-6}
, {0x1.b35bc00000000p-5}
, {-0x1.c5f1980000000p-5}
, {0x1.277ae00000000p-4}
, {-0x1.d060d80000000p-5}
, {-0x1.d4797c0000000p-6}
, {-0x1.d7d43c0000000p-6}
, {0x1.da0dc80000000p-5}
, {-0x1.ad106e0000000p-5}
, {0x1.bb79c00000000p-8}
, {-0x1.4114200000000p-7}
, {0x1.ae00a00000000p-6}
, {-0x1.fba6080000000p-5}
, {-0x1.f72cb00000000p-7}
, {-0x1.000bc00000000p-9}
, {-0x1.00aae60000000p-5}
, {0x1.d18fe00000000p-8}
, {0x1.2747e40000000p-4}
, {0x1.a58f500000000p-6}
, {-0x1.23fa120000000p-4}
, {0x1.d1d6400000000p-8}
, {-0x1.3dbe220000000p-5}
, {-0x1.8b18180000000p-6}
, {0x1.5226100000000p-6}
, {0x1.789ae80000000p-5}
, {-0x1.d550820000000p-5}
, {-0x1.f3bc880000000p-6}
, {-0x1.8786bc0000000p-5}
, {-0x1.20e49c0000000p-6}
, {-0x1.1d2d000000000p-4}
, {-0x1.1d8f360000000p-4}
, {0x1.60d9a00000000p-6}
, {0x1.eb52000000000p-8}
, {-0x1.a2826e0000000p-5}
, {0x1.af00080000000p-5}
, {-0x1.f1b5680000000p-5}
, {-0x1.befa980000000p-7}
, {-0x1.1195400000000p-4}
, {-0x1.29b3100000000p-4}
, {0x1.82b6d00000000p-7}
, {-0x1.8137820000000p-5}
, {-0x1.b266260000000p-5}
}
, {{-0x1.1d4b9c0000000p-5}
, {-0x1.f6f8100000000p-6}
, {0x1.619e840000000p-5}
, {0x1.f257b80000000p-5}
, {0x1.f8f2c00000000p-8}
, {-0x1.6d8ef60000000p-5}
, {-0x1.270e020000000p-5}
, {-0x1.6d8a7c0000000p-6}
, {-0x1.2bc2400000000p-7}
, {0x1.5c20100000000p-6}
, {-0x1.3f6e000000000p-8}
, {-0x1.e165140000000p-5}
, {0x1.9b29a00000000p-5}
, {0x1.ec23e00000000p-5}
, {0x1.58d3200000000p-7}
, {-0x1.baa0000000000p-16}
, {-0x1.ef2ec20000000p-5}
, {0x1.2d1c080000000p-5}
, {-0x1.7495040000000p-5}
, {0x1.0d45600000000p-5}
, {0x1.72b6000000000p-6}
, {-0x1.320c200000000p-6}
, {0x1.c9fbf00000000p-6}
, {0x1.91b5f00000000p-7}
, {-0x1.b6c6300000000p-6}
, {0x1.bc70200000000p-8}
, {0x1.91cfa00000000p-5}
, {0x1.bc86880000000p-5}
, {0x1.9341300000000p-7}
, {0x1.20f4f00000000p-5}
, {-0x1.9f17400000000p-8}
, {0x1.1c50f80000000p-4}
, {-0x1.042b840000000p-4}
, {0x1.e010f00000000p-5}
, {0x1.8910b00000000p-7}
, {0x1.4c2b000000000p-10}
, {0x1.272ea40000000p-5}
, {-0x1.3d36c00000000p-8}
, {0x1.00b9c40000000p-4}
, {0x1.1d87400000000p-4}
, {-0x1.572f800000000p-9}
, {0x1.24bd1c0000000p-4}
, {0x1.1843940000000p-4}
, {-0x1.87a2400000000p-9}
, {0x1.c423900000000p-5}
, {-0x1.60c6000000000p-11}
, {-0x1.c5aaf00000000p-7}
, {-0x1.ebdf360000000p-5}
, {-0x1.7c70da0000000p-5}
, {0x1.55cf900000000p-7}
, {0x1.3c09f80000000p-5}
, {0x1.dffdc00000000p-5}
, {0x1.93b8e00000000p-6}
, {-0x1.e544f00000000p-7}
, {0x1.db60800000000p-9}
, {0x1.06f9200000000p-6}
, {-0x1.a50a400000000p-7}
, {0x1.82c0380000000p-6}
, {-0x1.428d7c0000000p-5}
, {-0x1.4950540000000p-6}
, {-0x1.0c61f00000000p-7}
, {-0x1.69200a0000000p-5}
, {0x1.3d318c0000000p-5}
, {-0x1.e7c4840000000p-5}
, {0x1.ef91a00000000p-8}
, {0x1.7663200000000p-5}
, {-0x1.f8abe40000000p-5}
, {0x1.dc83980000000p-5}
, {0x1.2092500000000p-5}
, {0x1.1199500000000p-4}
, {0x1.e9dd180000000p-6}
, {0x1.071c600000000p-6}
, {-0x1.79c0800000000p-7}
, {0x1.e6cc800000000p-10}
, {0x1.6876000000000p-9}
, {0x1.5bcd900000000p-5}
, {-0x1.06eaa60000000p-4}
, {-0x1.ef67600000000p-8}
, {0x1.0fa3580000000p-4}
, {-0x1.0d27c00000000p-4}
}
, {{-0x1.0787a20000000p-4}
, {-0x1.9cfdf60000000p-5}
, {0x1.0d3ac40000000p-4}
, {-0x1.2618e80000000p-4}
, {-0x1.a560780000000p-6}
, {-0x1.0ce0800000000p-10}
, {0x1.ab54480000000p-6}
, {-0x1.50dd500000000p-5}
, {0x1.087d580000000p-6}
, {-0x1.bc2f6c0000000p-5}
, {0x1.86f6680000000p-6}
, {0x1.e47b580000000p-5}
, {0x1.ae32c80000000p-6}
, {0x1.8489c80000000p-6}
, {-0x1.3dbedc0000000p-5}
, {-0x1.be87000000000p-10}
, {-0x1.95efd00000000p-6}
, {0x1.fa74000000000p-8}
, {0x1.1f2c680000000p-5}
, {-0x1.ed0ca80000000p-7}
, {-0x1.2de48e0000000p-4}
, {0x1.1702cc0000000p-5}
, {0x1.33406c0000000p-5}
, {-0x1.07fe280000000p-5}
, {-0x1.cc61fc0000000p-5}
, {0x1.fa5ab00000000p-5}
, {0x1.8f24f00000000p-5}
, {0x1.3c48d00000000p-6}
, {-0x1.5989400000000p-7}
, {0x1.5c5afc0000000p-5}
, {-0x1.1bc2680000000p-4}
, {-0x1.2dae4e0000000p-4}
, {0x1.5e64900000000p-6}
, {0x1.31c5b80000000p-6}
, {0x1.764b280000000p-6}
, {-0x1.e3f6800000000p-6}
, {-0x1.9efe200000000p-7}
, {0x1.c33ab80000000p-5}
, {-0x1.2be2a00000000p-4}
, {0x1.5ec8000000000p-5}
, {-0x1.dcbdd40000000p-6}
, {-0x1.e54f9c0000000p-5}
, {0x1.5bea200000000p-5}
, {0x1.c082480000000p-6}
, {-0x1.f225400000000p-5}
, {-0x1.40e6b80000000p-5}
, {0x1.877e880000000p-5}
, {-0x1.2f30c40000000p-4}
, {0x1.8a75a00000000p-5}
, {-0x1.6cf80c0000000p-6}
, {0x1.df49980000000p-6}
, {-0x1.3a29200000000p-7}
, {0x1.355adc0000000p-4}
, {-0x1.a6e0300000000p-5}
, {0x1.b617580000000p-5}
, {0x1.2cbee80000000p-5}
, {0x1.8b1f600000000p-8}
, {0x1.02024c0000000p-5}
, {-0x1.03f58c0000000p-5}
, {-0x1.2ea6e40000000p-5}
, {0x1.77d7480000000p-6}
, {-0x1.05c58a0000000p-4}
, {0x1.b0aa200000000p-5}
, {0x1.9bc5580000000p-5}
, {0x1.9c5c480000000p-5}
, {0x1.16b95c0000000p-4}
, {-0x1.5416e80000000p-5}
, {-0x1.62c3180000000p-5}
, {0x1.0b79280000000p-4}
, {0x1.d3f7d00000000p-5}
, {0x1.0341300000000p-5}
, {0x1.aed7980000000p-6}
, {-0x1.26e0800000000p-8}
, {0x1.0066200000000p-5}
, {-0x1.021ea00000000p-5}
, {0x1.69d5c40000000p-5}
, {0x1.f0f7d00000000p-5}
, {-0x1.0108b00000000p-7}
, {0x1.5b4e440000000p-5}
, {0x1.05f8040000000p-4}
}
, {{-0x1.0f71700000000p-6}
, {-0x1.1811b00000000p-6}
, {0x1.286b000000000p-11}
, {-0x1.6b74d00000000p-7}
, {0x1.75d6a00000000p-7}
, {-0x1.f74fc00000000p-9}
, {-0x1.685f6c0000000p-6}
, {0x1.9400280000000p-5}
, {-0x1.964d180000000p-6}
, {0x1.343ffc0000000p-4}
, {0x1.667ebc0000000p-5}
, {-0x1.3729d00000000p-7}
, {-0x1.60baea0000000p-5}
, {-0x1.6982ee0000000p-5}
, {0x1.0e0cdc0000000p-5}
, {0x1.0d0a7c0000000p-4}
, {-0x1.0f3e140000000p-4}
, {-0x1.3c89260000000p-5}
, {0x1.ff8ee80000000p-5}
, {0x1.4084e40000000p-5}
, {-0x1.7db70c0000000p-5}
, {0x1.0d61d40000000p-4}
, {-0x1.2290160000000p-5}
, {0x1.b46a200000000p-7}
, {0x1.2964e00000000p-7}
, {0x1.42a6480000000p-6}
, {0x1.dca4380000000p-6}
, {0x1.7353000000000p-5}
, {0x1.ad32080000000p-6}
, {-0x1.3118060000000p-4}
, {0x1.8ec3600000000p-6}
, {0x1.3e5a880000000p-6}
, {0x1.6520f40000000p-5}
, {0x1.5083000000000p-6}
, {-0x1.a142a80000000p-6}
, {0x1.671be80000000p-6}
, {0x1.63b5780000000p-5}
, {-0x1.64afbe0000000p-5}
, {0x1.a100000000000p-10}
, {0x1.0aaa5c0000000p-5}
, {0x1.0f18480000000p-6}
, {-0x1.c739800000000p-10}
, {0x1.2fc4e00000000p-6}
, {0x1.6f28c00000000p-7}
, {-0x1.c288000000000p-11}
, {0x1.f57b300000000p-5}
, {-0x1.a15cc00000000p-5}
, {-0x1.cd88ec0000000p-5}
, {-0x1.c8e9d60000000p-5}
, {0x1.15af480000000p-4}
, {0x1.26b1b40000000p-4}
, {0x1.444c680000000p-5}
, {0x1.bd1d700000000p-6}
, {-0x1.edd4000000000p-12}
, {-0x1.275e860000000p-5}
, {0x1.033d800000000p-4}
, {0x1.3ebfbc0000000p-5}
, {-0x1.040d5c0000000p-6}
, {-0x1.1688000000000p-13}
, {-0x1.6527380000000p-5}
, {-0x1.877b6c0000000p-6}
, {-0x1.30852e0000000p-5}
, {0x1.48d1c80000000p-6}
, {0x1.8a19b00000000p-5}
, {0x1.274e200000000p-8}
, {-0x1.570e580000000p-6}
, {-0x1.cab9f80000000p-6}
, {0x1.4e43f00000000p-5}
, {0x1.1edcc80000000p-4}
, {0x1.7774800000000p-5}
, {-0x1.45bf420000000p-5}
, {-0x1.b36eb40000000p-6}
, {0x1.4516000000000p-8}
, {0x1.23af280000000p-4}
, {0x1.6c6ee00000000p-7}
, {-0x1.0669400000000p-7}
, {-0x1.746f9c0000000p-6}
, {0x1.73c6b00000000p-5}
, {-0x1.125e880000000p-4}
, {-0x1.2481f40000000p-4}
}
, {{0x1.1482100000000p-4}
, {0x1.e822900000000p-5}
, {-0x1.ac89300000000p-6}
, {0x1.c42fb00000000p-5}
, {0x1.c8fe100000000p-7}
, {-0x1.42b1cc0000000p-5}
, {-0x1.78b1ea0000000p-5}
, {0x1.0c99400000000p-4}
, {0x1.c47dc00000000p-6}
, {0x1.0178500000000p-7}
, {-0x1.fbd94c0000000p-5}
, {0x1.7625a00000000p-7}
, {0x1.20eee00000000p-8}
, {-0x1.3e8e180000000p-6}
, {0x1.dd75300000000p-7}
, {0x1.688c500000000p-7}
, {0x1.85395c0000000p-5}
, {0x1.6e212c0000000p-5}
, {-0x1.748e100000000p-7}
, {0x1.761c600000000p-6}
, {0x1.81e8480000000p-6}
, {0x1.dbf5080000000p-5}
, {0x1.21de100000000p-7}
, {0x1.d613680000000p-6}
, {0x1.ab4b600000000p-7}
, {-0x1.ffbda40000000p-5}
, {-0x1.b755700000000p-6}
, {-0x1.1579800000000p-9}
, {0x1.06cea00000000p-7}
, {0x1.5eb22c0000000p-5}
, {0x1.3cf8300000000p-5}
, {0x1.b943a80000000p-5}
, {-0x1.e43afc0000000p-5}
, {-0x1.37dc340000000p-5}
, {-0x1.89f8620000000p-5}
, {0x1.6742d00000000p-6}
, {0x1.2e7f800000000p-4}
, {-0x1.31ede40000000p-4}
, {-0x1.4ab61c0000000p-5}
, {0x1.0f40dc0000000p-4}
, {0x1.8efc100000000p-5}
, {0x1.543af40000000p-5}
, {-0x1.0dd9980000000p-4}
, {-0x1.ae29b00000000p-5}
, {-0x1.3431560000000p-4}
, {0x1.2920c80000000p-4}
, {-0x1.2e34280000000p-4}
, {0x1.0c34500000000p-6}
, {-0x1.fb2bd00000000p-7}
, {0x1.224f600000000p-4}
, {0x1.15f3b00000000p-6}
, {0x1.221a100000000p-4}
, {-0x1.1d789c0000000p-5}
, {0x1.a8c0980000000p-6}
, {0x1.f7f8b80000000p-5}
, {-0x1.34139a0000000p-4}
, {0x1.e038800000000p-7}
, {0x1.efb8400000000p-8}
, {-0x1.0408300000000p-6}
, {-0x1.dc910c0000000p-5}
, {0x1.8c0bbc0000000p-5}
, {-0x1.e3e8c20000000p-5}
, {0x1.0c86c00000000p-9}
, {-0x1.38c7780000000p-6}
, {0x1.ced5400000000p-5}
, {-0x1.204ee20000000p-4}
, {-0x1.0e026c0000000p-5}
, {-0x1.47ee800000000p-8}
, {0x1.19a8580000000p-6}
, {0x1.0a4c040000000p-4}
, {-0x1.07619e0000000p-5}
, {-0x1.646c000000000p-10}
, {-0x1.e747800000000p-8}
, {0x1.2408f40000000p-4}
, {-0x1.ceb8780000000p-6}
, {0x1.7aac000000000p-5}
, {-0x1.291b940000000p-6}
, {0x1.7200780000000p-6}
, {0x1.8dd1a00000000p-8}
, {0x1.5ddee80000000p-6}
}
, {{-0x1.028ede0000000p-4}
, {0x1.5f7aa00000000p-7}
, {0x1.abafe00000000p-6}
, {0x1.8e41180000000p-6}
, {0x1.eb63400000000p-8}
, {0x1.6868740000000p-5}
, {0x1.03bec00000000p-7}
, {0x1.456e680000000p-5}
, {0x1.23a1340000000p-4}
, {-0x1.8f70640000000p-6}
, {-0x1.668ef00000000p-7}
, {-0x1.4735920000000p-5}
, {-0x1.b03ac40000000p-5}
, {-0x1.b156000000000p-5}
, {0x1.9be0380000000p-5}
, {-0x1.6a36740000000p-5}
, {-0x1.92633c0000000p-5}
, {-0x1.8b45980000000p-5}
, {-0x1.92f0000000000p-14}
, {0x1.67ed240000000p-5}
, {-0x1.31a3e00000000p-8}
, {0x1.b081100000000p-5}
, {0x1.19b0600000000p-5}
, {-0x1.f2bed60000000p-5}
, {0x1.0185780000000p-6}
, {-0x1.66ef720000000p-5}
, {-0x1.0c54400000000p-5}
, {0x1.4abf200000000p-6}
, {-0x1.81740c0000000p-5}
, {0x1.e0a0800000000p-8}
, {0x1.de71f00000000p-5}
, {-0x1.60f2180000000p-6}
, {0x1.263ba00000000p-7}
, {0x1.f467080000000p-6}
, {0x1.0b63a80000000p-5}
, {0x1.d852f00000000p-5}
, {-0x1.053bae0000000p-4}
, {0x1.709ca00000000p-8}
, {0x1.03cadc0000000p-5}
, {0x1.30ac400000000p-7}
, {-0x1.f3e61c0000000p-5}
, {0x1.f081f00000000p-5}
, {-0x1.0320800000000p-9}
, {-0x1.415a100000000p-6}
, {0x1.2c72340000000p-5}
, {-0x1.89c9400000000p-8}
, {-0x1.e68c0a0000000p-5}
, {-0x1.4017360000000p-5}
, {-0x1.f1f8a00000000p-5}
, {0x1.accf880000000p-6}
, {-0x1.0fa63a0000000p-5}
, {0x1.92ce000000000p-8}
, {-0x1.8abe400000000p-9}
, {-0x1.fff4100000000p-6}
, {-0x1.21749e0000000p-5}
, {0x1.7a4af00000000p-5}
, {-0x1.0b72600000000p-7}
, {0x1.bef0400000000p-7}
, {0x1.0d56980000000p-4}
, {-0x1.a662dc0000000p-6}
, {0x1.bfe1b80000000p-6}
, {-0x1.27671c0000000p-4}
, {-0x1.b2f5500000000p-7}
, {-0x1.a5731c0000000p-5}
, {-0x1.91c39e0000000p-5}
, {0x1.30d0cc0000000p-4}
, {0x1.1ebe100000000p-4}
, {-0x1.400eda0000000p-5}
, {-0x1.badaba0000000p-5}
, {0x1.7307b40000000p-5}
, {-0x1.6f61900000000p-7}
, {-0x1.5bea000000000p-10}
, {0x1.325be00000000p-6}
, {-0x1.db467e0000000p-5}
, {0x1.9b97000000000p-5}
, {-0x1.12ac000000000p-12}
, {0x1.e3c1800000000p-6}
, {-0x1.5c04a00000000p-6}
, {-0x1.6e80600000000p-8}
, {0x1.1dc8800000000p-4}
}
, {{-0x1.9007a80000000p-5}
, {-0x1.1dc1700000000p-7}
, {-0x1.1bdaac0000000p-4}
, {0x1.1433c00000000p-4}
, {-0x1.4ccd200000000p-7}
, {0x1.dfcb080000000p-6}
, {-0x1.b3b2700000000p-7}
, {0x1.e9c8000000000p-6}
, {0x1.3dca600000000p-7}
, {0x1.d110880000000p-5}
, {0x1.93b2d00000000p-7}
, {-0x1.26acfa0000000p-4}
, {0x1.c5f3780000000p-5}
, {0x1.fedae00000000p-5}
, {0x1.048aa00000000p-8}
, {0x1.ce9c280000000p-6}
, {-0x1.aa8f900000000p-6}
, {-0x1.86fc400000000p-7}
, {0x1.4e0f880000000p-6}
, {-0x1.7583d40000000p-5}
, {-0x1.16bf540000000p-4}
, {0x1.07abc80000000p-4}
, {-0x1.8b7f200000000p-7}
, {0x1.539b600000000p-6}
, {-0x1.fd05040000000p-6}
, {0x1.2840900000000p-5}
, {-0x1.119ab20000000p-5}
, {-0x1.6addc00000000p-6}
, {-0x1.9358800000000p-5}
, {-0x1.8530d00000000p-6}
, {-0x1.6948b00000000p-7}
, {-0x1.17b5ca0000000p-4}
, {-0x1.8a24dc0000000p-5}
, {-0x1.ec40a00000000p-5}
, {-0x1.b092f00000000p-6}
, {-0x1.228f2c0000000p-4}
, {0x1.d971d00000000p-6}
, {0x1.c7dc380000000p-5}
, {-0x1.e184600000000p-8}
, {0x1.49f3c80000000p-6}
, {0x1.01c8000000000p-6}
, {-0x1.0b91240000000p-4}
, {0x1.fbf4900000000p-5}
, {0x1.bbeec00000000p-5}
, {-0x1.93b8040000000p-5}
, {0x1.1a3a280000000p-5}
, {-0x1.8161780000000p-5}
, {0x1.9301d80000000p-6}
, {-0x1.e6784a0000000p-5}
, {-0x1.08efd00000000p-5}
, {0x1.aa58900000000p-6}
, {0x1.3626a80000000p-5}
, {0x1.00a49c0000000p-4}
, {0x1.a4f6b00000000p-7}
, {-0x1.b7d7540000000p-6}
, {0x1.2f9af00000000p-4}
, {0x1.6a8b300000000p-6}
, {-0x1.9c20b40000000p-6}
, {0x1.1540e00000000p-6}
, {0x1.2e0d5c0000000p-4}
, {-0x1.17e7800000000p-8}
, {-0x1.6404800000000p-5}
, {0x1.79a5a00000000p-8}
, {0x1.5052a00000000p-5}
, {-0x1.f64be00000000p-7}
, {0x1.563da00000000p-5}
, {0x1.1034040000000p-4}
, {0x1.1292280000000p-6}
, {-0x1.8763400000000p-8}
, {0x1.33340c0000000p-4}
, {-0x1.2be4b60000000p-4}
, {0x1.3a4f680000000p-6}
, {-0x1.3806400000000p-6}
, {0x1.e047480000000p-6}
, {-0x1.d9d2600000000p-8}
, {0x1.6717600000000p-6}
, {0x1.9baea00000000p-5}
, {0x1.2c6b400000000p-5}
, {0x1.904e880000000p-5}
, {0x1.1f63800000000p-4}
}
, {{0x1.d1a5680000000p-6}
, {0x1.0444140000000p-4}
, {0x1.90f4a40000000p-5}
, {-0x1.b053420000000p-5}
, {-0x1.2551060000000p-5}
, {-0x1.20499a0000000p-4}
, {-0x1.1f38080000000p-5}
, {0x1.67b4500000000p-7}
, {0x1.027d640000000p-4}
, {-0x1.f677d80000000p-5}
, {-0x1.53aed00000000p-6}
, {-0x1.06caac0000000p-4}
, {-0x1.58f9b40000000p-6}
, {-0x1.00e87e0000000p-5}
, {-0x1.ac973e0000000p-5}
, {0x1.4037600000000p-6}
, {-0x1.422bf60000000p-5}
, {0x1.4e66700000000p-6}
, {0x1.384dc00000000p-5}
, {-0x1.8be6200000000p-8}
, {-0x1.a38af20000000p-5}
, {0x1.7e71400000000p-5}
, {-0x1.cebef80000000p-5}
, {-0x1.ace3900000000p-7}
, {-0x1.c4a0000000000p-7}
, {0x1.08e9600000000p-4}
, {-0x1.10f7520000000p-4}
, {0x1.19f4740000000p-4}
, {0x1.efaee00000000p-5}
, {-0x1.1cacfe0000000p-4}
, {0x1.076eb00000000p-4}
, {0x1.8371b40000000p-5}
, {-0x1.2532a40000000p-4}
, {0x1.e6f7300000000p-6}
, {-0x1.05f3000000000p-8}
, {-0x1.643efc0000000p-5}
, {0x1.c71cd00000000p-5}
, {0x1.1438400000000p-4}
, {-0x1.d590580000000p-5}
, {0x1.acd7d80000000p-5}
, {-0x1.28ba220000000p-5}
, {0x1.3e91180000000p-5}
, {0x1.812f000000000p-10}
, {0x1.28584c0000000p-4}
, {0x1.ee0b280000000p-5}
, {-0x1.0bca200000000p-4}
, {-0x1.b0e6280000000p-5}
, {0x1.f892b00000000p-5}
, {0x1.eb00d00000000p-5}
, {0x1.02e0480000000p-4}
, {0x1.1bc92c0000000p-4}
, {-0x1.f82e380000000p-5}
, {-0x1.aec2240000000p-5}
, {-0x1.6a9bc00000000p-7}
, {-0x1.9b01dc0000000p-5}
, {-0x1.fd908c0000000p-6}
, {-0x1.4f66000000000p-12}
, {0x1.56ba400000000p-8}
, {-0x1.630e1a0000000p-5}
, {-0x1.33ce5e0000000p-4}
, {-0x1.6280400000000p-6}
, {0x1.8d77ac0000000p-5}
, {-0x1.c7e1d00000000p-5}
, {-0x1.8a7d880000000p-5}
, {-0x1.5999400000000p-8}
, {-0x1.b4fcc80000000p-5}
, {0x1.8184300000000p-5}
, {0x1.c925a80000000p-6}
, {-0x1.0344c20000000p-4}
, {0x1.4aac600000000p-8}
, {0x1.f883f80000000p-5}
, {0x1.1e27c00000000p-9}
, {-0x1.834d8c0000000p-5}
, {-0x1.7516e80000000p-5}
, {0x1.76f4600000000p-7}
, {0x1.8b6a840000000p-5}
, {0x1.4af0ac0000000p-5}
, {0x1.acaca80000000p-5}
, {0x1.01eb6c0000000p-5}
, {-0x1.02f5ea0000000p-5}
}
}
;

#undef INPUT_CHANNELS
#undef CONV_FILTERS
#undef CONV_KERNEL_SIZE
#undef CONV_GROUPS