/**
  ******************************************************************************
  * @file    weights/conv1d.cc
  * @author  Pierre-Emmanuel Novac <penovac@unice.fr>, LEAT, CNRS, Université Côte d'Azur, France
  * @version 1.0.0
  * @date    24 march 2020
  * @brief   Template generating plain C code for the implementation of Convolutional Neural Networks on MCU
  */

#include <stdint.h>

#define INPUT_CHANNELS    12
#define CONV_FILTERS      8
#define CONV_KERNEL_SIZE  3
#define CONV_GROUPS       1


const float  conv1d_13_bias[CONV_FILTERS] = {0x0.0p+0, 0x0.0p+0, 0x0.0p+0, 0x0.0p+0, 0x0.0p+0, 0x0.0p+0, 0x0.0p+0, 0x0.0p+0}
;

const float  conv1d_13_kernel[CONV_FILTERS][CONV_KERNEL_SIZE][INPUT_CHANNELS / CONV_GROUPS] = {{{0x1.d432d40000000p-3, -0x1.1ef25e0000000p-2, -0x1.421c6c0000000p-3, 0x1.f9b4f00000000p-5, -0x1.5106f00000000p-5, 0x1.890d2c0000000p-3, -0x1.0353e80000000p-3, -0x1.b49c500000000p-5, 0x1.a35c1c0000000p-3, 0x1.09520c0000000p-3, -0x1.8bb2500000000p-3, 0x1.7dbf400000000p-4}
, {-0x1.ff4fe00000000p-6, 0x1.3e1a740000000p-3, 0x1.bc27f80000000p-4, -0x1.a5a2060000000p-3, -0x1.2c0b200000000p-6, -0x1.5a8d600000000p-5, 0x1.1792820000000p-2, -0x1.b540900000000p-4, 0x1.cf04640000000p-3, -0x1.91e0400000000p-5, 0x1.0f21d20000000p-2, -0x1.90db1c0000000p-3}
, {0x1.2cb77e0000000p-2, 0x1.0c5a800000000p-3, -0x1.bb27e40000000p-3, -0x1.69ed000000000p-5, -0x1.8bc9e00000000p-5, -0x1.8736b80000000p-3, 0x1.9f982c0000000p-3, 0x1.92b6840000000p-3, -0x1.564f6a0000000p-3, -0x1.f948e40000000p-3, -0x1.b087700000000p-5, -0x1.e87b300000000p-5}
}
, {{0x1.15caea0000000p-2, -0x1.01a4140000000p-2, -0x1.32dad00000000p-2, 0x1.c25b000000000p-6, -0x1.c02fa00000000p-6, 0x1.6629600000000p-3, 0x1.cbf72c0000000p-3, 0x1.ba6ab40000000p-3, -0x1.13e3800000000p-7, -0x1.a5d2c00000000p-7, 0x1.0cc79c0000000p-3, -0x1.f107e40000000p-3}
, {0x1.9786940000000p-3, 0x1.3f940e0000000p-2, 0x1.27af720000000p-2, 0x1.4f67980000000p-4, -0x1.a134300000000p-4, -0x1.a7fc140000000p-3, 0x1.52ab2c0000000p-3, -0x1.0f7aae0000000p-3, -0x1.8855a80000000p-3, 0x1.3eb0c80000000p-4, -0x1.237f900000000p-5, 0x1.dfdcfc0000000p-3}
, {0x1.010c300000000p-3, -0x1.f7b6e40000000p-4, -0x1.d1aa5c0000000p-3, 0x1.c404d80000000p-4, 0x1.9e581c0000000p-3, -0x1.227a3e0000000p-2, -0x1.1baa120000000p-3, 0x1.21036a0000000p-2, 0x1.c719840000000p-3, -0x1.1f9fe00000000p-2, 0x1.25f5a60000000p-2, 0x1.3602000000000p-8}
}
, {{0x1.5d5eb00000000p-5, -0x1.3eb2960000000p-2, 0x1.032fc80000000p-3, 0x1.96e4400000000p-4, -0x1.38bdea0000000p-3, -0x1.71e3e00000000p-5, -0x1.2662500000000p-2, 0x1.dd245c0000000p-3, 0x1.5096bc0000000p-3, 0x1.4ff7f00000000p-4, 0x1.03ebc80000000p-4, -0x1.1617a40000000p-4}
, {0x1.183efe0000000p-2, -0x1.80b56c0000000p-4, -0x1.b116e00000000p-5, 0x1.1212b80000000p-4, -0x1.2945f40000000p-2, -0x1.3b3a7a0000000p-3, 0x1.00f2100000000p-5, -0x1.02bf000000000p-2, -0x1.564afe0000000p-3, 0x1.f9fd540000000p-3, -0x1.a1c7640000000p-4, 0x1.f6ab000000000p-8}
, {0x1.84cdf80000000p-4, -0x1.7ab8300000000p-3, 0x1.812da40000000p-3, -0x1.d83a140000000p-4, -0x1.6df4a60000000p-3, -0x1.ead0fc0000000p-4, 0x1.d9cff80000000p-4, -0x1.0479040000000p-2, 0x1.bd9bc40000000p-3, 0x1.893a740000000p-3, 0x1.89aa000000000p-6, -0x1.61b1560000000p-3}
}
, {{-0x1.2f97b20000000p-2, -0x1.3985880000000p-2, -0x1.471de00000000p-6, 0x1.642a700000000p-5, -0x1.b34b000000000p-5, 0x1.4cd7d80000000p-3, -0x1.fbfb000000000p-9, 0x1.8af79c0000000p-3, -0x1.2129ac0000000p-4, -0x1.0975a80000000p-4, -0x1.9cc7800000000p-3, -0x1.5280360000000p-3}
, {-0x1.317c780000000p-2, 0x1.2aa7a00000000p-5, -0x1.2deaf80000000p-2, 0x1.c62b380000000p-4, -0x1.c7543c0000000p-4, 0x1.3c96a80000000p-4, -0x1.3ed9100000000p-2, 0x1.3fdb460000000p-2, 0x1.1da8080000000p-3, 0x1.38b1dc0000000p-3, -0x1.0ec90a0000000p-2, -0x1.bd15360000000p-3}
, {-0x1.3498840000000p-2, 0x1.e0d4d80000000p-4, 0x1.6002d00000000p-5, -0x1.b489140000000p-3, -0x1.0883b60000000p-2, 0x1.cd2cfc0000000p-3, 0x1.052d000000000p-4, 0x1.1d289a0000000p-2, 0x1.de59a00000000p-5, -0x1.2d59d60000000p-2, -0x1.1ddff60000000p-3, -0x1.90d2740000000p-4}
}
, {{0x1.423d380000000p-4, 0x1.0ca3140000000p-3, -0x1.ad892c0000000p-4, -0x1.765c4e0000000p-3, -0x1.26bb5a0000000p-3, -0x1.b6f4200000000p-6, -0x1.20f3800000000p-5, -0x1.e8de380000000p-4, 0x1.1fb9780000000p-3, 0x1.a641900000000p-5, -0x1.40ddbe0000000p-2, 0x1.f0d9700000000p-5}
, {0x1.03127c0000000p-3, -0x1.4f44160000000p-3, 0x1.638d000000000p-7, -0x1.40da520000000p-2, 0x1.605ae80000000p-3, -0x1.a442740000000p-4, 0x1.e7f8e00000000p-4, 0x1.9052800000000p-6, -0x1.e663d00000000p-5, -0x1.427a940000000p-3, 0x1.cbf4480000000p-4, 0x1.2807460000000p-2}
, {-0x1.12047c0000000p-4, 0x1.0312540000000p-3, -0x1.0577ea0000000p-2, 0x1.bc66c00000000p-5, 0x1.1b5d900000000p-5, 0x1.fbe45c0000000p-3, -0x1.967c7a0000000p-3, -0x1.63dfcc0000000p-4, -0x1.fcbe680000000p-4, 0x1.1a92a60000000p-2, -0x1.5614a00000000p-5, 0x1.c8fb6c0000000p-3}
}
, {{-0x1.b7cb400000000p-6, -0x1.62ac8a0000000p-3, -0x1.4a52c80000000p-4, -0x1.ba9c600000000p-5, -0x1.5b68360000000p-3, -0x1.14e1b00000000p-5, -0x1.2493d40000000p-2, 0x1.de6ed00000000p-4, 0x1.186ac00000000p-7, 0x1.0feaf80000000p-4, 0x1.11ce820000000p-2, -0x1.0fbe460000000p-3}
, {-0x1.216c900000000p-2, 0x1.09ac460000000p-2, -0x1.6d5a600000000p-5, -0x1.41a6b40000000p-4, 0x1.872f8c0000000p-3, -0x1.1537160000000p-2, 0x1.083f200000000p-4, 0x1.c359700000000p-4, 0x1.5a32500000000p-5, 0x1.0cc0000000000p-8, -0x1.c855400000000p-4, -0x1.96411c0000000p-3}
, {-0x1.7c170c0000000p-3, -0x1.d5bc7c0000000p-4, 0x1.3baaf60000000p-2, 0x1.d65bb80000000p-4, 0x1.7518300000000p-5, 0x1.5430580000000p-4, -0x1.1bf1600000000p-6, 0x1.2bda4a0000000p-2, -0x1.bc87000000000p-7, -0x1.684d400000000p-7, -0x1.ad4b580000000p-3, -0x1.98af340000000p-3}
}
, {{-0x1.2f28b40000000p-4, 0x1.1c3ec60000000p-2, 0x1.3505600000000p-6, 0x1.4791b80000000p-3, 0x1.278de20000000p-2, -0x1.4f30b80000000p-4, 0x1.43b5600000000p-6, -0x1.2a7b240000000p-3, 0x1.2d98200000000p-4, -0x1.5b73a00000000p-5, -0x1.de48dc0000000p-3, -0x1.4b3e600000000p-3}
, {-0x1.2203940000000p-2, -0x1.99fdbc0000000p-4, 0x1.f8aa280000000p-4, -0x1.a2600c0000000p-3, -0x1.6c64260000000p-3, 0x1.315ac60000000p-2, -0x1.b6a6800000000p-3, -0x1.4ac3c20000000p-3, 0x1.3b9f220000000p-2, 0x1.830c480000000p-4, -0x1.cf9a800000000p-6, -0x1.9af2300000000p-5}
, {-0x1.46a2b00000000p-4, -0x1.0a999a0000000p-2, 0x1.bb7bec0000000p-3, -0x1.a4be740000000p-3, 0x1.2355cc0000000p-3, -0x1.fc27a40000000p-3, 0x1.b49d3c0000000p-3, 0x1.b369b40000000p-3, -0x1.1001c00000000p-2, 0x1.4c31f00000000p-4, 0x1.d2c0400000000p-4, -0x1.2be9140000000p-2}
}
, {{-0x1.ad27100000000p-4, 0x1.bfd1680000000p-4, -0x1.10c5100000000p-2, -0x1.777d880000000p-3, -0x1.0ad1000000000p-9, 0x1.00427e0000000p-2, 0x1.951f280000000p-4, 0x1.b1c7580000000p-4, 0x1.0aebae0000000p-2, -0x1.4261760000000p-2, -0x1.b34e260000000p-3, 0x1.b33fa40000000p-3}
, {0x1.0674000000000p-10, 0x1.b5cfc00000000p-4, 0x1.72ce080000000p-4, 0x1.ec9ea00000000p-6, 0x1.cc62540000000p-3, 0x1.ec87d80000000p-4, 0x1.219b6a0000000p-2, -0x1.6f59280000000p-4, -0x1.8a53880000000p-3, 0x1.adc9700000000p-4, 0x1.a8c96c0000000p-3, -0x1.26e18a0000000p-2}
, {-0x1.a8f2100000000p-3, 0x1.1277a60000000p-2, 0x1.55b24c0000000p-3, 0x1.926c340000000p-3, 0x1.3b3dea0000000p-2, 0x1.1128560000000p-2, -0x1.30194e0000000p-3, 0x1.b3d3340000000p-3, 0x1.d084f80000000p-4, 0x1.21bcb80000000p-4, 0x1.2eb7880000000p-3, -0x1.914de80000000p-3}
}
}
;

#undef INPUT_CHANNELS
#undef CONV_FILTERS
#undef CONV_KERNEL_SIZE
#undef CONV_GROUPS