/**
  ******************************************************************************
  * @file    weights/conv1d.cc
  * @author  Pierre-Emmanuel Novac <penovac@unice.fr>, LEAT, CNRS, Université Côte d'Azur, France
  * @version 1.0.0
  * @date    24 march 2020
  * @brief   Template generating plain C code for the implementation of Convolutional Neural Networks on MCU
  */

#include <stdint.h>

#define INPUT_CHANNELS    64
#define CONV_FILTERS      32
#define CONV_KERNEL_SIZE  3
#define CONV_GROUPS       1


const float  conv1d_1_bias[CONV_FILTERS] = {0x0.0p+0, 0x0.0p+0, 0x0.0p+0, 0x0.0p+0, 0x0.0p+0, 0x0.0p+0, 0x0.0p+0, 0x0.0p+0, 0x0.0p+0, 0x0.0p+0, 0x0.0p+0, 0x0.0p+0, 0x0.0p+0, 0x0.0p+0, 0x0.0p+0, 0x0.0p+0, 0x0.0p+0, 0x0.0p+0, 0x0.0p+0, 0x0.0p+0, 0x0.0p+0, 0x0.0p+0, 0x0.0p+0, 0x0.0p+0, 0x0.0p+0, 0x0.0p+0, 0x0.0p+0, 0x0.0p+0, 0x0.0p+0, 0x0.0p+0, 0x0.0p+0, 0x0.0p+0}
;

const float  conv1d_1_kernel[CONV_FILTERS][CONV_KERNEL_SIZE][INPUT_CHANNELS / CONV_GROUPS] = {{{-0x1.dac8940000000p-5, 0x1.a22c700000000p-6, 0x1.1ad2f00000000p-3, -0x1.61d7000000000p-9, 0x1.abee400000000p-7, 0x1.18228c0000000p-3, 0x1.dfaad00000000p-5, -0x1.cddc6c0000000p-4, -0x1.d52c580000000p-4, 0x1.a75d600000000p-4, 0x1.20542c0000000p-3, 0x1.d818c00000000p-8, 0x1.fde3c00000000p-5, -0x1.1887140000000p-5, -0x1.f37aec0000000p-5, -0x1.f0daac0000000p-5, 0x1.871f880000000p-5, -0x1.b1cba00000000p-4, -0x1.9bf58a0000000p-4, 0x1.74e8240000000p-4, -0x1.a47c000000000p-8, -0x1.24a3660000000p-3, 0x1.9692b00000000p-4, -0x1.9d32000000000p-5, 0x1.1dbda00000000p-5, 0x1.7a2da00000000p-5, 0x1.9838e80000000p-4, -0x1.36808a0000000p-4, -0x1.bf2c940000000p-5, 0x1.1454d80000000p-5, -0x1.005c7c0000000p-4, -0x1.91f9120000000p-4, -0x1.b5df600000000p-5, -0x1.5f12a40000000p-4, 0x1.6da3480000000p-5, 0x1.1224800000000p-8, -0x1.b308b40000000p-5, -0x1.c664180000000p-5, 0x1.28a8e80000000p-4, -0x1.1ea8dc0000000p-3, 0x1.5c28300000000p-4, -0x1.e52cdc0000000p-5, 0x1.00d3200000000p-5, 0x1.9924e00000000p-6, -0x1.3af3d40000000p-5, 0x1.1a48c80000000p-3, -0x1.07add40000000p-3, 0x1.9119400000000p-8, -0x1.25522c0000000p-5, 0x1.01063c0000000p-4, 0x1.0272000000000p-8, 0x1.834b100000000p-4, -0x1.50f4ac0000000p-4, -0x1.ab51cc0000000p-4, -0x1.91a9000000000p-4, 0x1.8c30980000000p-4, 0x1.1593c00000000p-5, 0x1.a02bac0000000p-4, -0x1.d6cca40000000p-4, -0x1.732c740000000p-4, 0x1.7664b80000000p-4, 0x1.1a14f40000000p-3, 0x1.183a600000000p-4, 0x1.1f64e40000000p-4}
, {0x1.2def800000000p-5, 0x1.e032400000000p-7, 0x1.7fcea80000000p-4, 0x1.9483040000000p-4, -0x1.44b8680000000p-4, 0x1.6c8e000000000p-5, -0x1.6389940000000p-4, 0x1.9e9fb00000000p-5, -0x1.2572ba0000000p-3, 0x1.08a6240000000p-3, -0x1.bbd7d40000000p-4, -0x1.e93e400000000p-8, 0x1.29bc0c0000000p-4, 0x1.20dd940000000p-4, 0x1.2104700000000p-6, -0x1.78810e0000000p-4, -0x1.c80c740000000p-5, 0x1.2c3dd80000000p-5, -0x1.2db7dc0000000p-5, 0x1.7f69600000000p-4, 0x1.e907780000000p-5, -0x1.e09b5c0000000p-5, -0x1.8e3ac80000000p-5, 0x1.0aef9c0000000p-3, 0x1.22fbe40000000p-3, 0x1.9cf1900000000p-6, 0x1.2084300000000p-3, -0x1.05098c0000000p-5, 0x1.8677b00000000p-5, -0x1.3e6aa00000000p-6, 0x1.b75df00000000p-6, 0x1.0e9fc80000000p-3, -0x1.78e6c80000000p-6, 0x1.97ecb40000000p-4, -0x1.4cee8a0000000p-4, 0x1.2825580000000p-4, 0x1.db49f80000000p-5, -0x1.dcf7380000000p-6, 0x1.c71e600000000p-5, 0x1.0c02940000000p-4, -0x1.d239d00000000p-5, 0x1.15e8c00000000p-4, 0x1.1424000000000p-4, 0x1.1193400000000p-4, -0x1.0d79460000000p-4, -0x1.9da9280000000p-5, -0x1.b074f00000000p-6, 0x1.22fa580000000p-4, 0x1.5ad8000000000p-4, -0x1.0b1b440000000p-5, 0x1.3a792c0000000p-4, -0x1.d68c600000000p-6, 0x1.b611100000000p-4, -0x1.c440000000000p-8, -0x1.c390800000000p-8, -0x1.172b800000000p-3, -0x1.20d9a20000000p-3, 0x1.a40b040000000p-4, -0x1.d074040000000p-5, -0x1.ac3b900000000p-5, 0x1.1325e40000000p-3, -0x1.8864b40000000p-4, 0x1.9f3b340000000p-4, 0x1.6cac600000000p-7}
, {0x1.5e82980000000p-4, 0x1.46e5680000000p-5, -0x1.1329260000000p-3, -0x1.db98580000000p-6, 0x1.ee53d00000000p-6, -0x1.445f880000000p-4, 0x1.9aebac0000000p-4, -0x1.d808100000000p-5, 0x1.e50b500000000p-5, -0x1.0388700000000p-6, 0x1.6ffb240000000p-4, 0x1.6b86380000000p-5, -0x1.1151f20000000p-4, -0x1.07fdee0000000p-3, -0x1.a2a16a0000000p-4, 0x1.a154a00000000p-7, -0x1.4c56fc0000000p-5, 0x1.018cdc0000000p-3, -0x1.f5d8a00000000p-5, 0x1.9f939c0000000p-4, 0x1.ab06f80000000p-5, -0x1.592b800000000p-9, -0x1.1c69f80000000p-3, 0x1.17db300000000p-3, -0x1.8096ec0000000p-4, -0x1.766b0c0000000p-5, 0x1.05d3e00000000p-3, -0x1.a836e00000000p-6, -0x1.f61d800000000p-9, -0x1.ff49e00000000p-7, -0x1.f242e40000000p-4, 0x1.0a87240000000p-4, -0x1.edd3f00000000p-6, 0x1.4dc2a00000000p-6, 0x1.8d4fe00000000p-4, 0x1.5dc3180000000p-5, 0x1.a7f9180000000p-5, -0x1.0463e00000000p-6, 0x1.5258240000000p-4, 0x1.e1a0600000000p-7, 0x1.83a0780000000p-4, 0x1.af06f80000000p-5, -0x1.6985e40000000p-4, 0x1.e8b6f80000000p-4, -0x1.92b7200000000p-4, 0x1.049dbc0000000p-3, -0x1.e463e80000000p-4, -0x1.8a96240000000p-4, 0x1.13adb00000000p-3, -0x1.cf2e2c0000000p-5, 0x1.0401680000000p-4, -0x1.d2d4000000000p-9, -0x1.986ae40000000p-5, 0x1.85c0800000000p-6, 0x1.35c5d00000000p-5, -0x1.5007980000000p-6, 0x1.e6f8c80000000p-5, 0x1.03fc9c0000000p-4, 0x1.5877780000000p-4, -0x1.0044800000000p-9, 0x1.a51c400000000p-4, -0x1.25e3c60000000p-4, -0x1.407cb80000000p-4, -0x1.84abd00000000p-6}
}
, {{-0x1.8b54500000000p-6, 0x1.13e2e80000000p-5, -0x1.83a9a00000000p-7, -0x1.3d6ba20000000p-4, -0x1.16552e0000000p-4, 0x1.36e0000000000p-10, 0x1.a2c7300000000p-6, 0x1.1806780000000p-5, 0x1.8597400000000p-6, 0x1.2337e80000000p-3, -0x1.87ff680000000p-5, 0x1.6150ec0000000p-4, 0x1.cbe3900000000p-4, -0x1.7fadb60000000p-4, 0x1.15c3300000000p-5, 0x1.3bef780000000p-5, -0x1.9338800000000p-9, 0x1.f4f9200000000p-7, -0x1.edd3ee0000000p-4, -0x1.5c36aa0000000p-4, -0x1.a4bb2e0000000p-4, -0x1.c336080000000p-4, -0x1.20edb60000000p-4, 0x1.18dca80000000p-3, -0x1.c3c2a00000000p-5, -0x1.d2685c0000000p-4, -0x1.0f5e2c0000000p-4, -0x1.1b25a40000000p-4, 0x1.df35080000000p-5, 0x1.7100000000000p-16, 0x1.1db5b40000000p-3, 0x1.2245200000000p-4, 0x1.8c1f000000000p-7, 0x1.1297640000000p-4, -0x1.0fd8980000000p-3, -0x1.08aa800000000p-9, -0x1.7f54a80000000p-4, -0x1.89de9c0000000p-4, -0x1.6ce3d00000000p-5, 0x1.c873400000000p-4, -0x1.563ad00000000p-4, 0x1.908b200000000p-6, 0x1.d9fda00000000p-4, 0x1.4927900000000p-6, -0x1.67b09e0000000p-4, -0x1.9b48300000000p-5, 0x1.5e05780000000p-5, -0x1.0b77080000000p-3, -0x1.90e0600000000p-4, 0x1.0c36840000000p-3, -0x1.37e2400000000p-8, -0x1.a09a600000000p-4, 0x1.dfbec80000000p-4, -0x1.664ace0000000p-4, 0x1.0c67740000000p-3, -0x1.05de320000000p-4, 0x1.d9cd200000000p-5, -0x1.3f41340000000p-5, -0x1.26aa1c0000000p-3, -0x1.f9d8c60000000p-4, 0x1.b372180000000p-4, 0x1.9693b00000000p-4, -0x1.a533580000000p-4, -0x1.13dbc40000000p-3}
, {0x1.e5c6600000000p-6, 0x1.c5e9680000000p-5, 0x1.af5c4c0000000p-4, -0x1.ddec000000000p-7, 0x1.4d2b000000000p-9, 0x1.4829000000000p-10, -0x1.2687580000000p-3, -0x1.7758f20000000p-4, 0x1.1d62340000000p-3, 0x1.f0a2380000000p-4, 0x1.1e7b800000000p-5, 0x1.5ca3100000000p-4, -0x1.3146b60000000p-4, 0x1.4400180000000p-4, 0x1.b35f800000000p-7, 0x1.1545500000000p-3, 0x1.80dff00000000p-5, -0x1.9c90d80000000p-5, 0x1.89e5e80000000p-4, -0x1.6ae6f20000000p-4, 0x1.40c7200000000p-4, 0x1.1aed4c0000000p-3, 0x1.ccf7100000000p-4, -0x1.f8bba00000000p-7, 0x1.d58e680000000p-5, 0x1.c166200000000p-4, -0x1.e913be0000000p-4, -0x1.058e280000000p-3, -0x1.dc86520000000p-4, 0x1.718bf80000000p-4, 0x1.67d6800000000p-8, -0x1.af34a60000000p-4, 0x1.851e2c0000000p-4, 0x1.138d400000000p-8, -0x1.1302000000000p-9, 0x1.3440d00000000p-4, 0x1.13f2bc0000000p-4, -0x1.20e6e40000000p-4, 0x1.f49db00000000p-5, -0x1.4414140000000p-4, -0x1.95d8400000000p-7, 0x1.2e91980000000p-4, -0x1.8c2c400000000p-7, -0x1.5608380000000p-4, 0x1.0eb4300000000p-4, 0x1.165a600000000p-5, -0x1.6825760000000p-4, -0x1.7424180000000p-4, 0x1.b1f4b80000000p-4, 0x1.6132000000000p-10, 0x1.1a72c00000000p-6, 0x1.1efda00000000p-4, 0x1.c649400000000p-4, -0x1.0b4ebc0000000p-5, -0x1.7fb2540000000p-5, 0x1.3d67fc0000000p-4, -0x1.0474f40000000p-5, 0x1.1821ac0000000p-3, -0x1.17fa1e0000000p-3, -0x1.a002880000000p-4, 0x1.1ffab80000000p-4, 0x1.fe52400000000p-8, 0x1.207b880000000p-5, -0x1.4b90400000000p-7}
, {-0x1.b255700000000p-4, -0x1.1f37ca0000000p-4, 0x1.c040080000000p-4, -0x1.69d0600000000p-5, 0x1.921d200000000p-5, 0x1.ea7af80000000p-4, 0x1.da8f100000000p-5, -0x1.fb75c40000000p-4, -0x1.7c4fe00000000p-5, -0x1.d58d8c0000000p-4, 0x1.29d8a00000000p-7, -0x1.813ec00000000p-5, 0x1.eec2f00000000p-6, -0x1.394a940000000p-4, 0x1.b8e1780000000p-4, -0x1.5c82960000000p-4, 0x1.cf8b400000000p-4, 0x1.235a380000000p-3, 0x1.6294e40000000p-4, -0x1.2772000000000p-8, 0x1.f48b080000000p-4, 0x1.8135bc0000000p-4, -0x1.63b6b80000000p-6, -0x1.d2ee800000000p-8, 0x1.870b580000000p-4, 0x1.0c4b000000000p-7, -0x1.fe9dbc0000000p-5, -0x1.03b4560000000p-4, 0x1.01d2300000000p-5, -0x1.fead100000000p-4, 0x1.9de1980000000p-5, 0x1.f301400000000p-6, 0x1.fc7cb80000000p-5, -0x1.d214a40000000p-5, 0x1.7c1fd00000000p-4, 0x1.3904d00000000p-5, 0x1.6d38900000000p-4, -0x1.2b719c0000000p-4, -0x1.c8d6500000000p-5, 0x1.21c7bc0000000p-3, -0x1.6519800000000p-6, -0x1.a9b7b40000000p-4, 0x1.009b100000000p-3, -0x1.d96f400000000p-6, -0x1.4fd18c0000000p-5, -0x1.1864cc0000000p-5, 0x1.c034880000000p-4, -0x1.7020280000000p-5, -0x1.33cd300000000p-6, 0x1.68c4440000000p-4, -0x1.1c69fc0000000p-3, -0x1.1c20000000000p-13, 0x1.f6a5100000000p-6, -0x1.abfbe80000000p-4, -0x1.b57f6c0000000p-4, -0x1.c08b800000000p-8, -0x1.14eba00000000p-7, 0x1.fa93900000000p-6, 0x1.a5fda00000000p-6, -0x1.adef640000000p-5, -0x1.1c9e640000000p-5, -0x1.1a38000000000p-12, 0x1.2e4f6c0000000p-4, 0x1.f8d5200000000p-5}
}
, {{-0x1.9551240000000p-4, -0x1.aceba40000000p-5, -0x1.7702600000000p-4, 0x1.1a49d80000000p-5, -0x1.60a8e80000000p-5, -0x1.0fd0da0000000p-4, -0x1.6b01600000000p-7, -0x1.64f8ce0000000p-4, 0x1.4aa1240000000p-4, -0x1.498fe80000000p-5, 0x1.0eaf580000000p-4, -0x1.254ad00000000p-6, 0x1.3522680000000p-5, -0x1.d3453c0000000p-4, -0x1.6ef96c0000000p-5, 0x1.3e23c40000000p-4, 0x1.bad5680000000p-4, -0x1.04d0b40000000p-3, -0x1.4d78280000000p-5, 0x1.8eb9480000000p-4, -0x1.f133e60000000p-4, 0x1.552c980000000p-5, -0x1.318c880000000p-4, 0x1.3b532c0000000p-4, 0x1.7fef080000000p-4, 0x1.20aa100000000p-6, -0x1.09bb980000000p-3, -0x1.5cd1000000000p-7, -0x1.0308c60000000p-3, 0x1.9556140000000p-4, 0x1.2459680000000p-4, 0x1.09f6740000000p-4, -0x1.23b9a00000000p-4, 0x1.308ee80000000p-5, -0x1.ca9a960000000p-4, -0x1.e182700000000p-6, 0x1.7d412c0000000p-4, -0x1.651ac20000000p-4, 0x1.81d1e80000000p-5, -0x1.b3cfda0000000p-4, -0x1.4b38380000000p-4, 0x1.7939600000000p-4, -0x1.0426800000000p-8, -0x1.beed9c0000000p-4, -0x1.903de20000000p-4, -0x1.92b29e0000000p-4, 0x1.eaf3380000000p-5, 0x1.1188a40000000p-3, -0x1.fbf7280000000p-4, -0x1.d34ade0000000p-4, -0x1.18d3a00000000p-7, -0x1.dcf5100000000p-4, -0x1.46b4a80000000p-4, -0x1.108a940000000p-4, 0x1.0812b40000000p-3, 0x1.2790480000000p-4, 0x1.5c7cac0000000p-4, 0x1.6a06900000000p-5, -0x1.ee1ef40000000p-4, 0x1.a63fc80000000p-5, -0x1.c3c34e0000000p-4, 0x1.f78df80000000p-5, 0x1.a9ace00000000p-7, 0x1.4e3ce40000000p-4}
, {-0x1.07c10a0000000p-4, -0x1.9a7b3c0000000p-5, 0x1.4a1be00000000p-4, 0x1.19dca00000000p-7, 0x1.bf00c80000000p-4, 0x1.40a5b80000000p-4, -0x1.9d63000000000p-4, -0x1.1ab9260000000p-3, -0x1.15071c0000000p-5, -0x1.ccd5000000000p-6, 0x1.be1f600000000p-4, -0x1.cc98d00000000p-6, 0x1.0b9c6c0000000p-3, -0x1.d76c640000000p-4, 0x1.3dfb700000000p-5, -0x1.1334b80000000p-3, 0x1.73b4c80000000p-4, 0x1.420ec00000000p-6, 0x1.6190a00000000p-7, 0x1.d2f5800000000p-6, 0x1.ce42680000000p-5, -0x1.0fb7fe0000000p-3, -0x1.abbfc00000000p-4, -0x1.eec7e60000000p-4, 0x1.20ffdc0000000p-4, 0x1.9392000000000p-8, 0x1.7265c00000000p-8, -0x1.f0f8300000000p-5, -0x1.d362380000000p-6, -0x1.0517500000000p-3, -0x1.3b7ca00000000p-7, 0x1.abb07c0000000p-4, -0x1.7cd8000000000p-7, 0x1.decf100000000p-6, -0x1.327fd00000000p-4, 0x1.4199480000000p-4, -0x1.14aed40000000p-3, 0x1.3449000000000p-8, -0x1.3d6a840000000p-5, -0x1.1e5ea40000000p-5, -0x1.63bf400000000p-8, -0x1.ca1b480000000p-4, -0x1.0f87180000000p-5, 0x1.9b65600000000p-7, 0x1.7e09e80000000p-4, 0x1.f234580000000p-4, 0x1.097c0c0000000p-3, 0x1.b676480000000p-5, -0x1.c2d2300000000p-4, 0x1.cd71c00000000p-6, 0x1.2aa2040000000p-4, 0x1.d4ba400000000p-4, 0x1.321d200000000p-5, 0x1.0fd0740000000p-3, -0x1.56a8b80000000p-5, -0x1.831f540000000p-4, -0x1.8f60700000000p-5, 0x1.512be00000000p-7, -0x1.3d19400000000p-5, -0x1.c74e5c0000000p-5, 0x1.4e46200000000p-5, 0x1.1713440000000p-4, 0x1.f462480000000p-5, 0x1.d2bca80000000p-4}
, {-0x1.3be50e0000000p-4, -0x1.26f2960000000p-4, -0x1.b6d9a80000000p-5, -0x1.af9e280000000p-5, -0x1.b0dcec0000000p-5, 0x1.3971d00000000p-5, 0x1.d8ef800000000p-8, -0x1.33ebf00000000p-5, -0x1.0e87380000000p-3, 0x1.93e4280000000p-5, -0x1.1ac9ca0000000p-3, 0x1.336da80000000p-5, -0x1.7b597c0000000p-4, 0x1.5dd6100000000p-5, 0x1.e9b4c80000000p-4, 0x1.0abfa80000000p-3, -0x1.bc52040000000p-5, -0x1.0e6e440000000p-3, 0x1.f8db300000000p-6, 0x1.0362800000000p-7, -0x1.d762800000000p-4, 0x1.e50f580000000p-4, 0x1.47d2a80000000p-4, 0x1.02e3440000000p-4, -0x1.7bb8b80000000p-4, 0x1.22ced40000000p-3, 0x1.125e680000000p-5, -0x1.11e5800000000p-7, 0x1.7fd6740000000p-4, -0x1.43d6440000000p-4, -0x1.4004900000000p-6, 0x1.1c0d040000000p-3, 0x1.1e52700000000p-4, 0x1.0e56340000000p-3, -0x1.6ba7340000000p-4, -0x1.22b4440000000p-3, -0x1.a26ba60000000p-4, -0x1.3578940000000p-5, -0x1.3499380000000p-5, 0x1.08d0700000000p-3, 0x1.032ebc0000000p-3, -0x1.38b6440000000p-4, -0x1.6922000000000p-8, 0x1.63e4380000000p-4, 0x1.c16d000000000p-4, 0x1.3a623c0000000p-4, -0x1.d07b900000000p-4, -0x1.3ffca00000000p-6, 0x1.14dd800000000p-4, 0x1.1ceb600000000p-6, 0x1.1713980000000p-4, 0x1.426fcc0000000p-4, -0x1.a462840000000p-4, 0x1.8c5bf00000000p-4, 0x1.68aa9c0000000p-4, 0x1.a403f80000000p-5, 0x1.5dfb0c0000000p-4, -0x1.f493800000000p-9, -0x1.6518840000000p-4, -0x1.214c000000000p-9, -0x1.bf28600000000p-7, -0x1.002ab00000000p-5, 0x1.7bb5780000000p-4, 0x1.ef56300000000p-5}
}
, {{0x1.e124c80000000p-4, -0x1.37c82e0000000p-4, -0x1.b5cd400000000p-5, 0x1.3cf0e00000000p-4, -0x1.d15a040000000p-5, 0x1.9acf200000000p-4, 0x1.cfeef00000000p-4, -0x1.9be3800000000p-6, 0x1.9bee540000000p-4, -0x1.230c000000000p-10, -0x1.09f5580000000p-3, 0x1.7385c00000000p-7, -0x1.3493b20000000p-4, 0x1.7a91d00000000p-5, 0x1.f82f200000000p-5, 0x1.235ab00000000p-3, -0x1.02f8a00000000p-5, -0x1.72ebd40000000p-4, -0x1.f599a00000000p-4, -0x1.75f2200000000p-7, 0x1.e707d00000000p-6, -0x1.0076160000000p-3, 0x1.20d51c0000000p-4, -0x1.31748a0000000p-4, 0x1.3dd6600000000p-6, 0x1.7fe3800000000p-8, 0x1.f070080000000p-4, -0x1.9f47780000000p-4, -0x1.12c1800000000p-3, -0x1.0e2aaa0000000p-4, 0x1.40384c0000000p-4, 0x1.1bf6e00000000p-6, 0x1.49571c0000000p-4, -0x1.d122bc0000000p-5, 0x1.f8c5880000000p-5, -0x1.1a8cee0000000p-3, 0x1.269ed00000000p-5, 0x1.93c9680000000p-4, -0x1.8e31800000000p-7, -0x1.0706d40000000p-3, 0x1.7ca0000000000p-7, 0x1.3c15b40000000p-4, -0x1.9782400000000p-7, -0x1.1fb5ec0000000p-3, -0x1.b7cc000000000p-11, -0x1.7722c80000000p-4, -0x1.0c15ce0000000p-4, 0x1.2019a00000000p-6, -0x1.b485360000000p-4, 0x1.1de1380000000p-3, 0x1.3ece500000000p-4, -0x1.78e9ce0000000p-4, 0x1.ea79500000000p-4, 0x1.9697700000000p-6, -0x1.1e781c0000000p-4, -0x1.733af40000000p-4, -0x1.8011040000000p-5, 0x1.a0ee180000000p-5, 0x1.f900e80000000p-5, -0x1.e9f48c0000000p-5, 0x1.5435400000000p-7, -0x1.cfeb540000000p-5, 0x1.afaee80000000p-5, 0x1.4646e40000000p-4}
, {-0x1.cbf1100000000p-4, -0x1.06de280000000p-3, -0x1.cac0680000000p-6, -0x1.4df3080000000p-4, -0x1.2165a00000000p-3, 0x1.a3c3c00000000p-4, -0x1.d379c00000000p-6, 0x1.d501200000000p-7, 0x1.3733200000000p-4, 0x1.09390c0000000p-4, -0x1.21d2b40000000p-5, -0x1.eb31000000000p-10, 0x1.22f6b40000000p-3, 0x1.047e340000000p-3, -0x1.21ead00000000p-5, -0x1.f8b4b40000000p-5, -0x1.1e78b00000000p-5, -0x1.7f30800000000p-4, 0x1.196fb80000000p-3, 0x1.f8f3480000000p-4, 0x1.cb7fd00000000p-6, -0x1.734e300000000p-4, 0x1.28dc800000000p-6, 0x1.39f9f00000000p-4, 0x1.9264a00000000p-7, -0x1.f7dbaa0000000p-4, -0x1.193ae00000000p-6, 0x1.09e2180000000p-3, 0x1.18f5600000000p-7, 0x1.e8ea200000000p-4, 0x1.114fc40000000p-3, -0x1.9ff7d00000000p-4, 0x1.ef61400000000p-4, -0x1.04f4880000000p-3, 0x1.388b940000000p-4, -0x1.0e8fd80000000p-5, 0x1.4382040000000p-4, 0x1.00a6240000000p-4, -0x1.7fc9200000000p-6, 0x1.8a7d800000000p-4, -0x1.ebdc600000000p-7, 0x1.e3c0000000000p-13, -0x1.bd2d680000000p-4, 0x1.7d6c8c0000000p-4, -0x1.edb3900000000p-4, -0x1.26e5fe0000000p-4, 0x1.ad97200000000p-6, -0x1.ebf6360000000p-4, -0x1.aa30400000000p-7, -0x1.11cc200000000p-4, 0x1.2286280000000p-3, 0x1.f326000000000p-4, -0x1.c893e00000000p-4, 0x1.dd16280000000p-4, -0x1.83026c0000000p-4, 0x1.25fa400000000p-8, -0x1.2306dc0000000p-5, -0x1.90f0880000000p-4, -0x1.9a96bc0000000p-5, -0x1.468b200000000p-5, 0x1.80f8d40000000p-4, -0x1.1b6c400000000p-8, -0x1.1f4ac60000000p-4, -0x1.f148800000000p-8}
, {-0x1.f4bf400000000p-6, -0x1.a0f5f40000000p-5, -0x1.2b42f00000000p-6, -0x1.7410e60000000p-4, 0x1.cc69b00000000p-4, -0x1.55bd980000000p-5, 0x1.3e188c0000000p-4, -0x1.2b17640000000p-5, -0x1.2430ac0000000p-3, -0x1.622d8a0000000p-4, 0x1.06f6f80000000p-3, 0x1.de06000000000p-8, -0x1.35b0e00000000p-5, 0x1.ae49500000000p-4, -0x1.0a0fde0000000p-3, 0x1.74b2d00000000p-4, 0x1.2095c00000000p-8, -0x1.90b58a0000000p-4, -0x1.f7f60c0000000p-5, 0x1.a1f0180000000p-5, -0x1.f0d1e00000000p-7, -0x1.2033ae0000000p-3, 0x1.dc5f600000000p-7, -0x1.b044940000000p-5, 0x1.1e24400000000p-5, 0x1.616c3c0000000p-4, 0x1.1fefd80000000p-3, 0x1.4c93d00000000p-6, -0x1.12e18a0000000p-4, -0x1.094c1c0000000p-3, 0x1.bc27e00000000p-7, 0x1.713bdc0000000p-4, 0x1.40bf080000000p-5, -0x1.1f25800000000p-4, 0x1.e472700000000p-4, 0x1.747bd00000000p-4, 0x1.92417c0000000p-4, -0x1.6fcb660000000p-4, -0x1.7bd4400000000p-5, -0x1.b28e040000000p-5, -0x1.d6aee00000000p-6, -0x1.d167cc0000000p-5, 0x1.e014a80000000p-4, 0x1.99f8640000000p-4, 0x1.35b1680000000p-4, 0x1.1494380000000p-4, 0x1.9324240000000p-4, -0x1.b7ab600000000p-5, 0x1.6770080000000p-4, -0x1.1b3d340000000p-4, -0x1.ac07f40000000p-4, -0x1.40951c0000000p-5, -0x1.38f3520000000p-4, -0x1.d33c400000000p-5, 0x1.f8d2980000000p-5, 0x1.8fc0280000000p-4, 0x1.7ff6a00000000p-6, -0x1.3714560000000p-4, 0x1.158d780000000p-3, 0x1.04e2600000000p-5, -0x1.8cd7200000000p-7, 0x1.9335b80000000p-5, -0x1.2f000e0000000p-4, -0x1.10c3fc0000000p-4}
}
, {{-0x1.7c9c440000000p-4, -0x1.2749920000000p-3, 0x1.d74a200000000p-4, 0x1.68ffd80000000p-4, -0x1.e4f6fc0000000p-4, -0x1.2789900000000p-5, -0x1.a6e4f80000000p-6, -0x1.6787160000000p-4, 0x1.f99be00000000p-5, -0x1.8000880000000p-4, 0x1.3cc4a00000000p-6, 0x1.a15e100000000p-4, 0x1.c914b80000000p-4, -0x1.6e7b100000000p-5, -0x1.210e1e0000000p-4, -0x1.0feee80000000p-3, 0x1.b449c80000000p-4, 0x1.22d9300000000p-4, -0x1.dba93c0000000p-5, 0x1.0a0b2c0000000p-3, 0x1.18f0000000000p-7, 0x1.2bb4b80000000p-4, 0x1.e30c180000000p-4, 0x1.4e59a80000000p-4, 0x1.059d100000000p-4, 0x1.fed5700000000p-5, 0x1.344a280000000p-4, 0x1.b824800000000p-7, 0x1.d770200000000p-7, -0x1.97de040000000p-5, -0x1.a771580000000p-5, -0x1.6816740000000p-4, 0x1.797e200000000p-5, -0x1.8471b80000000p-5, -0x1.3bac300000000p-4, -0x1.64e31e0000000p-4, -0x1.0561c60000000p-3, 0x1.89949c0000000p-4, -0x1.0b54f80000000p-3, 0x1.f27b480000000p-4, -0x1.f664200000000p-5, 0x1.35b9080000000p-5, -0x1.42c70e0000000p-4, 0x1.eaf2800000000p-5, 0x1.1dadc80000000p-3, 0x1.a7452c0000000p-4, -0x1.9291340000000p-4, 0x1.1a0ea40000000p-3, 0x1.d654880000000p-4, 0x1.d39bb00000000p-6, -0x1.de48d80000000p-6, -0x1.cc5d100000000p-6, 0x1.1ce3480000000p-3, 0x1.c542580000000p-4, 0x1.4e3b700000000p-5, -0x1.a47a440000000p-4, 0x1.7fc56c0000000p-4, -0x1.b8931c0000000p-5, 0x1.d6e0f00000000p-4, -0x1.244a300000000p-6, -0x1.0f9ece0000000p-4, 0x1.2213480000000p-3, 0x1.6b1c100000000p-5, -0x1.6856ae0000000p-4}
, {0x1.8fe4380000000p-4, 0x1.06ab400000000p-5, 0x1.1ec5400000000p-7, 0x1.3925200000000p-4, -0x1.3a5b320000000p-4, -0x1.6f24000000000p-4, 0x1.5092ac0000000p-4, -0x1.ab9f880000000p-6, 0x1.8007b40000000p-4, -0x1.0607f20000000p-4, 0x1.8093000000000p-4, 0x1.3714600000000p-6, -0x1.412f300000000p-5, 0x1.89e0a00000000p-6, 0x1.2e8a900000000p-4, -0x1.18fe7c0000000p-3, 0x1.b465400000000p-8, -0x1.713c100000000p-6, -0x1.cce5b00000000p-5, -0x1.fb3cc80000000p-4, -0x1.9bfa000000000p-6, 0x1.2c17700000000p-5, -0x1.8a701c0000000p-4, 0x1.71821c0000000p-4, 0x1.9822600000000p-6, 0x1.25be480000000p-4, 0x1.5adbd00000000p-5, -0x1.0b32c00000000p-7, 0x1.dbb1180000000p-4, -0x1.ac31b40000000p-4, -0x1.98531c0000000p-4, -0x1.faef900000000p-4, 0x1.3e433c0000000p-4, 0x1.172ed80000000p-5, 0x1.ee18d00000000p-6, 0x1.78392c0000000p-4, 0x1.5310700000000p-5, 0x1.ed1fb00000000p-4, -0x1.fc5c500000000p-5, 0x1.09aa6c0000000p-3, 0x1.85a2800000000p-4, 0x1.4e68100000000p-6, -0x1.b873800000000p-9, -0x1.6d8f480000000p-4, 0x1.a8822c0000000p-4, -0x1.3e5fd00000000p-4, 0x1.ed39880000000p-4, 0x1.f07d980000000p-4, -0x1.dfeae80000000p-4, -0x1.c8d5cc0000000p-4, 0x1.7624240000000p-4, 0x1.2922800000000p-6, -0x1.2952900000000p-6, -0x1.274dac0000000p-5, 0x1.8003fc0000000p-4, -0x1.5c04240000000p-5, -0x1.44fabc0000000p-5, -0x1.5497140000000p-4, 0x1.6767fc0000000p-4, 0x1.3e5c580000000p-5, 0x1.632e740000000p-4, 0x1.3390200000000p-7, -0x1.ad39a00000000p-7, -0x1.522b700000000p-5}
, {-0x1.45d9a00000000p-4, 0x1.0015b40000000p-3, -0x1.0533900000000p-6, -0x1.0533680000000p-5, -0x1.5f2e7e0000000p-4, 0x1.e6d8000000000p-4, 0x1.f603200000000p-4, 0x1.7d9d4c0000000p-4, -0x1.79b9940000000p-5, -0x1.09881a0000000p-3, 0x1.03e6cc0000000p-3, -0x1.8f46180000000p-6, -0x1.21666a0000000p-4, -0x1.856ca80000000p-4, 0x1.b889480000000p-5, -0x1.05e1bc0000000p-3, -0x1.feb2e00000000p-5, -0x1.8beda00000000p-4, -0x1.3b2fe00000000p-6, 0x1.fed4b80000000p-5, -0x1.cd108c0000000p-4, -0x1.00e2400000000p-7, 0x1.09ec400000000p-6, 0x1.2766900000000p-5, 0x1.0cd1700000000p-6, -0x1.39cd7e0000000p-4, 0x1.a521500000000p-6, 0x1.b454a00000000p-4, -0x1.d4e9380000000p-6, -0x1.87557e0000000p-4, -0x1.d552c40000000p-4, -0x1.096df60000000p-3, -0x1.a255400000000p-7, 0x1.35ea880000000p-5, 0x1.8433e00000000p-4, 0x1.06b3300000000p-6, 0x1.e032100000000p-5, -0x1.27c77c0000000p-5, 0x1.6f343c0000000p-4, -0x1.f513880000000p-5, 0x1.594b900000000p-5, -0x1.5246800000000p-7, -0x1.7ffab80000000p-5, -0x1.7b17800000000p-8, -0x1.aa91b00000000p-5, -0x1.07d28a0000000p-3, 0x1.b50b880000000p-4, 0x1.2614e80000000p-3, 0x1.225fb80000000p-3, -0x1.3f60e00000000p-5, 0x1.9ddf240000000p-4, -0x1.6b48200000000p-7, 0x1.197d900000000p-3, 0x1.f5fd700000000p-4, -0x1.6cb67c0000000p-5, 0x1.9db9f80000000p-5, -0x1.86ef560000000p-4, -0x1.f3f8a20000000p-4, -0x1.d9fc680000000p-5, 0x1.dce2680000000p-4, -0x1.b3eb460000000p-4, -0x1.aa1e400000000p-7, -0x1.04f1980000000p-4, -0x1.2034cc0000000p-3}
}
, {{0x1.16a5680000000p-3, 0x1.387bd80000000p-5, -0x1.5105c80000000p-4, -0x1.1154780000000p-3, -0x1.66580c0000000p-5, 0x1.1930000000000p-11, 0x1.f4de480000000p-5, 0x1.7009a00000000p-6, 0x1.11275c0000000p-3, 0x1.07047c0000000p-3, -0x1.8c3d720000000p-4, 0x1.117f740000000p-3, -0x1.4f388c0000000p-5, -0x1.14fad60000000p-4, 0x1.5213400000000p-5, -0x1.016a340000000p-3, -0x1.9cf0fa0000000p-4, -0x1.e05e800000000p-8, -0x1.bd3cc80000000p-4, 0x1.4bcc880000000p-4, 0x1.ce6cd80000000p-5, -0x1.cf29c00000000p-8, 0x1.04f18c0000000p-4, -0x1.b008880000000p-6, -0x1.8a1b980000000p-4, 0x1.6476700000000p-4, 0x1.8c03e00000000p-7, -0x1.fe99f80000000p-6, -0x1.8e20800000000p-7, 0x1.c70fc80000000p-5, 0x1.cc00500000000p-5, -0x1.0736000000000p-8, 0x1.7e834c0000000p-4, -0x1.925d7e0000000p-4, -0x1.2901880000000p-4, -0x1.f05c000000000p-6, -0x1.26fa900000000p-3, -0x1.e6c3060000000p-4, 0x1.6a50080000000p-5, 0x1.1ee9800000000p-5, -0x1.e546d60000000p-4, -0x1.8b06000000000p-10, -0x1.17e5100000000p-5, -0x1.122f100000000p-6, 0x1.2797100000000p-3, -0x1.2619180000000p-3, 0x1.01c6800000000p-3, -0x1.6308480000000p-4, -0x1.c0e2600000000p-7, -0x1.03b1f40000000p-4, 0x1.f3a2100000000p-6, 0x1.3eb6440000000p-4, 0x1.7fce940000000p-4, -0x1.a488580000000p-6, -0x1.f3f40e0000000p-4, -0x1.0a36f80000000p-3, -0x1.3f75000000000p-8, -0x1.b8e5740000000p-4, -0x1.7285980000000p-5, -0x1.06cbf40000000p-4, 0x1.25e85c0000000p-3, -0x1.0197300000000p-6, 0x1.0b2e200000000p-7, 0x1.b6d4100000000p-6}
, {0x1.cc60500000000p-4, -0x1.3a42800000000p-9, -0x1.05b5ec0000000p-3, 0x1.21ded80000000p-5, 0x1.0f34dc0000000p-4, 0x1.ac13000000000p-6, 0x1.00cf780000000p-3, -0x1.2853100000000p-4, -0x1.a2d0700000000p-4, -0x1.0dad800000000p-6, 0x1.d79d780000000p-5, 0x1.9e3e500000000p-5, 0x1.fc54900000000p-6, -0x1.fb4f300000000p-4, 0x1.104e240000000p-4, -0x1.f02d9a0000000p-4, -0x1.935e7c0000000p-4, 0x1.ce44280000000p-4, 0x1.6563140000000p-4, -0x1.846bfc0000000p-4, 0x1.c354d80000000p-5, -0x1.0563300000000p-4, -0x1.ee073e0000000p-4, 0x1.11d7e00000000p-7, -0x1.8615c80000000p-4, 0x1.bac2580000000p-4, -0x1.1c9ec00000000p-8, 0x1.1638c80000000p-3, 0x1.d184b80000000p-4, -0x1.03f68c0000000p-3, 0x1.078e280000000p-3, 0x1.630aa80000000p-4, 0x1.251d480000000p-5, -0x1.24d4f20000000p-3, 0x1.6d1f400000000p-8, 0x1.4f0f400000000p-8, 0x1.79e0000000000p-10, 0x1.b6e0100000000p-5, 0x1.4c11280000000p-4, 0x1.cdaca80000000p-5, -0x1.0793400000000p-3, 0x1.4279000000000p-7, -0x1.0d24820000000p-3, -0x1.cbda380000000p-5, -0x1.1b4f9c0000000p-3, -0x1.c2af300000000p-4, -0x1.3624200000000p-4, 0x1.b4fcc80000000p-4, 0x1.ae83000000000p-8, 0x1.b019380000000p-5, -0x1.1e1cf60000000p-3, 0x1.eb42780000000p-5, -0x1.0e53ee0000000p-3, -0x1.7c72300000000p-4, 0x1.1ecefc0000000p-3, 0x1.b184600000000p-4, 0x1.263ba80000000p-5, -0x1.d443320000000p-4, 0x1.dd96700000000p-5, -0x1.7ec0500000000p-4, -0x1.29cf5a0000000p-4, -0x1.4b406a0000000p-4, 0x1.4d19980000000p-4, -0x1.22b9a40000000p-3}
, {0x1.e69e380000000p-5, 0x1.5e33100000000p-6, 0x1.8640800000000p-9, 0x1.6c18a80000000p-5, -0x1.2410840000000p-5, 0x1.baa8e00000000p-6, 0x1.f968b00000000p-5, 0x1.1004b00000000p-6, 0x1.f6ad300000000p-4, 0x1.8621680000000p-4, 0x1.97b8000000000p-10, 0x1.dbc8580000000p-5, -0x1.fd51400000000p-8, 0x1.48d3680000000p-4, -0x1.70cb100000000p-4, 0x1.6c5f040000000p-4, -0x1.bd9c8c0000000p-5, -0x1.5fdf100000000p-6, 0x1.899ef00000000p-6, -0x1.6fb5a00000000p-6, -0x1.382e200000000p-5, 0x1.dc90c00000000p-4, -0x1.6f27e80000000p-5, 0x1.2f63e00000000p-6, 0x1.18ceec0000000p-3, -0x1.0fc4d60000000p-4, 0x1.90bef80000000p-5, -0x1.c3683a0000000p-4, -0x1.fdc2c80000000p-6, -0x1.5129e00000000p-7, -0x1.0eb7200000000p-6, -0x1.6aab7c0000000p-5, 0x1.4540600000000p-5, -0x1.7065000000000p-7, -0x1.6da9d80000000p-4, 0x1.1c2ec00000000p-7, 0x1.4163900000000p-6, -0x1.783d540000000p-4, -0x1.16f1b00000000p-6, -0x1.03864a0000000p-3, 0x1.494b100000000p-6, 0x1.2716c00000000p-8, 0x1.b1ca600000000p-5, -0x1.c8c66c0000000p-5, 0x1.8a73e00000000p-6, -0x1.a6aa940000000p-4, -0x1.07c1540000000p-5, 0x1.683ef80000000p-4, -0x1.4f50140000000p-5, -0x1.567e100000000p-5, -0x1.10e46e0000000p-4, -0x1.d7d5240000000p-4, -0x1.c3bbe80000000p-5, 0x1.0dd26c0000000p-3, -0x1.8f0dc40000000p-4, -0x1.5799b00000000p-5, 0x1.6091000000000p-9, -0x1.69f5f80000000p-4, 0x1.1efc940000000p-4, 0x1.0279c00000000p-3, 0x1.4003a00000000p-5, -0x1.daff800000000p-7, 0x1.047ec40000000p-4, 0x1.c51ce00000000p-6}
}
, {{0x1.0592900000000p-3, 0x1.c6ebc00000000p-4, -0x1.dab7940000000p-4, -0x1.e93e780000000p-5, 0x1.baf8e00000000p-7, -0x1.cc57b80000000p-6, 0x1.b4d4e80000000p-5, -0x1.87b7880000000p-4, 0x1.c946b00000000p-4, -0x1.df55c00000000p-6, 0x1.da7d380000000p-5, 0x1.589d9c0000000p-4, 0x1.b9c8000000000p-11, 0x1.86ba000000000p-8, -0x1.039ffc0000000p-5, 0x1.6ede380000000p-5, -0x1.183df80000000p-5, 0x1.4f50600000000p-5, 0x1.b1b0c00000000p-4, -0x1.41bc360000000p-4, -0x1.c5dbfc0000000p-4, 0x1.523f580000000p-5, -0x1.d384f60000000p-4, -0x1.d3c7080000000p-4, 0x1.e3c5100000000p-4, 0x1.bedd800000000p-4, 0x1.0b6eb00000000p-5, 0x1.b27cd80000000p-5, -0x1.f0c8fc0000000p-4, -0x1.39cb780000000p-4, -0x1.2d5cca0000000p-4, -0x1.58b8580000000p-4, 0x1.be09e00000000p-6, 0x1.df21a00000000p-6, -0x1.ed07c40000000p-5, -0x1.2531360000000p-3, -0x1.79c3b80000000p-4, -0x1.f860340000000p-4, -0x1.7574600000000p-5, -0x1.0e33e00000000p-6, -0x1.2fc5800000000p-8, -0x1.0187a00000000p-6, 0x1.dfd7d00000000p-6, 0x1.2558740000000p-4, -0x1.89f7540000000p-4, -0x1.c853000000000p-7, 0x1.6956700000000p-4, -0x1.1c35720000000p-3, -0x1.3e59080000000p-6, -0x1.9f824a0000000p-4, 0x1.68f9f80000000p-5, 0x1.6955a00000000p-5, -0x1.61fe740000000p-4, -0x1.d2f1d80000000p-5, 0x1.1191380000000p-3, -0x1.caa3880000000p-6, 0x1.1c77a80000000p-3, -0x1.275e280000000p-4, 0x1.ce6c780000000p-5, -0x1.0071be0000000p-3, -0x1.8e27e00000000p-5, 0x1.6ad3800000000p-7, 0x1.e86d280000000p-4, -0x1.d009c80000000p-5}
, {-0x1.602bb40000000p-5, -0x1.be8dc40000000p-4, -0x1.092ea20000000p-3, 0x1.f13a200000000p-7, 0x1.4573a40000000p-4, 0x1.7714700000000p-6, -0x1.1b4de80000000p-4, 0x1.0f56780000000p-3, 0x1.b248400000000p-8, -0x1.1b00de0000000p-3, -0x1.56064e0000000p-4, 0x1.83a0000000000p-13, -0x1.b5bbb80000000p-4, 0x1.1f6fb80000000p-5, 0x1.5aa3400000000p-5, -0x1.84422c0000000p-4, 0x1.3e7c2c0000000p-4, 0x1.08ce200000000p-7, -0x1.5459600000000p-5, 0x1.c9bf200000000p-5, -0x1.0e31b80000000p-3, -0x1.12d7740000000p-3, 0x1.4d16000000000p-8, 0x1.1399c80000000p-5, -0x1.26a2c00000000p-3, 0x1.8979c80000000p-5, -0x1.bb1c300000000p-5, -0x1.43e5880000000p-5, 0x1.7c2d740000000p-4, 0x1.47e1b40000000p-4, -0x1.ea24f80000000p-6, -0x1.3034800000000p-4, -0x1.c82e0c0000000p-4, -0x1.4000000000000p-17, 0x1.9870b00000000p-4, -0x1.c8b6c40000000p-5, 0x1.a2f44c0000000p-4, -0x1.8d85b40000000p-4, -0x1.02641a0000000p-3, 0x1.70def80000000p-5, 0x1.fee2e80000000p-4, 0x1.15c3ec0000000p-3, 0x1.d34c480000000p-5, 0x1.f901d80000000p-4, -0x1.5a10bc0000000p-5, 0x1.0d9aac0000000p-3, -0x1.f0d0300000000p-6, -0x1.0ce2bc0000000p-5, -0x1.03ac340000000p-3, 0x1.25a16c0000000p-3, 0x1.28c7780000000p-4, -0x1.3ac8d20000000p-4, 0x1.7810380000000p-5, -0x1.90aeb80000000p-5, -0x1.1a3e9c0000000p-3, 0x1.34f4d00000000p-5, 0x1.f532200000000p-6, 0x1.7abb300000000p-4, -0x1.fce1340000000p-4, -0x1.a008600000000p-4, 0x1.9298800000000p-7, -0x1.0342a80000000p-3, 0x1.fe69400000000p-8, -0x1.105e840000000p-4}
, {-0x1.5bef120000000p-4, 0x1.1c5a600000000p-3, 0x1.ef51d80000000p-5, 0x1.f8fd200000000p-6, -0x1.ba16cc0000000p-4, -0x1.0458c00000000p-8, 0x1.9234200000000p-5, 0x1.c91d800000000p-4, 0x1.21d6640000000p-4, -0x1.bf45fc0000000p-4, -0x1.bdfae00000000p-5, 0x1.859cdc0000000p-4, 0x1.8e65800000000p-6, 0x1.3dca000000000p-6, 0x1.9263d00000000p-4, -0x1.5836a00000000p-4, -0x1.9aa0000000000p-4, -0x1.75381c0000000p-4, -0x1.26ea0e0000000p-3, -0x1.4f82600000000p-5, 0x1.a371000000000p-9, 0x1.2ac5000000000p-8, 0x1.b3ee580000000p-5, 0x1.8e67180000000p-5, 0x1.eb3e000000000p-10, -0x1.2cbcb80000000p-5, -0x1.393d020000000p-4, -0x1.0a86dc0000000p-4, 0x1.1c0abc0000000p-4, 0x1.ee9b580000000p-5, -0x1.de77740000000p-4, -0x1.0c9c780000000p-4, 0x1.b017d00000000p-6, 0x1.3854000000000p-5, -0x1.0ad4420000000p-4, 0x1.1c318c0000000p-3, 0x1.ff62880000000p-4, 0x1.9312ac0000000p-4, 0x1.0cad080000000p-5, -0x1.3df2ce0000000p-4, 0x1.471b200000000p-7, 0x1.eb35580000000p-4, -0x1.b1d9e00000000p-6, -0x1.44f8880000000p-4, 0x1.0555c80000000p-3, 0x1.391e200000000p-4, -0x1.4495d60000000p-4, 0x1.1bba140000000p-3, -0x1.543aa00000000p-6, 0x1.694a200000000p-7, 0x1.8ff6100000000p-6, -0x1.5433440000000p-5, 0x1.c716800000000p-5, 0x1.0a7a140000000p-4, -0x1.7c4b300000000p-4, 0x1.6c0ee80000000p-5, -0x1.b444a80000000p-5, 0x1.7bd67c0000000p-4, -0x1.476ab40000000p-5, -0x1.ecd3440000000p-4, 0x1.11f7d40000000p-4, -0x1.bcecbc0000000p-5, -0x1.e5c40c0000000p-4, -0x1.7447400000000p-7}
}
, {{-0x1.04faec0000000p-3, -0x1.0274e60000000p-3, 0x1.7126000000000p-6, -0x1.609afc0000000p-5, 0x1.11541c0000000p-4, -0x1.8d6e800000000p-8, -0x1.5397ac0000000p-5, 0x1.0754b80000000p-4, -0x1.e1c1800000000p-8, -0x1.c819f20000000p-4, -0x1.298f300000000p-6, -0x1.4683680000000p-5, -0x1.388b420000000p-4, 0x1.4c0e400000000p-8, 0x1.8de6180000000p-4, 0x1.f8f6d80000000p-4, 0x1.0a54380000000p-5, -0x1.821c900000000p-4, 0x1.d4fd280000000p-4, 0x1.1a9b9c0000000p-3, -0x1.a69eac0000000p-5, -0x1.8d202a0000000p-4, -0x1.a13d0c0000000p-4, -0x1.41b4200000000p-5, -0x1.074ae80000000p-5, -0x1.8560480000000p-4, -0x1.b963500000000p-5, -0x1.a9152e0000000p-4, -0x1.6134d80000000p-5, 0x1.cb95a00000000p-7, -0x1.922a800000000p-4, -0x1.024cd40000000p-4, -0x1.23ef780000000p-4, -0x1.de96180000000p-4, -0x1.a8dc6c0000000p-4, 0x1.018a000000000p-3, -0x1.1b3d200000000p-6, 0x1.35a4400000000p-5, -0x1.e3cf0e0000000p-4, 0x1.1150f00000000p-3, -0x1.1dbffe0000000p-3, -0x1.600ca80000000p-6, -0x1.f3ae3a0000000p-4, 0x1.4b6d200000000p-4, -0x1.52182a0000000p-4, -0x1.9c4d280000000p-6, 0x1.e849f80000000p-5, -0x1.1f47140000000p-3, -0x1.b370a80000000p-4, -0x1.1d34900000000p-6, -0x1.a3edf80000000p-4, -0x1.a5e9ac0000000p-5, -0x1.05d8900000000p-4, -0x1.7735300000000p-6, 0x1.095e800000000p-8, 0x1.3b129c0000000p-4, 0x1.63b2800000000p-9, -0x1.41aaa00000000p-7, -0x1.82c4600000000p-7, 0x1.46b4200000000p-7, 0x1.1306180000000p-3, -0x1.d65b740000000p-5, -0x1.cb99000000000p-7, 0x1.96fa640000000p-4}
, {0x1.2e81b00000000p-4, 0x1.75c7f80000000p-4, -0x1.6991980000000p-5, 0x1.13efc00000000p-5, -0x1.16c1800000000p-5, -0x1.c878b40000000p-4, 0x1.2b55a00000000p-7, -0x1.4e68800000000p-9, 0x1.648fb80000000p-5, -0x1.377ce00000000p-6, -0x1.e6471c0000000p-4, -0x1.b1b5140000000p-5, 0x1.01c9800000000p-3, 0x1.193cc00000000p-6, -0x1.e68abc0000000p-5, 0x1.dd4b800000000p-8, 0x1.a5088c0000000p-4, -0x1.f8e2e40000000p-5, 0x1.cf76800000000p-6, -0x1.56abc00000000p-7, -0x1.ef9a180000000p-4, -0x1.13ffe80000000p-3, 0x1.1ce68c0000000p-3, 0x1.570a800000000p-5, 0x1.45668c0000000p-4, 0x1.b379900000000p-4, 0x1.4c19580000000p-4, -0x1.ed90900000000p-4, 0x1.1b22e00000000p-5, -0x1.cda2e80000000p-5, 0x1.1b10ec0000000p-4, 0x1.1d7df00000000p-4, -0x1.8b5bc00000000p-8, 0x1.8658d00000000p-6, 0x1.038ac40000000p-4, -0x1.dfef800000000p-8, 0x1.493e480000000p-4, 0x1.ee47a00000000p-5, -0x1.720fc00000000p-5, -0x1.4264100000000p-6, -0x1.fd9d040000000p-5, 0x1.1c21340000000p-3, -0x1.1f305c0000000p-4, 0x1.e33ea00000000p-7, -0x1.0fe5f60000000p-3, 0x1.e5fc300000000p-4, 0x1.fb00000000000p-9, 0x1.8d3c400000000p-5, 0x1.9363780000000p-4, -0x1.7d8f0a0000000p-4, -0x1.f02b000000000p-10, 0x1.a733400000000p-7, 0x1.68cc2c0000000p-4, 0x1.cb6aa00000000p-7, -0x1.0ee7ee0000000p-3, -0x1.9484200000000p-6, -0x1.b2a2a80000000p-5, -0x1.452bb20000000p-4, -0x1.24a7900000000p-5, -0x1.10410a0000000p-4, -0x1.71b35e0000000p-4, -0x1.600ac80000000p-6, 0x1.0979380000000p-3, 0x1.1e24580000000p-3}
, {-0x1.3552140000000p-4, 0x1.c772e00000000p-4, -0x1.84db2c0000000p-5, 0x1.4933000000000p-7, 0x1.4570540000000p-4, 0x1.2692640000000p-3, 0x1.75aa9c0000000p-4, 0x1.5b78000000000p-5, 0x1.b545e00000000p-4, 0x1.dd9e380000000p-5, 0x1.7635340000000p-4, -0x1.facf500000000p-6, 0x1.ed06c00000000p-4, -0x1.0d36f40000000p-3, 0x1.07e2400000000p-7, 0x1.581c600000000p-6, -0x1.d548c80000000p-5, -0x1.93cb600000000p-7, -0x1.1fb0640000000p-5, -0x1.e56d0c0000000p-4, -0x1.b143600000000p-7, 0x1.021e600000000p-7, 0x1.c5f4680000000p-4, -0x1.2ca0d40000000p-4, 0x1.e142c80000000p-5, -0x1.22c0ee0000000p-4, 0x1.16e3340000000p-4, 0x1.0452d80000000p-3, -0x1.1db7620000000p-4, -0x1.4de8200000000p-7, 0x1.a29d280000000p-4, -0x1.1b51520000000p-3, 0x1.a627e40000000p-4, -0x1.f15c3e0000000p-4, -0x1.3ebe640000000p-4, -0x1.9c685c0000000p-4, 0x1.edeea00000000p-7, 0x1.dac5300000000p-5, -0x1.e084040000000p-4, -0x1.928ed20000000p-4, -0x1.ae33ba0000000p-4, 0x1.c5ed700000000p-5, 0x1.adb4c80000000p-4, 0x1.b4bf100000000p-5, 0x1.c404500000000p-6, 0x1.9acb200000000p-5, 0x1.d334180000000p-4, 0x1.1801400000000p-4, -0x1.e241600000000p-7, -0x1.969d1c0000000p-4, 0x1.14f2a40000000p-3, 0x1.5c06180000000p-5, -0x1.015fd00000000p-6, 0x1.f528b00000000p-4, 0x1.7f41e40000000p-4, -0x1.6139f00000000p-4, 0x1.0f2bfc0000000p-3, -0x1.d6ad4a0000000p-4, -0x1.b326dc0000000p-5, -0x1.5dad380000000p-5, -0x1.645d100000000p-4, -0x1.9b383c0000000p-5, -0x1.ccf9ec0000000p-4, 0x1.1c45780000000p-3}
}
, {{-0x1.cf9b000000000p-7, -0x1.fce4980000000p-4, -0x1.ce7ba00000000p-4, 0x1.8e1c540000000p-4, -0x1.42662c0000000p-5, 0x1.704b780000000p-5, -0x1.d604200000000p-6, 0x1.548d680000000p-4, 0x1.13f1000000000p-3, -0x1.8ca0c80000000p-5, -0x1.2a26900000000p-5, -0x1.4da2e40000000p-4, -0x1.e339200000000p-7, -0x1.bf3b8c0000000p-4, -0x1.95b8600000000p-4, -0x1.7678500000000p-5, 0x1.14f84c0000000p-3, 0x1.ceb4980000000p-4, 0x1.0679cc0000000p-3, 0x1.1c88740000000p-4, -0x1.393a740000000p-5, -0x1.d851ac0000000p-4, 0x1.dfca600000000p-6, -0x1.cedc000000000p-12, 0x1.6b1cd00000000p-4, -0x1.96311c0000000p-4, 0x1.17cbc00000000p-8, 0x1.f7e4c00000000p-4, -0x1.5350f00000000p-5, -0x1.5025c40000000p-5, 0x1.aa6cd80000000p-4, 0x1.1309d80000000p-3, 0x1.023d1c0000000p-3, -0x1.07165c0000000p-4, -0x1.984c800000000p-9, 0x1.faca780000000p-5, -0x1.e715a80000000p-6, -0x1.8dc3300000000p-4, -0x1.9820bc0000000p-4, -0x1.6553880000000p-6, 0x1.0d6ffc0000000p-3, 0x1.3a88c40000000p-4, 0x1.ddfed00000000p-4, -0x1.4d2d9e0000000p-4, 0x1.fd09800000000p-5, -0x1.6dc3e00000000p-7, -0x1.0e396c0000000p-4, 0x1.352a180000000p-4, 0x1.0f076c0000000p-3, -0x1.5aadb40000000p-5, -0x1.dd07ca0000000p-4, -0x1.283f9c0000000p-4, -0x1.9d38000000000p-11, 0x1.40d4000000000p-10, 0x1.1247180000000p-4, 0x1.ce8df80000000p-4, -0x1.13a6340000000p-5, 0x1.1909f00000000p-6, -0x1.b3112e0000000p-4, 0x1.cf29c00000000p-8, 0x1.b57d000000000p-5, 0x1.4b88d00000000p-5, -0x1.c9d5dc0000000p-4, -0x1.c7b66c0000000p-4}
, {-0x1.296d3e0000000p-4, 0x1.5d62e40000000p-4, -0x1.143a1c0000000p-3, 0x1.3925a00000000p-4, -0x1.63f2fa0000000p-4, 0x1.6441b80000000p-5, 0x1.750f300000000p-4, 0x1.b10ac80000000p-4, -0x1.66f0b00000000p-5, 0x1.6036400000000p-7, -0x1.3a98000000000p-13, 0x1.03aa800000000p-8, -0x1.80098c0000000p-4, 0x1.5493400000000p-4, -0x1.3c58100000000p-5, 0x1.215c600000000p-7, -0x1.2c1c240000000p-5, 0x1.902ce00000000p-5, -0x1.dc8a000000000p-10, -0x1.0f9c220000000p-4, -0x1.5eded80000000p-6, 0x1.e7ccb00000000p-5, -0x1.8374f40000000p-4, 0x1.e2fb780000000p-4, -0x1.345fec0000000p-5, -0x1.d08ab80000000p-4, -0x1.a5ebe00000000p-7, 0x1.284a800000000p-7, 0x1.0f2c600000000p-4, -0x1.6d0b240000000p-4, 0x1.79e07c0000000p-4, -0x1.992d740000000p-4, 0x1.1687e80000000p-3, 0x1.9d27e80000000p-5, -0x1.1592280000000p-3, 0x1.db3b880000000p-5, -0x1.10b8300000000p-4, -0x1.0b4b8c0000000p-5, 0x1.1112240000000p-3, 0x1.37bdd40000000p-4, -0x1.c0b2b80000000p-4, 0x1.ca62300000000p-4, -0x1.185d640000000p-3, 0x1.0f969c0000000p-4, -0x1.9309300000000p-4, -0x1.d7ca400000000p-8, 0x1.04f2500000000p-3, 0x1.0931080000000p-5, 0x1.3f7db80000000p-4, 0x1.92a0600000000p-7, 0x1.b360400000000p-5, 0x1.cf02480000000p-5, 0x1.3f43540000000p-4, 0x1.02d4cc0000000p-3, 0x1.2cce000000000p-9, -0x1.44fe280000000p-4, 0x1.3dc3800000000p-4, -0x1.118c7e0000000p-3, -0x1.1f2e980000000p-4, 0x1.847f140000000p-4, -0x1.052c280000000p-3, 0x1.2f80f00000000p-6, 0x1.e8fcf00000000p-4, 0x1.4f5e480000000p-5}
, {0x1.1f865c0000000p-3, 0x1.4d87300000000p-6, -0x1.51cece0000000p-4, 0x1.1272d40000000p-3, 0x1.1c9ed80000000p-3, 0x1.d5f5a00000000p-4, -0x1.c45a2c0000000p-5, -0x1.22e0420000000p-4, 0x1.889bc40000000p-4, 0x1.32f0480000000p-5, -0x1.1cb5fe0000000p-3, 0x1.2f60080000000p-4, 0x1.18d30c0000000p-4, 0x1.a229500000000p-5, -0x1.4b0d640000000p-4, 0x1.7db91c0000000p-4, 0x1.4034b00000000p-4, 0x1.11ef280000000p-4, 0x1.6c4ed80000000p-4, -0x1.0817a40000000p-5, -0x1.f719e40000000p-4, -0x1.a958cc0000000p-4, -0x1.afb68c0000000p-4, -0x1.86f1520000000p-4, 0x1.1e1e240000000p-3, 0x1.75adc00000000p-5, -0x1.24e2a40000000p-3, -0x1.0973c00000000p-8, -0x1.3e48d40000000p-4, -0x1.c11a580000000p-6, 0x1.3728680000000p-4, -0x1.0e03020000000p-3, -0x1.ad8b5c0000000p-4, 0x1.02d62c0000000p-3, -0x1.d14d500000000p-6, 0x1.3b39300000000p-4, 0x1.617c540000000p-4, -0x1.63565e0000000p-4, 0x1.8d0ad00000000p-6, -0x1.cdc4480000000p-4, -0x1.5acb200000000p-7, -0x1.00806c0000000p-5, 0x1.be96000000000p-7, 0x1.163f780000000p-3, 0x1.4fdf300000000p-5, 0x1.b5beb00000000p-6, -0x1.ef43900000000p-4, -0x1.0701600000000p-3, -0x1.6fd1c00000000p-4, 0x1.998b180000000p-4, -0x1.28b6600000000p-6, 0x1.c433e00000000p-7, 0x1.f359900000000p-5, 0x1.258a000000000p-3, 0x1.d6cea00000000p-5, 0x1.5a75340000000p-4, -0x1.a1128a0000000p-4, -0x1.0810300000000p-6, -0x1.21388e0000000p-3, 0x1.ba31c00000000p-4, -0x1.3f84180000000p-5, 0x1.2406800000000p-7, -0x1.79dfb00000000p-4, -0x1.ed01580000000p-5}
}
, {{0x1.5def600000000p-6, -0x1.763b000000000p-9, -0x1.1529020000000p-3, -0x1.2e60000000000p-14, 0x1.4dd7900000000p-6, 0x1.1b20080000000p-5, -0x1.08044e0000000p-3, 0x1.72e37c0000000p-4, 0x1.43a5a80000000p-5, -0x1.7bea960000000p-4, 0x1.0006980000000p-5, 0x1.f4f2500000000p-4, -0x1.eff77a0000000p-4, -0x1.fce0c00000000p-7, -0x1.04b6000000000p-6, -0x1.12c86c0000000p-5, -0x1.d6c3380000000p-6, 0x1.159c800000000p-4, -0x1.1e9b800000000p-8, -0x1.85bdb40000000p-5, 0x1.e293200000000p-6, 0x1.aeddc00000000p-5, -0x1.9fd4f60000000p-4, -0x1.4cc8cc0000000p-4, 0x1.c021300000000p-4, 0x1.906c080000000p-4, -0x1.6c8a980000000p-6, -0x1.264c180000000p-4, 0x1.23fff40000000p-3, -0x1.b861800000000p-7, -0x1.baf9f20000000p-4, -0x1.474bd00000000p-4, -0x1.26edca0000000p-3, -0x1.aa03300000000p-4, 0x1.e13a180000000p-4, 0x1.aa2f080000000p-4, -0x1.66164c0000000p-5, 0x1.c166c80000000p-5, -0x1.5b6a100000000p-6, -0x1.7ea11a0000000p-4, -0x1.fd85800000000p-9, -0x1.9058e80000000p-4, 0x1.6771f00000000p-4, 0x1.8cf1e80000000p-4, -0x1.8ceb400000000p-8, -0x1.b9c3f40000000p-5, 0x1.f5db980000000p-5, -0x1.e4cef80000000p-6, 0x1.de49c80000000p-5, -0x1.77cd500000000p-6, 0x1.8349a00000000p-5, -0x1.c516880000000p-5, -0x1.89481c0000000p-4, -0x1.3115620000000p-4, -0x1.ed194c0000000p-5, 0x1.12c2000000000p-7, 0x1.1872d00000000p-6, 0x1.3636640000000p-4, 0x1.1b87f40000000p-3, -0x1.f510cc0000000p-4, -0x1.d02b000000000p-9, -0x1.d2b7000000000p-9, -0x1.99f1400000000p-5, -0x1.4fe4900000000p-4}
, {0x1.a68fac0000000p-4, 0x1.616ab00000000p-4, 0x1.509ba00000000p-4, -0x1.7b3a500000000p-5, 0x1.2e74cc0000000p-4, -0x1.6cbfb80000000p-4, -0x1.d6c8800000000p-5, 0x1.8c59580000000p-5, -0x1.6ac3540000000p-4, -0x1.6480c00000000p-4, -0x1.2668ee0000000p-4, -0x1.0172d80000000p-3, -0x1.82bab80000000p-4, 0x1.4a32240000000p-4, 0x1.8af1300000000p-4, -0x1.1f59dc0000000p-3, -0x1.114d940000000p-4, -0x1.113d580000000p-3, -0x1.ec60e00000000p-4, -0x1.191f200000000p-3, 0x1.0d02000000000p-3, 0x1.f3cd800000000p-7, -0x1.f6c9c00000000p-6, 0x1.03b4980000000p-3, -0x1.04200c0000000p-4, 0x1.bb91a00000000p-4, -0x1.7df9f40000000p-4, -0x1.0e07640000000p-3, 0x1.3790a00000000p-6, -0x1.293f7c0000000p-5, 0x1.ab54b00000000p-5, 0x1.861c740000000p-4, 0x1.ae60e00000000p-7, 0x1.66dc400000000p-6, -0x1.01ef0c0000000p-5, 0x1.005cc80000000p-3, 0x1.14ad700000000p-4, 0x1.0873800000000p-7, 0x1.5ca1200000000p-5, 0x1.4f198c0000000p-4, 0x1.7038400000000p-5, 0x1.3e1e000000000p-4, -0x1.0edf800000000p-6, -0x1.0cadc00000000p-5, -0x1.f3dfb40000000p-4, -0x1.14e8f00000000p-5, -0x1.a362880000000p-5, 0x1.7581c00000000p-6, -0x1.5d1cd00000000p-4, -0x1.ee8f480000000p-4, 0x1.5c3b5c0000000p-4, 0x1.d736200000000p-5, -0x1.72cb740000000p-5, 0x1.aaaec00000000p-6, -0x1.8d357c0000000p-4, -0x1.157f000000000p-10, 0x1.dde9380000000p-5, 0x1.57f9400000000p-5, 0x1.f854b80000000p-5, -0x1.1799b80000000p-4, 0x1.0184f40000000p-4, 0x1.c7d8300000000p-4, 0x1.1d47600000000p-3, -0x1.3a7db00000000p-4}
, {0x1.6c91000000000p-4, 0x1.c372600000000p-4, -0x1.aad5e00000000p-7, 0x1.00c1380000000p-3, 0x1.5def600000000p-6, -0x1.dc4c3a0000000p-4, -0x1.0637400000000p-4, 0x1.9d23300000000p-6, -0x1.9ef4a00000000p-5, -0x1.1c3edc0000000p-3, 0x1.b4f0000000000p-9, 0x1.fa78900000000p-6, 0x1.303ec80000000p-5, -0x1.28bd5e0000000p-4, -0x1.9fe5f40000000p-4, 0x1.1161200000000p-6, -0x1.38ca200000000p-7, 0x1.a735b80000000p-5, -0x1.09e97a0000000p-3, -0x1.262db00000000p-6, -0x1.6e97b40000000p-4, -0x1.6c1b000000000p-9, -0x1.3a2f2c0000000p-4, -0x1.5374f40000000p-5, -0x1.0d209e0000000p-4, -0x1.c36ede0000000p-4, 0x1.1542880000000p-3, -0x1.4c8c800000000p-4, -0x1.146f840000000p-3, -0x1.8e4d780000000p-4, -0x1.da2be00000000p-7, -0x1.b5f3dc0000000p-4, 0x1.03ca7c0000000p-3, 0x1.bca9200000000p-6, -0x1.07992a0000000p-4, -0x1.0596bc0000000p-3, -0x1.dc3fac0000000p-4, 0x1.d29c100000000p-6, -0x1.78ad940000000p-4, -0x1.7efbe40000000p-5, 0x1.6f90f00000000p-4, 0x1.9994b00000000p-4, -0x1.67de680000000p-5, 0x1.bb6de00000000p-5, 0x1.9d59c00000000p-6, 0x1.813a400000000p-8, -0x1.908bb80000000p-5, 0x1.78e8d40000000p-4, 0x1.e0e7c80000000p-5, -0x1.349abc0000000p-5, 0x1.9f20f00000000p-5, 0x1.fab0d80000000p-4, -0x1.991ddc0000000p-5, 0x1.c804f80000000p-4, 0x1.efac280000000p-4, 0x1.4a30000000000p-8, 0x1.36a8b40000000p-4, 0x1.c24a980000000p-4, 0x1.e108000000000p-9, -0x1.64777c0000000p-5, -0x1.2999540000000p-5, -0x1.3418b80000000p-4, 0x1.2f82400000000p-4, 0x1.18fb680000000p-5}
}
, {{-0x1.22201a0000000p-4, 0x1.13ef7c0000000p-4, -0x1.1cd1a40000000p-5, -0x1.0b6e400000000p-8, -0x1.6aeeac0000000p-5, -0x1.2caca00000000p-6, -0x1.0c3c200000000p-3, -0x1.fc03880000000p-5, -0x1.0504080000000p-4, 0x1.fbfc000000000p-8, 0x1.5e81240000000p-4, 0x1.bee6580000000p-4, 0x1.099fe00000000p-4, -0x1.7d82200000000p-4, -0x1.5436d80000000p-4, 0x1.646e880000000p-4, 0x1.ae86700000000p-4, -0x1.0228da0000000p-4, 0x1.b1ce100000000p-6, 0x1.8bb1000000000p-6, 0x1.9437780000000p-4, -0x1.7e56f20000000p-4, -0x1.eed9140000000p-4, -0x1.2593540000000p-3, -0x1.1facc80000000p-3, -0x1.0fec900000000p-4, -0x1.bd03d40000000p-5, -0x1.210cfa0000000p-3, 0x1.1a89400000000p-3, -0x1.c80a880000000p-4, -0x1.9870800000000p-7, 0x1.0d82400000000p-6, -0x1.c1d1d00000000p-4, -0x1.6bd7a00000000p-6, -0x1.abb9940000000p-5, 0x1.0ccd140000000p-3, 0x1.c1d1400000000p-6, 0x1.110c8c0000000p-3, -0x1.510e200000000p-7, 0x1.bc73400000000p-4, -0x1.08a2000000000p-10, 0x1.6529000000000p-5, -0x1.0c77860000000p-3, 0x1.21bf2c0000000p-3, 0x1.42d5880000000p-4, -0x1.05f5540000000p-5, -0x1.15709e0000000p-4, 0x1.ff82700000000p-4, -0x1.fbe5700000000p-5, 0x1.5718a00000000p-4, 0x1.3702c80000000p-5, -0x1.7b7ecc0000000p-5, 0x1.0946d80000000p-3, 0x1.a120000000000p-10, 0x1.3a2b500000000p-4, -0x1.0c468e0000000p-3, -0x1.1dec300000000p-6, -0x1.14f0980000000p-5, 0x1.5b51a40000000p-4, 0x1.af5e8c0000000p-4, 0x1.ce49200000000p-4, 0x1.89e6b40000000p-4, 0x1.97c1a80000000p-4, -0x1.3b1d400000000p-6}
, {-0x1.05fe940000000p-3, -0x1.84a0ec0000000p-4, 0x1.ee8ae00000000p-5, -0x1.81cb160000000p-4, 0x1.d08b200000000p-5, -0x1.4bbdd80000000p-4, -0x1.e19b2a0000000p-4, -0x1.9ea40c0000000p-4, 0x1.574e100000000p-4, -0x1.5731ea0000000p-4, -0x1.c1747e0000000p-4, -0x1.20b96e0000000p-4, 0x1.27e4600000000p-6, 0x1.2166700000000p-6, -0x1.9135f60000000p-4, 0x1.f004c00000000p-4, -0x1.2d49280000000p-4, -0x1.083b940000000p-5, 0x1.6396180000000p-5, 0x1.3e22000000000p-9, -0x1.86e36e0000000p-4, 0x1.840da80000000p-4, -0x1.1c3cdc0000000p-3, 0x1.62f27c0000000p-4, 0x1.9fc2600000000p-4, -0x1.cc9ac40000000p-5, 0x1.c4b1c00000000p-7, -0x1.7156bc0000000p-4, 0x1.1102a00000000p-3, -0x1.7153d00000000p-5, 0x1.dc7ee00000000p-6, -0x1.df2de00000000p-7, -0x1.b71b880000000p-6, 0x1.5820800000000p-4, 0x1.8850900000000p-6, -0x1.f315980000000p-4, 0x1.3f8f380000000p-5, -0x1.7e03a00000000p-7, -0x1.26edb00000000p-5, -0x1.1114500000000p-4, 0x1.944a900000000p-6, 0x1.60195c0000000p-4, 0x1.e214000000000p-4, 0x1.8b69800000000p-6, 0x1.cd77180000000p-4, 0x1.b58cb80000000p-4, 0x1.2d51000000000p-6, -0x1.4420a20000000p-4, -0x1.9a867c0000000p-5, -0x1.21bd6c0000000p-5, 0x1.9e3fe80000000p-5, -0x1.851a620000000p-4, -0x1.f87a640000000p-5, 0x1.6c47900000000p-4, 0x1.a602480000000p-5, 0x1.0355e40000000p-3, 0x1.06bb640000000p-3, -0x1.2434e40000000p-5, 0x1.ba65300000000p-6, 0x1.3828000000000p-10, 0x1.26c1280000000p-5, -0x1.eefffa0000000p-4, -0x1.95a6b00000000p-5, 0x1.9def840000000p-4}
, {-0x1.c46e600000000p-6, -0x1.30ccc00000000p-6, -0x1.fd4e5c0000000p-4, 0x1.0475a00000000p-3, 0x1.c8d1e00000000p-6, -0x1.9218400000000p-4, -0x1.fcfd080000000p-6, 0x1.9480200000000p-6, -0x1.75f4080000000p-4, -0x1.f4e6700000000p-5, 0x1.0988200000000p-5, -0x1.15dec00000000p-6, -0x1.3388220000000p-4, 0x1.b07eac0000000p-4, -0x1.6865940000000p-5, -0x1.29375e0000000p-4, -0x1.7974140000000p-4, 0x1.fd1fa00000000p-7, 0x1.8a49000000000p-9, 0x1.9f04e00000000p-6, 0x1.5a52300000000p-5, -0x1.73f1d40000000p-4, -0x1.368d480000000p-5, -0x1.0c93fe0000000p-4, 0x1.cecf600000000p-4, -0x1.d1f6040000000p-4, -0x1.ac79000000000p-8, -0x1.93bc3c0000000p-5, 0x1.5abbd80000000p-4, -0x1.b258080000000p-6, 0x1.54ce780000000p-4, -0x1.3538880000000p-4, 0x1.1a8c500000000p-3, -0x1.50a0980000000p-4, 0x1.1aed480000000p-4, 0x1.7c44200000000p-7, 0x1.6c8ff00000000p-6, 0x1.7bcf180000000p-4, 0x1.0ada800000000p-9, 0x1.81ad480000000p-4, -0x1.a156180000000p-6, -0x1.21b4800000000p-4, -0x1.9e30000000000p-8, 0x1.be40800000000p-5, -0x1.638c480000000p-6, -0x1.7d88e80000000p-4, -0x1.0a2c120000000p-4, 0x1.167f240000000p-4, 0x1.1f6e400000000p-4, -0x1.c3e1780000000p-4, -0x1.cfef4c0000000p-5, 0x1.71d1e80000000p-5, -0x1.55c0840000000p-4, 0x1.fdd4980000000p-5, -0x1.d253940000000p-5, -0x1.0837800000000p-8, -0x1.7e00f40000000p-5, -0x1.4843b80000000p-5, 0x1.80c3700000000p-6, -0x1.1034000000000p-6, 0x1.70cc200000000p-5, 0x1.216e240000000p-4, 0x1.437f440000000p-4, -0x1.ead4860000000p-4}
}
, {{0x1.add6c80000000p-4, -0x1.a3c8c00000000p-7, -0x1.1d0c3c0000000p-3, 0x1.b047e80000000p-4, -0x1.d5f2840000000p-5, -0x1.b35d100000000p-5, 0x1.c293780000000p-4, 0x1.2db4f80000000p-5, 0x1.6156600000000p-7, 0x1.9c0a5c0000000p-4, -0x1.a934480000000p-4, 0x1.d25e400000000p-4, -0x1.c011580000000p-5, 0x1.fe18a80000000p-5, -0x1.e15f440000000p-4, -0x1.a912d40000000p-4, -0x1.0bbd240000000p-5, -0x1.2e00400000000p-6, -0x1.dabffc0000000p-4, -0x1.a33e500000000p-5, -0x1.5e92100000000p-6, -0x1.d6f3380000000p-4, -0x1.8c2be80000000p-4, 0x1.9a5cd00000000p-4, -0x1.c06bec0000000p-4, -0x1.13d23a0000000p-4, 0x1.8257040000000p-4, 0x1.36ecb00000000p-4, 0x1.1e2ff80000000p-3, -0x1.041e680000000p-3, -0x1.2353800000000p-6, -0x1.1eaa740000000p-4, -0x1.de37d00000000p-6, -0x1.047dfa0000000p-3, -0x1.b058920000000p-4, 0x1.91b3640000000p-4, -0x1.2971100000000p-5, -0x1.4c456a0000000p-4, 0x1.f3c6000000000p-9, 0x1.4c5a600000000p-4, 0x1.c585b00000000p-5, -0x1.7caa560000000p-4, 0x1.1de3200000000p-3, -0x1.b93c6a0000000p-4, 0x1.20cb000000000p-10, -0x1.a2b8c40000000p-4, 0x1.c7f7100000000p-4, -0x1.0fded00000000p-3, 0x1.e7cb200000000p-4, 0x1.9108dc0000000p-4, 0x1.61a5880000000p-4, 0x1.0292cc0000000p-4, 0x1.791f240000000p-4, -0x1.f285de0000000p-4, -0x1.134cfc0000000p-3, 0x1.2a79000000000p-9, -0x1.83d39c0000000p-5, -0x1.f6a3640000000p-4, -0x1.1466060000000p-4, -0x1.7659380000000p-6, 0x1.1150240000000p-4, 0x1.1f6a740000000p-3, -0x1.08680e0000000p-3, 0x1.8543680000000p-4}
, {0x1.021d840000000p-4, 0x1.6c91b00000000p-5, -0x1.750b4a0000000p-4, -0x1.0dcc2e0000000p-3, -0x1.b953d40000000p-4, -0x1.fff3ea0000000p-4, 0x1.0337800000000p-8, -0x1.6182400000000p-7, -0x1.c970c00000000p-5, 0x1.dfebe00000000p-6, -0x1.093ae20000000p-4, -0x1.f499d40000000p-4, 0x1.edd4600000000p-7, 0x1.fcf4a00000000p-7, 0x1.4360740000000p-4, 0x1.636e880000000p-5, 0x1.f983080000000p-4, 0x1.528f880000000p-5, 0x1.ceb1500000000p-6, -0x1.a212a00000000p-7, 0x1.ff6cc80000000p-4, -0x1.1148220000000p-4, -0x1.a4da380000000p-4, -0x1.1618a00000000p-5, -0x1.068ad20000000p-4, -0x1.0b1de00000000p-5, -0x1.0504640000000p-4, 0x1.19cf200000000p-4, -0x1.5399940000000p-4, -0x1.d3b0040000000p-5, -0x1.63fd280000000p-6, -0x1.a1fd800000000p-8, -0x1.2558980000000p-3, -0x1.4638340000000p-5, -0x1.57624e0000000p-4, 0x1.e7acd80000000p-5, 0x1.57fce00000000p-7, -0x1.ac61980000000p-5, 0x1.6e78900000000p-4, 0x1.f0d7500000000p-4, 0x1.4079e80000000p-4, -0x1.1b18500000000p-6, 0x1.4d14000000000p-4, -0x1.558e9c0000000p-5, 0x1.fdb1500000000p-5, -0x1.6f56280000000p-5, -0x1.8b30000000000p-8, -0x1.29b3dc0000000p-4, 0x1.25d3fc0000000p-3, 0x1.6ee7a40000000p-4, -0x1.d2da880000000p-5, -0x1.5bfebc0000000p-5, 0x1.feea200000000p-4, 0x1.e407100000000p-6, -0x1.35b0840000000p-5, -0x1.ec57b60000000p-4, -0x1.7294780000000p-5, -0x1.d25ba80000000p-5, 0x1.874f300000000p-6, -0x1.05755e0000000p-3, 0x1.71c2500000000p-5, -0x1.872e7c0000000p-4, -0x1.94e2100000000p-4, 0x1.fc04b00000000p-4}
, {-0x1.1a324a0000000p-3, 0x1.a37a000000000p-5, 0x1.e471600000000p-4, -0x1.37c5b00000000p-5, 0x1.7373d00000000p-5, -0x1.e870c00000000p-7, -0x1.2613880000000p-3, 0x1.71be4c0000000p-4, -0x1.24c7320000000p-3, 0x1.3e32400000000p-8, -0x1.9ab9020000000p-4, -0x1.697ef00000000p-4, -0x1.f36e640000000p-4, 0x1.8a23d00000000p-5, -0x1.0ea8f60000000p-4, -0x1.3b92400000000p-7, 0x1.0933940000000p-3, -0x1.37267c0000000p-5, -0x1.94ef3c0000000p-4, 0x1.0f45880000000p-3, -0x1.f3edb40000000p-4, 0x1.423b980000000p-5, 0x1.a191800000000p-7, 0x1.b84b800000000p-4, -0x1.ad51000000000p-7, 0x1.61bc440000000p-4, -0x1.c766500000000p-5, -0x1.07bb080000000p-3, 0x1.71c1280000000p-4, -0x1.ca5e700000000p-4, -0x1.de94f00000000p-4, 0x1.5c48800000000p-6, 0x1.0d00780000000p-3, -0x1.169a1e0000000p-3, -0x1.4d5f580000000p-6, 0x1.7b32600000000p-4, -0x1.7bc4e00000000p-7, 0x1.f134180000000p-4, 0x1.2118340000000p-3, 0x1.2b117c0000000p-4, 0x1.f275800000000p-6, -0x1.a39f800000000p-8, -0x1.1614e00000000p-6, 0x1.c620100000000p-4, 0x1.f43df00000000p-4, 0x1.f353e00000000p-4, 0x1.d534600000000p-4, 0x1.f917700000000p-4, 0x1.ed38a00000000p-6, -0x1.9d8c880000000p-4, 0x1.a8a16c0000000p-4, 0x1.b091d00000000p-6, -0x1.230bf40000000p-3, 0x1.4a6d980000000p-5, 0x1.dfe2600000000p-7, 0x1.13c7d80000000p-3, 0x1.16b2300000000p-3, -0x1.ccb0c00000000p-7, 0x1.befe180000000p-5, 0x1.2f36800000000p-8, -0x1.b39d380000000p-4, -0x1.7c197e0000000p-4, 0x1.e928000000000p-11, 0x1.d477300000000p-4}
}
, {{-0x1.80e36c0000000p-4, 0x1.59c2c40000000p-4, 0x1.2097600000000p-3, 0x1.29b8e80000000p-4, 0x1.dc15800000000p-5, -0x1.56c7c00000000p-6, -0x1.b9b0740000000p-5, -0x1.fdc6c00000000p-7, 0x1.b4ca400000000p-7, -0x1.8df1a20000000p-4, -0x1.c378c00000000p-8, -0x1.391b580000000p-5, 0x1.6a0e5c0000000p-4, -0x1.85ba340000000p-4, 0x1.3ca1200000000p-7, 0x1.2306440000000p-3, 0x1.55e7800000000p-8, 0x1.6d06580000000p-4, -0x1.8409600000000p-4, -0x1.b7ae000000000p-9, -0x1.b9d1400000000p-8, -0x1.30049e0000000p-4, -0x1.ff94000000000p-4, 0x1.acff340000000p-4, -0x1.2c820c0000000p-4, 0x1.e7b1080000000p-5, 0x1.13d1640000000p-3, 0x1.21bddc0000000p-3, 0x1.b9f5e00000000p-4, -0x1.7a37020000000p-4, 0x1.0a6b040000000p-3, 0x1.43ab900000000p-5, -0x1.b7fa000000000p-9, 0x1.ee61180000000p-4, 0x1.cc13800000000p-4, 0x1.01eba80000000p-4, 0x1.fbb7680000000p-4, -0x1.5b46e20000000p-4, -0x1.3037f00000000p-6, 0x1.e16b700000000p-5, -0x1.a079b80000000p-4, 0x1.7c5afc0000000p-4, -0x1.040c060000000p-4, -0x1.aa0ca40000000p-4, -0x1.0ff8460000000p-3, 0x1.4b85980000000p-4, 0x1.8a129c0000000p-4, -0x1.01919a0000000p-3, -0x1.1db7ac0000000p-4, -0x1.bdd7540000000p-4, 0x1.e166000000000p-4, 0x1.1f71300000000p-6, 0x1.1eb5780000000p-3, -0x1.61cc1c0000000p-5, -0x1.5d9f140000000p-4, -0x1.8310000000000p-11, -0x1.1060700000000p-6, -0x1.3ac98a0000000p-4, 0x1.eaf5800000000p-4, -0x1.b6c2100000000p-6, 0x1.59c7a00000000p-7, -0x1.fb44c20000000p-4, 0x1.063f240000000p-3, -0x1.1e2b600000000p-6}
, {0x1.7c99200000000p-4, 0x1.5bcd400000000p-6, -0x1.ad55a00000000p-7, 0x1.48cb100000000p-4, 0x1.6742040000000p-4, 0x1.2036cc0000000p-4, 0x1.62c6f00000000p-4, -0x1.d0cf3c0000000p-5, 0x1.341b780000000p-4, -0x1.1a10100000000p-6, -0x1.5736800000000p-9, -0x1.06e3d40000000p-3, -0x1.e054060000000p-4, 0x1.3070f00000000p-5, -0x1.c57d800000000p-9, -0x1.d6a0600000000p-5, 0x1.62ff200000000p-5, 0x1.7a15340000000p-4, -0x1.e367800000000p-8, -0x1.ec8d000000000p-10, 0x1.2718c40000000p-4, -0x1.b10a080000000p-6, -0x1.4e423c0000000p-4, -0x1.77fb400000000p-8, 0x1.25743c0000000p-4, -0x1.fc78f80000000p-6, -0x1.945dc00000000p-7, -0x1.a9eebc0000000p-4, 0x1.1922500000000p-5, 0x1.fd35b00000000p-5, -0x1.1bf7000000000p-4, -0x1.cdc8300000000p-4, -0x1.15cdd40000000p-4, 0x1.0328e80000000p-5, 0x1.b5f6580000000p-4, -0x1.6a8f0c0000000p-5, 0x1.536ef80000000p-4, -0x1.49b11a0000000p-4, -0x1.a3a4f80000000p-4, 0x1.dd06400000000p-8, -0x1.e3c0700000000p-4, 0x1.f459900000000p-4, 0x1.1e45380000000p-5, -0x1.1fbb6e0000000p-3, 0x1.f6b8a80000000p-5, -0x1.3cf4e00000000p-4, -0x1.b9b6b40000000p-4, -0x1.3b2ec00000000p-6, -0x1.7ae5b20000000p-4, -0x1.b934400000000p-8, -0x1.13c71c0000000p-4, -0x1.3d07ee0000000p-4, -0x1.c4bf6c0000000p-4, -0x1.7ead600000000p-7, -0x1.263f100000000p-6, 0x1.c843000000000p-5, -0x1.4a37960000000p-4, 0x1.55eb800000000p-7, -0x1.1a28f00000000p-3, -0x1.e69d800000000p-9, -0x1.12411c0000000p-3, -0x1.493b780000000p-4, -0x1.bcaccc0000000p-5, 0x1.e7fe500000000p-4}
, {0x1.a42b280000000p-5, 0x1.8984940000000p-4, 0x1.e8d4300000000p-4, -0x1.860a620000000p-4, 0x1.042e000000000p-8, -0x1.10b8b20000000p-4, -0x1.a5482a0000000p-4, -0x1.0329640000000p-3, 0x1.43c9200000000p-4, 0x1.0b18140000000p-3, 0x1.e2cfb00000000p-4, -0x1.b45d000000000p-9, -0x1.461ae80000000p-5, -0x1.4352380000000p-6, -0x1.6c15000000000p-10, 0x1.8838900000000p-5, 0x1.14a9700000000p-5, -0x1.a0f23e0000000p-4, -0x1.c45aac0000000p-4, 0x1.6cb2500000000p-6, 0x1.e197300000000p-4, 0x1.ffb0080000000p-5, 0x1.a5784c0000000p-4, -0x1.2442ba0000000p-3, -0x1.0201600000000p-4, 0x1.4c59c00000000p-7, 0x1.170ca00000000p-3, 0x1.0d519c0000000p-3, -0x1.2f3f200000000p-7, 0x1.1cd7d00000000p-4, -0x1.7918480000000p-4, -0x1.46ecb00000000p-6, 0x1.54603c0000000p-4, -0x1.0fde6c0000000p-3, -0x1.4165240000000p-4, -0x1.c5fd0c0000000p-5, -0x1.0969e60000000p-4, -0x1.4d0ac20000000p-4, 0x1.7475080000000p-5, -0x1.2534420000000p-3, 0x1.2f0d000000000p-5, 0x1.8730600000000p-5, -0x1.8fb06e0000000p-4, 0x1.79a4600000000p-7, 0x1.957cd40000000p-4, 0x1.6723e00000000p-6, -0x1.d5006c0000000p-4, 0x1.1e052c0000000p-3, 0x1.64c5f40000000p-4, -0x1.ed57280000000p-4, -0x1.51d8380000000p-4, 0x1.91ac200000000p-6, -0x1.b38b540000000p-5, -0x1.ce69980000000p-5, 0x1.d0ca400000000p-6, 0x1.b8d7680000000p-4, -0x1.3d47f00000000p-5, -0x1.5f91d40000000p-4, 0x1.373fa40000000p-4, 0x1.e89a200000000p-7, 0x1.46595c0000000p-4, -0x1.8220c00000000p-7, -0x1.5af0d00000000p-6, -0x1.93c5140000000p-4}
}
, {{0x1.08334c0000000p-3, -0x1.9b218c0000000p-4, -0x1.ca54000000000p-8, 0x1.70f87c0000000p-4, -0x1.070c380000000p-4, -0x1.17db520000000p-4, 0x1.2d1dac0000000p-4, 0x1.08f6780000000p-4, 0x1.7af7840000000p-4, 0x1.7f73cc0000000p-4, 0x1.5b42d80000000p-4, -0x1.f651260000000p-4, 0x1.1a5a040000000p-3, -0x1.c706d80000000p-5, 0x1.63d8800000000p-5, 0x1.ae00200000000p-5, 0x1.7fcdf80000000p-5, 0x1.e445a00000000p-5, -0x1.74dacc0000000p-4, 0x1.8e30800000000p-6, 0x1.25bb5c0000000p-3, 0x1.3355c00000000p-8, -0x1.aff2340000000p-4, 0x1.0ce46c0000000p-3, -0x1.7de4500000000p-4, 0x1.d27b800000000p-5, -0x1.47b2b80000000p-5, 0x1.0088040000000p-3, 0x1.3be5600000000p-5, -0x1.9d84900000000p-4, 0x1.9b24d40000000p-4, 0x1.19c7780000000p-3, 0x1.b3d9200000000p-4, -0x1.1ef83a0000000p-3, 0x1.df5e400000000p-6, -0x1.e6c8b80000000p-4, -0x1.5d8d780000000p-4, -0x1.475f140000000p-5, 0x1.a124140000000p-4, -0x1.1e86d20000000p-3, -0x1.43a5380000000p-5, -0x1.61fd9e0000000p-4, -0x1.cec43c0000000p-4, 0x1.63a7800000000p-7, 0x1.a6cad80000000p-5, -0x1.2f8c880000000p-5, 0x1.89de680000000p-5, -0x1.18dfe80000000p-3, -0x1.a756740000000p-4, 0x1.46f2a00000000p-5, 0x1.8e43c00000000p-6, 0x1.98ffc40000000p-4, -0x1.423d400000000p-6, 0x1.72f2340000000p-4, -0x1.2539a00000000p-7, 0x1.11b3dc0000000p-3, 0x1.13d5880000000p-5, -0x1.fb1dd40000000p-5, -0x1.9629980000000p-6, 0x1.f652180000000p-5, -0x1.02162e0000000p-3, -0x1.4a40a60000000p-4, 0x1.a815100000000p-6, -0x1.a412800000000p-8}
, {0x1.982ff00000000p-5, 0x1.fc60100000000p-4, 0x1.8f90240000000p-4, -0x1.7f79d40000000p-4, -0x1.b1fb260000000p-4, -0x1.949b3c0000000p-4, 0x1.1ba9c80000000p-3, -0x1.db06200000000p-6, 0x1.d5e0480000000p-4, -0x1.36de640000000p-4, 0x1.31ff880000000p-5, -0x1.9345960000000p-4, 0x1.366fb80000000p-4, 0x1.2739480000000p-4, 0x1.268a000000000p-9, 0x1.18da140000000p-3, 0x1.04ae7c0000000p-3, -0x1.abcd500000000p-4, -0x1.9175b00000000p-6, -0x1.f4bda80000000p-4, -0x1.e67a000000000p-9, -0x1.48212e0000000p-4, 0x1.c086500000000p-4, -0x1.1b904e0000000p-4, 0x1.98b2000000000p-11, 0x1.8ff5000000000p-7, 0x1.2854100000000p-5, -0x1.0a2e200000000p-3, -0x1.06b3500000000p-3, 0x1.0cb4ac0000000p-3, 0x1.1f746c0000000p-4, 0x1.7828f80000000p-5, 0x1.6c27000000000p-7, -0x1.6dcb8c0000000p-5, 0x1.aa57280000000p-5, 0x1.1b90180000000p-3, -0x1.468c2a0000000p-4, -0x1.537e840000000p-4, 0x1.2ca6000000000p-6, -0x1.609d380000000p-4, -0x1.11e9f40000000p-3, -0x1.1075ec0000000p-3, 0x1.3625880000000p-4, 0x1.0190240000000p-3, -0x1.1bef5e0000000p-3, -0x1.c50d300000000p-4, -0x1.d5eae60000000p-4, -0x1.2034d60000000p-3, -0x1.1c59e00000000p-4, 0x1.88c01c0000000p-4, -0x1.1345c80000000p-5, 0x1.5bcdd80000000p-4, 0x1.04eac40000000p-4, -0x1.761b800000000p-7, 0x1.1d43280000000p-5, 0x1.702dfc0000000p-4, -0x1.ace10a0000000p-4, 0x1.e855280000000p-4, -0x1.0687160000000p-3, 0x1.07891c0000000p-4, 0x1.7410000000000p-9, -0x1.4398180000000p-4, -0x1.e56d800000000p-7, -0x1.057d180000000p-5}
, {0x1.2617fc0000000p-3, -0x1.0d24da0000000p-3, -0x1.24f3c00000000p-6, 0x1.6edfbc0000000p-4, -0x1.f5b0000000000p-4, -0x1.d7cc000000000p-7, -0x1.f4a72c0000000p-4, 0x1.7ee3a40000000p-4, 0x1.8e7bfc0000000p-4, 0x1.59eb500000000p-4, 0x1.3ce9580000000p-5, -0x1.7af1c00000000p-8, 0x1.8b23400000000p-8, 0x1.b7ed600000000p-7, -0x1.52dd540000000p-4, -0x1.14acc00000000p-3, -0x1.3006340000000p-5, -0x1.3256900000000p-5, 0x1.a007fc0000000p-4, 0x1.5e32800000000p-5, -0x1.f259d00000000p-4, -0x1.c056200000000p-5, 0x1.4257300000000p-4, -0x1.4019e80000000p-6, 0x1.abfe600000000p-6, 0x1.3408000000000p-5, 0x1.5874000000000p-10, 0x1.f44cf80000000p-4, 0x1.e8f6000000000p-11, 0x1.49bb100000000p-5, -0x1.3275620000000p-4, 0x1.77f4900000000p-6, -0x1.c4cbc00000000p-7, 0x1.022e180000000p-3, -0x1.5053180000000p-6, -0x1.1ac1500000000p-6, 0x1.8ecfe80000000p-4, -0x1.08fed00000000p-6, 0x1.cdf4d00000000p-4, -0x1.cca4960000000p-4, 0x1.f94a780000000p-5, 0x1.b2be000000000p-4, 0x1.3656380000000p-5, 0x1.a900380000000p-5, 0x1.d518f00000000p-5, 0x1.d453300000000p-4, -0x1.7b92120000000p-4, -0x1.d821180000000p-6, 0x1.c0fb480000000p-4, 0x1.032ad80000000p-3, 0x1.697b8c0000000p-4, 0x1.0f52280000000p-3, 0x1.cdcdd80000000p-5, 0x1.cc83500000000p-4, 0x1.2342a00000000p-3, -0x1.2f08000000000p-13, -0x1.608c800000000p-7, -0x1.3135640000000p-4, -0x1.59777c0000000p-4, 0x1.3df9c00000000p-6, -0x1.21c8000000000p-7, 0x1.f556100000000p-6, 0x1.69e4280000000p-5, 0x1.5d3a080000000p-4}
}
, {{0x1.d6fd500000000p-4, 0x1.1077f00000000p-5, -0x1.e16b000000000p-10, -0x1.865a2a0000000p-4, 0x1.68df780000000p-4, 0x1.3ac7840000000p-4, 0x1.34ee580000000p-4, 0x1.858c600000000p-4, -0x1.407f180000000p-6, 0x1.e457980000000p-4, 0x1.9cd5300000000p-5, 0x1.8c4cb40000000p-4, 0x1.0958380000000p-5, 0x1.026db40000000p-4, -0x1.61bc600000000p-6, 0x1.90ab540000000p-4, -0x1.153a900000000p-4, -0x1.21900e0000000p-3, 0x1.8da59c0000000p-4, 0x1.d699400000000p-6, -0x1.0498d00000000p-6, 0x1.94e9dc0000000p-4, -0x1.55c8000000000p-7, 0x1.8e84c00000000p-4, -0x1.87ddc00000000p-4, 0x1.e4a6400000000p-6, -0x1.836a180000000p-6, 0x1.d409300000000p-4, -0x1.16fde00000000p-4, -0x1.17b30e0000000p-3, -0x1.23c15a0000000p-3, 0x1.cad8300000000p-4, 0x1.2f16d00000000p-6, -0x1.66af560000000p-4, -0x1.615fa40000000p-5, 0x1.d59d580000000p-5, 0x1.12cdcc0000000p-3, -0x1.9dfc380000000p-4, -0x1.b32b200000000p-4, 0x1.73fd440000000p-4, -0x1.e6c4400000000p-6, -0x1.f17ce60000000p-4, -0x1.56c7240000000p-4, -0x1.e449c80000000p-4, -0x1.756d180000000p-6, -0x1.eabb980000000p-5, -0x1.722aa00000000p-4, 0x1.da22c00000000p-4, -0x1.9835200000000p-6, 0x1.50be4c0000000p-4, 0x1.164ec00000000p-3, 0x1.adce600000000p-6, -0x1.2fb26c0000000p-4, 0x1.4a04ac0000000p-4, -0x1.5022e00000000p-5, -0x1.cfd3a80000000p-4, -0x1.c396860000000p-4, 0x1.0008300000000p-3, -0x1.1fae400000000p-7, -0x1.cdab340000000p-5, -0x1.22f9a00000000p-4, 0x1.fad1700000000p-4, -0x1.443e5e0000000p-4, -0x1.b84d400000000p-6}
, {-0x1.0415c40000000p-4, 0x1.7b3fa80000000p-5, -0x1.c477d40000000p-4, -0x1.33d6000000000p-9, 0x1.12e1240000000p-3, -0x1.88e13c0000000p-5, -0x1.c4ebe00000000p-5, 0x1.ff2f100000000p-4, -0x1.597a720000000p-4, 0x1.b3d6800000000p-4, 0x1.6fd4b00000000p-6, 0x1.460cc00000000p-4, -0x1.63dfda0000000p-4, -0x1.71e5f80000000p-6, -0x1.ebec000000000p-5, 0x1.c737d80000000p-5, 0x1.d0e1a00000000p-6, -0x1.8ba9920000000p-4, -0x1.1689ee0000000p-3, -0x1.c2bed00000000p-6, -0x1.183eb80000000p-3, 0x1.21c0f00000000p-6, -0x1.09f01e0000000p-3, -0x1.dea1480000000p-4, 0x1.fb31f80000000p-4, -0x1.e2a4b60000000p-4, -0x1.2361fa0000000p-4, -0x1.02c38c0000000p-4, -0x1.6e0ca00000000p-7, 0x1.c11ba00000000p-6, 0x1.11f1540000000p-3, 0x1.a277a00000000p-5, 0x1.1d73e00000000p-5, -0x1.4884280000000p-5, -0x1.f2d0500000000p-5, 0x1.25e5800000000p-4, -0x1.b3f40c0000000p-4, 0x1.ecf2080000000p-4, 0x1.b30a500000000p-4, -0x1.26922c0000000p-3, -0x1.f232f80000000p-6, 0x1.4a8c580000000p-5, -0x1.17e2e80000000p-5, -0x1.20f85c0000000p-3, -0x1.ce3af80000000p-4, 0x1.0d815c0000000p-4, 0x1.1c26ac0000000p-3, 0x1.87e9c00000000p-6, -0x1.eaef8e0000000p-4, 0x1.70fd900000000p-5, -0x1.0482e00000000p-6, -0x1.902de40000000p-5, -0x1.62db640000000p-4, 0x1.7efa400000000p-8, -0x1.00e9fa0000000p-3, 0x1.391a8c0000000p-4, 0x1.b52d680000000p-5, 0x1.1664780000000p-5, 0x1.be13c80000000p-5, -0x1.c92f480000000p-6, -0x1.39bfac0000000p-5, -0x1.240d3c0000000p-3, -0x1.a4c3bc0000000p-4, -0x1.b112a80000000p-4}
, {-0x1.d5d12c0000000p-5, 0x1.0c69840000000p-3, -0x1.3bc11e0000000p-4, 0x1.9d48a80000000p-4, -0x1.a5f0500000000p-6, 0x1.7c5e300000000p-6, 0x1.a175a80000000p-4, 0x1.f340580000000p-4, 0x1.2d46200000000p-4, -0x1.9fc0100000000p-4, -0x1.5823600000000p-7, 0x1.eb8f400000000p-4, 0x1.0649880000000p-3, 0x1.9fddb80000000p-5, -0x1.5449c80000000p-4, 0x1.b5dc580000000p-4, -0x1.0369480000000p-4, -0x1.282a000000000p-10, 0x1.2393480000000p-3, 0x1.39067c0000000p-4, -0x1.3ff7dc0000000p-5, -0x1.1181aa0000000p-3, 0x1.2379e40000000p-3, 0x1.93b3b80000000p-5, -0x1.1192d20000000p-3, -0x1.79f9840000000p-5, 0x1.1cb7500000000p-6, -0x1.2df2a60000000p-4, 0x1.137cf00000000p-3, -0x1.72e7d00000000p-4, -0x1.663dbe0000000p-4, 0x1.1b95c40000000p-3, 0x1.75c5bc0000000p-4, -0x1.0ed3000000000p-8, 0x1.6006180000000p-4, -0x1.84c8b00000000p-4, -0x1.c432580000000p-6, 0x1.8a35480000000p-5, 0x1.166de80000000p-3, 0x1.34fa500000000p-6, -0x1.aa73980000000p-5, 0x1.6ddc2c0000000p-4, -0x1.2fd1740000000p-5, -0x1.e637400000000p-7, 0x1.504bcc0000000p-4, -0x1.d94c060000000p-4, 0x1.2e82280000000p-4, 0x1.0062780000000p-5, 0x1.2e36980000000p-5, 0x1.6681a80000000p-4, -0x1.3f802a0000000p-4, -0x1.fceeaa0000000p-4, 0x1.1747900000000p-4, 0x1.4203700000000p-4, 0x1.74e3280000000p-5, -0x1.5edf800000000p-5, -0x1.cd9b4c0000000p-4, -0x1.af49a00000000p-7, -0x1.b5193a0000000p-4, 0x1.c8efb00000000p-4, 0x1.a708080000000p-5, -0x1.96b3bc0000000p-5, 0x1.b57be00000000p-6, 0x1.5905800000000p-6}
}
, {{-0x1.87b8f80000000p-6, -0x1.617fe00000000p-7, 0x1.36fd080000000p-4, 0x1.d9a3f00000000p-6, 0x1.707a980000000p-5, 0x1.0109680000000p-5, 0x1.cf28200000000p-6, -0x1.d284260000000p-4, 0x1.44a0f00000000p-6, 0x1.61958c0000000p-4, 0x1.db3fc00000000p-6, 0x1.b5bab80000000p-5, -0x1.5ed9700000000p-5, -0x1.a256000000000p-4, -0x1.6a57d60000000p-4, 0x1.4faf200000000p-7, -0x1.c623000000000p-5, 0x1.3839e40000000p-4, -0x1.fcfbf00000000p-5, -0x1.a60e280000000p-4, 0x1.0822b40000000p-3, -0x1.e905800000000p-7, 0x1.296e500000000p-5, -0x1.7fb4a00000000p-7, 0x1.d50a800000000p-5, 0x1.2d4f000000000p-6, -0x1.bc81080000000p-4, 0x1.26c8040000000p-3, 0x1.fe2d600000000p-4, -0x1.0a4e6c0000000p-4, 0x1.1b880c0000000p-3, 0x1.118b580000000p-3, 0x1.f5ecc00000000p-6, -0x1.43b9cc0000000p-5, -0x1.86d29c0000000p-4, 0x1.2b91200000000p-7, -0x1.a7a6880000000p-5, 0x1.039e800000000p-7, -0x1.2ff1d00000000p-6, 0x1.753f380000000p-4, -0x1.f3d5000000000p-8, 0x1.ccda000000000p-8, -0x1.f3b3c00000000p-4, 0x1.a9b3300000000p-4, -0x1.044dd60000000p-4, -0x1.4875a00000000p-7, 0x1.d0d3500000000p-4, -0x1.af50940000000p-4, -0x1.6845640000000p-5, 0x1.c926000000000p-7, -0x1.4bf36e0000000p-4, 0x1.1080a80000000p-5, 0x1.02a5740000000p-4, -0x1.f0466c0000000p-5, -0x1.bd22f00000000p-6, -0x1.264ece0000000p-3, -0x1.c192440000000p-4, 0x1.ce98c00000000p-4, -0x1.e287400000000p-7, 0x1.3b03000000000p-6, 0x1.2114800000000p-7, 0x1.f6bb500000000p-4, -0x1.f5df160000000p-4, -0x1.892d540000000p-4}
, {0x1.d1b0300000000p-4, 0x1.62ec080000000p-4, 0x1.1a8a380000000p-5, 0x1.abfb080000000p-5, -0x1.5689680000000p-6, 0x1.3856080000000p-4, -0x1.b43f200000000p-7, -0x1.0e397e0000000p-4, 0x1.e57c480000000p-4, 0x1.c1f6b00000000p-5, 0x1.e8f1a80000000p-4, -0x1.54ae640000000p-5, -0x1.1127b00000000p-3, 0x1.5881200000000p-6, 0x1.0871d80000000p-5, -0x1.8424f80000000p-4, 0x1.039ec80000000p-3, 0x1.4dc3840000000p-4, -0x1.8c83200000000p-6, -0x1.6b10140000000p-5, 0x1.7b235c0000000p-4, -0x1.832c400000000p-4, 0x1.9faa000000000p-6, -0x1.2434ac0000000p-3, 0x1.8c67a00000000p-4, 0x1.96a9300000000p-6, 0x1.4d48ac0000000p-4, 0x1.f579380000000p-5, -0x1.1b7c3a0000000p-3, 0x1.9a6b900000000p-5, -0x1.4c389a0000000p-4, -0x1.240aba0000000p-3, -0x1.349bfe0000000p-4, 0x1.e893000000000p-6, -0x1.2656900000000p-4, 0x1.85a0400000000p-5, 0x1.bbb8600000000p-5, 0x1.aa1c440000000p-4, -0x1.1615ac0000000p-5, 0x1.b10c800000000p-8, 0x1.4bfe000000000p-8, 0x1.9f9e380000000p-5, -0x1.9e98000000000p-7, -0x1.4225120000000p-4, 0x1.d3aa980000000p-5, -0x1.fb3c480000000p-4, -0x1.95a6a80000000p-4, 0x1.bc11100000000p-5, -0x1.b9dae40000000p-5, 0x1.0b10440000000p-3, -0x1.55bd340000000p-4, 0x1.d81a880000000p-4, -0x1.ed83c00000000p-8, 0x1.2405f40000000p-3, -0x1.79e4180000000p-6, 0x1.8857780000000p-5, 0x1.5dcb980000000p-5, 0x1.7b3e000000000p-5, -0x1.8e86c40000000p-5, 0x1.78c0180000000p-5, 0x1.22b85c0000000p-3, -0x1.4838620000000p-4, -0x1.0c82180000000p-5, 0x1.2304e80000000p-5}
, {0x1.efcad00000000p-5, 0x1.a837d00000000p-5, -0x1.6214dc0000000p-4, -0x1.106f440000000p-4, -0x1.048b9e0000000p-3, 0x1.b625580000000p-4, -0x1.7fb5600000000p-6, -0x1.636cf40000000p-5, -0x1.0344260000000p-3, -0x1.32a5f40000000p-5, 0x1.2128c80000000p-3, 0x1.64eea00000000p-7, 0x1.1cd1e40000000p-4, -0x1.05e9c80000000p-4, 0x1.9056400000000p-5, 0x1.1a72d00000000p-4, 0x1.205b600000000p-3, 0x1.1819400000000p-5, -0x1.6e0ea00000000p-4, -0x1.b0cd200000000p-5, 0x1.5965400000000p-7, -0x1.f43f600000000p-6, 0x1.da49e00000000p-4, -0x1.c95ae00000000p-4, -0x1.debe1c0000000p-4, 0x1.baef480000000p-4, 0x1.e7d6300000000p-5, 0x1.8310000000000p-7, -0x1.e122000000000p-10, 0x1.948c380000000p-4, -0x1.1ec0760000000p-4, 0x1.4fb0480000000p-5, 0x1.ca81680000000p-4, 0x1.4926000000000p-8, -0x1.2514580000000p-3, -0x1.9dfc400000000p-4, -0x1.1621660000000p-3, -0x1.145f100000000p-4, 0x1.4246600000000p-4, -0x1.5f40800000000p-5, 0x1.1018140000000p-4, 0x1.fc80d80000000p-4, 0x1.10ca640000000p-3, -0x1.9600c00000000p-6, -0x1.ce93680000000p-4, 0x1.a515100000000p-6, 0x1.45673c0000000p-4, 0x1.a67ab40000000p-4, 0x1.ace2b00000000p-6, -0x1.f295600000000p-7, 0x1.179a8c0000000p-4, 0x1.8c7c100000000p-5, 0x1.31be540000000p-4, -0x1.6ac6c40000000p-5, 0x1.7e89200000000p-5, 0x1.76e45c0000000p-4, 0x1.b259800000000p-6, -0x1.546db80000000p-5, 0x1.1353380000000p-3, -0x1.26c6e00000000p-3, 0x1.badb400000000p-5, 0x1.814f580000000p-5, 0x1.1484a00000000p-3, 0x1.d415a00000000p-4}
}
, {{-0x1.1b7c060000000p-3, -0x1.e105400000000p-8, -0x1.2154c00000000p-3, -0x1.e652100000000p-6, -0x1.981aec0000000p-5, -0x1.138dae0000000p-3, 0x1.664b340000000p-4, 0x1.9c7e7c0000000p-4, -0x1.a0bee40000000p-4, 0x1.24d0d80000000p-4, -0x1.cb82780000000p-5, -0x1.7dea380000000p-5, -0x1.0e2d0c0000000p-5, 0x1.24fb000000000p-8, 0x1.47bcf80000000p-4, 0x1.6d84200000000p-4, 0x1.5ad8200000000p-7, 0x1.b1d7b80000000p-5, -0x1.12cdd00000000p-6, -0x1.75db5c0000000p-5, 0x1.928e480000000p-4, 0x1.8d95f00000000p-4, 0x1.67d4500000000p-4, -0x1.1b90860000000p-3, 0x1.2da0480000000p-5, 0x1.10a8940000000p-3, 0x1.f739600000000p-4, -0x1.6286f40000000p-4, 0x1.f0c2100000000p-5, 0x1.3062600000000p-6, 0x1.857bf00000000p-6, 0x1.74eea40000000p-4, 0x1.5135f40000000p-4, 0x1.0083140000000p-3, -0x1.d2f2900000000p-5, -0x1.0307180000000p-3, 0x1.6f27300000000p-6, -0x1.29f6de0000000p-4, -0x1.72a9400000000p-4, -0x1.df36fc0000000p-5, 0x1.817a200000000p-7, 0x1.e0d8000000000p-6, 0x1.c9b5400000000p-4, 0x1.39cf4c0000000p-4, -0x1.2dbc440000000p-5, -0x1.c8999c0000000p-5, -0x1.a5b12c0000000p-5, 0x1.22b7300000000p-5, 0x1.439a400000000p-8, -0x1.2b80000000000p-13, -0x1.51c3800000000p-9, 0x1.e54d780000000p-5, -0x1.0db1ec0000000p-5, -0x1.cd5bd40000000p-5, 0x1.21d3240000000p-3, 0x1.039e140000000p-3, -0x1.0c0aa00000000p-6, 0x1.7e03a00000000p-7, 0x1.2732b40000000p-4, 0x1.d33f980000000p-4, -0x1.44b3dc0000000p-4, -0x1.3f83320000000p-4, 0x1.6678c00000000p-5, -0x1.7a1de40000000p-5}
, {-0x1.0de7fa0000000p-4, -0x1.61d9240000000p-4, 0x1.91bb680000000p-4, -0x1.c6aecc0000000p-4, -0x1.e03b4c0000000p-5, 0x1.0b87800000000p-3, 0x1.0281640000000p-3, -0x1.7b6ce80000000p-4, 0x1.96cee00000000p-5, -0x1.d2d05c0000000p-5, 0x1.cf2c500000000p-4, -0x1.45fa6c0000000p-4, -0x1.b3dad20000000p-4, -0x1.bf0f800000000p-5, 0x1.5525c80000000p-4, 0x1.b852900000000p-4, 0x1.8a0c600000000p-5, -0x1.1848000000000p-8, -0x1.b82c560000000p-4, -0x1.b998480000000p-4, 0x1.7cd2c80000000p-4, -0x1.fe4cca0000000p-4, 0x1.b3db480000000p-5, 0x1.3c5f580000000p-5, -0x1.261c600000000p-6, -0x1.a17c300000000p-6, 0x1.ad7a880000000p-5, -0x1.e94d600000000p-7, 0x1.eaeb800000000p-4, 0x1.3525800000000p-7, 0x1.9cb6600000000p-4, -0x1.00d09c0000000p-3, 0x1.1790f40000000p-3, -0x1.409ec00000000p-4, -0x1.767cc20000000p-4, 0x1.ba10200000000p-4, 0x1.838d700000000p-6, -0x1.420b980000000p-5, -0x1.47e8ec0000000p-5, -0x1.5218460000000p-4, -0x1.8e87500000000p-4, -0x1.4fbfdc0000000p-5, 0x1.cbd5f00000000p-4, 0x1.1392980000000p-3, 0x1.a909080000000p-5, -0x1.1d49ac0000000p-3, 0x1.bb3a480000000p-4, -0x1.442b6c0000000p-4, -0x1.9afd240000000p-4, 0x1.1ab6f40000000p-3, 0x1.1e75100000000p-3, 0x1.5966a00000000p-6, -0x1.249f600000000p-3, 0x1.a3d0e00000000p-6, 0x1.2607c00000000p-4, 0x1.6b03ac0000000p-4, -0x1.dbcbf00000000p-5, -0x1.1414000000000p-12, 0x1.d2d3980000000p-5, -0x1.7159600000000p-4, -0x1.6fe2180000000p-6, 0x1.918da00000000p-6, -0x1.6d25720000000p-4, -0x1.5213f00000000p-4}
, {-0x1.4499e00000000p-5, 0x1.251f300000000p-3, -0x1.fd7a340000000p-4, 0x1.428ac00000000p-6, -0x1.c994000000000p-7, -0x1.9d4d480000000p-4, -0x1.294b880000000p-5, -0x1.46af5a0000000p-4, -0x1.6933ea0000000p-4, 0x1.995fb80000000p-4, -0x1.8010f20000000p-4, -0x1.2c26800000000p-4, -0x1.4082800000000p-5, 0x1.102b180000000p-3, -0x1.b0ba100000000p-6, 0x1.3894e00000000p-5, 0x1.20cac00000000p-4, -0x1.fc0e140000000p-4, 0x1.f7b0e00000000p-7, 0x1.70de8c0000000p-4, 0x1.8df4800000000p-6, 0x1.1f78f00000000p-6, -0x1.4053700000000p-5, -0x1.fb02380000000p-4, -0x1.3bbb180000000p-5, -0x1.84a7f00000000p-6, 0x1.4187200000000p-4, 0x1.e470380000000p-4, -0x1.6fc5600000000p-7, -0x1.a77d600000000p-6, -0x1.c858b20000000p-4, 0x1.2e8ce80000000p-4, -0x1.69a4340000000p-5, -0x1.ec10000000000p-6, -0x1.c8bba40000000p-4, 0x1.0aff040000000p-4, -0x1.5940900000000p-4, 0x1.6b67d80000000p-5, -0x1.2710640000000p-3, -0x1.dc9e400000000p-5, -0x1.c0cbc40000000p-4, 0x1.8dddd00000000p-5, 0x1.09f4d40000000p-3, 0x1.afc3800000000p-4, 0x1.1ca4f00000000p-6, -0x1.646b500000000p-4, -0x1.369ebc0000000p-5, 0x1.5773800000000p-7, -0x1.22cdcc0000000p-3, 0x1.c8e3b80000000p-5, 0x1.6e2cb80000000p-4, 0x1.799c200000000p-7, -0x1.145ae00000000p-3, -0x1.7423280000000p-4, -0x1.31f8e40000000p-4, 0x1.abafd80000000p-5, 0x1.89b6d80000000p-5, -0x1.26b7800000000p-7, 0x1.bf4b700000000p-4, -0x1.9f84060000000p-4, 0x1.ddd1d80000000p-5, 0x1.2777400000000p-5, -0x1.b6edc80000000p-4, 0x1.9512b40000000p-4}
}
, {{-0x1.58c7b80000000p-5, 0x1.2c04e80000000p-4, 0x1.d143c80000000p-4, -0x1.a24d980000000p-4, -0x1.c717f00000000p-4, -0x1.b107800000000p-5, 0x1.46beb00000000p-4, -0x1.09793c0000000p-4, 0x1.7c86300000000p-4, -0x1.925a500000000p-6, -0x1.c03b240000000p-4, -0x1.84a4300000000p-6, 0x1.1acfd40000000p-4, -0x1.14f8680000000p-3, 0x1.5e7e5c0000000p-4, -0x1.5e9d000000000p-10, 0x1.aa0bac0000000p-4, 0x1.6481a80000000p-5, 0x1.26bdf40000000p-3, -0x1.9419a00000000p-5, -0x1.208ed00000000p-5, 0x1.203b340000000p-3, -0x1.d042700000000p-6, 0x1.21ae680000000p-4, 0x1.ec06880000000p-4, 0x1.706d080000000p-5, 0x1.49c2000000000p-11, 0x1.dbd1180000000p-4, -0x1.1da2b00000000p-3, -0x1.078fce0000000p-3, 0x1.19677c0000000p-4, -0x1.741ea60000000p-4, 0x1.1fc86c0000000p-3, -0x1.6ca0e80000000p-4, -0x1.aee6740000000p-4, -0x1.b805840000000p-4, -0x1.cbdc9c0000000p-4, 0x1.960f980000000p-4, -0x1.f26c480000000p-6, 0x1.bb8e800000000p-5, -0x1.d29c240000000p-4, 0x1.2385800000000p-3, -0x1.0e98400000000p-7, 0x1.2c8d980000000p-5, -0x1.088fee0000000p-3, -0x1.037ee60000000p-3, -0x1.db3dd80000000p-6, 0x1.a61d600000000p-6, -0x1.035ba40000000p-4, 0x1.0a57400000000p-8, 0x1.e052600000000p-7, -0x1.7b9f100000000p-4, 0x1.fd35880000000p-5, 0x1.8482dc0000000p-4, 0x1.0954840000000p-3, 0x1.1672000000000p-11, -0x1.0db03a0000000p-4, 0x1.198c680000000p-5, -0x1.b028280000000p-6, -0x1.02c3580000000p-3, -0x1.2dcb7e0000000p-4, 0x1.1c92300000000p-3, 0x1.8aca980000000p-5, -0x1.3fdc940000000p-5}
, {0x1.ce5e800000000p-4, 0x1.6f1e400000000p-8, -0x1.d4b9980000000p-5, 0x1.1725900000000p-3, 0x1.0fed380000000p-4, -0x1.602d240000000p-5, -0x1.71f2d80000000p-4, -0x1.13a8680000000p-3, -0x1.9d27360000000p-4, -0x1.6a841c0000000p-4, 0x1.83aee80000000p-4, -0x1.19deb80000000p-3, -0x1.19768e0000000p-3, -0x1.12ab6a0000000p-4, -0x1.457a500000000p-6, 0x1.eda9300000000p-4, 0x1.18ae6c0000000p-4, 0x1.e437800000000p-8, 0x1.b125100000000p-4, -0x1.2568f20000000p-4, -0x1.46671c0000000p-5, -0x1.acf4ac0000000p-4, 0x1.1b97040000000p-4, -0x1.40c1240000000p-5, -0x1.bb39c80000000p-5, 0x1.03e9340000000p-4, -0x1.26425c0000000p-5, -0x1.0255800000000p-7, -0x1.618a700000000p-6, 0x1.af40a00000000p-6, 0x1.d6b7400000000p-5, 0x1.2b00ac0000000p-4, 0x1.a5fbc00000000p-7, 0x1.09acf80000000p-3, -0x1.13b1600000000p-7, -0x1.29d7f20000000p-4, 0x1.c682000000000p-8, -0x1.0b5fe80000000p-4, 0x1.6e41480000000p-4, 0x1.5c3de00000000p-4, 0x1.0c32f80000000p-4, -0x1.6db8800000000p-7, 0x1.ee8d080000000p-5, -0x1.8427980000000p-6, -0x1.1f2c180000000p-5, -0x1.b63a440000000p-4, -0x1.478a2c0000000p-5, -0x1.5aa9f40000000p-5, -0x1.e0e6900000000p-6, -0x1.630e7c0000000p-5, 0x1.80e6000000000p-5, -0x1.73c6c00000000p-6, 0x1.83f7200000000p-5, 0x1.63e8a00000000p-4, -0x1.195a080000000p-5, 0x1.e82c380000000p-5, 0x1.9d17500000000p-5, -0x1.30575c0000000p-4, 0x1.24174c0000000p-3, -0x1.0ffd280000000p-5, 0x1.92eec80000000p-5, -0x1.ce64880000000p-5, 0x1.c563800000000p-8, -0x1.fa20540000000p-4}
, {-0x1.d5e7000000000p-8, -0x1.0f19460000000p-3, 0x1.52b1980000000p-4, -0x1.f7dd900000000p-6, 0x1.0dc9580000000p-3, -0x1.0ca2440000000p-3, -0x1.5d17c20000000p-4, -0x1.18a7cc0000000p-3, 0x1.28c4000000000p-5, 0x1.e96e000000000p-9, 0x1.e641e00000000p-4, -0x1.2f1e680000000p-5, -0x1.9886200000000p-4, 0x1.2800d40000000p-4, 0x1.1dd7f80000000p-4, 0x1.d1e4480000000p-5, 0x1.f55e200000000p-4, -0x1.0ba0760000000p-3, 0x1.5b38000000000p-13, -0x1.bb69d80000000p-6, -0x1.7e58000000000p-13, -0x1.6c44180000000p-4, 0x1.1ee6780000000p-5, 0x1.e94f900000000p-5, 0x1.7f71000000000p-9, -0x1.545d440000000p-4, 0x1.5223a40000000p-4, 0x1.7e25580000000p-5, 0x1.62b3100000000p-5, 0x1.cdc1000000000p-5, 0x1.6025e40000000p-4, 0x1.74420c0000000p-4, 0x1.e5fd000000000p-4, 0x1.1f596c0000000p-4, -0x1.1c43b80000000p-4, -0x1.8139740000000p-4, 0x1.d139080000000p-5, -0x1.091e8e0000000p-3, -0x1.18683c0000000p-4, -0x1.cd66520000000p-4, 0x1.1275f80000000p-4, -0x1.1592c20000000p-3, -0x1.69b6540000000p-5, 0x1.6bc0e00000000p-7, 0x1.0d77280000000p-3, 0x1.5fa9b80000000p-4, 0x1.04c7b40000000p-3, 0x1.63db800000000p-7, -0x1.10d1860000000p-4, -0x1.90d8dc0000000p-5, 0x1.9350900000000p-6, -0x1.ab2cc00000000p-7, -0x1.1b7c9e0000000p-3, 0x1.9667580000000p-4, -0x1.34ee720000000p-4, -0x1.d296b40000000p-5, 0x1.1b9fdc0000000p-4, 0x1.5509300000000p-6, -0x1.a1af400000000p-4, -0x1.c505580000000p-6, -0x1.706f9e0000000p-4, -0x1.41d3bc0000000p-4, -0x1.ac3e700000000p-6, -0x1.7208340000000p-4}
}
, {{0x1.a573700000000p-6, 0x1.ef62900000000p-6, -0x1.8129c00000000p-5, -0x1.df97400000000p-7, -0x1.26e9c80000000p-3, 0x1.1117600000000p-7, -0x1.18aa7c0000000p-3, -0x1.2d9dbc0000000p-5, -0x1.059fce0000000p-3, -0x1.7e42b40000000p-5, -0x1.e47af60000000p-4, 0x1.0d22d80000000p-3, 0x1.88db500000000p-4, -0x1.8577aa0000000p-4, -0x1.d7c1540000000p-5, 0x1.649e200000000p-7, -0x1.cd1e0c0000000p-4, -0x1.3ae9900000000p-6, 0x1.3cc92c0000000p-4, 0x1.c398200000000p-5, 0x1.9ef5e40000000p-4, 0x1.4f60e80000000p-5, 0x1.6aee880000000p-5, 0x1.5bbe540000000p-4, -0x1.03958a0000000p-3, 0x1.4057200000000p-5, -0x1.dc5b000000000p-9, -0x1.0c27b80000000p-3, 0x1.e72ee00000000p-7, -0x1.1d516a0000000p-4, 0x1.0f87780000000p-3, 0x1.5e4e500000000p-5, 0x1.0904500000000p-6, 0x1.ff81d00000000p-4, 0x1.a971b40000000p-4, -0x1.b8140c0000000p-4, 0x1.ad4af00000000p-6, 0x1.bad9b00000000p-4, -0x1.4cfd000000000p-10, -0x1.ad482c0000000p-4, -0x1.524ef00000000p-5, -0x1.e41f980000000p-6, -0x1.f926180000000p-6, -0x1.48a5800000000p-5, 0x1.9f1fc00000000p-7, -0x1.1185fe0000000p-3, 0x1.7050f00000000p-6, -0x1.16990e0000000p-4, 0x1.2463940000000p-3, 0x1.660ea80000000p-4, -0x1.e457200000000p-7, 0x1.e703e80000000p-5, -0x1.0c65000000000p-10, 0x1.2997500000000p-5, 0x1.08f8900000000p-4, 0x1.533f780000000p-5, 0x1.906bdc0000000p-4, -0x1.ee6b600000000p-7, -0x1.9a24680000000p-5, 0x1.a497580000000p-4, 0x1.bf7de80000000p-4, 0x1.b79d200000000p-6, 0x1.b9f4c80000000p-4, 0x1.3cb4c00000000p-8}
, {-0x1.facc980000000p-4, 0x1.209f900000000p-5, -0x1.09d65e0000000p-3, 0x1.6bfb380000000p-5, 0x1.bcc4300000000p-4, -0x1.5647f00000000p-5, 0x1.7c249c0000000p-4, -0x1.8e2ec80000000p-6, -0x1.872b880000000p-6, -0x1.02a02a0000000p-3, -0x1.021a860000000p-3, 0x1.1a127c0000000p-3, 0x1.3001e00000000p-4, -0x1.f252fc0000000p-4, -0x1.0a30040000000p-3, -0x1.996cbe0000000p-4, -0x1.8824940000000p-5, -0x1.b19e680000000p-6, -0x1.ff5e480000000p-5, -0x1.528ae80000000p-6, -0x1.6c24be0000000p-4, -0x1.af39200000000p-6, 0x1.bac5400000000p-4, -0x1.12c0000000000p-13, 0x1.6169400000000p-5, -0x1.71ba020000000p-4, 0x1.d01de00000000p-4, 0x1.2a3ce00000000p-5, 0x1.db2cd00000000p-4, -0x1.f3eeac0000000p-5, -0x1.885ba40000000p-4, 0x1.df17180000000p-4, 0x1.ef48f80000000p-4, 0x1.6296c00000000p-6, -0x1.5205000000000p-10, -0x1.324de00000000p-4, 0x1.9c30b80000000p-4, -0x1.4ac9680000000p-6, 0x1.055dc00000000p-7, 0x1.75e4a00000000p-7, 0x1.c0a8600000000p-4, -0x1.3db1860000000p-4, 0x1.8db9d80000000p-4, -0x1.c10ca40000000p-5, 0x1.5cb6f00000000p-4, -0x1.8718f00000000p-4, 0x1.c878e00000000p-4, 0x1.c9e8000000000p-13, -0x1.7f01680000000p-4, -0x1.071ea00000000p-7, 0x1.aec8800000000p-7, 0x1.311ce00000000p-7, -0x1.8b20340000000p-5, -0x1.c1e1180000000p-6, 0x1.0a82a00000000p-5, -0x1.7c76580000000p-4, -0x1.7275800000000p-4, -0x1.0f423e0000000p-3, -0x1.d72cbc0000000p-5, -0x1.669d780000000p-5, 0x1.4d25e80000000p-5, -0x1.96bf1c0000000p-4, 0x1.1175200000000p-3, 0x1.8236a00000000p-6}
, {0x1.bc1a000000000p-8, 0x1.90d2000000000p-5, -0x1.3a0bd80000000p-4, -0x1.f195700000000p-5, 0x1.042e580000000p-4, -0x1.2246720000000p-3, -0x1.fb3d140000000p-5, -0x1.e6f9700000000p-5, -0x1.d770dc0000000p-5, 0x1.3562240000000p-4, -0x1.1ec4ca0000000p-3, -0x1.5f0c080000000p-4, -0x1.b1f7200000000p-7, -0x1.0959d80000000p-4, -0x1.0be09e0000000p-3, 0x1.469c000000000p-5, 0x1.e39f780000000p-4, 0x1.2781000000000p-7, -0x1.a45c400000000p-5, -0x1.c865780000000p-4, -0x1.bfc91c0000000p-4, 0x1.e1e8f00000000p-6, 0x1.9c94400000000p-5, 0x1.a174880000000p-5, 0x1.7b35bc0000000p-4, -0x1.c372cc0000000p-5, 0x1.2f7c480000000p-5, 0x1.0abe9c0000000p-3, 0x1.ac6cbc0000000p-4, 0x1.d60eb00000000p-4, -0x1.82ab240000000p-4, -0x1.cfd8400000000p-7, 0x1.11c4ac0000000p-3, 0x1.1628f00000000p-5, -0x1.f81b5a0000000p-4, 0x1.4c2a500000000p-4, 0x1.5110080000000p-5, -0x1.ca09f80000000p-6, -0x1.0128620000000p-3, 0x1.816c140000000p-4, -0x1.a8c6540000000p-4, 0x1.7617f00000000p-4, 0x1.dab3000000000p-4, 0x1.2b8c400000000p-7, -0x1.1ac6400000000p-3, 0x1.ffcf100000000p-5, -0x1.85a3c20000000p-4, -0x1.19b2420000000p-4, -0x1.531a180000000p-4, 0x1.94db480000000p-4, 0x1.08161c0000000p-3, -0x1.146a720000000p-3, 0x1.ef38000000000p-12, 0x1.cffac80000000p-4, 0x1.674edc0000000p-4, 0x1.05d1180000000p-4, 0x1.144b780000000p-3, 0x1.8c86440000000p-4, 0x1.cef8900000000p-5, 0x1.604f100000000p-6, -0x1.195a7c0000000p-3, 0x1.7ca8b80000000p-5, -0x1.0d05500000000p-3, -0x1.7019ac0000000p-5}
}
, {{0x1.fc04900000000p-4, 0x1.5860280000000p-5, -0x1.8bdb200000000p-6, -0x1.8749d80000000p-6, -0x1.bea4380000000p-4, 0x1.f6d4100000000p-5, 0x1.1725c00000000p-3, 0x1.da8ed80000000p-5, 0x1.0c42bc0000000p-4, -0x1.cc3c4c0000000p-5, 0x1.1cb6380000000p-4, 0x1.fc56800000000p-4, 0x1.2ab8a00000000p-7, 0x1.84b5a40000000p-4, -0x1.4ee7c80000000p-6, 0x1.89c1700000000p-6, -0x1.2d6a780000000p-4, 0x1.1f163c0000000p-4, 0x1.f57b280000000p-4, 0x1.7a0ebc0000000p-4, -0x1.45f3920000000p-4, 0x1.25106c0000000p-3, 0x1.8dc6700000000p-4, -0x1.168aa80000000p-4, 0x1.02e7880000000p-5, -0x1.2795380000000p-3, 0x1.8dfc200000000p-6, -0x1.5c24c40000000p-5, -0x1.be08820000000p-4, 0x1.6723180000000p-4, -0x1.9b1c2c0000000p-4, 0x1.21d6e40000000p-4, 0x1.403de40000000p-4, 0x1.271b9c0000000p-4, -0x1.69b7780000000p-5, -0x1.ccb33c0000000p-4, -0x1.0d74900000000p-3, -0x1.f126a80000000p-6, -0x1.a9ac400000000p-7, -0x1.69d8880000000p-4, 0x1.a12fb00000000p-4, 0x1.60fdf00000000p-5, -0x1.cf5ca00000000p-7, -0x1.1fcdc80000000p-3, 0x1.7d0d980000000p-5, 0x1.5573e80000000p-4, -0x1.de36cc0000000p-5, -0x1.567aac0000000p-5, 0x1.ab83ec0000000p-4, -0x1.1921000000000p-3, 0x1.8543600000000p-4, 0x1.128d300000000p-6, 0x1.773eb80000000p-4, 0x1.112a280000000p-3, -0x1.911a9c0000000p-4, 0x1.2872f00000000p-6, 0x1.05d0a00000000p-7, -0x1.7bf8900000000p-6, -0x1.2437380000000p-3, -0x1.7bc4980000000p-6, 0x1.03d9b80000000p-4, -0x1.1414f00000000p-6, -0x1.0877400000000p-6, 0x1.7f919c0000000p-4}
, {-0x1.45a7640000000p-4, -0x1.9529a00000000p-5, 0x1.40c0000000000p-9, -0x1.769ba00000000p-6, 0x1.1803ec0000000p-4, -0x1.0e74140000000p-3, 0x1.a63f580000000p-5, 0x1.fdf8b80000000p-4, 0x1.5fbf4c0000000p-4, -0x1.0387000000000p-3, -0x1.a00d480000000p-6, 0x1.b202f00000000p-4, 0x1.9d67140000000p-4, 0x1.e31fb00000000p-5, -0x1.ed66fe0000000p-4, -0x1.dd42380000000p-5, -0x1.cfce520000000p-4, 0x1.55611c0000000p-4, 0x1.d197600000000p-6, -0x1.3e50140000000p-5, -0x1.0131000000000p-8, 0x1.adcfac0000000p-4, -0x1.0815a80000000p-3, -0x1.f65f940000000p-5, 0x1.d25ce00000000p-7, 0x1.8a58000000000p-13, -0x1.00d1000000000p-9, 0x1.1ed1180000000p-4, -0x1.1840f80000000p-3, 0x1.9ec1a00000000p-7, -0x1.282c280000000p-5, -0x1.86fca00000000p-6, 0x1.0b34d00000000p-4, -0x1.64b0f60000000p-4, -0x1.7de0720000000p-4, -0x1.5e12ba0000000p-4, 0x1.86b6300000000p-6, 0x1.895c340000000p-4, 0x1.4887280000000p-4, 0x1.ab60ac0000000p-4, 0x1.20db980000000p-4, -0x1.8dd01c0000000p-4, 0x1.18fd8c0000000p-3, -0x1.a278640000000p-4, -0x1.9d16f80000000p-4, 0x1.e7d4c80000000p-4, 0x1.6ad7380000000p-5, 0x1.0e35900000000p-4, -0x1.007fb00000000p-3, -0x1.7122180000000p-5, -0x1.e3774c0000000p-5, -0x1.d477400000000p-7, -0x1.1ca6fc0000000p-3, -0x1.a01ce00000000p-6, -0x1.c5bb680000000p-4, -0x1.b08a380000000p-5, -0x1.fc4d800000000p-6, -0x1.2355d60000000p-3, 0x1.02b5cc0000000p-4, 0x1.e934a00000000p-6, -0x1.e900840000000p-4, -0x1.ab03c80000000p-4, -0x1.62b1000000000p-10, -0x1.299a100000000p-5}
, {0x1.b360f80000000p-5, -0x1.aebea80000000p-5, -0x1.b063400000000p-8, 0x1.3bd9500000000p-6, 0x1.de88200000000p-4, -0x1.17f78a0000000p-3, 0x1.2d0c200000000p-7, -0x1.387e3c0000000p-5, 0x1.ee01f80000000p-4, 0x1.78cf080000000p-4, -0x1.0581800000000p-7, -0x1.7433000000000p-6, -0x1.b8469c0000000p-4, 0x1.d64b300000000p-4, 0x1.88ed480000000p-4, -0x1.bf92a80000000p-4, 0x1.ab82680000000p-4, 0x1.3d63000000000p-5, 0x1.0a47740000000p-3, -0x1.7d4c9c0000000p-4, -0x1.af969e0000000p-4, 0x1.16808c0000000p-4, 0x1.ea36f00000000p-4, 0x1.80a4c00000000p-5, -0x1.081bde0000000p-3, 0x1.1d139c0000000p-3, 0x1.498f000000000p-4, -0x1.d3846c0000000p-5, 0x1.14af180000000p-4, -0x1.fb187c0000000p-5, -0x1.0449d00000000p-3, -0x1.19ddb00000000p-6, -0x1.0dd64c0000000p-5, -0x1.25d6500000000p-3, 0x1.2042ac0000000p-3, -0x1.db9d660000000p-4, 0x1.6e2f100000000p-5, -0x1.36734c0000000p-4, 0x1.0190dc0000000p-4, 0x1.1c11200000000p-3, 0x1.ddcd200000000p-6, -0x1.e033a80000000p-4, 0x1.84ae900000000p-6, -0x1.02dbd40000000p-3, -0x1.4f9b480000000p-5, 0x1.4e68ac0000000p-4, 0x1.f62f500000000p-6, -0x1.4513fc0000000p-5, -0x1.0ac6740000000p-3, -0x1.5ace000000000p-4, 0x1.38b0d00000000p-5, 0x1.1795e00000000p-7, -0x1.d835980000000p-6, 0x1.6928280000000p-5, 0x1.2300d80000000p-3, 0x1.9cbde00000000p-4, -0x1.26f7e00000000p-3, 0x1.7343400000000p-4, -0x1.3f6b440000000p-5, 0x1.166f900000000p-3, -0x1.ce54400000000p-7, 0x1.81d2f00000000p-6, -0x1.e875c40000000p-5, -0x1.481d880000000p-6}
}
, {{0x1.cf78380000000p-5, -0x1.c84e340000000p-5, 0x1.2958d00000000p-4, -0x1.7c19060000000p-4, -0x1.baee700000000p-6, 0x1.a144b40000000p-4, -0x1.484a5a0000000p-4, 0x1.d970000000000p-4, 0x1.4374000000000p-4, 0x1.c976400000000p-7, -0x1.94898c0000000p-5, 0x1.01ccfc0000000p-4, -0x1.46eaec0000000p-4, 0x1.3e66700000000p-6, 0x1.0332100000000p-5, -0x1.0499fe0000000p-3, 0x1.2611f80000000p-4, 0x1.047f480000000p-4, -0x1.6514800000000p-8, -0x1.ad278c0000000p-5, 0x1.2697600000000p-4, 0x1.9e09500000000p-4, 0x1.2f7f300000000p-6, 0x1.8433d00000000p-5, 0x1.f8a9600000000p-6, -0x1.06d1500000000p-3, -0x1.13a1540000000p-4, -0x1.f9d6c00000000p-7, -0x1.f7964e0000000p-4, -0x1.133a6c0000000p-4, -0x1.b499500000000p-4, 0x1.1f40600000000p-5, 0x1.daa7700000000p-4, 0x1.14a1c00000000p-3, -0x1.04c39a0000000p-3, -0x1.d5f05a0000000p-4, 0x1.8dd3900000000p-5, -0x1.4bee680000000p-6, 0x1.ceed000000000p-9, -0x1.65a4180000000p-4, -0x1.085d980000000p-3, 0x1.2564a00000000p-7, -0x1.90b1800000000p-7, 0x1.d712c80000000p-4, 0x1.ef71d00000000p-5, -0x1.ee73100000000p-4, -0x1.722c000000000p-9, 0x1.f85f080000000p-5, 0x1.0fb8f80000000p-5, 0x1.e0fc980000000p-4, 0x1.c0ebf00000000p-5, -0x1.8fa0c40000000p-4, -0x1.b39c9c0000000p-4, -0x1.49d32c0000000p-5, -0x1.1fc0280000000p-4, 0x1.56c4cc0000000p-4, -0x1.45a6000000000p-9, 0x1.717f600000000p-7, -0x1.8d2bd20000000p-4, 0x1.07c74c0000000p-3, 0x1.9ab11c0000000p-4, 0x1.60ec740000000p-4, -0x1.268e000000000p-8, -0x1.116b2a0000000p-3}
, {0x1.23c3240000000p-3, -0x1.a5e2c00000000p-4, -0x1.e5ec080000000p-5, -0x1.a5db340000000p-4, 0x1.1ae68c0000000p-3, 0x1.0ac2dc0000000p-4, 0x1.c216600000000p-6, 0x1.5dbd000000000p-10, 0x1.b11a600000000p-4, -0x1.0a53060000000p-3, -0x1.be79980000000p-6, -0x1.f8c6e40000000p-5, -0x1.129df00000000p-6, -0x1.eb6fc20000000p-4, 0x1.6ca3000000000p-9, -0x1.b50f3c0000000p-5, -0x1.8ae2a00000000p-7, 0x1.36ef100000000p-5, 0x1.02f6d00000000p-6, 0x1.cf8a800000000p-4, -0x1.e7cf000000000p-10, -0x1.cd8ae00000000p-5, 0x1.4cfc240000000p-4, 0x1.3c79140000000p-4, -0x1.1e3ab80000000p-3, 0x1.ad7c480000000p-5, -0x1.c389640000000p-5, 0x1.19efc80000000p-3, -0x1.13bf080000000p-4, -0x1.26f7f00000000p-6, 0x1.7f3b680000000p-5, 0x1.247f640000000p-3, -0x1.62cea00000000p-5, 0x1.7fac400000000p-6, -0x1.3426540000000p-4, 0x1.5273080000000p-5, -0x1.acda820000000p-4, -0x1.dfe8ec0000000p-4, -0x1.8d38580000000p-4, 0x1.0be4a00000000p-5, 0x1.bdb2000000000p-7, 0x1.1808000000000p-3, -0x1.e242bc0000000p-4, 0x1.39395c0000000p-4, 0x1.4feb880000000p-5, -0x1.e8f6e00000000p-4, -0x1.1e2aac0000000p-5, -0x1.dfc0300000000p-4, 0x1.8437840000000p-4, -0x1.4dbd4e0000000p-4, 0x1.4efae00000000p-4, -0x1.4e29bc0000000p-4, -0x1.bc77cc0000000p-4, -0x1.cfd6fa0000000p-4, 0x1.e52ae80000000p-4, 0x1.b91c380000000p-4, -0x1.1394240000000p-3, -0x1.b4a4380000000p-6, 0x1.3a45940000000p-4, 0x1.6e27b00000000p-5, -0x1.d586800000000p-8, 0x1.bb6ab00000000p-4, 0x1.eed2400000000p-6, -0x1.8623180000000p-6}
, {-0x1.8b0cdc0000000p-5, 0x1.fd35800000000p-8, 0x1.c9ab780000000p-4, -0x1.6bfd300000000p-4, 0x1.cdf2c00000000p-8, -0x1.452a400000000p-8, -0x1.2758ac0000000p-4, 0x1.0c7ab00000000p-6, 0x1.1065980000000p-4, -0x1.a8743e0000000p-4, 0x1.5b27b00000000p-6, 0x1.99ab180000000p-5, -0x1.219a160000000p-4, 0x1.dab9500000000p-4, 0x1.76e5d00000000p-5, -0x1.a2039e0000000p-4, -0x1.2da5800000000p-7, 0x1.1b9e000000000p-6, 0x1.32b3a00000000p-7, 0x1.4a21600000000p-6, 0x1.567a780000000p-4, 0x1.1a9a000000000p-3, -0x1.dea55c0000000p-5, 0x1.2a9c200000000p-5, 0x1.16a1e40000000p-4, -0x1.93de7a0000000p-4, 0x1.32e7700000000p-6, -0x1.21bb1a0000000p-3, 0x1.56e3080000000p-4, -0x1.18b0540000000p-4, 0x1.0389c00000000p-5, 0x1.9170e40000000p-4, -0x1.d385b80000000p-6, -0x1.2c51300000000p-5, 0x1.bd4b200000000p-5, 0x1.a8e8880000000p-5, 0x1.94c9340000000p-4, -0x1.4d76b00000000p-4, -0x1.ecccd80000000p-4, -0x1.97b6e40000000p-4, 0x1.67e3ac0000000p-4, -0x1.a7babc0000000p-5, 0x1.72c7040000000p-4, -0x1.be62780000000p-4, -0x1.987ebc0000000p-5, 0x1.6546280000000p-5, -0x1.6f53500000000p-4, 0x1.155a900000000p-6, 0x1.26f7540000000p-3, -0x1.f63ac00000000p-8, -0x1.6caafa0000000p-4, -0x1.a1f6000000000p-7, -0x1.853b280000000p-6, -0x1.a0d2080000000p-6, 0x1.1621a80000000p-3, -0x1.2345780000000p-4, 0x1.8dc4b80000000p-5, 0x1.8814600000000p-4, -0x1.c0cc600000000p-7, -0x1.09a7920000000p-4, -0x1.aae8000000000p-9, 0x1.eaf4d00000000p-4, 0x1.88eee00000000p-7, 0x1.9cd8e00000000p-6}
}
, {{0x1.d365000000000p-7, 0x1.ec25380000000p-5, 0x1.26fd180000000p-3, 0x1.0b35e80000000p-5, 0x1.5a104c0000000p-4, -0x1.6bb3f80000000p-6, -0x1.0eb1b20000000p-4, 0x1.61a4480000000p-5, -0x1.c36d180000000p-5, -0x1.2d70000000000p-7, 0x1.1722900000000p-3, -0x1.1572a40000000p-5, -0x1.52e8000000000p-10, -0x1.9ca4300000000p-4, 0x1.166b280000000p-3, 0x1.5c47000000000p-9, -0x1.0638380000000p-5, -0x1.2a69d40000000p-5, 0x1.1984140000000p-3, -0x1.8b93e40000000p-4, -0x1.e2ae7c0000000p-4, -0x1.21cf9a0000000p-3, -0x1.758e220000000p-4, 0x1.32e9900000000p-6, -0x1.583fc00000000p-6, 0x1.9e14d00000000p-5, -0x1.07ac460000000p-3, -0x1.2487f60000000p-4, 0x1.d2c5000000000p-8, 0x1.0aeb500000000p-3, 0x1.047ad00000000p-6, 0x1.6d84740000000p-4, -0x1.4adacc0000000p-5, -0x1.3bd4340000000p-5, -0x1.9b55c00000000p-8, 0x1.3b48280000000p-4, -0x1.0a4c9e0000000p-3, 0x1.d29dd00000000p-4, -0x1.2ce3cc0000000p-4, -0x1.701bde0000000p-4, -0x1.0650da0000000p-3, 0x1.11eea80000000p-3, -0x1.b4c9040000000p-5, 0x1.a4b5700000000p-5, 0x1.6a1ff80000000p-5, -0x1.4db6840000000p-5, 0x1.07176c0000000p-3, 0x1.47ab080000000p-4, -0x1.21adae0000000p-3, 0x1.7cf8c00000000p-6, 0x1.99dc500000000p-4, -0x1.004e200000000p-3, 0x1.1eed740000000p-3, -0x1.6afba80000000p-5, 0x1.a5e3f80000000p-4, -0x1.ee74820000000p-4, -0x1.75ae920000000p-4, -0x1.16beec0000000p-3, -0x1.5ae22c0000000p-4, -0x1.391bec0000000p-4, 0x1.a9c1b40000000p-4, -0x1.a6c4000000000p-9, -0x1.bf19d80000000p-4, -0x1.afb8780000000p-4}
, {0x1.f8b7280000000p-5, 0x1.0439ac0000000p-4, -0x1.47d8fa0000000p-4, -0x1.0a1cea0000000p-3, -0x1.c7f3a00000000p-6, -0x1.2c51c00000000p-7, -0x1.668cf40000000p-5, -0x1.6165600000000p-7, 0x1.bc98c00000000p-4, 0x1.df39180000000p-4, 0x1.21dcec0000000p-4, 0x1.7bf6a40000000p-4, 0x1.24d6d00000000p-3, -0x1.5d8eb00000000p-6, 0x1.5b7f100000000p-4, 0x1.20e5bc0000000p-3, -0x1.8ae1d00000000p-4, 0x1.6e82a40000000p-4, 0x1.37e2900000000p-4, 0x1.3f60fc0000000p-4, 0x1.70e0b00000000p-6, -0x1.1abde60000000p-4, -0x1.8637e40000000p-5, -0x1.0c556c0000000p-4, -0x1.7122e40000000p-5, -0x1.8b96a00000000p-5, 0x1.e5af400000000p-6, 0x1.d637300000000p-4, -0x1.de5c920000000p-4, 0x1.6e5c3c0000000p-4, 0x1.6b23240000000p-4, -0x1.a1cd400000000p-7, 0x1.17e0980000000p-3, 0x1.db2aa80000000p-4, -0x1.4c739a0000000p-4, 0x1.dbf6800000000p-9, 0x1.0e19d00000000p-3, 0x1.d452000000000p-10, 0x1.536a480000000p-5, -0x1.6e29140000000p-5, -0x1.bd35040000000p-4, -0x1.d52e8a0000000p-4, 0x1.d3b3380000000p-4, -0x1.adfedc0000000p-4, 0x1.c5f8900000000p-5, -0x1.4bed300000000p-5, 0x1.0940d40000000p-4, 0x1.1a7a640000000p-4, -0x1.aa805e0000000p-4, 0x1.b225600000000p-5, 0x1.4b03240000000p-4, -0x1.365a700000000p-6, 0x1.9ff6740000000p-4, -0x1.b20f000000000p-6, -0x1.de2cf80000000p-6, -0x1.6af8280000000p-4, -0x1.53f0700000000p-6, -0x1.c590c80000000p-6, -0x1.c0f9800000000p-9, 0x1.1da5800000000p-8, 0x1.4b76000000000p-7, 0x1.08ef3c0000000p-3, -0x1.ff088a0000000p-4, -0x1.0c92420000000p-4}
, {0x1.6321800000000p-4, -0x1.d1d4c80000000p-4, -0x1.622e0c0000000p-4, -0x1.01aa280000000p-3, -0x1.a4cdfc0000000p-5, -0x1.2059f20000000p-3, 0x1.5b92a00000000p-7, 0x1.d2aa480000000p-4, 0x1.368f540000000p-4, -0x1.2bb6100000000p-4, -0x1.49f2c60000000p-4, -0x1.012d900000000p-4, 0x1.14b7e40000000p-3, 0x1.9007000000000p-4, 0x1.4fcda80000000p-5, 0x1.d2f2500000000p-4, -0x1.6acf580000000p-6, 0x1.5081580000000p-5, -0x1.2254840000000p-3, 0x1.0c29400000000p-8, -0x1.1274000000000p-12, 0x1.426c800000000p-9, -0x1.d747a00000000p-4, 0x1.c69e000000000p-10, 0x1.825ad00000000p-4, 0x1.b101980000000p-5, 0x1.8280000000000p-8, -0x1.7890340000000p-4, 0x1.d616300000000p-4, -0x1.cbfd800000000p-7, 0x1.c68ff80000000p-5, -0x1.0f6bd00000000p-3, -0x1.5c041c0000000p-4, -0x1.66c6300000000p-6, 0x1.676bc00000000p-6, 0x1.05a5900000000p-6, -0x1.cd917a0000000p-4, 0x1.cfedc80000000p-4, 0x1.f37ab00000000p-4, 0x1.0a38e00000000p-3, -0x1.2a1abc0000000p-4, -0x1.4a8bd80000000p-5, -0x1.21682e0000000p-3, 0x1.44c5400000000p-5, 0x1.945a6c0000000p-4, -0x1.b06d000000000p-5, -0x1.c7a16c0000000p-5, -0x1.f142f00000000p-6, -0x1.175f720000000p-4, -0x1.7ba5a00000000p-4, 0x1.9d81080000000p-5, 0x1.d30f800000000p-8, 0x1.e5d7b00000000p-5, 0x1.49e7c40000000p-4, 0x1.75e0080000000p-5, 0x1.fcedd80000000p-4, -0x1.037f1c0000000p-3, -0x1.3c4b480000000p-4, -0x1.f320a20000000p-4, -0x1.a43faa0000000p-4, -0x1.d5fce80000000p-4, 0x1.47d64c0000000p-4, -0x1.22d1680000000p-3, -0x1.6f38880000000p-4}
}
, {{0x1.bac3700000000p-4, -0x1.f42ba80000000p-4, -0x1.c64dc40000000p-4, -0x1.411cca0000000p-4, -0x1.f45f8c0000000p-5, -0x1.053c720000000p-3, 0x1.54eeb80000000p-4, -0x1.82de980000000p-4, 0x1.fb13700000000p-5, 0x1.342de80000000p-5, 0x1.e860000000000p-8, -0x1.7588800000000p-4, 0x1.abc3000000000p-4, 0x1.4312700000000p-4, 0x1.07a5180000000p-3, 0x1.a0e9b00000000p-5, -0x1.d787000000000p-7, -0x1.cb06b40000000p-5, -0x1.b990040000000p-4, 0x1.6cfef00000000p-5, 0x1.d1f6200000000p-5, -0x1.74ce040000000p-5, 0x1.ac84c00000000p-5, 0x1.ce47880000000p-5, -0x1.64f6a40000000p-4, 0x1.09f1680000000p-3, -0x1.fad1d40000000p-5, 0x1.3e9c4c0000000p-4, -0x1.1c46fc0000000p-3, 0x1.6dde380000000p-5, 0x1.32cb200000000p-4, -0x1.f0ba5e0000000p-4, 0x1.5e9cec0000000p-4, -0x1.df22100000000p-4, 0x1.6b7ef00000000p-5, 0x1.7a77b00000000p-5, -0x1.c624280000000p-4, -0x1.104a640000000p-5, 0x1.0a70f80000000p-5, -0x1.9ec8be0000000p-4, 0x1.282ac80000000p-5, -0x1.a0f8a00000000p-4, -0x1.a314f80000000p-6, -0x1.095b600000000p-7, -0x1.26ac8c0000000p-3, -0x1.9324e40000000p-4, -0x1.187dc60000000p-3, -0x1.62087c0000000p-4, 0x1.79d6880000000p-5, 0x1.046a700000000p-3, 0x1.5fa0000000000p-10, 0x1.2a6f800000000p-8, -0x1.a09e500000000p-4, -0x1.b2b38c0000000p-5, -0x1.0b3d600000000p-4, -0x1.e150380000000p-4, 0x1.73cd280000000p-5, 0x1.044f200000000p-5, -0x1.e5edd40000000p-5, -0x1.83a7000000000p-7, 0x1.0aef900000000p-3, 0x1.c3e5c00000000p-5, 0x1.21120c0000000p-4, -0x1.1a170c0000000p-5}
, {-0x1.91f1da0000000p-4, -0x1.0242b40000000p-3, -0x1.180c780000000p-3, 0x1.8840a00000000p-4, -0x1.d516660000000p-4, 0x1.3f3b580000000p-5, -0x1.dc09940000000p-4, 0x1.7085580000000p-4, 0x1.1746e00000000p-5, 0x1.defe000000000p-6, -0x1.7e22560000000p-4, 0x1.610c100000000p-5, 0x1.6a229c0000000p-4, 0x1.2257880000000p-3, -0x1.a340540000000p-4, 0x1.380b4c0000000p-4, -0x1.79cf160000000p-4, -0x1.75b2480000000p-5, -0x1.aa10200000000p-7, -0x1.a3b0fc0000000p-5, 0x1.9c94640000000p-4, -0x1.08da840000000p-3, -0x1.16fc8a0000000p-4, -0x1.491b5a0000000p-4, 0x1.2ae9a80000000p-5, 0x1.6948d00000000p-4, -0x1.f011c00000000p-4, -0x1.db29480000000p-5, -0x1.6a2c9c0000000p-5, 0x1.4eb4d00000000p-6, -0x1.dd9b7c0000000p-4, 0x1.ea00800000000p-4, 0x1.1998640000000p-4, -0x1.77e0fc0000000p-4, 0x1.5b5aa00000000p-4, 0x1.0279880000000p-4, 0x1.64bbd00000000p-6, 0x1.18d43c0000000p-4, -0x1.05e0780000000p-4, -0x1.1bb0d20000000p-4, 0x1.eab0200000000p-5, 0x1.15115c0000000p-4, -0x1.089bd00000000p-6, 0x1.5573300000000p-4, 0x1.3c59200000000p-5, -0x1.fae00c0000000p-5, 0x1.17277c0000000p-3, -0x1.a846500000000p-5, -0x1.28caca0000000p-4, -0x1.0860500000000p-5, 0x1.d3f2400000000p-5, 0x1.86ec700000000p-6, -0x1.bd87140000000p-4, 0x1.68b4dc0000000p-4, -0x1.ee1d0c0000000p-5, -0x1.5f55800000000p-5, -0x1.730e480000000p-5, 0x1.86cec00000000p-7, 0x1.1c7bd00000000p-6, -0x1.cc4d840000000p-4, -0x1.9bdbec0000000p-4, 0x1.b9d8800000000p-4, -0x1.fd465a0000000p-4, -0x1.547e1c0000000p-5}
