/**
  ******************************************************************************
  * @file    weights/conv1d.cc
  * @author  Pierre-Emmanuel Novac <penovac@unice.fr>, LEAT, CNRS, Université Côte d'Azur, France
  * @version 1.0.0
  * @date    24 march 2020
  * @brief   Template generating plain C code for the implementation of Convolutional Neural Networks on MCU
  */

#include <stdint.h>

#define INPUT_CHANNELS    16
#define CONV_FILTERS      32
#define CONV_KERNEL_SIZE  3
#define CONV_GROUPS       1


const float  conv1d_23_bias[CONV_FILTERS] = {0x0.0p+0, 0x0.0p+0, 0x0.0p+0, 0x0.0p+0, 0x0.0p+0, 0x0.0p+0, 0x0.0p+0, 0x0.0p+0, 0x0.0p+0, 0x0.0p+0, 0x0.0p+0, 0x0.0p+0, 0x0.0p+0, 0x0.0p+0, 0x0.0p+0, 0x0.0p+0, 0x0.0p+0, 0x0.0p+0, 0x0.0p+0, 0x0.0p+0, 0x0.0p+0, 0x0.0p+0, 0x0.0p+0, 0x0.0p+0, 0x0.0p+0, 0x0.0p+0, 0x0.0p+0, 0x0.0p+0, 0x0.0p+0, 0x0.0p+0, 0x0.0p+0, 0x0.0p+0}
;

const float  conv1d_23_kernel[CONV_FILTERS][CONV_KERNEL_SIZE][INPUT_CHANNELS / CONV_GROUPS] = {{{-0x1.1c17b00000000p-5, 0x1.b7e5600000000p-5, 0x1.6eb2580000000p-3, 0x1.48ac980000000p-4, 0x1.17b2f80000000p-4, -0x1.de04540000000p-4, -0x1.6b4e6a0000000p-4, -0x1.4828a00000000p-3, 0x1.1dc5100000000p-5, -0x1.1c2b000000000p-7, -0x1.32c6940000000p-4, -0x1.2a54780000000p-3, 0x1.7b63080000000p-4, -0x1.acbde00000000p-5, 0x1.ca53000000000p-5, 0x1.67afe80000000p-5}
, {-0x1.8aa1960000000p-4, -0x1.71f7080000000p-3, 0x1.5360780000000p-3, -0x1.9bddee0000000p-3, 0x1.9baddc0000000p-3, 0x1.18be100000000p-6, 0x1.c3e2600000000p-4, 0x1.9e0fa00000000p-6, 0x1.67df180000000p-3, -0x1.7a26480000000p-5, 0x1.4286bc0000000p-3, -0x1.a0aa300000000p-5, -0x1.fe2d860000000p-4, -0x1.26ccf60000000p-3, -0x1.57f1000000000p-3, -0x1.87314c0000000p-3}
, {0x1.fd37c00000000p-4, 0x1.0665200000000p-3, 0x1.71d4940000000p-3, 0x1.2067240000000p-3, 0x1.2c5c100000000p-3, 0x1.3b70380000000p-5, 0x1.34da480000000p-4, 0x1.4d1bb80000000p-4, 0x1.248a000000000p-11, -0x1.07cad00000000p-6, 0x1.76355c0000000p-3, 0x1.7bd6a00000000p-6, 0x1.df05b00000000p-4, -0x1.b7d8a60000000p-4, 0x1.798a840000000p-3, 0x1.7798480000000p-4}
}
, {{-0x1.b8e18e0000000p-4, 0x1.3fd1740000000p-3, 0x1.77cbd00000000p-4, -0x1.90385e0000000p-3, -0x1.6cca920000000p-3, 0x1.3273a80000000p-4, 0x1.b7d4800000000p-9, 0x1.4541300000000p-4, 0x1.8153800000000p-8, -0x1.74acb80000000p-3, -0x1.72e6920000000p-3, -0x1.ec3f200000000p-5, 0x1.f3fb400000000p-7, 0x1.0a34800000000p-6, -0x1.f846160000000p-4, 0x1.9a0ce80000000p-3}
, {-0x1.41d9480000000p-3, 0x1.a2dbb00000000p-4, -0x1.2143d40000000p-3, 0x1.4ef0700000000p-4, -0x1.351d0a0000000p-3, 0x1.4947600000000p-4, -0x1.4bf23c0000000p-3, 0x1.8aad500000000p-4, -0x1.486fdc0000000p-4, -0x1.98c1c00000000p-7, 0x1.73bff00000000p-3, -0x1.02b1700000000p-6, 0x1.fbfa000000000p-4, 0x1.d818c00000000p-4, 0x1.1fb2e00000000p-3, -0x1.9518d80000000p-3}
, {0x1.ad51800000000p-9, -0x1.458cd40000000p-4, -0x1.f3f6960000000p-4, 0x1.6c27f00000000p-6, -0x1.7197860000000p-4, 0x1.ecbb480000000p-4, -0x1.b81ee80000000p-5, 0x1.31b0fc0000000p-3, 0x1.50bfbc0000000p-3, 0x1.3076f80000000p-5, 0x1.828a000000000p-3, -0x1.5cade80000000p-4, 0x1.b2ffe00000000p-4, -0x1.e98cc80000000p-4, 0x1.d685a00000000p-4, -0x1.859b120000000p-3}
}
, {{0x1.f787980000000p-4, -0x1.20130c0000000p-4, -0x1.19fedc0000000p-4, -0x1.f699460000000p-4, -0x1.56df540000000p-3, -0x1.07ea3c0000000p-4, -0x1.17de600000000p-7, -0x1.a624e40000000p-4, -0x1.38f7400000000p-5, -0x1.f63af80000000p-5, -0x1.b854300000000p-5, 0x1.021be80000000p-3, 0x1.8d1d3c0000000p-3, -0x1.78cbe40000000p-3, -0x1.ac17c00000000p-7, -0x1.6ca2980000000p-5}
, {0x1.85c5a00000000p-3, -0x1.7665100000000p-5, 0x1.8610500000000p-3, 0x1.49e2280000000p-5, -0x1.2f44e40000000p-4, 0x1.4dc4700000000p-5, -0x1.701e820000000p-4, -0x1.1cdd940000000p-3, -0x1.57ff5e0000000p-3, 0x1.1909480000000p-5, -0x1.bf3d700000000p-6, -0x1.7d46dc0000000p-4, -0x1.dd71e00000000p-7, -0x1.5da4200000000p-5, -0x1.0f45080000000p-4, -0x1.8c40c60000000p-3}
, {-0x1.5512e00000000p-4, 0x1.e0bb200000000p-4, -0x1.65134a0000000p-4, 0x1.1cf7bc0000000p-3, 0x1.b89ea80000000p-4, -0x1.59ac760000000p-4, 0x1.51397c0000000p-3, -0x1.ee7cb80000000p-4, 0x1.86d2900000000p-3, 0x1.32f0500000000p-4, 0x1.4c3e700000000p-6, 0x1.c623b00000000p-4, -0x1.714f6c0000000p-3, -0x1.1083c40000000p-3, 0x1.2616000000000p-9, -0x1.b420100000000p-5}
}
, {{0x1.3afa000000000p-10, -0x1.4dc8d00000000p-5, 0x1.02d1a00000000p-4, -0x1.3b98360000000p-3, 0x1.7ebb780000000p-3, -0x1.6ad2140000000p-3, 0x1.07f5e00000000p-4, 0x1.4717d40000000p-3, -0x1.68e1000000000p-7, 0x1.64b8e80000000p-3, -0x1.356a200000000p-3, -0x1.1180380000000p-3, 0x1.7b3e0c0000000p-3, -0x1.38b0c40000000p-4, 0x1.81d2dc0000000p-3, -0x1.26e9340000000p-4}
, {0x1.035e600000000p-3, -0x1.1c83d60000000p-3, -0x1.4fe5440000000p-3, -0x1.f8b49e0000000p-4, -0x1.deacae0000000p-4, -0x1.0609180000000p-3, 0x1.34bd840000000p-3, -0x1.2d7e480000000p-3, -0x1.0596240000000p-4, 0x1.311e580000000p-4, 0x1.4cc6600000000p-3, 0x1.7257800000000p-7, 0x1.23eb300000000p-4, -0x1.d55f000000000p-8, 0x1.f2c6d00000000p-4, 0x1.41b2dc0000000p-3}
, {0x1.c71e600000000p-7, -0x1.1f933c0000000p-3, 0x1.1eee080000000p-3, -0x1.04b3800000000p-5, -0x1.c071600000000p-5, -0x1.beab300000000p-5, -0x1.94132e0000000p-4, -0x1.5f8b680000000p-3, 0x1.d4bca00000000p-5, -0x1.3f54f80000000p-5, 0x1.65e9000000000p-3, -0x1.e8bd3c0000000p-4, -0x1.59f3720000000p-4, 0x1.09b7c00000000p-4, 0x1.17d4f80000000p-5, -0x1.a6abc40000000p-4}
}
, {{-0x1.7d8a9c0000000p-3, 0x1.75aa100000000p-3, -0x1.2ab4540000000p-3, -0x1.39d56c0000000p-4, 0x1.643b080000000p-4, 0x1.8277340000000p-3, -0x1.8660ca0000000p-4, -0x1.4cbfca0000000p-3, -0x1.30da400000000p-3, -0x1.9eea0c0000000p-3, 0x1.34c4440000000p-3, 0x1.984a200000000p-3, 0x1.0fb9700000000p-4, 0x1.291a000000000p-10, 0x1.274a640000000p-3, -0x1.f320ec0000000p-4}
, {0x1.46e4880000000p-3, 0x1.5046500000000p-4, -0x1.e61f800000000p-7, 0x1.55b6a00000000p-5, -0x1.429a7c0000000p-4, -0x1.fc96900000000p-6, -0x1.0928780000000p-3, -0x1.ee6eb80000000p-5, 0x1.a146940000000p-3, 0x1.48fc600000000p-6, 0x1.180ba40000000p-3, 0x1.88f7f40000000p-3, 0x1.6f7d140000000p-3, 0x1.181b300000000p-6, -0x1.7af2f80000000p-3, -0x1.1689340000000p-4}
, {-0x1.8bcd6c0000000p-3, 0x1.ca7f880000000p-4, 0x1.d4f8e00000000p-6, -0x1.3d2eee0000000p-3, -0x1.7611c80000000p-3, -0x1.4849b00000000p-4, -0x1.1975120000000p-3, 0x1.8e96200000000p-3, 0x1.430f980000000p-4, -0x1.22b1220000000p-3, 0x1.ddfeb80000000p-4, -0x1.468b280000000p-5, -0x1.5afae60000000p-3, 0x1.f7c5b00000000p-4, 0x1.65edb80000000p-3, 0x1.d23c300000000p-5}
}
, {{0x1.c904d00000000p-4, 0x1.8032380000000p-4, 0x1.8fa5d80000000p-4, 0x1.829f900000000p-4, -0x1.a595a80000000p-5, 0x1.87dfe00000000p-3, -0x1.ab2a1c0000000p-4, 0x1.ef6a780000000p-4, -0x1.a5d71e0000000p-4, 0x1.5ea7240000000p-3, -0x1.4f338c0000000p-3, -0x1.1cf2940000000p-4, 0x1.9e12880000000p-4, 0x1.8097300000000p-5, 0x1.5537400000000p-7, -0x1.0765040000000p-3}
, {-0x1.6037a80000000p-3, 0x1.0bbcb80000000p-5, 0x1.84d2e00000000p-6, 0x1.8331b00000000p-3, -0x1.3b0d200000000p-5, -0x1.163c500000000p-6, -0x1.6ebaec0000000p-4, 0x1.4452400000000p-3, -0x1.7923760000000p-4, -0x1.97d5520000000p-3, -0x1.20a3300000000p-3, 0x1.bc7e400000000p-8, -0x1.1fe4b00000000p-6, 0x1.13a9800000000p-3, 0x1.3159700000000p-5, 0x1.ea2ce00000000p-4}
, {0x1.1f51340000000p-3, 0x1.f2bc000000000p-7, -0x1.1aaafc0000000p-4, -0x1.9ac1a40000000p-4, -0x1.f856400000000p-5, -0x1.3ec1500000000p-6, -0x1.05bc900000000p-4, -0x1.6682740000000p-4, 0x1.50f24c0000000p-3, 0x1.80aa600000000p-5, 0x1.8d19d00000000p-4, -0x1.0ab8dc0000000p-3, 0x1.97c2a00000000p-5, 0x1.2face80000000p-3, -0x1.7733880000000p-5, 0x1.f119200000000p-5}
}
, {{-0x1.6bccc40000000p-3, 0x1.cbeee00000000p-5, 0x1.777c500000000p-5, -0x1.6b6dd40000000p-3, -0x1.58b22e0000000p-3, -0x1.fd29b80000000p-5, 0x1.e013d00000000p-5, -0x1.4074a00000000p-4, 0x1.5befa00000000p-5, 0x1.a124000000000p-4, -0x1.84a4340000000p-3, 0x1.5b4f900000000p-3, 0x1.182fd00000000p-4, 0x1.2a52400000000p-7, -0x1.6c7b0a0000000p-4, 0x1.c22bd00000000p-6}
, {0x1.9ef7780000000p-4, 0x1.6868780000000p-3, 0x1.9f76300000000p-5, -0x1.a408860000000p-4, -0x1.561e800000000p-9, -0x1.0148d80000000p-3, -0x1.510f7e0000000p-3, -0x1.19643c0000000p-3, -0x1.1146c00000000p-5, -0x1.87e5d00000000p-6, -0x1.1d0ba00000000p-4, -0x1.67c7040000000p-3, 0x1.207fd00000000p-6, 0x1.b7f8e00000000p-7, 0x1.301d280000000p-5, -0x1.a939c80000000p-5}
, {-0x1.b34eac0000000p-4, 0x1.e441800000000p-8, -0x1.23e9580000000p-3, 0x1.6cbc800000000p-5, -0x1.341c2c0000000p-4, -0x1.4b21da0000000p-4, -0x1.dc68e00000000p-7, -0x1.06b9600000000p-5, 0x1.3652400000000p-7, -0x1.22be940000000p-3, 0x1.5462e00000000p-5, -0x1.9fb7100000000p-3, -0x1.e651fa0000000p-4, 0x1.0766b00000000p-5, -0x1.e699920000000p-4, -0x1.5f88860000000p-3}
}
, {{-0x1.5f0f8e0000000p-3, -0x1.13a4d40000000p-3, 0x1.09c5e80000000p-4, 0x1.01e2800000000p-4, -0x1.e4976e0000000p-4, -0x1.5544100000000p-4, 0x1.306d200000000p-4, -0x1.cf689e0000000p-4, 0x1.8845600000000p-7, -0x1.ccdaf60000000p-4, 0x1.8edee00000000p-4, 0x1.2e1f180000000p-3, 0x1.e073500000000p-5, 0x1.aa8e800000000p-9, 0x1.fa58200000000p-7, 0x1.9daf100000000p-3}
, {-0x1.95ce080000000p-4, 0x1.2d36fc0000000p-3, 0x1.331ae80000000p-3, 0x1.e331800000000p-5, 0x1.9e00040000000p-3, 0x1.9693d00000000p-5, -0x1.619ab80000000p-5, 0x1.257a680000000p-4, 0x1.70384c0000000p-3, 0x1.31b5400000000p-7, 0x1.95e8b00000000p-3, -0x1.4dfb580000000p-4, -0x1.a4c5800000000p-7, -0x1.bcbb2a0000000p-4, 0x1.6466300000000p-4, 0x1.e5e8a00000000p-6}
, {0x1.3235ec0000000p-3, 0x1.b517200000000p-6, 0x1.4dac080000000p-4, -0x1.3044600000000p-3, -0x1.c38a220000000p-4, 0x1.3825c80000000p-3, 0x1.0077b00000000p-6, 0x1.98aa180000000p-3, -0x1.20eed80000000p-5, 0x1.616d100000000p-3, -0x1.6b0c4e0000000p-3, 0x1.c697e00000000p-4, -0x1.781c3e0000000p-4, -0x1.a21d3e0000000p-4, 0x1.0a17e00000000p-7, -0x1.3b6a980000000p-3}
}
, {{-0x1.2adf100000000p-6, 0x1.a58c500000000p-4, 0x1.b9dd080000000p-4, -0x1.654b040000000p-4, 0x1.a83e980000000p-4, -0x1.a63c920000000p-4, 0x1.fa8ac00000000p-6, 0x1.b7bb500000000p-4, -0x1.c16c7c0000000p-4, 0x1.4f70300000000p-4, -0x1.2e40b40000000p-3, 0x1.088df00000000p-6, 0x1.7505000000000p-4, -0x1.4488ba0000000p-3, -0x1.2e23220000000p-3, -0x1.713dc40000000p-3}
, {-0x1.10bd540000000p-4, -0x1.141a680000000p-3, 0x1.3a2ef00000000p-3, -0x1.395cd20000000p-3, 0x1.2d896c0000000p-3, -0x1.d305000000000p-4, -0x1.c91c180000000p-4, -0x1.353c9c0000000p-4, -0x1.8958b00000000p-6, -0x1.221b280000000p-4, 0x1.baf7a80000000p-4, -0x1.b6956c0000000p-4, 0x1.7bd5180000000p-4, 0x1.fc50a00000000p-5, 0x1.ab24d00000000p-5, -0x1.8899500000000p-5}
, {0x1.8cd1840000000p-3, 0x1.2b3ec80000000p-5, -0x1.e1d86e0000000p-4, 0x1.1cc4640000000p-3, 0x1.6ba4b40000000p-3, 0x1.8822640000000p-3, 0x1.125e400000000p-8, -0x1.24e1400000000p-6, 0x1.1405000000000p-3, -0x1.6c8f9a0000000p-4, -0x1.6a49a00000000p-6, 0x1.992d1c0000000p-3, 0x1.d11d100000000p-5, 0x1.7206100000000p-5, -0x1.82d43a0000000p-3, 0x1.4dd7f00000000p-5}
}
, {{-0x1.11038c0000000p-4, 0x1.19e2c80000000p-3, -0x1.9d903c0000000p-3, 0x1.1888000000000p-10, 0x1.27d3e40000000p-3, -0x1.24b2300000000p-5, -0x1.78f4200000000p-7, 0x1.6d86300000000p-5, -0x1.64eef00000000p-5, -0x1.fe88180000000p-5, 0x1.1daf400000000p-8, 0x1.4392e80000000p-3, 0x1.6796200000000p-3, -0x1.03fd200000000p-7, 0x1.cda1100000000p-5, -0x1.f6dc000000000p-9}
, {-0x1.675a7e0000000p-3, 0x1.453d540000000p-3, 0x1.202db00000000p-3, -0x1.0c9b4c0000000p-4, -0x1.dcdf000000000p-5, -0x1.87380a0000000p-4, 0x1.94fd500000000p-5, 0x1.fa24c00000000p-4, 0x1.1cc6b00000000p-4, 0x1.1dea140000000p-3, 0x1.e0b4380000000p-4, 0x1.4623500000000p-4, 0x1.2196800000000p-9, 0x1.a120900000000p-5, 0x1.e0ea380000000p-4, 0x1.424c0c0000000p-3}
, {0x1.642c8c0000000p-3, -0x1.39e3640000000p-3, -0x1.e715a00000000p-4, -0x1.9836900000000p-6, -0x1.20b27e0000000p-3, -0x1.76265a0000000p-3, -0x1.9ab0560000000p-4, -0x1.28a1940000000p-3, 0x1.e9c3200000000p-7, -0x1.f8d6c00000000p-6, -0x1.5aeaa40000000p-4, 0x1.1f94200000000p-3, -0x1.8408480000000p-3, -0x1.6ed3920000000p-4, 0x1.ae18c00000000p-5, -0x1.2d3b280000000p-5}
}
, {{0x1.1917800000000p-6, 0x1.6f13540000000p-3, -0x1.3445be0000000p-3, -0x1.cc2fe80000000p-4, 0x1.8ccf200000000p-3, -0x1.6417d00000000p-6, 0x1.c224800000000p-4, 0x1.cc11480000000p-4, -0x1.492d360000000p-3, 0x1.2384000000000p-11, 0x1.8f2fd00000000p-5, -0x1.fa4d200000000p-6, 0x1.4dd7840000000p-3, 0x1.8622600000000p-4, -0x1.d8ca800000000p-4, -0x1.e6bdf00000000p-6}
, {-0x1.b5a2f80000000p-4, -0x1.2d702a0000000p-3, -0x1.9e7da00000000p-6, -0x1.14e2e00000000p-4, -0x1.d753f00000000p-5, 0x1.0795b40000000p-3, 0x1.6da8a00000000p-3, 0x1.0aa6e80000000p-4, 0x1.85d8300000000p-4, 0x1.2d1f000000000p-10, -0x1.25170a0000000p-3, 0x1.89d83c0000000p-3, -0x1.af41c00000000p-7, 0x1.7742f80000000p-3, -0x1.9a233e0000000p-4, 0x1.47cf700000000p-3}
, {-0x1.4b74da0000000p-3, -0x1.ffd6c00000000p-6, 0x1.42b8980000000p-4, -0x1.5a6c300000000p-6, -0x1.2fa5c00000000p-5, -0x1.d570500000000p-4, -0x1.86625e0000000p-4, -0x1.9ce5f80000000p-3, -0x1.1d8edc0000000p-3, 0x1.2d04200000000p-7, 0x1.e134500000000p-5, -0x1.3467940000000p-3, -0x1.4e410c0000000p-4, 0x1.1621c40000000p-3, -0x1.f9ed140000000p-4, 0x1.5c72000000000p-3}
}
, {{-0x1.9d789a0000000p-3, 0x1.bbd3000000000p-5, 0x1.368c640000000p-3, -0x1.75c2820000000p-3, 0x1.6779cc0000000p-3, -0x1.ad41a00000000p-6, 0x1.6575100000000p-3, 0x1.a1f8280000000p-4, -0x1.57de200000000p-7, 0x1.c376580000000p-4, -0x1.7367800000000p-3, -0x1.349c900000000p-4, -0x1.418bd80000000p-3, -0x1.3aadba0000000p-3, 0x1.68c6a00000000p-4, -0x1.9c7caa0000000p-3}
, {0x1.3e26f80000000p-3, -0x1.189eca0000000p-3, -0x1.4f08040000000p-4, 0x1.714b8c0000000p-3, -0x1.7f4da80000000p-5, 0x1.a4d1600000000p-7, 0x1.ffc7080000000p-4, 0x1.b66a000000000p-8, -0x1.187a200000000p-3, -0x1.4772d40000000p-3, -0x1.b819aa0000000p-4, 0x1.715bb00000000p-3, -0x1.c3f7e80000000p-5, 0x1.8995b80000000p-4, 0x1.67c0d80000000p-4, -0x1.313ada0000000p-3}
, {0x1.5ddee00000000p-3, -0x1.78167a0000000p-3, -0x1.8902e80000000p-4, 0x1.9994c40000000p-3, 0x1.3d3e240000000p-3, -0x1.5609d00000000p-3, -0x1.992ff00000000p-5, -0x1.b7dec00000000p-7, -0x1.3890fa0000000p-3, -0x1.ccc6c00000000p-5, -0x1.d0f5000000000p-9, 0x1.779b880000000p-5, -0x1.3c14ba0000000p-3, -0x1.21267c0000000p-3, -0x1.185c540000000p-3, -0x1.8902600000000p-7}
}
, {{0x1.2f8eac0000000p-3, 0x1.55ddd00000000p-6, 0x1.843c7c0000000p-3, -0x1.1328000000000p-7, -0x1.65736e0000000p-3, -0x1.deff000000000p-5, -0x1.3c77a00000000p-6, 0x1.3074c80000000p-3, -0x1.efad100000000p-5, 0x1.81c0000000000p-9, 0x1.9594500000000p-4, -0x1.8c4c0e0000000p-3, -0x1.9dbf500000000p-5, 0x1.24cbc80000000p-4, -0x1.ef83500000000p-5, 0x1.bd2bc00000000p-7}
, {-0x1.7206ee0000000p-4, 0x1.d692480000000p-4, -0x1.9dc8300000000p-4, 0x1.79a3a00000000p-5, -0x1.28aae40000000p-3, -0x1.7a2e800000000p-7, -0x1.83c17a0000000p-4, 0x1.9fe0700000000p-4, 0x1.15e2a80000000p-4, -0x1.65b1600000000p-5, 0x1.f1cb700000000p-5, -0x1.dc3cb80000000p-5, 0x1.897c400000000p-4, -0x1.4b21c00000000p-3, -0x1.a4f01a0000000p-4, -0x1.2f50ee0000000p-3}
, {-0x1.0611b00000000p-5, 0x1.b541d00000000p-5, -0x1.94a2b00000000p-5, -0x1.c6a9700000000p-6, 0x1.0e71980000000p-5, 0x1.938c280000000p-3, -0x1.3ad1440000000p-4, -0x1.f67ff80000000p-5, 0x1.97f9200000000p-6, -0x1.93dd680000000p-5, 0x1.fc9f500000000p-6, 0x1.8612c40000000p-3, 0x1.7fcacc0000000p-3, 0x1.c93a500000000p-6, 0x1.55de380000000p-4, -0x1.51696e0000000p-3}
}
, {{-0x1.67dea00000000p-5, 0x1.1ce98c0000000p-3, 0x1.84477c0000000p-3, -0x1.b093b00000000p-5, 0x1.23d36c0000000p-3, 0x1.dfc3180000000p-4, -0x1.ccda4c0000000p-4, -0x1.9a9e040000000p-4, 0x1.5ee9680000000p-5, -0x1.4aabb80000000p-4, 0x1.03acb80000000p-4, -0x1.4912300000000p-4, 0x1.2747c80000000p-4, 0x1.3777000000000p-7, 0x1.02b2040000000p-3, 0x1.7697d80000000p-4}
, {0x1.dd64f80000000p-4, 0x1.ce82b80000000p-4, 0x1.6962000000000p-7, -0x1.918a4c0000000p-3, 0x1.39e33c0000000p-3, -0x1.0961ec0000000p-3, -0x1.073b300000000p-5, -0x1.84fa940000000p-3, 0x1.3639200000000p-3, 0x1.3f82780000000p-3, 0x1.9401b40000000p-3, -0x1.61e5980000000p-3, -0x1.06792e0000000p-3, -0x1.5d44c80000000p-3, 0x1.00a8f00000000p-6, 0x1.07eb540000000p-3}
, {0x1.533a980000000p-5, -0x1.e729d60000000p-4, 0x1.aa9e800000000p-4, -0x1.ca24120000000p-4, -0x1.1f60e40000000p-4, -0x1.dc96d80000000p-5, 0x1.804b800000000p-5, 0x1.3b94780000000p-3, -0x1.902a9e0000000p-4, 0x1.cfc4a00000000p-4, -0x1.b512b40000000p-4, -0x1.7c557c0000000p-4, 0x1.d96b580000000p-4, 0x1.0c591c0000000p-3, 0x1.7c8c740000000p-3, -0x1.a355180000000p-5}
}
, {{-0x1.a8a3f00000000p-6, 0x1.c0ece00000000p-5, 0x1.74ee740000000p-3, 0x1.4045340000000p-3, -0x1.0685d80000000p-5, -0x1.22b7e00000000p-3, -0x1.07b5600000000p-5, 0x1.abeb500000000p-5, -0x1.8cb7ba0000000p-3, 0x1.977a300000000p-6, 0x1.1a6df00000000p-4, 0x1.3d1aec0000000p-3, 0x1.5e3f280000000p-5, -0x1.0709040000000p-3, -0x1.43a9420000000p-3, 0x1.5b08d80000000p-5}
, {0x1.0ce5680000000p-4, 0x1.756f500000000p-4, 0x1.09fa900000000p-3, 0x1.5fe6d00000000p-4, -0x1.a2fb060000000p-4, -0x1.462d740000000p-3, 0x1.28d1980000000p-3, 0x1.b76ce00000000p-7, 0x1.84b8280000000p-3, -0x1.15b2100000000p-3, 0x1.fa73100000000p-5, 0x1.3c899c0000000p-3, -0x1.a954800000000p-9, -0x1.935ff60000000p-4, 0x1.ab37100000000p-4, 0x1.ea92c00000000p-6}
, {-0x1.0f23740000000p-3, -0x1.0237220000000p-3, -0x1.b0d8800000000p-8, 0x1.4f53400000000p-7, -0x1.8c930a0000000p-4, -0x1.ae438a0000000p-4, -0x1.d182e60000000p-4, -0x1.14f1c80000000p-3, 0x1.798b400000000p-4, 0x1.be52c00000000p-4, 0x1.342ec00000000p-4, 0x1.89db700000000p-4, 0x1.90bac00000000p-3, 0x1.8b86600000000p-3, 0x1.a3e7000000000p-9, 0x1.7a18400000000p-4}
}
, {{0x1.1b33700000000p-3, -0x1.82ba0e0000000p-3, 0x1.6ce6e80000000p-4, -0x1.7c74340000000p-3, -0x1.39799a0000000p-3, -0x1.5e23b60000000p-3, -0x1.74d2700000000p-5, 0x1.54e49c0000000p-3, -0x1.80a6340000000p-3, 0x1.d9d4b00000000p-5, -0x1.4320300000000p-4, 0x1.3402f80000000p-4, 0x1.6202d80000000p-4, -0x1.4ee6e80000000p-5, 0x1.b772f00000000p-6, -0x1.1c97140000000p-4}
, {-0x1.9149000000000p-3, -0x1.2c013a0000000p-3, -0x1.384ace0000000p-3, 0x1.681dc00000000p-8, 0x1.4d28100000000p-4, 0x1.9acd8c0000000p-3, 0x1.da3e900000000p-4, 0x1.0ebe480000000p-3, 0x1.aa9d100000000p-5, -0x1.64f9fa0000000p-4, -0x1.81fe9e0000000p-4, 0x1.de49700000000p-6, -0x1.6f84100000000p-6, 0x1.8336780000000p-3, -0x1.8af26c0000000p-4, 0x1.7604000000000p-8}
, {0x1.cf95700000000p-4, 0x1.566ff80000000p-5, 0x1.e4c5c00000000p-6, -0x1.ee0dc00000000p-6, 0x1.ef12e00000000p-6, -0x1.ee8ec00000000p-8, -0x1.80adf60000000p-3, 0x1.33ad200000000p-4, -0x1.34c4fc0000000p-3, 0x1.9b59800000000p-4, 0x1.a887100000000p-5, 0x1.58d6b00000000p-4, 0x1.1862b80000000p-4, -0x1.de68dc0000000p-4, -0x1.420cf40000000p-3, 0x1.7c9f700000000p-4}
}
, {{-0x1.cb8c680000000p-5, 0x1.1521c00000000p-4, 0x1.9e09500000000p-4, 0x1.6e956c0000000p-3, 0x1.cf02f00000000p-5, 0x1.8fc1a00000000p-7, 0x1.00faf80000000p-5, 0x1.aae4300000000p-4, 0x1.cdf6300000000p-5, -0x1.548f000000000p-8, 0x1.3dce940000000p-3, 0x1.73417c0000000p-3, 0x1.6309d80000000p-4, -0x1.ee06400000000p-6, 0x1.7a12100000000p-5, 0x1.3745380000000p-3}
, {-0x1.1c4cc00000000p-8, 0x1.95e7ac0000000p-3, 0x1.6d34a00000000p-5, 0x1.e1e3b80000000p-4, 0x1.8182600000000p-6, 0x1.3e1fd00000000p-4, 0x1.48e3800000000p-6, -0x1.9073420000000p-3, -0x1.2b180a0000000p-3, -0x1.21c3700000000p-5, -0x1.11f8f40000000p-3, -0x1.8c08ca0000000p-3, 0x1.b49e600000000p-5, -0x1.78f5c20000000p-3, 0x1.7feea40000000p-3, -0x1.c34d0c0000000p-4}
, {0x1.1fcb100000000p-3, 0x1.1043640000000p-3, 0x1.0e41a00000000p-6, 0x1.673be00000000p-6, 0x1.92a0cc0000000p-3, 0x1.c77ce00000000p-5, -0x1.2856a00000000p-5, -0x1.433c2e0000000p-3, 0x1.8193ac0000000p-3, 0x1.b1c1b00000000p-4, -0x1.7f1cce0000000p-3, 0x1.3e23680000000p-5, 0x1.87cf700000000p-3, 0x1.ac9f280000000p-4, 0x1.2452f80000000p-3, 0x1.04ac900000000p-5}
}
, {{0x1.8553300000000p-5, 0x1.f146400000000p-6, 0x1.f682e80000000p-4, -0x1.b9c74a0000000p-4, 0x1.6035b80000000p-3, 0x1.0bb0a80000000p-4, -0x1.1b80f40000000p-4, -0x1.7737800000000p-7, 0x1.d827500000000p-6, -0x1.66a7a00000000p-6, 0x1.1521e80000000p-5, 0x1.3e19640000000p-3, -0x1.6de2860000000p-3, 0x1.0484a40000000p-3, 0x1.e65da00000000p-6, 0x1.a2ab800000000p-7}
, {0x1.e199a00000000p-4, -0x1.3b2ac00000000p-3, 0x1.3377980000000p-5, 0x1.6052e80000000p-4, 0x1.4de9b40000000p-3, 0x1.e871c00000000p-5, -0x1.21f5700000000p-5, -0x1.4bb0200000000p-4, 0x1.813fe80000000p-4, -0x1.77fb7a0000000p-4, -0x1.6204380000000p-3, 0x1.bd73c00000000p-4, 0x1.5bc6c80000000p-4, -0x1.f028900000000p-4, -0x1.85472c0000000p-3, -0x1.94c3640000000p-3}
, {-0x1.3e7e280000000p-3, 0x1.f600c00000000p-4, 0x1.fb0a200000000p-7, 0x1.6fabc80000000p-4, 0x1.9323380000000p-4, -0x1.160ae80000000p-5, 0x1.558e680000000p-5, -0x1.70edec0000000p-3, 0x1.8126380000000p-3, 0x1.093af80000000p-3, -0x1.d1a60e0000000p-4, 0x1.4b33780000000p-4, -0x1.ac4f620000000p-4, -0x1.bc51000000000p-10, 0x1.4e472c0000000p-3, 0x1.f683500000000p-5}
}
, {{-0x1.c98c5c0000000p-4, -0x1.7acfea0000000p-4, 0x1.b450200000000p-5, 0x1.121fbc0000000p-3, -0x1.56ff600000000p-3, -0x1.06f2e40000000p-4, -0x1.5d3efe0000000p-4, 0x1.ef83500000000p-4, 0x1.1b9c800000000p-6, 0x1.8b026c0000000p-3, 0x1.e90e400000000p-8, 0x1.02b1500000000p-5, -0x1.6dabac0000000p-3, 0x1.dbdc780000000p-4, 0x1.1296ac0000000p-3, 0x1.af83580000000p-4}
, {0x1.574cbc0000000p-3, -0x1.713aa80000000p-5, 0x1.3265100000000p-4, 0x1.6b9f200000000p-7, 0x1.e538a00000000p-4, -0x1.455e720000000p-4, -0x1.6565e80000000p-4, 0x1.c5c0800000000p-5, 0x1.58eb340000000p-3, 0x1.b793600000000p-5, 0x1.3568480000000p-3, 0x1.2ba5d80000000p-5, 0x1.3a246c0000000p-3, 0x1.51fa540000000p-3, 0x1.10ed000000000p-3, 0x1.25c8ac0000000p-3}
, {-0x1.97cba00000000p-7, 0x1.76d6000000000p-9, -0x1.d85c860000000p-4, -0x1.72c4680000000p-3, -0x1.71d8a40000000p-4, 0x1.466aec0000000p-3, 0x1.e582800000000p-8, 0x1.2e89800000000p-5, -0x1.71c24a0000000p-4, 0x1.2400d00000000p-4, 0x1.e3e0580000000p-4, -0x1.0157f00000000p-5, -0x1.4506e00000000p-3, 0x1.9529540000000p-3, 0x1.f59d080000000p-4, -0x1.7560bc0000000p-3}
}
, {{-0x1.9b73800000000p-9, 0x1.7bcf900000000p-5, -0x1.c5a4e00000000p-5, 0x1.ddabe00000000p-7, 0x1.a4e1d00000000p-5, 0x1.c575f80000000p-4, 0x1.5ef21c0000000p-3, 0x1.8dd6980000000p-3, 0x1.9f49a80000000p-3, 0x1.7229e00000000p-3, 0x1.e32e500000000p-5, -0x1.d74f200000000p-6, -0x1.5fd6ee0000000p-3, -0x1.d798700000000p-6, -0x1.ff19080000000p-4, 0x1.91c7e00000000p-4}
, {0x1.257c300000000p-6, -0x1.b788000000000p-9, 0x1.d09d200000000p-7, 0x1.bea6f00000000p-4, 0x1.a00e540000000p-3, 0x1.9430180000000p-3, 0x1.43da800000000p-3, 0x1.06f65c0000000p-3, -0x1.5c80c60000000p-3, -0x1.c765a00000000p-5, -0x1.52e2d00000000p-5, 0x1.d86ec00000000p-4, 0x1.4185380000000p-3, 0x1.45a2c00000000p-8, -0x1.3ea3740000000p-3, -0x1.8aeb7a0000000p-3}
, {0x1.65076c0000000p-3, -0x1.8834000000000p-6, 0x1.e51f780000000p-4, 0x1.9ad6480000000p-3, -0x1.cc44860000000p-4, 0x1.38cd900000000p-4, 0x1.ce78600000000p-4, -0x1.2a520a0000000p-3, 0x1.bd22080000000p-4, 0x1.9d834c0000000p-3, -0x1.9817fe0000000p-3, -0x1.14d3a00000000p-4, 0x1.b133500000000p-4, 0x1.7acfb40000000p-3, -0x1.92eae80000000p-5, -0x1.6d49780000000p-5}
}
, {{-0x1.c849400000000p-7, 0x1.c136700000000p-6, 0x1.ac90d00000000p-4, 0x1.84ab2c0000000p-3, -0x1.4b99000000000p-5, 0x1.39c5400000000p-4, -0x1.06c8c40000000p-3, 0x1.36c9780000000p-3, -0x1.ea59300000000p-6, 0x1.020a340000000p-3, 0x1.6315480000000p-3, -0x1.efda780000000p-5, 0x1.5957a80000000p-3, -0x1.1262cc0000000p-4, 0x1.6696a80000000p-4, 0x1.f067c00000000p-4}
, {-0x1.fdc9a80000000p-5, 0x1.a414200000000p-5, -0x1.76164c0000000p-3, 0x1.f97f400000000p-8, -0x1.95940e0000000p-3, -0x1.73af8e0000000p-4, 0x1.ba77500000000p-4, 0x1.79bf340000000p-3, 0x1.7d27240000000p-3, 0x1.7a3af00000000p-3, -0x1.3faf100000000p-6, 0x1.0316680000000p-4, -0x1.5cce800000000p-8, -0x1.6d38f40000000p-3, 0x1.6537080000000p-3, 0x1.17f7400000000p-8}
, {0x1.9278680000000p-3, 0x1.4f5d300000000p-3, 0x1.ec9ab00000000p-6, -0x1.ae31100000000p-5, -0x1.fff6a00000000p-6, 0x1.3b2a100000000p-3, 0x1.94b7280000000p-4, 0x1.4714500000000p-6, 0x1.9709e80000000p-4, 0x1.a89f600000000p-5, -0x1.4e47a20000000p-3, -0x1.ffc0b80000000p-5, 0x1.0c31280000000p-5, 0x1.9dff180000000p-3, 0x1.9d6efc0000000p-3, 0x1.70aca80000000p-3}
}
, {{-0x1.3ac94e0000000p-3, -0x1.1c64f60000000p-3, -0x1.c5fb6a0000000p-4, -0x1.d2a9c00000000p-7, 0x1.81cb000000000p-10, 0x1.4d57380000000p-3, -0x1.f59a380000000p-4, 0x1.1721300000000p-4, -0x1.dc45980000000p-5, 0x1.a6ff900000000p-4, -0x1.99219c0000000p-3, 0x1.80c50c0000000p-3, 0x1.472fb80000000p-3, -0x1.c6aaa80000000p-4, 0x1.e6b7700000000p-4, 0x1.bf6ef00000000p-4}
, {0x1.bcca500000000p-4, -0x1.c290480000000p-4, 0x1.8188380000000p-4, -0x1.a01dde0000000p-3, -0x1.8978000000000p-3, 0x1.35cd600000000p-3, -0x1.88504c0000000p-4, -0x1.5dc59c0000000p-3, 0x1.aefd300000000p-6, -0x1.41fc940000000p-3, 0x1.7570600000000p-3, -0x1.151f180000000p-4, -0x1.3ab3080000000p-3, -0x1.73f0280000000p-3, 0x1.cbe1000000000p-9, 0x1.3e18240000000p-3}
, {0x1.a355c00000000p-8, -0x1.55e3420000000p-3, -0x1.6034720000000p-4, 0x1.eb4b200000000p-6, -0x1.07aa800000000p-4, 0x1.d84de00000000p-5, 0x1.a710800000000p-5, 0x1.854bcc0000000p-3, -0x1.7c98b20000000p-4, 0x1.b5f1980000000p-4, -0x1.62d1500000000p-3, 0x1.ecf2700000000p-6, 0x1.373ef00000000p-4, -0x1.05cf180000000p-4, 0x1.6d1e200000000p-4, 0x1.b8ddf80000000p-4}
}
, {{-0x1.0864f00000000p-6, -0x1.3c29c00000000p-8, 0x1.9d7ae80000000p-3, -0x1.6a459e0000000p-4, 0x1.01e9ac0000000p-3, 0x1.9ed0940000000p-3, -0x1.9c2fa00000000p-5, 0x1.45a6280000000p-4, -0x1.3d34400000000p-7, -0x1.5287580000000p-5, -0x1.104f540000000p-3, -0x1.9038800000000p-7, 0x1.7a81080000000p-4, -0x1.40da3c0000000p-3, -0x1.f653d20000000p-4, -0x1.9d37980000000p-3}
, {0x1.028ef00000000p-6, 0x1.9ff2300000000p-4, 0x1.4b7b900000000p-3, 0x1.10d2dc0000000p-3, 0x1.535e300000000p-4, 0x1.7ce7ac0000000p-3, 0x1.1cc9a00000000p-6, 0x1.1651500000000p-3, -0x1.4b9fd80000000p-3, 0x1.5cef900000000p-3, 0x1.630d940000000p-3, 0x1.818a500000000p-3, 0x1.28da400000000p-3, -0x1.7f0ec60000000p-3, 0x1.3e56b40000000p-3, 0x1.8870d80000000p-4}
, {-0x1.c817200000000p-5, -0x1.563ec80000000p-3, 0x1.0b03f80000000p-4, 0x1.7756440000000p-3, 0x1.2fd2dc0000000p-3, 0x1.4b73e40000000p-3, -0x1.8189100000000p-6, -0x1.e757000000000p-4, -0x1.6937200000000p-7, 0x1.d6b0800000000p-5, 0x1.0e54380000000p-4, -0x1.bc7aea0000000p-4, -0x1.96eb520000000p-3, -0x1.930bea0000000p-4, 0x1.36e3940000000p-3, 0x1.3169b80000000p-3}
}
, {{-0x1.0ab3ce0000000p-3, -0x1.af22da0000000p-4, 0x1.91d17c0000000p-3, 0x1.c227800000000p-7, 0x1.8c59740000000p-3, -0x1.226e000000000p-3, -0x1.7c0c7c0000000p-3, -0x1.05eae80000000p-3, -0x1.328ef40000000p-4, -0x1.94e7980000000p-3, 0x1.3af1f80000000p-5, 0x1.b691700000000p-4, -0x1.0ac4300000000p-5, -0x1.edd3800000000p-5, -0x1.269df00000000p-5, 0x1.4ce1980000000p-4}
, {-0x1.9d9bca0000000p-3, -0x1.8d01ac0000000p-4, 0x1.926a300000000p-6, -0x1.6624fe0000000p-3, 0x1.209e7c0000000p-3, 0x1.20e9600000000p-4, -0x1.9e964e0000000p-3, 0x1.5d75cc0000000p-3, 0x1.877aa00000000p-5, -0x1.8589220000000p-3, 0x1.7f15800000000p-8, 0x1.941ea80000000p-3, 0x1.9f7f640000000p-3, 0x1.4821c40000000p-3, -0x1.3aef480000000p-4, -0x1.84c4c40000000p-3}
, {-0x1.6a6b3a0000000p-3, 0x1.8bbaa40000000p-3, -0x1.96de540000000p-4, 0x1.69ccd80000000p-3, 0x1.3d12b40000000p-3, 0x1.0abec80000000p-5, -0x1.224d800000000p-6, 0x1.8c7ec00000000p-5, 0x1.58c3a00000000p-6, -0x1.03f7700000000p-3, 0x1.96d2480000000p-4, 0x1.58a4a00000000p-7, -0x1.a3c8880000000p-5, -0x1.3c2ed40000000p-3, -0x1.c6d33a0000000p-4, 0x1.c531800000000p-9}
}
, {{0x1.3d73340000000p-3, -0x1.71e87c0000000p-3, -0x1.9a06900000000p-6, 0x1.937a300000000p-3, 0x1.562b700000000p-4, -0x1.3dd8b00000000p-3, -0x1.9acd900000000p-6, 0x1.1f7d100000000p-4, -0x1.7350900000000p-6, 0x1.55ede40000000p-3, 0x1.5c79400000000p-3, 0x1.735b180000000p-3, 0x1.77f6f00000000p-3, -0x1.c91f000000000p-4, -0x1.b185200000000p-4, -0x1.b08ba40000000p-4}
, {0x1.5676400000000p-4, -0x1.c7f6ea0000000p-4, 0x1.3867600000000p-7, 0x1.05abb80000000p-4, -0x1.268ae00000000p-6, 0x1.29e9800000000p-3, 0x1.4c09480000000p-5, -0x1.a588b00000000p-6, 0x1.2bba740000000p-3, 0x1.a1e9e80000000p-4, -0x1.32c0240000000p-3, -0x1.413d3c0000000p-4, -0x1.79d9500000000p-6, 0x1.9b33840000000p-3, 0x1.9960500000000p-4, 0x1.a8f8e00000000p-7}
, {-0x1.4a564a0000000p-3, 0x1.4004c40000000p-3, 0x1.a1c4100000000p-3, 0x1.9194600000000p-5, -0x1.8477900000000p-5, 0x1.98fbe00000000p-4, -0x1.2702c80000000p-5, -0x1.cccb3e0000000p-4, 0x1.5a53440000000p-3, -0x1.6557e00000000p-3, -0x1.85e41e0000000p-3, 0x1.8e036c0000000p-3, -0x1.93cf0e0000000p-4, -0x1.8c01300000000p-4, -0x1.924fa20000000p-3, 0x1.5af3480000000p-4}
}
, {{-0x1.20c0740000000p-3, -0x1.4168ea0000000p-3, -0x1.cab4900000000p-6, 0x1.6dd5440000000p-3, 0x1.4b9fac0000000p-3, 0x1.c28d900000000p-6, 0x1.88c0e00000000p-4, 0x1.06ecb80000000p-3, 0x1.54d0c80000000p-3, 0x1.83fbb40000000p-3, 0x1.dc93c80000000p-4, 0x1.86bb780000000p-3, 0x1.62e2f00000000p-3, 0x1.8ada400000000p-5, -0x1.8311780000000p-4, 0x1.4753240000000p-3}
, {-0x1.0f09d40000000p-3, -0x1.40a24c0000000p-4, 0x1.7c21840000000p-3, 0x1.4f0be80000000p-4, -0x1.5598380000000p-4, -0x1.4f91300000000p-3, -0x1.a792380000000p-4, 0x1.0578300000000p-4, 0x1.e58bc80000000p-4, -0x1.17a4480000000p-5, -0x1.62a8600000000p-6, 0x1.33334c0000000p-3, 0x1.c34cb00000000p-4, -0x1.700f400000000p-4, 0x1.95df980000000p-4, 0x1.5652780000000p-5}
, {0x1.84f6300000000p-6, -0x1.484fde0000000p-4, -0x1.9e13340000000p-3, 0x1.f8a0700000000p-6, -0x1.06de600000000p-4, 0x1.3bd5e40000000p-3, 0x1.8f67f00000000p-5, -0x1.da8d9c0000000p-4, -0x1.60ab580000000p-4, -0x1.307eee0000000p-3, -0x1.3c78e00000000p-7, 0x1.ecca400000000p-6, 0x1.1836f00000000p-3, -0x1.89ea7c0000000p-4, 0x1.4a61ec0000000p-3, -0x1.271c100000000p-3}
}
, {{0x1.3e0be00000000p-4, -0x1.8c865a0000000p-3, -0x1.82b3500000000p-3, 0x1.ccaf000000000p-6, 0x1.18aa2c0000000p-3, 0x1.8714440000000p-3, 0x1.9ae1600000000p-5, 0x1.f017a00000000p-5, 0x1.db3e500000000p-6, -0x1.706fb20000000p-3, -0x1.7d637e0000000p-4, -0x1.2267d80000000p-5, 0x1.3886c00000000p-3, 0x1.585b0c0000000p-3, -0x1.3be5000000000p-10, -0x1.9fec900000000p-5}
, {-0x1.f9575c0000000p-4, -0x1.81c5500000000p-6, -0x1.2b04ce0000000p-3, -0x1.1146000000000p-11, 0x1.3909500000000p-4, -0x1.e142d00000000p-6, -0x1.0e4f840000000p-3, 0x1.55eeb00000000p-3, 0x1.bfc6e00000000p-7, -0x1.1f4d180000000p-5, -0x1.98ab4a0000000p-3, -0x1.dd25600000000p-4, -0x1.2d5d540000000p-4, 0x1.31bb740000000p-3, -0x1.0588c40000000p-4, 0x1.2312b80000000p-4}
, {-0x1.47f3100000000p-6, 0x1.92b5000000000p-4, -0x1.2137180000000p-3, 0x1.a44ab00000000p-6, -0x1.4819cc0000000p-3, 0x1.7e26980000000p-4, 0x1.94c19c0000000p-3, 0x1.6b70300000000p-5, -0x1.c3eabc0000000p-4, -0x1.15276a0000000p-3, -0x1.99f6be0000000p-3, -0x1.3cfb5c0000000p-4, -0x1.544a480000000p-5, 0x1.4a2ae80000000p-3, 0x1.ce67300000000p-5, 0x1.0361cc0000000p-3}
}
, {{0x1.2f54400000000p-4, 0x1.ce74800000000p-9, 0x1.6eb6700000000p-3, 0x1.31cfb00000000p-3, -0x1.b3e9f60000000p-4, 0x1.56ba400000000p-7, 0x1.55c9e40000000p-3, 0x1.9334480000000p-3, -0x1.88c75a0000000p-3, 0x1.2ed1f80000000p-5, -0x1.3c1a4a0000000p-3, -0x1.bfb2600000000p-6, -0x1.455a080000000p-3, -0x1.84a4800000000p-8, -0x1.0c4c180000000p-5, -0x1.e4837a0000000p-4}
, {-0x1.4ce7fa0000000p-4, -0x1.e617c00000000p-8, 0x1.23d3d00000000p-4, 0x1.8816800000000p-8, -0x1.52c5e00000000p-3, 0x1.258d180000000p-3, -0x1.01dc880000000p-4, -0x1.705b8a0000000p-4, 0x1.9836d00000000p-3, 0x1.a774100000000p-4, -0x1.6683ce0000000p-3, -0x1.7488b80000000p-3, 0x1.2cd8180000000p-3, 0x1.27d7e00000000p-5, -0x1.0f55c40000000p-4, -0x1.b75a000000000p-10}
, {0x1.8879e00000000p-5, 0x1.0da7380000000p-3, -0x1.068d8c0000000p-4, -0x1.057da40000000p-4, 0x1.9320680000000p-3, 0x1.1be6b00000000p-3, 0x1.bc14e00000000p-5, 0x1.de7ed00000000p-4, 0x1.958e1c0000000p-3, 0x1.0451740000000p-3, -0x1.7d684a0000000p-4, -0x1.cb7bc00000000p-7, 0x1.296b100000000p-4, 0x1.e785880000000p-4, -0x1.95a23e0000000p-4, 0x1.9b71ac0000000p-3}
}
, {{0x1.9f1d800000000p-8, -0x1.93a92a0000000p-3, 0x1.397e940000000p-3, -0x1.3763b00000000p-4, -0x1.14daf80000000p-3, -0x1.193de00000000p-6, -0x1.76d0140000000p-4, -0x1.3974a60000000p-3, 0x1.9d12cc0000000p-3, 0x1.8869680000000p-3, 0x1.8277a80000000p-4, 0x1.06f8580000000p-3, 0x1.3118180000000p-3, 0x1.81c6180000000p-3, -0x1.804ebc0000000p-3, -0x1.5f0a940000000p-3}
, {-0x1.2aff160000000p-3, 0x1.417e280000000p-5, -0x1.4979500000000p-5, -0x1.99a6020000000p-3, 0x1.049e340000000p-3, -0x1.8cc7780000000p-3, 0x1.54daf00000000p-3, -0x1.7fea500000000p-6, 0x1.74cc700000000p-3, 0x1.9f35200000000p-7, -0x1.24a0b20000000p-3, 0x1.8c21b80000000p-3, -0x1.98b8a00000000p-5, -0x1.4255e80000000p-5, -0x1.586db00000000p-5, -0x1.91c2c00000000p-8}
, {0x1.4dba680000000p-3, -0x1.81b0be0000000p-4, 0x1.221e380000000p-3, 0x1.24c0800000000p-9, 0x1.077d700000000p-3, 0x1.91a5500000000p-3, 0x1.2731380000000p-4, 0x1.fb96900000000p-6, 0x1.1c46980000000p-4, 0x1.4182580000000p-4, 0x1.c7d3a00000000p-5, 0x1.3e502c0000000p-3, 0x1.ef5c080000000p-4, -0x1.152d900000000p-3, 0x1.5355d80000000p-4, 0x1.4884280000000p-5}
}
, {{0x1.397f840000000p-3, 0x1.cd74780000000p-4, -0x1.575bc40000000p-3, 0x1.8c7ac00000000p-7, -0x1.a6387c0000000p-4, -0x1.db37240000000p-4, -0x1.028f3c0000000p-4, 0x1.0d1ef00000000p-6, -0x1.e11c7c0000000p-4, 0x1.14c9a00000000p-5, 0x1.00aee00000000p-3, -0x1.7e7fd00000000p-6, -0x1.1f78780000000p-4, -0x1.ffe4c00000000p-4, 0x1.f712d00000000p-4, 0x1.604e500000000p-3}
, {-0x1.a698000000000p-12, -0x1.37e4140000000p-3, -0x1.f56f080000000p-5, 0x1.40cfc00000000p-6, 0x1.49bdd80000000p-4, -0x1.44c4960000000p-4, 0x1.d407500000000p-4, 0x1.de76480000000p-4, 0x1.65d8440000000p-3, -0x1.48e3ce0000000p-4, -0x1.417ee80000000p-3, 0x1.1eb8ac0000000p-3, -0x1.e206c40000000p-4, 0x1.4272e40000000p-3, -0x1.58d3bc0000000p-3, -0x1.f623600000000p-6}
, {0x1.9a06800000000p-4, 0x1.bfeb580000000p-4, -0x1.fd53a80000000p-5, -0x1.286c480000000p-3, -0x1.5cbc820000000p-4, 0x1.125bbc0000000p-3, -0x1.98a10a0000000p-3, 0x1.583ac00000000p-3, -0x1.452f920000000p-3, -0x1.6b34080000000p-4, -0x1.4371600000000p-7, 0x1.03dde80000000p-5, 0x1.9bc03c0000000p-3, 0x1.4d79c00000000p-3, 0x1.7c73600000000p-7, -0x1.aa277a0000000p-4}
}
, {{0x1.670a700000000p-6, 0x1.0676080000000p-5, 0x1.8f7f540000000p-3, -0x1.06dd260000000p-3, -0x1.3e22a00000000p-7, -0x1.0721880000000p-4, -0x1.14cc100000000p-3, 0x1.4843000000000p-4, -0x1.3865e80000000p-3, -0x1.6210680000000p-5, 0x1.651f200000000p-3, -0x1.471ce80000000p-5, -0x1.cd38000000000p-10, -0x1.37c7340000000p-4, 0x1.21a4bc0000000p-3, 0x1.5bb4940000000p-3}
, {0x1.6ce8180000000p-5, -0x1.23a6800000000p-6, 0x1.ce22500000000p-4, -0x1.4055e20000000p-3, -0x1.492c440000000p-4, 0x1.8d95ec0000000p-3, 0x1.162fe80000000p-4, 0x1.1a7c1c0000000p-3, 0x1.c89e400000000p-4, -0x1.b1b2c00000000p-4, 0x1.18a9c80000000p-3, -0x1.72be540000000p-4, 0x1.7600800000000p-4, -0x1.2709060000000p-3, 0x1.7390600000000p-4, -0x1.e8dc5e0000000p-4}
, {-0x1.64a2de0000000p-4, -0x1.5fb6180000000p-4, 0x1.f954d80000000p-4, 0x1.1606f00000000p-4, -0x1.af247c0000000p-4, 0x1.22e9800000000p-8, -0x1.52eca00000000p-6, 0x1.7395600000000p-4, -0x1.f6715e0000000p-4, 0x1.4f36100000000p-4, -0x1.4614160000000p-3, -0x1.8bfe900000000p-3, 0x1.948a180000000p-4, -0x1.a832ea0000000p-4, -0x1.cbfa540000000p-4, -0x1.82ed140000000p-3}
}
, {{-0x1.3747b20000000p-3, -0x1.83bcae0000000p-4, -0x1.674d000000000p-6, -0x1.da43800000000p-5, -0x1.9da8720000000p-3, 0x1.7d26880000000p-3, 0x1.1d87fc0000000p-3, -0x1.91753e0000000p-3, 0x1.4604400000000p-6, 0x1.cfdde00000000p-4, -0x1.5d5b2a0000000p-4, -0x1.3bc2300000000p-3, -0x1.0e43fc0000000p-3, 0x1.4aabf00000000p-6, -0x1.121d800000000p-3, -0x1.1c23900000000p-3}
, {0x1.f3da400000000p-8, 0x1.0341000000000p-3, -0x1.4428120000000p-4, -0x1.62ede20000000p-3, 0x1.0a06880000000p-3, -0x1.786f000000000p-6, -0x1.493c3e0000000p-4, 0x1.451d5c0000000p-3, 0x1.9f3e8c0000000p-3, 0x1.048b800000000p-9, 0x1.28cfdc0000000p-3, 0x1.7ad1000000000p-4, 0x1.3b9da00000000p-7, -0x1.9cace00000000p-6, -0x1.ee4bfc0000000p-4, -0x1.373e140000000p-4}
, {0x1.c71d700000000p-4, 0x1.bd8d000000000p-5, -0x1.529bfa0000000p-4, 0x1.007c140000000p-3, -0x1.afaf7e0000000p-4, 0x1.06a0600000000p-3, -0x1.0b99240000000p-3, 0x1.1271780000000p-3, -0x1.d81b800000000p-7, 0x1.125bc00000000p-5, -0x1.9369bc0000000p-3, 0x1.becb880000000p-4, -0x1.530ff00000000p-6, 0x1.0362300000000p-6, -0x1.174e860000000p-3, 0x1.861e600000000p-3}
}
}
;

#undef INPUT_CHANNELS
#undef CONV_FILTERS
#undef CONV_KERNEL_SIZE
#undef CONV_GROUPS