/**
  ******************************************************************************
  * @file    weights/conv1d.cc
  * @author  Pierre-Emmanuel Novac <penovac@unice.fr>, LEAT, CNRS, Université Côte d'Azur, France
  * @version 1.0.0
  * @date    24 march 2020
  * @brief   Template generating plain C code for the implementation of Convolutional Neural Networks on MCU
  */

#include <stdint.h>

#define INPUT_CHANNELS    32
#define CONV_FILTERS      64
#define CONV_KERNEL_SIZE  3
#define CONV_GROUPS       1


const float  conv1d_7_bias[CONV_FILTERS] = {0x0.0p+0, 0x0.0p+0, 0x0.0p+0, 0x0.0p+0, 0x0.0p+0, 0x0.0p+0, 0x0.0p+0, 0x0.0p+0, 0x0.0p+0, 0x0.0p+0, 0x0.0p+0, 0x0.0p+0, 0x0.0p+0, 0x0.0p+0, 0x0.0p+0, 0x0.0p+0, 0x0.0p+0, 0x0.0p+0, 0x0.0p+0, 0x0.0p+0, 0x0.0p+0, 0x0.0p+0, 0x0.0p+0, 0x0.0p+0, 0x0.0p+0, 0x0.0p+0, 0x0.0p+0, 0x0.0p+0, 0x0.0p+0, 0x0.0p+0, 0x0.0p+0, 0x0.0p+0, 0x0.0p+0, 0x0.0p+0, 0x0.0p+0, 0x0.0p+0, 0x0.0p+0, 0x0.0p+0, 0x0.0p+0, 0x0.0p+0, 0x0.0p+0, 0x0.0p+0, 0x0.0p+0, 0x0.0p+0, 0x0.0p+0, 0x0.0p+0, 0x0.0p+0, 0x0.0p+0, 0x0.0p+0, 0x0.0p+0, 0x0.0p+0, 0x0.0p+0, 0x0.0p+0, 0x0.0p+0, 0x0.0p+0, 0x0.0p+0, 0x0.0p+0, 0x0.0p+0, 0x0.0p+0, 0x0.0p+0, 0x0.0p+0, 0x0.0p+0, 0x0.0p+0, 0x0.0p+0}
;

const float  conv1d_7_kernel[CONV_FILTERS][CONV_KERNEL_SIZE][INPUT_CHANNELS / CONV_GROUPS] = {{{-0x1.4e29d80000000p-6, -0x1.d3efd00000000p-6, -0x1.1dbd640000000p-3, 0x1.035f6c0000000p-3, 0x1.6a98c00000000p-4, 0x1.a576ec0000000p-4, -0x1.1025a20000000p-3, -0x1.6bc0ee0000000p-4, 0x1.f581900000000p-4, 0x1.7a7a500000000p-4, 0x1.f261b00000000p-4, 0x1.6b1b200000000p-5, -0x1.8e10320000000p-4, 0x1.4a50f80000000p-5, -0x1.22b5600000000p-7, -0x1.fc66e00000000p-7, -0x1.8cdb480000000p-4, -0x1.b0b1680000000p-6, -0x1.0a5c000000000p-8, 0x1.df9a980000000p-4, -0x1.17f6300000000p-3, 0x1.eaa4b80000000p-5, -0x1.01c3e40000000p-5, 0x1.c67f300000000p-4, -0x1.7ece100000000p-4, 0x1.0e771c0000000p-3, 0x1.b83f300000000p-4, -0x1.4265180000000p-6, 0x1.8dcc100000000p-6, -0x1.ba58e80000000p-4, 0x1.819c280000000p-5, -0x1.3f46600000000p-7}
, {0x1.02a6c00000000p-4, -0x1.e12b440000000p-4, -0x1.34e65e0000000p-4, 0x1.4ab6640000000p-4, 0x1.06abb80000000p-3, 0x1.ed7c680000000p-4, -0x1.32dc700000000p-4, -0x1.3644d00000000p-5, -0x1.ab88400000000p-7, 0x1.46a2f00000000p-6, -0x1.b91bcc0000000p-5, 0x1.13187c0000000p-3, -0x1.8a6ed00000000p-4, -0x1.26bcf80000000p-4, 0x1.c8ac600000000p-4, -0x1.7d37ae0000000p-4, 0x1.9a3af80000000p-4, 0x1.05d0f00000000p-5, 0x1.498e000000000p-8, -0x1.0ce2020000000p-4, -0x1.c452ec0000000p-4, 0x1.b90a100000000p-6, -0x1.40932a0000000p-4, -0x1.afc8d80000000p-4, -0x1.5487400000000p-8, -0x1.e469100000000p-4, 0x1.3c70700000000p-5, -0x1.7ff5000000000p-6, -0x1.f0837c0000000p-4, -0x1.181b2c0000000p-3, 0x1.117a600000000p-3, -0x1.9a13040000000p-5}
, {-0x1.0c0fec0000000p-3, 0x1.1107f00000000p-3, -0x1.2655b00000000p-5, -0x1.e08d380000000p-4, -0x1.f54bc00000000p-5, 0x1.0dce840000000p-3, 0x1.fa72580000000p-4, 0x1.25f3a80000000p-3, -0x1.ccfc600000000p-4, -0x1.ecbebc0000000p-4, 0x1.fb0c180000000p-4, 0x1.a87c780000000p-4, -0x1.3df6000000000p-7, -0x1.c70f5c0000000p-4, 0x1.2018500000000p-4, -0x1.abdbdc0000000p-4, -0x1.c966c00000000p-8, 0x1.7f4dc40000000p-4, 0x1.7b3fd00000000p-6, -0x1.484fc00000000p-8, 0x1.db4cb00000000p-4, 0x1.864a000000000p-9, 0x1.2599b00000000p-5, -0x1.59f2800000000p-5, -0x1.38f1fc0000000p-4, 0x1.30c9480000000p-4, -0x1.0345b40000000p-4, 0x1.c979700000000p-4, -0x1.ce8fc40000000p-5, -0x1.cf88180000000p-4, -0x1.03c8380000000p-4, -0x1.daf3380000000p-4}
}
, {{-0x1.ae93480000000p-6, -0x1.146c0e0000000p-3, 0x1.2c47d00000000p-4, 0x1.ee0b700000000p-4, 0x1.7b30c80000000p-4, -0x1.8f8f6a0000000p-4, -0x1.55f6400000000p-4, -0x1.e5c92c0000000p-4, 0x1.29ec200000000p-5, -0x1.5df9b80000000p-5, 0x1.a8768c0000000p-4, 0x1.6469e80000000p-4, 0x1.55f0c00000000p-7, -0x1.e2bf580000000p-5, -0x1.a98df00000000p-6, -0x1.32c3fa0000000p-4, 0x1.a6b9ac0000000p-4, 0x1.f990400000000p-5, -0x1.ba4a800000000p-7, -0x1.29faa00000000p-5, -0x1.01a1500000000p-5, -0x1.7da5bc0000000p-4, 0x1.d645d00000000p-5, -0x1.fba9c20000000p-4, 0x1.d7b7380000000p-4, -0x1.41f81c0000000p-5, 0x1.16415c0000000p-3, 0x1.19afac0000000p-3, -0x1.1742240000000p-4, 0x1.d38a800000000p-6, -0x1.77ff4c0000000p-4, -0x1.c3df000000000p-7}
, {0x1.204d200000000p-3, 0x1.37d8080000000p-4, -0x1.15b8680000000p-3, -0x1.0579f40000000p-3, -0x1.ef841e0000000p-4, 0x1.f859800000000p-8, -0x1.7aa1000000000p-8, -0x1.429b5c0000000p-4, -0x1.3b7ce00000000p-4, -0x1.3b4cb40000000p-4, 0x1.6dd8400000000p-4, 0x1.1718000000000p-4, 0x1.8d27bc0000000p-4, 0x1.5aeba00000000p-4, -0x1.55c4000000000p-10, 0x1.581d300000000p-4, -0x1.b209f00000000p-6, 0x1.1d348c0000000p-4, 0x1.5e6ee80000000p-5, -0x1.3a97400000000p-8, -0x1.0631d60000000p-3, 0x1.033c6c0000000p-3, -0x1.6e81a80000000p-4, -0x1.c920500000000p-4, -0x1.0b995e0000000p-3, -0x1.b458100000000p-4, -0x1.31fab00000000p-6, -0x1.de02800000000p-9, 0x1.00a1e00000000p-4, 0x1.18ef800000000p-5, -0x1.a2cf180000000p-6, 0x1.f300600000000p-4}
, {0x1.13a9d00000000p-4, 0x1.e2a2b00000000p-5, -0x1.7f6cc40000000p-5, 0x1.8bedc00000000p-5, -0x1.0f70de0000000p-3, 0x1.f23fa00000000p-5, -0x1.0a47420000000p-3, 0x1.8b77d80000000p-4, -0x1.fe60d00000000p-5, 0x1.8c77e00000000p-7, 0x1.1aff000000000p-3, -0x1.6674c40000000p-5, -0x1.7816240000000p-4, -0x1.d7f0e40000000p-5, 0x1.14e8fc0000000p-3, 0x1.39bebc0000000p-4, -0x1.899dc40000000p-4, -0x1.f55d000000000p-5, 0x1.6d235c0000000p-4, 0x1.9c35a00000000p-4, 0x1.0c5f000000000p-8, 0x1.082ba40000000p-3, -0x1.26f28e0000000p-3, -0x1.3a845e0000000p-4, -0x1.1c638c0000000p-3, -0x1.4a679c0000000p-5, -0x1.d07ea00000000p-6, -0x1.0a9ec80000000p-4, 0x1.dbfca80000000p-4, 0x1.f303600000000p-6, -0x1.f41aa00000000p-5, 0x1.85c9f80000000p-5}
}
, {{-0x1.db3d800000000p-7, 0x1.143b000000000p-5, -0x1.21b1240000000p-5, -0x1.6075200000000p-4, 0x1.d2e2000000000p-9, 0x1.11a7d00000000p-6, -0x1.409b880000000p-5, -0x1.92a3880000000p-4, 0x1.2bdc180000000p-4, 0x1.778d840000000p-4, -0x1.fa4c480000000p-4, 0x1.e492400000000p-4, 0x1.7718100000000p-4, -0x1.30e9c00000000p-5, -0x1.1143c00000000p-8, 0x1.4c0f380000000p-4, 0x1.045d700000000p-5, -0x1.a7ea700000000p-4, -0x1.20d1400000000p-8, -0x1.9509380000000p-6, -0x1.e864d00000000p-6, -0x1.9754c80000000p-4, -0x1.c0a5000000000p-10, 0x1.8ccdc00000000p-4, 0x1.04406c0000000p-3, 0x1.3d524c0000000p-4, -0x1.0402420000000p-3, 0x1.4866880000000p-4, -0x1.22a7840000000p-3, 0x1.1273c00000000p-7, -0x1.a02fdc0000000p-4, 0x1.2fa7840000000p-4}
, {-0x1.b9a2dc0000000p-4, 0x1.5e009c0000000p-4, 0x1.00b4bc0000000p-3, 0x1.71ce000000000p-6, -0x1.b510c00000000p-7, -0x1.cebc140000000p-5, 0x1.c1fb400000000p-8, 0x1.f024980000000p-4, 0x1.d2ccf80000000p-5, 0x1.447b200000000p-7, -0x1.982a000000000p-4, 0x1.064a900000000p-3, -0x1.dfbef80000000p-6, -0x1.79124c0000000p-4, -0x1.8be9440000000p-4, -0x1.5ec4300000000p-4, 0x1.c5a1800000000p-6, 0x1.9402f80000000p-5, -0x1.d6ff2a0000000p-4, 0x1.8a72480000000p-5, -0x1.5df5480000000p-4, 0x1.7bf5140000000p-4, -0x1.cebac80000000p-4, 0x1.ccf5280000000p-4, -0x1.c336d40000000p-4, -0x1.00ea840000000p-5, -0x1.932f2e0000000p-4, 0x1.1fbde00000000p-5, 0x1.0420400000000p-8, -0x1.fdfe040000000p-5, -0x1.43e3940000000p-4, -0x1.73c7f00000000p-4}
, {0x1.dac2700000000p-4, 0x1.a708500000000p-6, -0x1.3b89cc0000000p-5, 0x1.d108800000000p-4, -0x1.a979800000000p-7, -0x1.c9a9c40000000p-4, -0x1.25233a0000000p-4, 0x1.4f1d500000000p-6, -0x1.2349e40000000p-3, -0x1.fc438c0000000p-4, 0x1.7571e00000000p-4, 0x1.c2bd400000000p-8, 0x1.9a8e940000000p-4, -0x1.2058fa0000000p-4, 0x1.7ab9700000000p-6, 0x1.28d7000000000p-6, -0x1.141fd80000000p-4, 0x1.3bc4d40000000p-4, -0x1.8d2e580000000p-4, -0x1.6fb3b00000000p-5, -0x1.1af8480000000p-3, 0x1.70ae4c0000000p-4, -0x1.fa3b480000000p-5, 0x1.d9ad980000000p-5, -0x1.f4ad7e0000000p-4, -0x1.4a786e0000000p-4, 0x1.82b1d80000000p-5, -0x1.4ed9dc0000000p-4, 0x1.4f42e00000000p-4, 0x1.1d7d000000000p-8, -0x1.d12a640000000p-4, 0x1.4d07280000000p-5}
}
, {{-0x1.1f2fac0000000p-3, 0x1.e464000000000p-5, 0x1.7f68800000000p-8, -0x1.cb3de00000000p-7, -0x1.6276880000000p-4, -0x1.729eb40000000p-5, -0x1.a6ab180000000p-4, 0x1.4e47000000000p-4, 0x1.65e1540000000p-4, 0x1.a5b4a00000000p-5, 0x1.e53fc00000000p-8, 0x1.18cfb00000000p-4, -0x1.184d100000000p-5, 0x1.ac08740000000p-4, -0x1.a73fd40000000p-4, -0x1.7d23cc0000000p-4, 0x1.a6d2580000000p-5, -0x1.6c63c00000000p-4, 0x1.1a06100000000p-3, -0x1.0e757c0000000p-3, 0x1.6cc4680000000p-5, -0x1.ebd49e0000000p-4, -0x1.96f6880000000p-4, 0x1.5c483c0000000p-4, 0x1.1822280000000p-3, -0x1.0af7680000000p-3, 0x1.548f780000000p-4, -0x1.11166c0000000p-3, -0x1.bc59400000000p-7, 0x1.4113280000000p-4, 0x1.96d0000000000p-12, 0x1.df0f680000000p-4}
, {-0x1.c4af0c0000000p-5, -0x1.7d20300000000p-4, 0x1.73e1900000000p-6, 0x1.a24b400000000p-5, 0x1.1d52700000000p-3, -0x1.6bcf200000000p-6, 0x1.533e300000000p-4, -0x1.6126a00000000p-4, 0x1.2f07280000000p-5, -0x1.37800c0000000p-5, -0x1.757b4c0000000p-4, -0x1.52588a0000000p-4, 0x1.4e25bc0000000p-4, -0x1.a162940000000p-5, 0x1.1602140000000p-3, 0x1.f61dd80000000p-4, -0x1.338e200000000p-7, -0x1.7cbe000000000p-11, -0x1.21e3e00000000p-6, 0x1.ed0fa00000000p-4, -0x1.af79400000000p-4, -0x1.28b3c40000000p-4, 0x1.0ff14c0000000p-3, 0x1.8dc9400000000p-5, 0x1.fea9f00000000p-5, -0x1.e5ec6e0000000p-4, 0x1.9cfad40000000p-4, -0x1.f030b80000000p-6, 0x1.60e4ac0000000p-4, 0x1.164acc0000000p-3, -0x1.102e4a0000000p-3, 0x1.4cf70c0000000p-4}
, {0x1.b475c80000000p-4, 0x1.9c7dc40000000p-4, -0x1.a487680000000p-5, 0x1.1fddf80000000p-4, -0x1.471e900000000p-5, 0x1.fc73600000000p-4, 0x1.6345d80000000p-4, 0x1.2889900000000p-5, -0x1.08d4be0000000p-3, 0x1.7c81600000000p-4, 0x1.37cf0c0000000p-4, 0x1.f7ad980000000p-4, 0x1.4bc3400000000p-6, 0x1.60f72c0000000p-4, 0x1.08daa40000000p-3, 0x1.b670c80000000p-4, -0x1.aba9040000000p-4, 0x1.820bb80000000p-4, 0x1.7eb4d00000000p-5, -0x1.6c69b00000000p-6, -0x1.afc48c0000000p-4, 0x1.0f96880000000p-3, -0x1.d393600000000p-7, -0x1.0a5a700000000p-3, 0x1.7a4b300000000p-4, -0x1.478c020000000p-4, 0x1.39af700000000p-5, -0x1.84f1080000000p-5, -0x1.3d1e040000000p-5, 0x1.19e9000000000p-4, 0x1.1bfc800000000p-3, -0x1.0edcb40000000p-3}
}
, {{0x1.bc5d680000000p-4, -0x1.737dd20000000p-4, 0x1.d17e300000000p-4, -0x1.3bbc000000000p-6, -0x1.179a060000000p-3, -0x1.3d7d480000000p-5, 0x1.1460c40000000p-4, 0x1.16d3400000000p-6, 0x1.0259e40000000p-4, -0x1.190e620000000p-3, -0x1.0f781a0000000p-3, 0x1.a760740000000p-4, 0x1.9892140000000p-4, -0x1.0c58500000000p-3, -0x1.817f040000000p-4, 0x1.3728700000000p-4, 0x1.e295b00000000p-5, -0x1.de4d980000000p-5, -0x1.b3d6a00000000p-7, -0x1.042df00000000p-5, 0x1.9ca0e00000000p-7, -0x1.5337800000000p-7, 0x1.bfbc600000000p-4, 0x1.4d7d200000000p-7, -0x1.f40dc80000000p-5, 0x1.80a9c40000000p-4, -0x1.b3f4200000000p-7, 0x1.68dcb80000000p-5, 0x1.f3df980000000p-4, -0x1.615a4c0000000p-4, -0x1.2606600000000p-5, 0x1.a514680000000p-5}
, {0x1.2af4880000000p-5, 0x1.f4bf800000000p-9, -0x1.2079980000000p-3, -0x1.612c800000000p-8, -0x1.0c74900000000p-3, 0x1.be47d00000000p-5, -0x1.1608b60000000p-3, -0x1.78c28c0000000p-5, 0x1.d69e580000000p-4, -0x1.10c5940000000p-5, -0x1.02a53c0000000p-3, -0x1.6823580000000p-6, 0x1.e8a3180000000p-4, -0x1.4066c80000000p-4, 0x1.7149800000000p-6, 0x1.8ff7700000000p-4, 0x1.298b000000000p-9, 0x1.a9c6800000000p-8, -0x1.80152c0000000p-4, 0x1.7a2f000000000p-6, -0x1.1c21fa0000000p-4, -0x1.94cd920000000p-4, -0x1.abf8000000000p-10, 0x1.74a8e40000000p-4, -0x1.44eee40000000p-4, -0x1.f289bc0000000p-5, -0x1.e0a22e0000000p-4, -0x1.b2fc700000000p-5, 0x1.53efc80000000p-4, -0x1.ebfe260000000p-4, 0x1.a611140000000p-4, -0x1.3c5f340000000p-5}
, {0x1.4542f80000000p-5, 0x1.230f000000000p-8, 0x1.e69ab00000000p-4, 0x1.7a05e80000000p-4, 0x1.44b9280000000p-4, 0x1.4615a00000000p-6, 0x1.34d36c0000000p-4, -0x1.e96c420000000p-4, -0x1.7cd59a0000000p-4, -0x1.3694600000000p-6, -0x1.94a3e40000000p-4, -0x1.2416f00000000p-6, 0x1.2852100000000p-5, -0x1.09dc940000000p-4, 0x1.de00a80000000p-4, 0x1.3957b40000000p-4, 0x1.aaac2c0000000p-4, -0x1.2914cc0000000p-4, -0x1.3163d40000000p-4, -0x1.5797280000000p-6, 0x1.242bc00000000p-3, 0x1.1d51200000000p-7, 0x1.4bbd100000000p-6, 0x1.9552940000000p-4, 0x1.d1dac00000000p-6, 0x1.6525bc0000000p-4, 0x1.7d1a280000000p-5, -0x1.ae5d000000000p-6, -0x1.fda1a40000000p-5, 0x1.0d90fc0000000p-4, -0x1.45dc780000000p-5, 0x1.2556f00000000p-5}
}
, {{-0x1.1b43bc0000000p-3, 0x1.04f5200000000p-5, 0x1.0e50500000000p-3, 0x1.48d5b80000000p-5, 0x1.514a400000000p-8, 0x1.14e0280000000p-3, -0x1.ebb9680000000p-6, -0x1.3169220000000p-4, -0x1.2267800000000p-3, 0x1.0c2fac0000000p-3, 0x1.6a1c280000000p-5, -0x1.2e5c6a0000000p-4, 0x1.4ad8f40000000p-4, -0x1.09c0bc0000000p-3, 0x1.73d6fc0000000p-4, 0x1.b588f80000000p-5, 0x1.5a79d00000000p-5, 0x1.235d140000000p-4, 0x1.a69e400000000p-8, 0x1.8c2c600000000p-4, 0x1.2c77400000000p-6, 0x1.63d6a00000000p-5, -0x1.1b4dc00000000p-6, 0x1.9506c00000000p-6, -0x1.77a8bc0000000p-5, 0x1.17e6900000000p-3, -0x1.239a240000000p-3, 0x1.2003100000000p-6, -0x1.c2ccbc0000000p-4, 0x1.22d24c0000000p-4, 0x1.c4ddd00000000p-6, -0x1.9a94c80000000p-6}
, {0x1.21aaf80000000p-4, 0x1.79deec0000000p-4, 0x1.950e440000000p-4, -0x1.098c900000000p-6, -0x1.a55dec0000000p-4, -0x1.4d6a700000000p-6, -0x1.4ab7ba0000000p-4, 0x1.60be400000000p-8, -0x1.6457c20000000p-4, -0x1.650d440000000p-4, -0x1.6402ac0000000p-4, -0x1.a652400000000p-4, 0x1.2097680000000p-5, 0x1.4b74e00000000p-4, 0x1.c090000000000p-11, -0x1.224e540000000p-3, -0x1.c756e00000000p-4, 0x1.bce1c00000000p-8, -0x1.6e94180000000p-6, 0x1.7f45a80000000p-5, 0x1.77eb780000000p-5, 0x1.d169c00000000p-4, 0x1.de84600000000p-4, -0x1.4192220000000p-4, 0x1.75f0100000000p-4, -0x1.e2c1000000000p-5, 0x1.9cbfdc0000000p-4, 0x1.913d240000000p-4, 0x1.13e2080000000p-5, -0x1.d44ce80000000p-5, -0x1.ce23bc0000000p-5, 0x1.01c1a00000000p-6}
, {0x1.79b43c0000000p-4, -0x1.0aefb80000000p-3, 0x1.79f2800000000p-6, 0x1.038f280000000p-3, -0x1.3b1ac00000000p-8, -0x1.f84df00000000p-5, 0x1.8922080000000p-4, -0x1.bb5b300000000p-5, 0x1.8cb1d00000000p-4, 0x1.485f800000000p-9, 0x1.d2c3800000000p-5, 0x1.3787900000000p-6, 0x1.af02800000000p-8, -0x1.4ffc6a0000000p-4, 0x1.a057500000000p-6, 0x1.5848d00000000p-4, -0x1.0082d40000000p-3, 0x1.2642800000000p-4, -0x1.9b90f00000000p-5, 0x1.3b36c00000000p-7, 0x1.44b8080000000p-5, -0x1.d8de660000000p-4, -0x1.092cce0000000p-4, 0x1.f2ea780000000p-4, -0x1.39ce360000000p-4, 0x1.4b23f00000000p-4, 0x1.b44b380000000p-5, 0x1.fdfb000000000p-5, 0x1.080d900000000p-3, -0x1.cbf0400000000p-8, -0x1.b419000000000p-5, -0x1.bc4fc60000000p-4}
}
, {{-0x1.b02c420000000p-4, 0x1.f4d2580000000p-4, -0x1.341c020000000p-4, 0x1.a055800000000p-7, 0x1.4ca2000000000p-8, -0x1.c2a3400000000p-7, 0x1.d964000000000p-9, -0x1.443f7c0000000p-4, -0x1.1a41800000000p-9, -0x1.eb16740000000p-4, -0x1.2498d00000000p-4, 0x1.ab3e400000000p-4, 0x1.a84f080000000p-4, 0x1.6bf1780000000p-4, -0x1.3ba1e80000000p-5, 0x1.a886c00000000p-8, -0x1.3fe7e80000000p-4, 0x1.1438b80000000p-5, 0x1.143ff40000000p-4, -0x1.75ac000000000p-11, 0x1.19ac200000000p-7, 0x1.38da180000000p-5, 0x1.55fa000000000p-5, -0x1.5a16260000000p-4, 0x1.cd60b80000000p-5, -0x1.c508340000000p-4, -0x1.6f36e80000000p-4, -0x1.887fcc0000000p-5, -0x1.141d480000000p-4, -0x1.36ca540000000p-4, 0x1.0d6da00000000p-4, -0x1.408db00000000p-6}
, {-0x1.dae1800000000p-4, 0x1.52c0e00000000p-6, -0x1.0112960000000p-3, 0x1.1c2fd40000000p-4, 0x1.a936980000000p-4, 0x1.68dd000000000p-7, 0x1.84bdf00000000p-4, -0x1.6f16b80000000p-6, 0x1.a70d7c0000000p-4, 0x1.15b6e00000000p-7, 0x1.64526c0000000p-4, -0x1.1b8f1c0000000p-5, 0x1.0b78e00000000p-4, -0x1.c4bb780000000p-6, -0x1.67be000000000p-10, 0x1.0dafb00000000p-4, -0x1.8ee5d00000000p-4, 0x1.65fbb00000000p-5, 0x1.1a9fb00000000p-4, 0x1.992f400000000p-4, -0x1.b408780000000p-6, -0x1.be11180000000p-4, -0x1.6ab66a0000000p-4, 0x1.6e124c0000000p-4, -0x1.ffc02c0000000p-4, 0x1.d838680000000p-5, 0x1.1f19840000000p-4, 0x1.c657f00000000p-4, -0x1.8dd8ea0000000p-4, -0x1.fed6c80000000p-4, -0x1.0facd60000000p-4, 0x1.7f4b340000000p-4}
, {-0x1.0699340000000p-3, -0x1.8936c00000000p-5, -0x1.fee8c80000000p-4, -0x1.22398c0000000p-5, 0x1.4e16000000000p-5, -0x1.e9bdd00000000p-4, 0x1.3a76780000000p-5, -0x1.1237600000000p-5, -0x1.4b60600000000p-7, -0x1.9d5b800000000p-4, 0x1.0938400000000p-4, -0x1.1496800000000p-6, 0x1.fcaf000000000p-5, 0x1.c644000000000p-9, 0x1.b187800000000p-4, -0x1.62adec0000000p-5, 0x1.6d7c400000000p-8, -0x1.bcad6a0000000p-4, -0x1.20c2d80000000p-4, -0x1.7793940000000p-4, 0x1.46139c0000000p-4, 0x1.d987900000000p-4, -0x1.ccd1300000000p-5, -0x1.3a99960000000p-4, -0x1.d541c00000000p-8, 0x1.22c90c0000000p-3, 0x1.601fa80000000p-5, -0x1.fab7100000000p-6, 0x1.36a65c0000000p-4, 0x1.16b3800000000p-5, -0x1.d81e8a0000000p-4, 0x1.a061e80000000p-4}
}
, {{0x1.a865bc0000000p-4, 0x1.e6a1180000000p-5, 0x1.3728380000000p-5, 0x1.dab7b80000000p-4, 0x1.d1da800000000p-8, 0x1.187a500000000p-3, -0x1.39c9a00000000p-4, -0x1.0c32900000000p-3, -0x1.b5b8380000000p-4, -0x1.9e132c0000000p-4, 0x1.0992b00000000p-5, -0x1.21ae5a0000000p-3, -0x1.221c360000000p-3, 0x1.b7d7f80000000p-5, 0x1.32ff8c0000000p-4, 0x1.361dd80000000p-5, 0x1.12b69c0000000p-4, 0x1.d839d80000000p-4, 0x1.4cfd4c0000000p-4, -0x1.1de5400000000p-6, -0x1.8c29900000000p-4, -0x1.0b69bc0000000p-3, 0x1.131d040000000p-4, 0x1.895ddc0000000p-4, 0x1.f2d6a00000000p-7, 0x1.bc3e900000000p-4, 0x1.1e84400000000p-8, -0x1.6afa800000000p-7, -0x1.0080d20000000p-4, 0x1.7c30c40000000p-4, -0x1.df1f000000000p-10, -0x1.b33b700000000p-4}
, {-0x1.10e1400000000p-3, 0x1.ab1f100000000p-6, 0x1.4d7bec0000000p-4, 0x1.fa44800000000p-7, 0x1.105ee40000000p-3, -0x1.fab2540000000p-4, -0x1.0d11540000000p-3, -0x1.19974a0000000p-3, 0x1.0e06700000000p-4, 0x1.f162b00000000p-6, -0x1.767a6a0000000p-4, -0x1.3ed0000000000p-8, -0x1.44d5ec0000000p-4, 0x1.15bd400000000p-7, -0x1.313c640000000p-4, -0x1.9aafd00000000p-4, 0x1.4013380000000p-5, 0x1.16b82c0000000p-3, 0x1.09eb040000000p-3, 0x1.50d3900000000p-6, 0x1.5588900000000p-5, -0x1.f4a4380000000p-4, 0x1.fc9a580000000p-4, 0x1.1801800000000p-6, -0x1.86eab00000000p-4, -0x1.1931d00000000p-3, -0x1.c23ad00000000p-4, -0x1.f4f2c00000000p-8, -0x1.96aad40000000p-4, 0x1.5e81780000000p-4, -0x1.fe4ab80000000p-6, 0x1.6975800000000p-6}
, {0x1.8145a00000000p-5, 0x1.c622180000000p-4, 0x1.d724800000000p-4, 0x1.fb89a80000000p-4, -0x1.91e6440000000p-4, 0x1.44fc200000000p-7, 0x1.b0e5b00000000p-6, -0x1.d207020000000p-4, 0x1.ba20f00000000p-4, 0x1.32fa400000000p-5, 0x1.8732c00000000p-5, 0x1.aab48c0000000p-4, -0x1.5549800000000p-9, -0x1.e22ea40000000p-4, 0x1.42540c0000000p-4, -0x1.fa7acc0000000p-4, 0x1.c526f00000000p-4, 0x1.ffa4c80000000p-4, 0x1.d416680000000p-5, -0x1.87a1980000000p-5, 0x1.0a7a900000000p-5, 0x1.88ccec0000000p-4, -0x1.dd00200000000p-7, 0x1.48618c0000000p-4, -0x1.1cbee00000000p-5, -0x1.4e3a1e0000000p-4, 0x1.4986180000000p-5, 0x1.3fb9640000000p-4, 0x1.3650cc0000000p-4, -0x1.b42f5c0000000p-5, -0x1.d9f9a00000000p-7, -0x1.2aacfc0000000p-4}
}
, {{0x1.39db800000000p-7, -0x1.dbd6680000000p-4, 0x1.4113b40000000p-4, -0x1.f93dfa0000000p-4, -0x1.9dad600000000p-7, 0x1.a1fcf00000000p-5, -0x1.351ffe0000000p-4, 0x1.ba31b80000000p-4, -0x1.907a080000000p-5, 0x1.2abb600000000p-6, 0x1.1bec300000000p-3, 0x1.c33c400000000p-4, -0x1.6800b00000000p-4, 0x1.86b8f40000000p-4, 0x1.d5dc300000000p-4, -0x1.321b9c0000000p-5, 0x1.08fcec0000000p-3, 0x1.08d5600000000p-4, -0x1.1b64880000000p-4, 0x1.d54be00000000p-5, 0x1.f358480000000p-4, -0x1.5753f00000000p-4, -0x1.8515080000000p-6, 0x1.eaa1180000000p-4, 0x1.ae3f680000000p-5, 0x1.0f8cf00000000p-3, -0x1.10e11c0000000p-3, -0x1.a9a7580000000p-6, 0x1.42a3e00000000p-4, 0x1.805d200000000p-4, 0x1.f5f4680000000p-5, 0x1.08a9100000000p-6}
, {0x1.4fe4600000000p-4, 0x1.0f1fa00000000p-6, 0x1.d75e200000000p-6, -0x1.318df00000000p-5, -0x1.ecad3c0000000p-4, -0x1.5411da0000000p-4, 0x1.fb2ad00000000p-6, 0x1.0e53440000000p-3, -0x1.eec0f00000000p-5, -0x1.d020200000000p-7, 0x1.e5a0380000000p-4, -0x1.c723ec0000000p-5, -0x1.d787000000000p-7, 0x1.a1a4000000000p-9, 0x1.11c8a00000000p-3, -0x1.235ce40000000p-4, 0x1.94c4d00000000p-5, -0x1.757bbc0000000p-5, 0x1.49db180000000p-5, 0x1.91bc580000000p-5, 0x1.a576900000000p-5, -0x1.ab14880000000p-4, 0x1.3bab200000000p-5, -0x1.180ac00000000p-6, 0x1.4520300000000p-5, -0x1.4aa3840000000p-4, -0x1.886f800000000p-9, 0x1.6dc2040000000p-4, -0x1.5139c80000000p-4, -0x1.91f2640000000p-5, -0x1.c3dc180000000p-4, -0x1.269e800000000p-9}
, {-0x1.01b2a40000000p-3, -0x1.bcffc20000000p-4, -0x1.2e61600000000p-6, -0x1.a1656c0000000p-4, 0x1.1cea800000000p-3, -0x1.885e640000000p-4, 0x1.4d46800000000p-6, -0x1.df1ed00000000p-5, 0x1.72bc400000000p-8, 0x1.2922d80000000p-5, 0x1.ab02600000000p-4, 0x1.13ffa00000000p-3, -0x1.132b560000000p-3, -0x1.b37e080000000p-6, 0x1.96a6000000000p-9, -0x1.181ada0000000p-3, 0x1.be18180000000p-4, -0x1.9785f80000000p-4, -0x1.4dfe380000000p-4, -0x1.847d200000000p-5, 0x1.b8d1280000000p-4, -0x1.fd227c0000000p-4, -0x1.b2653c0000000p-4, -0x1.137cd00000000p-3, -0x1.b4c5600000000p-7, 0x1.ec5d700000000p-5, 0x1.1f87180000000p-5, 0x1.072db40000000p-3, 0x1.9ca7100000000p-5, -0x1.8b86ee0000000p-4, 0x1.5efe300000000p-6, -0x1.6898400000000p-5}
}
, {{0x1.0f5da80000000p-3, 0x1.fd33680000000p-4, 0x1.5f53f00000000p-6, -0x1.1c31dc0000000p-5, -0x1.b747100000000p-5, 0x1.1def640000000p-4, -0x1.100fd20000000p-4, -0x1.15ed4e0000000p-3, -0x1.1eb1320000000p-4, -0x1.084af00000000p-6, -0x1.9ef7d60000000p-4, -0x1.3a0da00000000p-6, 0x1.58093c0000000p-4, 0x1.9d00900000000p-5, -0x1.83f5ac0000000p-5, 0x1.dc1a080000000p-5, -0x1.d9dc2e0000000p-4, -0x1.2e33c00000000p-7, 0x1.20254c0000000p-3, -0x1.92da180000000p-4, -0x1.b4f77c0000000p-4, 0x1.11af8c0000000p-3, 0x1.702bd00000000p-4, -0x1.652ada0000000p-4, 0x1.88b3000000000p-6, 0x1.01f6700000000p-4, -0x1.4f72380000000p-6, 0x1.2202240000000p-3, 0x1.e0af200000000p-6, 0x1.2e2ab00000000p-6, -0x1.b905c00000000p-7, -0x1.fc2cd00000000p-5}
, {0x1.f4fc400000000p-4, -0x1.61d5c80000000p-4, -0x1.ff45980000000p-4, -0x1.ed7c800000000p-4, -0x1.4bba200000000p-4, 0x1.9d094c0000000p-4, 0x1.fc0aa80000000p-4, -0x1.aa966a0000000p-4, -0x1.6945200000000p-4, -0x1.1558a80000000p-3, 0x1.202cbc0000000p-3, 0x1.222d5c0000000p-3, -0x1.5d72ba0000000p-4, 0x1.6b77800000000p-7, 0x1.ce66c00000000p-4, 0x1.f49a680000000p-4, -0x1.473a580000000p-6, -0x1.85d3b80000000p-5, -0x1.14f8f80000000p-5, 0x1.d228380000000p-4, -0x1.1333180000000p-5, -0x1.3905680000000p-5, 0x1.369f180000000p-5, 0x1.3fc8f00000000p-6, -0x1.3b030e0000000p-4, 0x1.711b000000000p-10, 0x1.4e2e800000000p-9, 0x1.2d47f00000000p-5, -0x1.e6183c0000000p-4, -0x1.a524f20000000p-4, -0x1.6cb1b80000000p-4, 0x1.0ad1140000000p-4}
, {-0x1.e550ba0000000p-4, 0x1.c542300000000p-5, 0x1.767d300000000p-4, -0x1.0014f40000000p-3, -0x1.bf11a80000000p-4, -0x1.2e18e00000000p-7, 0x1.5f76d00000000p-6, -0x1.7ac6300000000p-5, -0x1.77d5e80000000p-4, 0x1.aad0200000000p-5, -0x1.687de80000000p-4, -0x1.94de400000000p-7, 0x1.2cdca00000000p-4, -0x1.e829000000000p-10, 0x1.343c7c0000000p-4, 0x1.fe8c900000000p-6, 0x1.1ab3d80000000p-3, 0x1.101f680000000p-3, 0x1.4bad500000000p-4, -0x1.10a2c60000000p-3, 0x1.3b3cb80000000p-4, 0x1.6d36e00000000p-4, -0x1.b2be380000000p-5, -0x1.0e38a00000000p-3, -0x1.24b7720000000p-4, -0x1.cbb3f80000000p-4, -0x1.2b78360000000p-4, 0x1.21f1f40000000p-3, 0x1.bf3f300000000p-6, -0x1.694b420000000p-4, -0x1.da6e380000000p-5, -0x1.2c98460000000p-4}
}
, {{0x1.4d63280000000p-4, 0x1.904ee80000000p-4, -0x1.7103480000000p-5, -0x1.41a1380000000p-6, -0x1.1006140000000p-3, 0x1.c28b000000000p-8, -0x1.0b30780000000p-3, 0x1.9e73700000000p-5, 0x1.db37b80000000p-5, 0x1.5889c00000000p-8, 0x1.242c300000000p-3, 0x1.f994700000000p-4, -0x1.39d0580000000p-5, -0x1.5263540000000p-4, -0x1.f4bb860000000p-4, 0x1.f71e300000000p-6, 0x1.4b16300000000p-4, -0x1.5834100000000p-6, -0x1.fda8c80000000p-6, -0x1.66e98c0000000p-5, 0x1.8b43700000000p-6, 0x1.0189980000000p-3, 0x1.ba71780000000p-4, -0x1.721f960000000p-4, 0x1.d7eaf80000000p-4, 0x1.4f0b700000000p-6, 0x1.128b280000000p-4, -0x1.5f2bc80000000p-4, -0x1.8a46b00000000p-5, -0x1.2420240000000p-4, 0x1.785f200000000p-7, -0x1.e6c0500000000p-4}
, {0x1.6191e00000000p-5, 0x1.05e5f40000000p-4, -0x1.4989e00000000p-7, 0x1.0566580000000p-3, -0x1.ec1a680000000p-6, 0x1.c254080000000p-4, -0x1.9d22680000000p-5, -0x1.818e580000000p-6, 0x1.f1c3400000000p-6, -0x1.3896b20000000p-4, -0x1.fcdda00000000p-5, -0x1.4191d00000000p-4, 0x1.0b58900000000p-3, -0x1.d0e3600000000p-4, -0x1.df0b380000000p-4, -0x1.0029d20000000p-4, -0x1.1dda100000000p-3, 0x1.14047c0000000p-4, 0x1.0ad2a00000000p-7, -0x1.7873f40000000p-4, 0x1.8ef7380000000p-5, -0x1.e80bac0000000p-5, -0x1.f50bc00000000p-6, -0x1.14b6e00000000p-3, -0x1.61ef000000000p-4, 0x1.464d300000000p-6, 0x1.1af6400000000p-3, -0x1.25507a0000000p-4, 0x1.d380800000000p-6, -0x1.02d6380000000p-3, -0x1.729a180000000p-6, -0x1.791b500000000p-4}
, {0x1.0ac7c40000000p-3, -0x1.06eeec0000000p-4, -0x1.8e6df00000000p-5, -0x1.6916b00000000p-6, 0x1.93e2c00000000p-7, -0x1.88afa80000000p-6, -0x1.771d540000000p-4, 0x1.0f10140000000p-3, 0x1.6c34a80000000p-5, 0x1.5bdeb80000000p-4, 0x1.388b800000000p-6, 0x1.1d88300000000p-4, 0x1.0224a00000000p-7, 0x1.d6ac800000000p-5, -0x1.08915c0000000p-4, -0x1.1d890e0000000p-4, 0x1.abe1f00000000p-6, 0x1.1635000000000p-5, -0x1.10944e0000000p-3, 0x1.175d500000000p-3, 0x1.31da000000000p-5, 0x1.0873600000000p-3, -0x1.adee160000000p-4, 0x1.f6dc300000000p-4, 0x1.8496c00000000p-5, 0x1.28ab000000000p-10, 0x1.6d7f600000000p-6, -0x1.0babe60000000p-3, -0x1.74eccc0000000p-4, -0x1.137ffe0000000p-4, 0x1.267fd80000000p-5, -0x1.2c94980000000p-4}
}
, {{-0x1.8c65080000000p-4, 0x1.62b1000000000p-10, 0x1.cc25a00000000p-7, -0x1.d996f80000000p-4, 0x1.d2da880000000p-4, 0x1.ed48a80000000p-5, 0x1.25796c0000000p-3, 0x1.2d2b100000000p-5, -0x1.b510000000000p-9, 0x1.af7d880000000p-4, -0x1.5db9d80000000p-5, -0x1.5ae0940000000p-5, 0x1.7e78080000000p-5, -0x1.235c880000000p-3, -0x1.f317000000000p-8, -0x1.25ee960000000p-3, 0x1.c10d600000000p-7, 0x1.1fe28c0000000p-4, 0x1.80ed800000000p-8, -0x1.fd50180000000p-5, 0x1.2f07280000000p-4, 0x1.d993a00000000p-6, -0x1.d961180000000p-5, 0x1.2cc4a00000000p-7, 0x1.2e2f600000000p-4, 0x1.c698d00000000p-4, -0x1.9b706c0000000p-4, 0x1.b127900000000p-4, 0x1.228ed80000000p-3, -0x1.3e49e00000000p-5, -0x1.a4a5900000000p-4, 0x1.d007900000000p-5}
, {0x1.84a46c0000000p-4, -0x1.888c480000000p-6, -0x1.493fb00000000p-4, 0x1.1550000000000p-4, 0x1.be47c00000000p-8, 0x1.cb94c00000000p-6, -0x1.0a4ada0000000p-4, 0x1.ed84f80000000p-4, 0x1.53c7000000000p-6, -0x1.4239ee0000000p-4, 0x1.418d500000000p-6, 0x1.f64a400000000p-4, 0x1.c912580000000p-5, 0x1.2035500000000p-5, 0x1.224bf00000000p-6, -0x1.39395c0000000p-5, -0x1.0db9ca0000000p-3, 0x1.488cd00000000p-4, -0x1.e2a9500000000p-6, 0x1.2af1e00000000p-5, -0x1.04e58a0000000p-3, -0x1.fbc1dc0000000p-5, -0x1.4faeb00000000p-6, 0x1.0dc6800000000p-5, -0x1.3b55000000000p-8, 0x1.13e8580000000p-4, 0x1.14e6580000000p-4, -0x1.4db8520000000p-4, -0x1.00eb0e0000000p-4, -0x1.e136a20000000p-4, 0x1.b75a400000000p-4, 0x1.db77600000000p-4}
, {-0x1.09cfe00000000p-5, 0x1.48f7c00000000p-6, 0x1.5aa4540000000p-4, 0x1.3e71000000000p-7, 0x1.563d400000000p-5, -0x1.164efe0000000p-3, -0x1.03201a0000000p-4, -0x1.23a3940000000p-4, 0x1.2ef0000000000p-10, -0x1.bc77080000000p-4, -0x1.11f67e0000000p-3, 0x1.817c500000000p-6, -0x1.1de7b80000000p-3, 0x1.3211940000000p-4, 0x1.4661200000000p-6, 0x1.eb28080000000p-4, 0x1.1ac1a00000000p-7, -0x1.35c1c20000000p-4, 0x1.8b76600000000p-4, 0x1.2b013c0000000p-4, -0x1.410ce80000000p-5, 0x1.408fe00000000p-4, 0x1.ee38080000000p-4, 0x1.636e600000000p-6, -0x1.2310c00000000p-4, 0x1.65ba640000000p-4, 0x1.4a06f40000000p-4, 0x1.0190d40000000p-3, -0x1.7395880000000p-5, 0x1.4330000000000p-14, 0x1.07d9c80000000p-3, -0x1.04d5280000000p-4}
}
, {{0x1.4511b00000000p-6, 0x1.9e6b640000000p-4, 0x1.3432900000000p-4, -0x1.f8505c0000000p-4, 0x1.f962800000000p-4, -0x1.086c0c0000000p-3, -0x1.06cd1c0000000p-3, -0x1.9d06000000000p-10, 0x1.a748100000000p-4, 0x1.cdf8b80000000p-4, 0x1.2421a80000000p-3, -0x1.a560600000000p-7, -0x1.9e1ac00000000p-8, 0x1.b262880000000p-4, -0x1.9f31ac0000000p-4, -0x1.7e3cc00000000p-7, 0x1.dff6280000000p-4, -0x1.a676f20000000p-4, -0x1.78043c0000000p-5, -0x1.1f29de0000000p-4, -0x1.2447ba0000000p-3, -0x1.c500a00000000p-7, 0x1.721e940000000p-4, 0x1.88e6a40000000p-4, -0x1.b308800000000p-7, -0x1.dfad900000000p-5, -0x1.6610880000000p-5, 0x1.37ac700000000p-5, -0x1.1e8a020000000p-4, 0x1.0f56000000000p-9, -0x1.1c66780000000p-5, 0x1.1f84840000000p-4}
, {-0x1.7e68180000000p-6, -0x1.0453e60000000p-3, -0x1.1d49200000000p-7, 0x1.0d17600000000p-7, 0x1.9e6d180000000p-5, 0x1.9a96a00000000p-4, 0x1.c415800000000p-4, -0x1.251abc0000000p-3, -0x1.50d4ec0000000p-5, -0x1.951a400000000p-4, -0x1.de77e00000000p-6, 0x1.002ee00000000p-5, -0x1.2e37f80000000p-5, 0x1.438fb80000000p-4, 0x1.64fe000000000p-4, 0x1.79a96c0000000p-4, -0x1.fd661c0000000p-5, 0x1.a45e000000000p-11, 0x1.0c1f1c0000000p-4, 0x1.8cd0c00000000p-8, 0x1.8755580000000p-4, 0x1.f981700000000p-6, -0x1.6d9d340000000p-5, 0x1.b749c00000000p-4, -0x1.d834b80000000p-6, -0x1.b8fa000000000p-10, 0x1.51e4dc0000000p-4, 0x1.d4ef100000000p-4, 0x1.e945380000000p-4, -0x1.d5f1940000000p-4, -0x1.66a6900000000p-4, 0x1.2eb8a00000000p-7}
, {0x1.ff79400000000p-7, 0x1.75aac00000000p-8, 0x1.025f380000000p-3, -0x1.1cde0c0000000p-4, -0x1.01c7600000000p-7, 0x1.faff980000000p-5, -0x1.cade480000000p-5, -0x1.3bdb200000000p-5, -0x1.fa68ae0000000p-4, -0x1.052fcc0000000p-3, -0x1.99f6280000000p-6, -0x1.c4a9200000000p-4, -0x1.122bbc0000000p-3, 0x1.b670a00000000p-6, 0x1.899b6c0000000p-4, 0x1.f52da00000000p-4, -0x1.e123d40000000p-4, 0x1.228a200000000p-4, 0x1.9f626c0000000p-4, -0x1.a1d0fc0000000p-5, -0x1.b662760000000p-4, 0x1.dac1700000000p-4, -0x1.9915620000000p-4, 0x1.654f980000000p-4, 0x1.dcfd400000000p-4, -0x1.86acc00000000p-8, 0x1.f210980000000p-4, 0x1.5b30080000000p-5, -0x1.35ec900000000p-5, 0x1.0b42800000000p-3, -0x1.978ac00000000p-8, -0x1.42c1360000000p-4}
}
, {{-0x1.22d1b60000000p-3, -0x1.c1f17c0000000p-5, 0x1.5983600000000p-6, -0x1.f009980000000p-5, 0x1.20504c0000000p-3, 0x1.5398f80000000p-5, 0x1.da3e580000000p-4, -0x1.6ab4780000000p-4, -0x1.48605c0000000p-4, 0x1.fe1db00000000p-6, -0x1.8b53ba0000000p-4, -0x1.5ebabc0000000p-4, 0x1.f0d8d00000000p-4, 0x1.1b2d300000000p-5, 0x1.0717500000000p-3, 0x1.8cb2dc0000000p-4, 0x1.e9d3b80000000p-4, 0x1.7e9b400000000p-5, -0x1.3cdf280000000p-6, -0x1.8cff400000000p-5, -0x1.77e5740000000p-4, -0x1.3c9fe60000000p-4, -0x1.bee31c0000000p-4, 0x1.1335200000000p-5, -0x1.5713a00000000p-7, 0x1.75a1a00000000p-6, 0x1.549acc0000000p-4, -0x1.d854280000000p-4, 0x1.69b4500000000p-6, 0x1.189b5c0000000p-4, 0x1.ee3b900000000p-5, 0x1.01877c0000000p-3}
, {0x1.2630480000000p-4, 0x1.5c0dc00000000p-6, -0x1.820a200000000p-5, -0x1.047f180000000p-4, 0x1.723da80000000p-5, -0x1.1736a00000000p-5, -0x1.2586600000000p-7, -0x1.cd7a100000000p-4, 0x1.58c0000000000p-9, -0x1.842e360000000p-4, 0x1.6ce2b00000000p-4, 0x1.eab9480000000p-4, -0x1.97b69c0000000p-4, 0x1.07db600000000p-7, 0x1.61fa200000000p-4, -0x1.ec7c200000000p-5, -0x1.5b17c20000000p-4, 0x1.9ba5640000000p-4, 0x1.11da340000000p-4, -0x1.5826400000000p-7, 0x1.8ce13c0000000p-4, -0x1.c1fcac0000000p-4, -0x1.02d2ea0000000p-4, -0x1.2f1e540000000p-5, 0x1.faad600000000p-4, 0x1.653f000000000p-10, -0x1.fcf6d00000000p-5, 0x1.11ba3c0000000p-3, 0x1.162ff40000000p-3, -0x1.20c8200000000p-6, 0x1.195cc00000000p-6, 0x1.957b500000000p-4}
, {-0x1.f27b280000000p-5, -0x1.b89bc40000000p-4, -0x1.f281a60000000p-4, -0x1.3d2d220000000p-4, -0x1.0f00040000000p-3, -0x1.f1fb980000000p-4, -0x1.5418ec0000000p-4, -0x1.170c6a0000000p-4, -0x1.cedd980000000p-4, 0x1.1d55e00000000p-3, 0x1.0ab6ac0000000p-3, -0x1.26c9000000000p-6, -0x1.40866e0000000p-4, -0x1.39cbde0000000p-4, 0x1.f00ea00000000p-6, -0x1.fbbb840000000p-4, 0x1.6cf1ec0000000p-4, 0x1.6371c00000000p-4, -0x1.9f1ba80000000p-6, 0x1.153b3c0000000p-3, 0x1.822ea00000000p-7, 0x1.21c4140000000p-3, 0x1.a065d80000000p-4, 0x1.0ecb000000000p-7, -0x1.8d72d40000000p-4, -0x1.05d4e20000000p-3, -0x1.0c7d680000000p-5, 0x1.2d25700000000p-4, 0x1.af1c940000000p-4, 0x1.4881740000000p-4, 0x1.8b6f000000000p-6, -0x1.792ab80000000p-4}
}
, {{-0x1.b66b3c0000000p-4, -0x1.75fe340000000p-5, -0x1.e5ce840000000p-5, -0x1.0983c00000000p-3, 0x1.ac5afc0000000p-4, 0x1.767dc00000000p-6, 0x1.0beee40000000p-3, -0x1.36697c0000000p-5, 0x1.4934540000000p-4, -0x1.c19d440000000p-4, 0x1.6ba8f00000000p-4, -0x1.645f140000000p-4, 0x1.f4b8000000000p-4, -0x1.a766280000000p-5, -0x1.139f200000000p-5, 0x1.6ac8a40000000p-4, -0x1.067c000000000p-12, 0x1.57172c0000000p-4, -0x1.bf15680000000p-5, 0x1.daa3d80000000p-5, -0x1.6498280000000p-6, 0x1.02a0f00000000p-5, 0x1.0edbc00000000p-8, 0x1.16ad280000000p-3, -0x1.552fee0000000p-4, -0x1.c519100000000p-4, -0x1.148c880000000p-3, -0x1.7fa4a00000000p-4, -0x1.bff1180000000p-4, 0x1.14cbdc0000000p-4, 0x1.5228c00000000p-6, 0x1.ff08200000000p-7}
, {-0x1.fce5f80000000p-4, 0x1.1811ac0000000p-3, 0x1.0f2c440000000p-3, 0x1.a5fc600000000p-4, -0x1.c660a20000000p-4, 0x1.3c23540000000p-4, -0x1.eb75c80000000p-5, 0x1.bae5000000000p-9, -0x1.3ae1dc0000000p-5, -0x1.dd477c0000000p-5, -0x1.bf0d680000000p-5, 0x1.54c3300000000p-6, -0x1.4460cc0000000p-5, 0x1.0af6e80000000p-5, 0x1.3c85980000000p-4, -0x1.12d6480000000p-5, 0x1.9e3c740000000p-4, -0x1.160b220000000p-4, -0x1.8599c40000000p-5, -0x1.901f400000000p-5, -0x1.0e0d060000000p-3, -0x1.7a1e400000000p-6, 0x1.56af100000000p-6, 0x1.33db100000000p-5, -0x1.ac2fc20000000p-4, -0x1.2812f00000000p-4, 0x1.1643040000000p-3, -0x1.f679480000000p-4, 0x1.4e727c0000000p-4, 0x1.23cd500000000p-3, -0x1.4b3f420000000p-4, -0x1.9dbde60000000p-4}
, {-0x1.47fd900000000p-5, 0x1.1815880000000p-3, -0x1.1b81140000000p-3, -0x1.7de7c80000000p-6, 0x1.b3bb400000000p-7, -0x1.350e100000000p-5, 0x1.0d97e00000000p-4, 0x1.ac613c0000000p-4, 0x1.1225f80000000p-3, -0x1.0524040000000p-3, 0x1.1b03b00000000p-6, -0x1.1351c80000000p-3, -0x1.5ba5180000000p-4, 0x1.78b8bc0000000p-4, -0x1.aead440000000p-5, -0x1.10b19a0000000p-3, -0x1.5e03500000000p-5, -0x1.b088100000000p-4, -0x1.0de1800000000p-6, 0x1.2705900000000p-4, 0x1.fa6fb80000000p-4, 0x1.26f0dc0000000p-4, 0x1.09e9b80000000p-5, 0x1.8f281c0000000p-4, -0x1.9a0f800000000p-7, 0x1.018c3c0000000p-3, 0x1.8321f00000000p-5, -0x1.4a56800000000p-6, -0x1.1a29980000000p-3, 0x1.252ba00000000p-6, 0x1.d365d00000000p-4, 0x1.eb0cb80000000p-5}
}
, {{0x1.cb69480000000p-4, 0x1.399b500000000p-6, 0x1.6914200000000p-4, -0x1.e533d20000000p-4, 0x1.7c3fb80000000p-5, 0x1.513bb00000000p-4, -0x1.ac3e600000000p-4, 0x1.2438300000000p-3, -0x1.9612b00000000p-4, -0x1.9cbf300000000p-6, -0x1.5193800000000p-8, 0x1.0b1e180000000p-4, 0x1.5f56280000000p-5, 0x1.fa91880000000p-4, 0x1.795ec80000000p-5, 0x1.28b7b40000000p-4, 0x1.0804600000000p-3, 0x1.d984a80000000p-4, 0x1.2350580000000p-5, -0x1.635e000000000p-10, -0x1.1b517c0000000p-3, 0x1.55d8700000000p-4, 0x1.bc34380000000p-4, 0x1.0118b00000000p-5, -0x1.e619800000000p-8, 0x1.b6b5900000000p-4, 0x1.0e9b0c0000000p-3, -0x1.7d0e4a0000000p-4, 0x1.0007300000000p-3, 0x1.744aec0000000p-4, 0x1.e41e000000000p-8, 0x1.a1e9ac0000000p-4}
, {-0x1.6113640000000p-4, 0x1.c02f880000000p-4, 0x1.9989540000000p-4, 0x1.680f900000000p-6, 0x1.b398b00000000p-5, 0x1.bd54c00000000p-5, 0x1.007b740000000p-3, -0x1.6515980000000p-6, -0x1.f10f6c0000000p-5, -0x1.0707760000000p-3, 0x1.1afec00000000p-6, 0x1.0042000000000p-6, -0x1.b0855a0000000p-4, -0x1.963bc00000000p-7, -0x1.e985c40000000p-5, -0x1.41bec00000000p-7, -0x1.1b12560000000p-3, -0x1.93d0700000000p-6, -0x1.de6e940000000p-5, 0x1.6da7600000000p-6, 0x1.bd35000000000p-7, 0x1.9a9e840000000p-4, 0x1.11c4400000000p-7, -0x1.ec48c00000000p-6, -0x1.f5b6580000000p-5, 0x1.742cb80000000p-5, 0x1.0758800000000p-3, 0x1.4c6a480000000p-4, -0x1.51f1aa0000000p-4, 0x1.d5c3300000000p-4, -0x1.26e8320000000p-3, 0x1.f8efa80000000p-5}
, {0x1.78bf800000000p-5, -0x1.a2c1f80000000p-6, -0x1.04a5180000000p-4, 0x1.27e9200000000p-6, 0x1.7d9e3c0000000p-4, 0x1.a71ca40000000p-4, 0x1.2061ac0000000p-4, 0x1.fda5b80000000p-4, -0x1.1e69dc0000000p-4, -0x1.1d35500000000p-6, 0x1.194fac0000000p-3, -0x1.5448980000000p-4, -0x1.1ce6d60000000p-3, -0x1.44e91e0000000p-4, -0x1.c72f120000000p-4, 0x1.a731800000000p-8, -0x1.1ddb500000000p-6, 0x1.b8c6300000000p-5, -0x1.24b74c0000000p-4, 0x1.ec1a080000000p-4, 0x1.1f3f240000000p-3, -0x1.172ec00000000p-3, -0x1.1d08d80000000p-5, -0x1.2589040000000p-5, -0x1.c96e280000000p-5, -0x1.0ccabc0000000p-3, -0x1.33515a0000000p-4, 0x1.92d3100000000p-4, -0x1.66ac200000000p-4, 0x1.abbf2c0000000p-4, 0x1.c407480000000p-4, -0x1.1fbf540000000p-3}
}
, {{0x1.20c6e00000000p-3, 0x1.0264d40000000p-4, 0x1.3bf0380000000p-5, 0x1.fcfdf00000000p-4, 0x1.1a1f600000000p-4, -0x1.ab453e0000000p-4, 0x1.aae6440000000p-4, 0x1.320cc00000000p-6, 0x1.63e3300000000p-6, -0x1.0816660000000p-3, -0x1.60a2800000000p-6, 0x1.45fe180000000p-5, 0x1.de59900000000p-4, 0x1.d108000000000p-4, 0x1.e92ff80000000p-5, -0x1.0e307e0000000p-3, 0x1.ea43100000000p-4, -0x1.59dc340000000p-5, 0x1.2174a80000000p-5, -0x1.5b1f980000000p-6, -0x1.c7e0940000000p-5, -0x1.38faa00000000p-7, -0x1.1c063a0000000p-4, 0x1.fd9db80000000p-4, 0x1.29fb200000000p-6, -0x1.1a31800000000p-6, -0x1.4a9c020000000p-4, 0x1.a9dbdc0000000p-4, -0x1.a097580000000p-5, 0x1.a93f8c0000000p-4, 0x1.7f32a80000000p-5, -0x1.08b6200000000p-4}
, {0x1.9215a00000000p-6, -0x1.f96ed80000000p-6, 0x1.fb60b80000000p-5, 0x1.6a13300000000p-5, 0x1.1693bc0000000p-3, -0x1.0d61600000000p-7, -0x1.059d960000000p-3, -0x1.a6c6e80000000p-4, 0x1.c986480000000p-4, 0x1.3609800000000p-5, -0x1.4f87000000000p-5, 0x1.11be440000000p-4, 0x1.a4e6740000000p-4, 0x1.e244800000000p-9, 0x1.8259d80000000p-4, -0x1.7ebaa40000000p-5, 0x1.6c9f900000000p-6, 0x1.2451780000000p-3, 0x1.709d7c0000000p-4, 0x1.f803f80000000p-4, -0x1.067c9c0000000p-3, -0x1.3544cc0000000p-4, -0x1.ff732a0000000p-4, 0x1.5d21400000000p-8, 0x1.f587f00000000p-5, 0x1.5feca00000000p-7, -0x1.14bb800000000p-6, -0x1.10b88c0000000p-3, 0x1.2705a80000000p-5, 0x1.027f9c0000000p-3, -0x1.26fa8c0000000p-3, -0x1.03e2620000000p-3}
, {0x1.ae5a300000000p-5, 0x1.2613a00000000p-7, 0x1.d6e9000000000p-7, -0x1.1b50340000000p-3, 0x1.6133fc0000000p-4, 0x1.7918400000000p-4, -0x1.23600c0000000p-3, -0x1.cb66880000000p-6, -0x1.7820da0000000p-4, 0x1.6c0c180000000p-5, -0x1.869f380000000p-6, 0x1.e882300000000p-5, -0x1.47646c0000000p-4, -0x1.7f9f480000000p-6, 0x1.b2c3b80000000p-4, 0x1.eaefb80000000p-4, -0x1.06f9c80000000p-5, -0x1.a56c180000000p-6, -0x1.7548800000000p-9, 0x1.3377800000000p-9, -0x1.039e980000000p-3, -0x1.2e49c20000000p-4, -0x1.213a800000000p-4, 0x1.b84f200000000p-5, 0x1.d66c000000000p-4, -0x1.56aa080000000p-6, 0x1.50d1e00000000p-5, 0x1.05e2a00000000p-6, 0x1.0bfb800000000p-6, 0x1.0db8b40000000p-4, -0x1.15fa640000000p-3, -0x1.085c300000000p-3}
}
, {{-0x1.7345200000000p-5, 0x1.4fe7a00000000p-5, 0x1.1754e80000000p-4, -0x1.8ab7680000000p-5, 0x1.cec1680000000p-5, -0x1.a721ea0000000p-4, 0x1.00dd400000000p-5, -0x1.096c560000000p-3, -0x1.01cb280000000p-3, 0x1.89a3a00000000p-7, 0x1.274e800000000p-4, 0x1.37c2880000000p-5, 0x1.b744000000000p-7, 0x1.625e640000000p-4, 0x1.5b09000000000p-8, -0x1.32ee400000000p-7, 0x1.1fd46c0000000p-3, 0x1.cee2a80000000p-4, -0x1.0afb040000000p-3, 0x1.34c2480000000p-5, -0x1.078e400000000p-8, -0x1.d9c4800000000p-8, -0x1.7e85800000000p-4, 0x1.6ed53c0000000p-4, -0x1.cd68280000000p-4, 0x1.c694500000000p-5, 0x1.60a1000000000p-7, 0x1.9867c00000000p-8, -0x1.b35e840000000p-5, 0x1.bc76100000000p-4, -0x1.003fa40000000p-3, -0x1.6ef5e40000000p-5}
, {0x1.642a680000000p-4, -0x1.8a29f80000000p-6, -0x1.1032960000000p-3, 0x1.4ad1ac0000000p-4, -0x1.8535840000000p-4, 0x1.9deae00000000p-7, -0x1.9ad1400000000p-6, 0x1.045d100000000p-5, 0x1.236f380000000p-5, 0x1.aee0780000000p-4, -0x1.e32f740000000p-4, -0x1.9038080000000p-4, -0x1.54ec2a0000000p-4, 0x1.9277880000000p-5, 0x1.122bc80000000p-3, 0x1.0155040000000p-3, 0x1.0fb4900000000p-6, 0x1.88a2200000000p-4, 0x1.7dc2d00000000p-6, 0x1.f37f800000000p-4, 0x1.cfbfd00000000p-5, 0x1.d279180000000p-4, -0x1.511ee40000000p-4, 0x1.aa8ebc0000000p-4, 0x1.fcb6e00000000p-6, 0x1.63c0ac0000000p-4, -0x1.0c86d80000000p-3, -0x1.1ecc5e0000000p-3, -0x1.0b98bc0000000p-4, -0x1.a17b9e0000000p-4, 0x1.2258f40000000p-3, 0x1.9ff1b80000000p-4}
, {-0x1.237e840000000p-5, -0x1.b54bc80000000p-4, -0x1.4399ca0000000p-4, -0x1.1bf11e0000000p-4, -0x1.8226a00000000p-6, -0x1.3136000000000p-9, 0x1.1dc1d00000000p-5, -0x1.d3c11c0000000p-5, 0x1.23994c0000000p-4, 0x1.0656cc0000000p-3, -0x1.0278d00000000p-6, 0x1.07ffd00000000p-5, 0x1.ce25f80000000p-4, 0x1.5e54380000000p-5, 0x1.f9a2c00000000p-7, -0x1.4212d00000000p-5, 0x1.952a6c0000000p-4, 0x1.b15ee80000000p-5, -0x1.9e476c0000000p-5, 0x1.d7acc00000000p-4, -0x1.131f800000000p-8, -0x1.5fe5960000000p-4, -0x1.7053780000000p-5, -0x1.6f7fbc0000000p-4, -0x1.0e77fe0000000p-3, -0x1.ad5dec0000000p-4, 0x1.868c300000000p-5, -0x1.d931360000000p-4, -0x1.a3a9000000000p-10, 0x1.a63f280000000p-4, -0x1.8302400000000p-5, 0x1.b480680000000p-5}
}
, {{0x1.5369e80000000p-5, 0x1.ad1fb00000000p-4, 0x1.e711380000000p-4, -0x1.0208d00000000p-5, 0x1.1d40980000000p-4, -0x1.038ef40000000p-5, -0x1.57105c0000000p-5, -0x1.1d11f00000000p-3, -0x1.42fdf00000000p-4, -0x1.345d360000000p-4, 0x1.3ebd100000000p-5, 0x1.749d400000000p-6, 0x1.12f4b40000000p-4, -0x1.409e100000000p-5, 0x1.9698f80000000p-4, -0x1.d19fd00000000p-5, -0x1.1fe3fc0000000p-5, 0x1.ca91480000000p-5, -0x1.236eb80000000p-3, -0x1.962b580000000p-6, 0x1.643bb80000000p-5, -0x1.bddf3c0000000p-4, -0x1.003c3a0000000p-4, -0x1.ccaeb00000000p-4, 0x1.0e46b40000000p-4, -0x1.f3281a0000000p-4, 0x1.b6ac800000000p-4, -0x1.1154380000000p-3, -0x1.ecc24e0000000p-4, -0x1.1f34940000000p-4, 0x1.d769880000000p-4, 0x1.91721c0000000p-4}
, {0x1.ae14c40000000p-4, -0x1.2687000000000p-7, -0x1.79e3540000000p-4, 0x1.41a2c40000000p-4, 0x1.17bdf40000000p-4, -0x1.6a85b80000000p-6, 0x1.b902c80000000p-4, 0x1.0704080000000p-3, -0x1.0fd9a80000000p-5, -0x1.c285300000000p-4, 0x1.022db40000000p-3, 0x1.c2fe200000000p-7, -0x1.25483c0000000p-3, -0x1.2d93400000000p-7, 0x1.f2c2e00000000p-5, 0x1.0b61ec0000000p-4, 0x1.72a6e00000000p-5, 0x1.ba3c280000000p-4, 0x1.2c1a900000000p-4, -0x1.14b3240000000p-4, 0x1.7103a00000000p-5, 0x1.10d8280000000p-3, 0x1.ab5d680000000p-5, 0x1.181bfc0000000p-3, -0x1.3807000000000p-6, 0x1.7b0b440000000p-4, 0x1.20eab00000000p-4, -0x1.ac9a640000000p-4, -0x1.09a4680000000p-3, -0x1.89e9a80000000p-4, 0x1.17cc000000000p-11, -0x1.5710400000000p-8}
, {0x1.903e480000000p-4, -0x1.c341000000000p-5, -0x1.0b8f1c0000000p-5, 0x1.7b77400000000p-6, 0x1.2662f40000000p-3, 0x1.3d3b880000000p-4, 0x1.bdba100000000p-6, 0x1.58e7140000000p-4, 0x1.2990640000000p-4, -0x1.74ee060000000p-4, -0x1.c690c40000000p-4, -0x1.4ad2940000000p-5, 0x1.28f8fc0000000p-4, 0x1.db8cd00000000p-6, 0x1.f826f80000000p-4, -0x1.e98ed40000000p-4, -0x1.1071c40000000p-3, 0x1.6d79200000000p-4, 0x1.447d280000000p-4, -0x1.3160d60000000p-4, 0x1.1b33ec0000000p-3, 0x1.ace2740000000p-4, 0x1.758f000000000p-5, 0x1.14d1c00000000p-7, -0x1.d225480000000p-4, -0x1.f9e3800000000p-9, 0x1.f7e8f80000000p-5, 0x1.2636840000000p-4, -0x1.c00f780000000p-5, 0x1.928aec0000000p-4, -0x1.e954f40000000p-4, 0x1.9ac9940000000p-4}
}
, {{0x1.08f80c0000000p-4, 0x1.4c93ac0000000p-4, 0x1.81f6a00000000p-7, 0x1.a1fe640000000p-4, 0x1.30133c0000000p-4, 0x1.7f8b1c0000000p-4, -0x1.edd0d40000000p-4, 0x1.9523800000000p-6, -0x1.ea24a00000000p-7, 0x1.f6ec400000000p-6, 0x1.9046480000000p-4, -0x1.23069c0000000p-4, -0x1.2623ca0000000p-4, 0x1.a1b6800000000p-5, -0x1.1606fc0000000p-4, -0x1.47fcc00000000p-8, 0x1.ac70280000000p-5, -0x1.4db6e00000000p-4, 0x1.3c23280000000p-5, 0x1.b9b1d80000000p-4, -0x1.1a4ba80000000p-3, 0x1.8dfbfc0000000p-4, -0x1.08999e0000000p-3, -0x1.7bbec00000000p-8, 0x1.bf2ca80000000p-5, 0x1.ab85000000000p-6, 0x1.1848800000000p-5, 0x1.7ce7e00000000p-6, -0x1.b2f15a0000000p-4, 0x1.ab97d80000000p-4, 0x1.54c6c00000000p-6, 0x1.4645f40000000p-4}
, {-0x1.0560fc0000000p-3, -0x1.0496040000000p-5, 0x1.e69d080000000p-4, 0x1.32dbb80000000p-4, 0x1.5734700000000p-6, 0x1.2f02800000000p-7, 0x1.ade7e00000000p-4, 0x1.a970cc0000000p-4, -0x1.69b1900000000p-5, 0x1.ec64200000000p-4, 0x1.41df000000000p-6, 0x1.a0b6b40000000p-4, 0x1.785b100000000p-4, 0x1.35463c0000000p-4, 0x1.e255900000000p-4, -0x1.0966be0000000p-3, -0x1.81e8d80000000p-6, -0x1.9865cc0000000p-4, -0x1.de1c180000000p-5, -0x1.0834740000000p-3, 0x1.7426280000000p-5, 0x1.6c8c780000000p-5, -0x1.c35bd80000000p-5, 0x1.6a5f800000000p-6, 0x1.161ef00000000p-3, 0x1.99369c0000000p-4, -0x1.cee1f80000000p-4, -0x1.a0eac00000000p-8, -0x1.0d8e6c0000000p-3, -0x1.7a60b80000000p-5, 0x1.972ad00000000p-5, 0x1.1945940000000p-3}
, {0x1.4d3bb00000000p-6, 0x1.19c2fc0000000p-3, -0x1.6c72100000000p-6, -0x1.882f140000000p-4, -0x1.dc9e6c0000000p-4, -0x1.00a4540000000p-3, -0x1.7151b00000000p-4, 0x1.9fd4f40000000p-4, -0x1.0cbb940000000p-4, 0x1.68a2380000000p-5, 0x1.1c76640000000p-3, -0x1.5229200000000p-5, -0x1.9f95e80000000p-6, 0x1.14b2180000000p-4, -0x1.696b000000000p-7, -0x1.0d15520000000p-3, -0x1.7eb8ec0000000p-5, -0x1.93eee00000000p-7, -0x1.3f90380000000p-6, 0x1.88abe00000000p-7, 0x1.6d82c00000000p-6, -0x1.aa1f3a0000000p-4, -0x1.bc60600000000p-6, -0x1.6392ec0000000p-5, -0x1.19195e0000000p-4, -0x1.7d42800000000p-4, 0x1.26689c0000000p-4, -0x1.0305540000000p-5, 0x1.8df5580000000p-5, -0x1.0369960000000p-3, 0x1.e884900000000p-4, -0x1.f5043c0000000p-4}
}
, {{0x1.8c90000000000p-8, 0x1.8344180000000p-4, 0x1.47ee400000000p-8, -0x1.c0e25a0000000p-4, -0x1.6b38340000000p-4, 0x1.0b8fe40000000p-3, -0x1.222c400000000p-3, 0x1.aec7400000000p-6, 0x1.6b1ab00000000p-6, -0x1.0ff1980000000p-3, -0x1.bed42c0000000p-4, -0x1.4d80d00000000p-6, 0x1.fb07400000000p-5, 0x1.1a67dc0000000p-3, 0x1.0851300000000p-3, 0x1.0b49d40000000p-3, -0x1.6d4ab80000000p-6, 0x1.2e08c00000000p-7, 0x1.1c3c500000000p-4, 0x1.026aec0000000p-3, -0x1.421d900000000p-5, -0x1.1c89040000000p-3, 0x1.6bd3a00000000p-7, 0x1.43a4b80000000p-4, 0x1.82d7600000000p-5, -0x1.e2bbfc0000000p-4, -0x1.1675780000000p-3, -0x1.ba7d900000000p-6, -0x1.cfb9c00000000p-6, -0x1.da4bc80000000p-6, -0x1.91fad80000000p-5, 0x1.5a1e200000000p-4}
, {0x1.08102c0000000p-4, 0x1.8e9a4c0000000p-4, -0x1.050cc20000000p-4, -0x1.d31f060000000p-4, 0x1.6042f00000000p-4, 0x1.5b78c00000000p-4, -0x1.8c54800000000p-5, 0x1.08d2580000000p-5, -0x1.ab84180000000p-6, -0x1.c165680000000p-6, -0x1.b2441c0000000p-5, -0x1.0758b00000000p-4, 0x1.39bc800000000p-6, -0x1.b5feb00000000p-4, -0x1.286b000000000p-8, 0x1.9d3d000000000p-10, -0x1.8fc47e0000000p-4, 0x1.34fb000000000p-7, 0x1.0e1adc0000000p-4, -0x1.c3528c0000000p-5, 0x1.3cea680000000p-5, -0x1.d2fa120000000p-4, 0x1.55c99c0000000p-4, -0x1.74da6e0000000p-4, 0x1.80df900000000p-5, -0x1.e649200000000p-4, -0x1.f2cb800000000p-8, 0x1.26cc2c0000000p-3, -0x1.8c376c0000000p-5, -0x1.a372d80000000p-5, 0x1.b74b600000000p-5, 0x1.6049640000000p-4}
, {0x1.d93c980000000p-5, -0x1.bd8b280000000p-6, -0x1.1c71cc0000000p-4, 0x1.d1df800000000p-4, 0x1.1b557c0000000p-3, -0x1.6aef800000000p-7, -0x1.3787b00000000p-6, 0x1.205f880000000p-5, 0x1.ee6a300000000p-6, -0x1.2c44860000000p-4, -0x1.c9f89c0000000p-4, 0x1.5a4a500000000p-5, -0x1.4691300000000p-5, 0x1.3618a80000000p-4, -0x1.144fe00000000p-5, -0x1.e4c0180000000p-4, -0x1.d738200000000p-6, 0x1.83a0480000000p-5, 0x1.9019240000000p-4, 0x1.9b6b100000000p-5, -0x1.2553b00000000p-5, -0x1.ed331a0000000p-4, 0x1.b8fc800000000p-7, -0x1.d47b340000000p-4, -0x1.e890640000000p-5, -0x1.6f95d00000000p-4, 0x1.734f400000000p-5, 0x1.9b93400000000p-5, 0x1.99d5d40000000p-4, -0x1.9d26740000000p-4, 0x1.f007100000000p-4, 0x1.bddab00000000p-5}
}
, {{0x1.6632400000000p-6, 0x1.62e4280000000p-4, 0x1.50ee780000000p-5, -0x1.bbd7d40000000p-5, -0x1.b075540000000p-4, 0x1.f695f00000000p-4, -0x1.156c800000000p-5, 0x1.a1a2540000000p-4, 0x1.e98a980000000p-5, -0x1.9ede800000000p-8, 0x1.cfa2700000000p-5, 0x1.9eeab40000000p-4, 0x1.df6e580000000p-5, 0x1.63e8e00000000p-4, -0x1.25637a0000000p-3, -0x1.06580c0000000p-5, -0x1.f525980000000p-6, 0x1.1854700000000p-3, 0x1.31d3940000000p-4, 0x1.e275b80000000p-5, 0x1.89cd100000000p-5, 0x1.ba0b780000000p-5, -0x1.9985e40000000p-4, 0x1.4d13000000000p-6, -0x1.0483700000000p-6, 0x1.a74ac00000000p-6, -0x1.0cd3000000000p-6, 0x1.7bddb40000000p-4, 0x1.d02a000000000p-10, -0x1.d1c14c0000000p-5, 0x1.5406f80000000p-5, -0x1.bfac9c0000000p-4}
, {0x1.da16b80000000p-4, 0x1.4e24b00000000p-4, -0x1.ee33100000000p-6, -0x1.0233920000000p-4, 0x1.9aac400000000p-5, -0x1.1872f80000000p-3, 0x1.ebcd600000000p-7, 0x1.6c87400000000p-4, 0x1.09c7200000000p-3, 0x1.0d419c0000000p-3, 0x1.cb74d00000000p-4, -0x1.5868280000000p-6, 0x1.d1fbe80000000p-5, -0x1.b555fe0000000p-4, 0x1.e0e5400000000p-6, -0x1.c1fc640000000p-4, -0x1.3ceab40000000p-4, -0x1.ab2c500000000p-4, 0x1.0be5280000000p-3, -0x1.8e7d920000000p-4, -0x1.9040f40000000p-5, 0x1.6716100000000p-5, -0x1.abc57c0000000p-4, -0x1.98d0e40000000p-4, -0x1.9609c80000000p-4, 0x1.c8cb680000000p-4, -0x1.33b8b00000000p-6, -0x1.7935000000000p-6, 0x1.3748700000000p-4, -0x1.c6563c0000000p-5, -0x1.33bae60000000p-4, 0x1.8979e00000000p-5}
, {0x1.0d773c0000000p-3, -0x1.9314840000000p-5, -0x1.9609060000000p-4, 0x1.afa0940000000p-4, 0x1.21d0b40000000p-3, 0x1.86018c0000000p-4, -0x1.02d42e0000000p-3, -0x1.643ed40000000p-4, -0x1.da79b00000000p-4, -0x1.674f500000000p-6, 0x1.3fb5f00000000p-4, 0x1.07e5980000000p-3, 0x1.21142c0000000p-4, 0x1.c4bfc00000000p-4, 0x1.2c2b380000000p-5, -0x1.8ac0240000000p-4, -0x1.09efae0000000p-3, 0x1.061d3c0000000p-4, -0x1.24be400000000p-3, -0x1.f1b8000000000p-7, -0x1.4d73f20000000p-4, -0x1.6381ac0000000p-5, 0x1.66f7d80000000p-5, 0x1.5a5d800000000p-9, 0x1.ff6e800000000p-5, 0x1.eb96a00000000p-4, 0x1.235ef40000000p-4, -0x1.bd75000000000p-5, -0x1.b4a55c0000000p-4, -0x1.3d5fde0000000p-4, 0x1.152c840000000p-3, 0x1.14b6800000000p-8}
}
, {{0x1.19e88c0000000p-3, 0x1.fe51000000000p-5, 0x1.cdaed00000000p-5, 0x1.686d840000000p-4, 0x1.3700880000000p-5, 0x1.2d47780000000p-4, 0x1.a8dde40000000p-4, -0x1.001a4e0000000p-4, 0x1.06c55c0000000p-4, -0x1.3542340000000p-4, 0x1.3a47100000000p-6, 0x1.55aad80000000p-5, 0x1.997ca00000000p-7, -0x1.e95f3c0000000p-5, 0x1.8d10700000000p-4, 0x1.a5b5f80000000p-4, -0x1.38a5340000000p-5, -0x1.9c92980000000p-6, -0x1.4bfdd80000000p-6, 0x1.230c080000000p-4, -0x1.15fcce0000000p-4, 0x1.197afc0000000p-3, -0x1.0133b20000000p-3, -0x1.b5ce040000000p-4, -0x1.4521560000000p-4, 0x1.03ba580000000p-3, -0x1.2692680000000p-3, -0x1.a233240000000p-4, 0x1.3826000000000p-11, 0x1.2576780000000p-4, -0x1.6410c80000000p-5, -0x1.d85ff40000000p-5}
, {0x1.a820000000000p-5, 0x1.348b900000000p-5, -0x1.382fee0000000p-4, 0x1.0c207c0000000p-3, 0x1.97f4b40000000p-4, 0x1.26fb800000000p-4, 0x1.a142740000000p-4, -0x1.da35680000000p-6, -0x1.5d04e40000000p-4, 0x1.9ecce40000000p-4, -0x1.6f7a2c0000000p-4, 0x1.7420600000000p-5, 0x1.7a9d580000000p-4, 0x1.1435840000000p-3, -0x1.0072f00000000p-5, -0x1.b2aa7c0000000p-4, 0x1.fbb3680000000p-4, 0x1.34fbc00000000p-8, 0x1.8d36d40000000p-4, -0x1.9f86a00000000p-6, 0x1.f163700000000p-4, 0x1.3e13c00000000p-4, 0x1.5fcad80000000p-5, 0x1.cc1a280000000p-4, 0x1.15de9c0000000p-4, 0x1.f2bab00000000p-4, -0x1.7aefcc0000000p-4, 0x1.5bf1600000000p-4, -0x1.8b73280000000p-4, 0x1.ab77d80000000p-5, -0x1.81ae540000000p-4, 0x1.b050580000000p-5}
, {0x1.54d5300000000p-6, 0x1.0114c00000000p-6, 0x1.fcfe000000000p-11, 0x1.bb78c80000000p-5, -0x1.0102380000000p-3, -0x1.ba20300000000p-6, -0x1.57cb000000000p-6, 0x1.8598240000000p-4, -0x1.6a2eb40000000p-5, -0x1.c218d00000000p-6, -0x1.9314f20000000p-4, 0x1.a12df80000000p-5, 0x1.57323c0000000p-4, -0x1.b286f00000000p-4, 0x1.63cf680000000p-5, 0x1.c5f3080000000p-4, 0x1.1ac6900000000p-4, 0x1.036e2c0000000p-3, -0x1.c79e000000000p-4, -0x1.cbbc000000000p-11, 0x1.1877ec0000000p-3, 0x1.189d800000000p-6, 0x1.791f700000000p-5, 0x1.4f76140000000p-4, -0x1.be5bf00000000p-5, 0x1.dcdd480000000p-4, 0x1.8359580000000p-5, -0x1.ea4b300000000p-4, 0x1.3318e00000000p-7, -0x1.d349800000000p-7, -0x1.9f6b3c0000000p-4, 0x1.aad9f80000000p-4}
}
, {{0x1.ca4c380000000p-5, 0x1.64495c0000000p-4, -0x1.1f4f900000000p-6, 0x1.23fb600000000p-5, -0x1.91af200000000p-6, 0x1.60e1b40000000p-4, 0x1.a688900000000p-4, 0x1.08df9c0000000p-3, -0x1.0641800000000p-7, -0x1.10a5880000000p-4, 0x1.ac35d80000000p-5, 0x1.fd16200000000p-6, -0x1.7e732a0000000p-4, 0x1.a0bf8c0000000p-4, -0x1.4207bc0000000p-4, -0x1.9cd79c0000000p-4, -0x1.0591160000000p-3, -0x1.19366a0000000p-3, -0x1.7e95ea0000000p-4, -0x1.5983100000000p-6, -0x1.03dee20000000p-4, 0x1.d2b2580000000p-4, -0x1.2dd5c00000000p-5, -0x1.6efc880000000p-4, 0x1.75c6900000000p-4, 0x1.1aba540000000p-3, -0x1.3ab0900000000p-5, 0x1.cfe8800000000p-4, 0x1.2962d80000000p-5, -0x1.e9b9020000000p-4, 0x1.11bf5c0000000p-3, -0x1.43c8e00000000p-6}
, {0x1.0575500000000p-5, 0x1.528c800000000p-9, 0x1.3eb5080000000p-5, -0x1.d874980000000p-5, 0x1.f5da500000000p-6, -0x1.dcf25c0000000p-4, 0x1.dcfaf80000000p-5, -0x1.fccb180000000p-6, -0x1.2ec6c80000000p-5, 0x1.0148000000000p-9, 0x1.602c600000000p-4, -0x1.30c6d40000000p-5, 0x1.51e0d00000000p-5, 0x1.2118000000000p-11, -0x1.e737dc0000000p-5, -0x1.9d0c140000000p-4, -0x1.0ad0400000000p-4, 0x1.0d05c40000000p-3, -0x1.255a200000000p-6, 0x1.abb1000000000p-10, 0x1.5863680000000p-4, -0x1.ec488e0000000p-4, -0x1.4ba99a0000000p-4, -0x1.7ca4e40000000p-4, -0x1.f92ab40000000p-5, -0x1.86932c0000000p-5, -0x1.850d1c0000000p-5, -0x1.80c1140000000p-4, -0x1.49e1800000000p-8, -0x1.c648400000000p-8, -0x1.14291a0000000p-3, 0x1.5230bc0000000p-4}
, {-0x1.17e98a0000000p-3, 0x1.1b2eac0000000p-3, 0x1.143ea80000000p-4, 0x1.84a6b00000000p-5, 0x1.0cac640000000p-3, 0x1.5f8fd00000000p-6, -0x1.2bf2500000000p-6, -0x1.b108000000000p-10, 0x1.be37d00000000p-4, 0x1.6e04000000000p-8, 0x1.55bb780000000p-4, -0x1.aa19180000000p-4, 0x1.3385500000000p-5, 0x1.1984e80000000p-4, 0x1.442d300000000p-4, 0x1.06d4c00000000p-7, -0x1.12b5840000000p-5, -0x1.3e0e600000000p-4, -0x1.bd69d00000000p-5, -0x1.fd29000000000p-10, 0x1.25371c0000000p-3, -0x1.1c76e60000000p-3, -0x1.0806120000000p-4, -0x1.6b5e6c0000000p-4, 0x1.f4b4200000000p-5, -0x1.16f3e00000000p-5, 0x1.28f81c0000000p-4, -0x1.219b400000000p-7, -0x1.d965c00000000p-4, -0x1.5f30300000000p-5, -0x1.9a30b00000000p-5, 0x1.b4b7200000000p-4}
}
, {{-0x1.c6c9dc0000000p-5, -0x1.5dfb800000000p-8, -0x1.aca2f80000000p-5, 0x1.0e31c00000000p-6, -0x1.22bb240000000p-3, -0x1.1d7f500000000p-3, -0x1.622da60000000p-4, 0x1.f628000000000p-7, 0x1.7c5de80000000p-4, 0x1.5bd4a00000000p-4, -0x1.8db4540000000p-4, 0x1.c437400000000p-6, 0x1.2c39200000000p-6, 0x1.6452980000000p-5, 0x1.8031d00000000p-4, 0x1.589b7c0000000p-4, 0x1.01fec40000000p-3, -0x1.3b32660000000p-4, 0x1.6fe7280000000p-5, -0x1.79cc200000000p-5, -0x1.f83dd00000000p-4, 0x1.3030e40000000p-4, -0x1.deb3480000000p-4, 0x1.9b7dd80000000p-4, -0x1.9a72340000000p-5, -0x1.4a7ca80000000p-4, -0x1.490f840000000p-4, -0x1.9dae180000000p-4, 0x1.16f1540000000p-3, -0x1.e0fde80000000p-4, -0x1.ac1b800000000p-6, -0x1.1162d40000000p-4}
, {-0x1.7ba4fc0000000p-5, 0x1.b936380000000p-5, 0x1.9004680000000p-5, 0x1.228bb00000000p-5, 0x1.0fa7e00000000p-3, 0x1.ae1a800000000p-4, 0x1.df75c00000000p-7, 0x1.0961400000000p-6, -0x1.b615d20000000p-4, 0x1.a0a4700000000p-6, -0x1.2907580000000p-5, 0x1.530a080000000p-4, 0x1.1f13700000000p-3, -0x1.adf3000000000p-9, 0x1.2a78580000000p-4, 0x1.1332a80000000p-5, -0x1.03beee0000000p-3, 0x1.7dae5c0000000p-4, 0x1.2796200000000p-3, 0x1.acb5e00000000p-4, 0x1.a954e80000000p-4, 0x1.dfe0b00000000p-4, 0x1.0092440000000p-3, 0x1.b946a00000000p-4, -0x1.a6f2b00000000p-5, 0x1.714f680000000p-5, -0x1.06a83c0000000p-4, -0x1.1915ba0000000p-4, -0x1.fc05580000000p-5, -0x1.abb6a00000000p-6, 0x1.dca4e80000000p-4, -0x1.3158ca0000000p-4}
, {-0x1.4c5dc00000000p-8, 0x1.b8e9580000000p-4, 0x1.04ab2c0000000p-3, -0x1.e0faf40000000p-4, 0x1.20a8940000000p-4, -0x1.39aa600000000p-5, 0x1.0b0ca00000000p-5, -0x1.1c0a7c0000000p-4, 0x1.e8f6700000000p-6, -0x1.873bb00000000p-5, -0x1.8db7b80000000p-4, -0x1.1533e80000000p-3, -0x1.010e2a0000000p-4, -0x1.22ac260000000p-3, -0x1.76a22c0000000p-4, -0x1.8ebb900000000p-4, 0x1.e7a3a00000000p-4, -0x1.d0bbf00000000p-4, 0x1.337fb00000000p-5, 0x1.2381300000000p-3, -0x1.77147e0000000p-4, -0x1.d6f8b40000000p-4, 0x1.a4ee880000000p-5, -0x1.a314580000000p-4, -0x1.91f7560000000p-4, 0x1.be93100000000p-5, 0x1.2170a80000000p-3, 0x1.80aad00000000p-5, -0x1.051c340000000p-3, -0x1.9bf6560000000p-4, -0x1.f1989c0000000p-4, 0x1.2047980000000p-3}
}
, {{0x1.0b692c0000000p-3, 0x1.c8ce780000000p-4, -0x1.f00c4c0000000p-4, -0x1.b0fbe40000000p-5, -0x1.e9d7b80000000p-4, 0x1.1eb7180000000p-3, -0x1.49e0000000000p-13, 0x1.6e3cc80000000p-5, 0x1.f3cec00000000p-8, -0x1.47ab8c0000000p-4, 0x1.b418c00000000p-7, 0x1.94a45c0000000p-4, -0x1.80828a0000000p-4, -0x1.5bb2a00000000p-7, 0x1.f67a000000000p-4, 0x1.6064c80000000p-4, 0x1.338c900000000p-6, 0x1.ec9b080000000p-4, -0x1.7739a00000000p-4, -0x1.0a5a700000000p-4, -0x1.5a97e00000000p-4, -0x1.94a8a80000000p-6, 0x1.214d080000000p-3, -0x1.752c680000000p-6, 0x1.2795f80000000p-5, 0x1.bc2e280000000p-4, -0x1.3d9ac80000000p-6, -0x1.061b440000000p-3, -0x1.e5e7580000000p-5, -0x1.6ba8a40000000p-5, -0x1.455b820000000p-4, 0x1.9648100000000p-4}
, {-0x1.b9e1ac0000000p-5, 0x1.7433540000000p-4, -0x1.c1cee80000000p-6, -0x1.fb81740000000p-4, 0x1.4455340000000p-4, -0x1.7d7d120000000p-4, 0x1.38c1740000000p-4, 0x1.684e040000000p-4, 0x1.244a600000000p-3, -0x1.91b2e40000000p-4, -0x1.33b7a00000000p-5, 0x1.847aa00000000p-7, 0x1.1847b40000000p-3, -0x1.a601180000000p-4, -0x1.1109fa0000000p-3, 0x1.3e0f100000000p-4, -0x1.f65ef00000000p-4, 0x1.547ffc0000000p-4, 0x1.269c940000000p-3, -0x1.d691000000000p-6, 0x1.0c1d200000000p-7, 0x1.2032b40000000p-3, 0x1.5b33140000000p-4, -0x1.34c29c0000000p-4, -0x1.3113540000000p-5, -0x1.158bae0000000p-3, -0x1.cf5c000000000p-4, 0x1.d53c000000000p-4, -0x1.0c361e0000000p-3, 0x1.d8e3900000000p-4, -0x1.bc19e80000000p-4, -0x1.e9d5280000000p-4}
, {-0x1.9752fa0000000p-4, 0x1.3f4b000000000p-9, -0x1.2447940000000p-5, 0x1.bad5300000000p-4, 0x1.00692c0000000p-3, -0x1.e621e00000000p-7, -0x1.2386c00000000p-6, -0x1.234dfc0000000p-3, 0x1.a0c9600000000p-6, -0x1.0d1d300000000p-4, 0x1.934be80000000p-4, -0x1.5b433c0000000p-4, -0x1.db45900000000p-5, 0x1.9f0b100000000p-5, 0x1.09cfd00000000p-5, -0x1.11dafa0000000p-3, 0x1.78eb600000000p-7, -0x1.6f4fa00000000p-7, 0x1.ec08000000000p-13, 0x1.ffc5600000000p-4, -0x1.89690c0000000p-4, 0x1.2581a80000000p-5, 0x1.19ca300000000p-3, -0x1.0535700000000p-6, -0x1.30ce0a0000000p-4, -0x1.e651640000000p-4, 0x1.c077f00000000p-4, -0x1.ff75840000000p-5, -0x1.f5989c0000000p-5, 0x1.bb9b100000000p-6, -0x1.8fd3240000000p-4, -0x1.0569880000000p-5}
}
, {{0x1.3047980000000p-4, -0x1.3c5fc80000000p-5, 0x1.788efc0000000p-4, -0x1.74cef40000000p-4, 0x1.1d5e800000000p-9, 0x1.93c9b80000000p-5, -0x1.e95d5c0000000p-4, -0x1.af4c9c0000000p-5, 0x1.ec19780000000p-4, 0x1.ad47180000000p-5, 0x1.1da1280000000p-4, 0x1.984aa00000000p-6, -0x1.7e4cd00000000p-4, -0x1.4c2db40000000p-4, 0x1.6725600000000p-4, 0x1.a627500000000p-6, 0x1.209c080000000p-3, 0x1.7738100000000p-5, 0x1.02e3f00000000p-3, 0x1.4ae0080000000p-4, 0x1.0171300000000p-5, -0x1.3449e80000000p-4, -0x1.d775300000000p-5, -0x1.e2c6b40000000p-5, 0x1.35fe500000000p-5, 0x1.3894700000000p-6, -0x1.fb728c0000000p-5, -0x1.e978a00000000p-6, -0x1.0f46ec0000000p-3, -0x1.d7fc4c0000000p-4, 0x1.c657180000000p-4, -0x1.7988000000000p-5}
, {0x1.ff18a80000000p-4, 0x1.078d600000000p-3, 0x1.e206600000000p-5, -0x1.ddf1380000000p-5, -0x1.88b1040000000p-5, 0x1.17e0880000000p-5, -0x1.647a780000000p-4, -0x1.ab62200000000p-7, -0x1.d4dc180000000p-5, 0x1.97f9400000000p-7, -0x1.6046c00000000p-8, 0x1.1b32f40000000p-4, 0x1.b094540000000p-4, -0x1.3d77000000000p-5, -0x1.f3a1080000000p-6, 0x1.06cb300000000p-6, -0x1.a070580000000p-4, -0x1.c230d20000000p-4, -0x1.1a96dc0000000p-5, -0x1.ebb75a0000000p-4, 0x1.d97e800000000p-4, -0x1.49782a0000000p-4, 0x1.6863800000000p-5, -0x1.49c6080000000p-6, -0x1.7c73600000000p-6, -0x1.0d67aa0000000p-4, 0x1.ba5f000000000p-7, -0x1.8785440000000p-4, 0x1.f9ba500000000p-6, -0x1.705e300000000p-4, 0x1.08c9540000000p-4, -0x1.bb1f540000000p-4}
, {0x1.0167b40000000p-3, -0x1.7f91740000000p-4, 0x1.12a4400000000p-3, 0x1.8fce000000000p-7, -0x1.099fd00000000p-5, -0x1.5cb4620000000p-4, 0x1.51e1180000000p-4, 0x1.b2bf800000000p-6, 0x1.24db800000000p-6, -0x1.08d05c0000000p-4, 0x1.364d140000000p-4, -0x1.2235740000000p-3, 0x1.8c5ef80000000p-5, 0x1.b5b0d00000000p-4, -0x1.834b060000000p-4, -0x1.26f74c0000000p-3, -0x1.23945a0000000p-3, 0x1.1cbfc80000000p-3, -0x1.5950560000000p-4, -0x1.30c2480000000p-5, -0x1.2a50200000000p-7, -0x1.3099240000000p-5, 0x1.6a35bc0000000p-4, 0x1.df86300000000p-4, 0x1.2647000000000p-6, -0x1.1b3e400000000p-7, -0x1.840c300000000p-5, 0x1.3553c00000000p-6, -0x1.d247980000000p-5, -0x1.f4df080000000p-4, -0x1.3b748a0000000p-4, 0x1.2d52c00000000p-5}
}
, {{-0x1.7edf740000000p-4, -0x1.406d7c0000000p-5, 0x1.cfbca00000000p-5, -0x1.ffb5a20000000p-4, -0x1.19e5a40000000p-4, -0x1.03c16a0000000p-3, 0x1.c056300000000p-5, -0x1.eeb98a0000000p-4, -0x1.5262dc0000000p-5, 0x1.ba1e180000000p-5, 0x1.22f54c0000000p-4, 0x1.0ec40c0000000p-3, 0x1.2118000000000p-3, 0x1.cf21e00000000p-4, -0x1.cc18000000000p-9, 0x1.f628380000000p-4, 0x1.b8c1f00000000p-4, -0x1.8d423a0000000p-4, 0x1.733e100000000p-6, -0x1.ee3fb00000000p-5, 0x1.6ea3780000000p-4, -0x1.1435b20000000p-3, 0x1.92e6b00000000p-5, -0x1.2747100000000p-3, -0x1.62f7c00000000p-7, 0x1.d532380000000p-4, 0x1.81fb200000000p-7, -0x1.18fd600000000p-6, 0x1.9424fc0000000p-4, -0x1.15b8f00000000p-5, -0x1.744d200000000p-5, 0x1.90332c0000000p-4}
, {0x1.81d0000000000p-8, 0x1.82c9000000000p-6, -0x1.a847200000000p-7, 0x1.2d59780000000p-4, 0x1.843d940000000p-4, 0x1.eb21180000000p-4, 0x1.df15680000000p-4, -0x1.0b226a0000000p-3, 0x1.6c62400000000p-5, 0x1.dc87700000000p-5, -0x1.a5815c0000000p-4, -0x1.f079d00000000p-5, 0x1.7db8000000000p-9, 0x1.7c73f40000000p-4, -0x1.1797b40000000p-5, 0x1.5b66b00000000p-5, 0x1.8a3ca80000000p-4, 0x1.e970900000000p-6, 0x1.1411c80000000p-3, 0x1.5458940000000p-4, 0x1.bf9e000000000p-6, -0x1.d944320000000p-4, 0x1.a6a4000000000p-7, -0x1.f14ccc0000000p-4, 0x1.e271180000000p-5, -0x1.8094820000000p-4, 0x1.874a480000000p-5, 0x1.05dd400000000p-7, -0x1.d5d7280000000p-5, -0x1.8a668c0000000p-4, -0x1.95b13c0000000p-5, 0x1.20a2200000000p-7}
, {0x1.b02cc00000000p-5, 0x1.866f600000000p-4, 0x1.1606700000000p-5, 0x1.9033600000000p-6, 0x1.b711c00000000p-7, 0x1.0c2f300000000p-3, 0x1.b288480000000p-4, -0x1.a418e00000000p-4, 0x1.e5d0080000000p-5, -0x1.57af580000000p-4, -0x1.648bd40000000p-5, 0x1.bf6d980000000p-4, -0x1.0ad02e0000000p-4, 0x1.02cf7c0000000p-3, 0x1.4b7c880000000p-4, 0x1.7ced900000000p-4, 0x1.3758480000000p-5, -0x1.07f1b40000000p-3, -0x1.e44dda0000000p-4, -0x1.ff43800000000p-8, -0x1.d3833a0000000p-4, -0x1.3a26420000000p-4, -0x1.7b766e0000000p-4, 0x1.c910000000000p-9, -0x1.25c43c0000000p-4, -0x1.8ea5e00000000p-4, -0x1.10a4040000000p-4, -0x1.baa9600000000p-4, -0x1.15f7a40000000p-5, -0x1.d4ee900000000p-5, 0x1.fae4600000000p-7, 0x1.6e73c80000000p-5}
}
, {{0x1.352e080000000p-5, 0x1.f6d9800000000p-4, -0x1.307cac0000000p-4, -0x1.46cae00000000p-7, -0x1.8de0900000000p-6, 0x1.d169000000000p-8, 0x1.35f4680000000p-5, -0x1.8a5f800000000p-6, -0x1.d786600000000p-7, -0x1.00fd060000000p-4, 0x1.18c4ac0000000p-4, 0x1.95f6fc0000000p-4, 0x1.7c86600000000p-5, 0x1.07b1d80000000p-3, 0x1.098ba40000000p-3, 0x1.8c881c0000000p-4, 0x1.8c41ec0000000p-4, 0x1.23bd740000000p-4, -0x1.9f2ddc0000000p-5, -0x1.18cbb80000000p-5, -0x1.830f740000000p-5, 0x1.0bd5740000000p-3, 0x1.d235e80000000p-5, -0x1.f703040000000p-4, -0x1.1f7f5e0000000p-3, 0x1.7ad26c0000000p-4, -0x1.b76ba80000000p-6, -0x1.d41e100000000p-5, -0x1.76e1800000000p-4, -0x1.79b2fa0000000p-4, 0x1.f737d00000000p-5, -0x1.0e347c0000000p-5}
, {0x1.7db0f00000000p-6, -0x1.14c0da0000000p-4, 0x1.1917f00000000p-5, -0x1.2795020000000p-4, 0x1.6d25680000000p-5, -0x1.b520400000000p-8, 0x1.5251300000000p-5, -0x1.5fffec0000000p-4, -0x1.ff0ee40000000p-4, -0x1.ed8fa80000000p-5, -0x1.b038000000000p-9, 0x1.1c5c7c0000000p-3, 0x1.d47a980000000p-4, 0x1.37c6bc0000000p-4, 0x1.26b1880000000p-3, 0x1.c990e00000000p-5, 0x1.e78cd80000000p-4, 0x1.985f3c0000000p-4, 0x1.6e65b00000000p-5, -0x1.4074c00000000p-8, 0x1.0977c00000000p-5, -0x1.0994c00000000p-8, 0x1.4dd8d40000000p-4, 0x1.61dd240000000p-4, 0x1.0ed6000000000p-9, -0x1.c477800000000p-7, 0x1.d0dca00000000p-4, 0x1.ecb4000000000p-8, -0x1.ff14800000000p-7, 0x1.0a7dec0000000p-3, 0x1.e7e0600000000p-5, -0x1.0a97620000000p-4}
, {0x1.f7ed280000000p-5, 0x1.0f43840000000p-3, -0x1.18df340000000p-4, 0x1.950da00000000p-5, -0x1.63c68e0000000p-4, 0x1.d52b880000000p-5, 0x1.8329c00000000p-4, 0x1.fa9a780000000p-5, 0x1.d13dc00000000p-6, 0x1.202f580000000p-3, -0x1.756e840000000p-5, -0x1.4fd49c0000000p-4, -0x1.9c71180000000p-6, 0x1.e082500000000p-5, 0x1.b5b3400000000p-7, -0x1.e7fc740000000p-5, -0x1.1ab9f60000000p-4, 0x1.d23b580000000p-5, 0x1.56ccd00000000p-6, 0x1.99b4100000000p-6, -0x1.16cbe40000000p-3, 0x1.deaa280000000p-4, 0x1.47dd4c0000000p-4, 0x1.ea99f80000000p-5, -0x1.2149820000000p-4, 0x1.4e37800000000p-7, -0x1.f1de8c0000000p-5, -0x1.9fa6040000000p-5, 0x1.bb8af00000000p-4, 0x1.be0b100000000p-6, -0x1.0f04f40000000p-3, -0x1.2bd1840000000p-5}
}
, {{0x1.083a100000000p-6, 0x1.4895080000000p-5, 0x1.0d68000000000p-7, -0x1.0482200000000p-3, -0x1.7aeeca0000000p-4, 0x1.c452380000000p-4, -0x1.3a50cc0000000p-4, 0x1.2667880000000p-5, -0x1.15970c0000000p-4, 0x1.f7aad80000000p-4, -0x1.af75200000000p-4, -0x1.73244c0000000p-5, 0x1.06305c0000000p-3, 0x1.3eece80000000p-4, -0x1.6f2f800000000p-8, -0x1.2121620000000p-4, -0x1.4efaa00000000p-4, 0x1.2ad2600000000p-4, 0x1.0ed0f00000000p-3, 0x1.c2fed00000000p-5, 0x1.a68de00000000p-5, -0x1.0aa4440000000p-5, 0x1.0717280000000p-3, -0x1.d9fb880000000p-5, 0x1.43a4940000000p-4, 0x1.98c8f00000000p-6, 0x1.2d817c0000000p-4, -0x1.a2b1ba0000000p-4, -0x1.edf7940000000p-5, 0x1.0fe2740000000p-3, -0x1.f264100000000p-5, -0x1.861e440000000p-5}
, {-0x1.9391cc0000000p-5, 0x1.8e74380000000p-5, 0x1.0451300000000p-4, -0x1.017f860000000p-3, 0x1.93eb480000000p-4, -0x1.0839c80000000p-5, -0x1.c359d40000000p-4, 0x1.9385a40000000p-4, -0x1.92c6500000000p-4, -0x1.525b100000000p-4, -0x1.0f40220000000p-3, 0x1.e9b0380000000p-5, 0x1.6617c00000000p-8, -0x1.21b3580000000p-4, 0x1.88f55c0000000p-4, 0x1.18b7e80000000p-4, -0x1.1ad8b00000000p-3, 0x1.7fe0ec0000000p-4, -0x1.13f66c0000000p-3, 0x1.ef9fc80000000p-5, -0x1.c1d5ec0000000p-5, -0x1.afe7d00000000p-4, -0x1.d3c33e0000000p-4, 0x1.57d1000000000p-8, 0x1.c2f4a00000000p-7, -0x1.adb5900000000p-6, -0x1.f2fce80000000p-6, 0x1.bb9f600000000p-7, 0x1.4a53000000000p-10, -0x1.8042600000000p-5, -0x1.d7d4a00000000p-7, 0x1.7c8c100000000p-4}
, {0x1.6dbd500000000p-5, 0x1.7c2e000000000p-9, -0x1.5060bc0000000p-5, 0x1.7a78e00000000p-7, 0x1.6e32c00000000p-8, 0x1.e610b80000000p-4, 0x1.2bb3f00000000p-6, -0x1.4a59080000000p-5, -0x1.d689100000000p-6, 0x1.8981280000000p-5, -0x1.29d3940000000p-4, 0x1.5870640000000p-4, -0x1.fe8c200000000p-6, 0x1.f109280000000p-5, -0x1.db85700000000p-4, -0x1.825dfc0000000p-5, -0x1.315e980000000p-5, -0x1.861bf40000000p-5, -0x1.107b9a0000000p-3, 0x1.7681180000000p-4, 0x1.2870080000000p-4, -0x1.c4689c0000000p-5, 0x1.1f33580000000p-3, -0x1.3351080000000p-4, -0x1.0ca6380000000p-4, -0x1.8356080000000p-5, 0x1.e75f000000000p-4, 0x1.afa0000000000p-15, 0x1.09faf40000000p-4, -0x1.0e59480000000p-4, 0x1.0a75d40000000p-4, 0x1.b725480000000p-5}
}
, {{0x1.9689000000000p-10, -0x1.c753f40000000p-4, -0x1.20042c0000000p-5, 0x1.fea8000000000p-13, -0x1.b938f40000000p-5, -0x1.728e8c0000000p-5, 0x1.6f1bd80000000p-4, 0x1.db21680000000p-5, -0x1.35957c0000000p-4, -0x1.05c6c00000000p-7, 0x1.065b200000000p-7, -0x1.4cadcc0000000p-5, -0x1.1df0900000000p-3, 0x1.eab8a00000000p-6, -0x1.c51c0e0000000p-4, 0x1.88f0400000000p-5, 0x1.9e58800000000p-7, -0x1.dd05d00000000p-6, 0x1.22ce200000000p-6, 0x1.590ba00000000p-5, 0x1.526dc00000000p-7, -0x1.ca9e100000000p-6, 0x1.705e600000000p-7, 0x1.005ebc0000000p-3, 0x1.e021880000000p-5, 0x1.767f000000000p-4, 0x1.dcf5a80000000p-5, -0x1.33bcda0000000p-4, 0x1.19b5640000000p-4, -0x1.82c49c0000000p-4, -0x1.ea69dc0000000p-4, -0x1.08a8de0000000p-3}
, {-0x1.055a000000000p-7, 0x1.20c4b80000000p-3, 0x1.3dbc000000000p-8, -0x1.310e200000000p-7, 0x1.2174c40000000p-3, 0x1.e9b3f00000000p-4, -0x1.8f96000000000p-9, -0x1.fc7ad40000000p-5, -0x1.f15f180000000p-5, -0x1.6518000000000p-12, 0x1.6ba4900000000p-4, -0x1.28d68e0000000p-4, 0x1.1e06900000000p-3, 0x1.01f15c0000000p-4, -0x1.74f5340000000p-5, -0x1.ac07e20000000p-4, 0x1.bff0e00000000p-4, 0x1.79d3800000000p-8, 0x1.78c89c0000000p-4, -0x1.5db2180000000p-4, -0x1.25922c0000000p-3, -0x1.7b08f00000000p-6, -0x1.c840000000000p-10, -0x1.4bcfbe0000000p-4, 0x1.9088400000000p-7, -0x1.4e93940000000p-5, 0x1.2a99000000000p-6, -0x1.4dd6d80000000p-5, -0x1.a6c1d20000000p-4, 0x1.f669200000000p-7, 0x1.72a1bc0000000p-4, -0x1.47b1ca0000000p-4}
, {-0x1.a90d480000000p-4, 0x1.e87b380000000p-4, 0x1.b06bfc0000000p-4, 0x1.96b6980000000p-4, -0x1.2ecd9c0000000p-4, 0x1.481cb40000000p-4, -0x1.07682e0000000p-3, 0x1.2486e80000000p-4, 0x1.245d440000000p-3, -0x1.8e07640000000p-4, 0x1.fd81200000000p-4, -0x1.b74f400000000p-4, -0x1.30df600000000p-7, 0x1.9767a00000000p-4, 0x1.c24bc00000000p-7, 0x1.fdd1080000000p-4, 0x1.d69b080000000p-4, 0x1.7920a80000000p-4, -0x1.65ecea0000000p-4, -0x1.3774e00000000p-7, 0x1.440f000000000p-6, -0x1.71328c0000000p-4, -0x1.3f12100000000p-6, -0x1.63901c0000000p-4, 0x1.187c500000000p-6, -0x1.fc52d80000000p-6, -0x1.4ec5300000000p-4, 0x1.9158740000000p-4, -0x1.8327720000000p-4, 0x1.b567a00000000p-5, 0x1.1e83440000000p-4, 0x1.1cea600000000p-6}
}
, {{-0x1.8e28280000000p-5, -0x1.3fe2b80000000p-5, -0x1.0e5e7c0000000p-4, 0x1.2714780000000p-4, -0x1.92532c0000000p-5, -0x1.6f868c0000000p-4, 0x1.faada00000000p-4, -0x1.6f93280000000p-6, -0x1.2d9ed00000000p-6, -0x1.3353d00000000p-6, -0x1.8058b80000000p-4, -0x1.0b105c0000000p-3, 0x1.dea7d00000000p-6, -0x1.a3f7a00000000p-7, -0x1.11a3ce0000000p-3, -0x1.929a400000000p-8, -0x1.d022d00000000p-6, -0x1.1f0ff40000000p-4, 0x1.b6d5980000000p-4, 0x1.0bbd000000000p-4, -0x1.0452c80000000p-4, -0x1.e2f6800000000p-8, -0x1.ed12c60000000p-4, 0x1.4693100000000p-6, 0x1.6ffc000000000p-9, 0x1.0169a40000000p-4, 0x1.001a100000000p-4, 0x1.adbc600000000p-5, 0x1.1627b40000000p-3, -0x1.b071f00000000p-4, -0x1.b085dc0000000p-4, -0x1.1e5b500000000p-5}
, {-0x1.18f6100000000p-3, -0x1.f2b1f60000000p-4, -0x1.a515600000000p-7, 0x1.fe24600000000p-4, 0x1.e277800000000p-9, 0x1.13d2340000000p-3, -0x1.234fd40000000p-4, 0x1.0e5e4c0000000p-4, -0x1.67ed220000000p-4, 0x1.784dd80000000p-5, 0x1.019d400000000p-6, 0x1.50e4200000000p-6, 0x1.396a380000000p-4, 0x1.091cf80000000p-3, -0x1.c944000000000p-12, 0x1.e9ca000000000p-4, 0x1.5a68b80000000p-5, 0x1.e19b900000000p-6, -0x1.fd0d0c0000000p-5, 0x1.8b93500000000p-4, -0x1.97f0180000000p-4, -0x1.2525080000000p-3, -0x1.81ab380000000p-5, -0x1.d460100000000p-4, 0x1.adb2000000000p-7, 0x1.2509800000000p-4, -0x1.9b60e80000000p-4, -0x1.0aef080000000p-4, 0x1.bf3a900000000p-4, -0x1.24e1160000000p-4, -0x1.40a7e00000000p-5, -0x1.4935300000000p-4}
, {0x1.edb3f00000000p-4, -0x1.005cf40000000p-4, -0x1.38ca000000000p-5, 0x1.f2bac80000000p-4, 0x1.5048bc0000000p-4, -0x1.dfe2dc0000000p-4, -0x1.615f180000000p-4, -0x1.380f840000000p-5, 0x1.fa5f380000000p-5, 0x1.830e380000000p-5, -0x1.a52b140000000p-4, -0x1.1af5e20000000p-3, 0x1.8323a00000000p-4, 0x1.c164b00000000p-4, 0x1.c34b000000000p-7, 0x1.0ed90c0000000p-3, 0x1.18ac600000000p-7, 0x1.b8af500000000p-5, 0x1.cdab580000000p-4, -0x1.9339e00000000p-7, -0x1.d0c78e0000000p-4, 0x1.a3c4080000000p-4, 0x1.2c77c40000000p-4, 0x1.7f97300000000p-5, 0x1.4457b00000000p-5, -0x1.9a5f3c0000000p-4, 0x1.88965c0000000p-4, 0x1.16e4280000000p-5, 0x1.fe3d580000000p-4, 0x1.3d21200000000p-5, -0x1.2940dc0000000p-4, 0x1.896f440000000p-4}
}
, {{0x1.de05800000000p-4, -0x1.0c3ca00000000p-7, -0x1.1efb9a0000000p-4, -0x1.c5a78e0000000p-4, 0x1.9285b00000000p-5, 0x1.9151a40000000p-4, 0x1.7d7d1c0000000p-4, 0x1.ea0d280000000p-5, -0x1.ddfcc40000000p-5, 0x1.d02c080000000p-4, 0x1.170f200000000p-4, 0x1.a4c7d80000000p-4, -0x1.c8c0700000000p-5, -0x1.c689e80000000p-5, 0x1.732c600000000p-5, 0x1.ebb8500000000p-5, -0x1.8829440000000p-5, 0x1.62cb500000000p-6, -0x1.d3644e0000000p-4, 0x1.02bf800000000p-8, -0x1.704dc40000000p-5, -0x1.189db00000000p-3, 0x1.4a23580000000p-5, -0x1.bb0dc00000000p-5, -0x1.2c07c20000000p-4, 0x1.63dd700000000p-4, -0x1.acc1360000000p-4, -0x1.46c8e80000000p-6, -0x1.e4ccd60000000p-4, -0x1.746f680000000p-5, 0x1.da50100000000p-4, 0x1.ee5e800000000p-6}
, {0x1.3b1df80000000p-4, 0x1.0dc5900000000p-3, 0x1.2f2bf80000000p-5, 0x1.1de6f80000000p-3, 0x1.3f6dc40000000p-4, -0x1.ddb6000000000p-10, 0x1.fc18a00000000p-4, 0x1.156d700000000p-6, -0x1.ebcdb00000000p-4, -0x1.1457360000000p-3, 0x1.498f9c0000000p-4, 0x1.82c3280000000p-5, -0x1.0057400000000p-3, -0x1.05eafc0000000p-3, -0x1.f977580000000p-5, 0x1.ce7ee00000000p-5, -0x1.3852100000000p-4, -0x1.11477a0000000p-3, 0x1.0dc1700000000p-4, -0x1.309c080000000p-5, 0x1.a4f3380000000p-5, -0x1.1a3ab00000000p-5, 0x1.d035780000000p-4, 0x1.bd44000000000p-6, -0x1.76f0fc0000000p-4, -0x1.1fc6c40000000p-5, -0x1.55531c0000000p-4, -0x1.e128000000000p-12, -0x1.72ec380000000p-4, 0x1.ebe0d00000000p-6, 0x1.a4b1780000000p-5, 0x1.5b9a900000000p-6}
, {-0x1.903e740000000p-4, 0x1.ab32400000000p-5, 0x1.084cb00000000p-4, 0x1.3756bc0000000p-4, -0x1.30fee00000000p-7, 0x1.633b280000000p-4, -0x1.eceea80000000p-4, -0x1.0bab1c0000000p-5, 0x1.cda1000000000p-4, 0x1.e8cdc80000000p-4, -0x1.1c4ec60000000p-3, -0x1.86020c0000000p-5, 0x1.4173c00000000p-5, 0x1.0540f80000000p-4, -0x1.18365c0000000p-3, 0x1.b609a80000000p-4, -0x1.2d3acc0000000p-5, -0x1.75c2a80000000p-6, 0x1.d6cc180000000p-4, 0x1.a148440000000p-4, 0x1.e50de00000000p-6, 0x1.17c8a40000000p-3, 0x1.00cec00000000p-3, 0x1.feba180000000p-5, 0x1.e086280000000p-5, -0x1.6f79c00000000p-7, -0x1.42e1380000000p-4, -0x1.4665e00000000p-7, 0x1.41a4e80000000p-5, -0x1.6beb000000000p-7, -0x1.89b6900000000p-5, -0x1.8aa7800000000p-4}
}
, {{-0x1.8685380000000p-4, 0x1.d6d5480000000p-4, -0x1.35090c0000000p-4, -0x1.0479360000000p-4, 0x1.76b0900000000p-6, -0x1.a5ae000000000p-11, -0x1.240ee00000000p-7, 0x1.7f84200000000p-7, -0x1.12b18c0000000p-4, 0x1.a18bb80000000p-5, -0x1.16aea20000000p-4, -0x1.601c000000000p-4, -0x1.eb8c980000000p-5, -0x1.25aacc0000000p-3, 0x1.a5af000000000p-10, -0x1.4a33800000000p-8, -0x1.f072f80000000p-6, -0x1.bb535c0000000p-4, 0x1.bb3e500000000p-5, -0x1.233e8c0000000p-3, 0x1.8e57f00000000p-4, 0x1.2f2f800000000p-8, -0x1.97d08c0000000p-4, -0x1.7205ee0000000p-4, -0x1.22e1360000000p-3, 0x1.1bfb000000000p-5, 0x1.37c2a80000000p-4, 0x1.9644500000000p-6, 0x1.6a14640000000p-4, -0x1.a93ed80000000p-6, -0x1.cf1d400000000p-8, -0x1.8043500000000p-5}
, {-0x1.c619780000000p-6, -0x1.7f30f80000000p-4, 0x1.1926100000000p-6, 0x1.ab0c300000000p-6, -0x1.6a6f5c0000000p-4, 0x1.91e63c0000000p-4, 0x1.a882100000000p-4, 0x1.cdc2b80000000p-5, 0x1.bffa080000000p-5, 0x1.2853800000000p-4, -0x1.6de3000000000p-9, 0x1.62ddc80000000p-5, 0x1.8fd6800000000p-9, 0x1.e71a200000000p-5, 0x1.1aec100000000p-3, -0x1.e6bcac0000000p-4, 0x1.ee87280000000p-4, 0x1.db49900000000p-6, 0x1.6902e80000000p-4, 0x1.06c6cc0000000p-4, 0x1.7297080000000p-4, 0x1.4b14e00000000p-6, -0x1.d9a4c80000000p-6, 0x1.05ddec0000000p-3, 0x1.8900380000000p-4, -0x1.2e1eec0000000p-4, -0x1.991fe40000000p-5, 0x1.7648d40000000p-4, -0x1.f29ee00000000p-4, -0x1.56a33c0000000p-4, -0x1.0308360000000p-4, 0x1.16e30c0000000p-3}
, {-0x1.0257500000000p-6, -0x1.7eaef80000000p-6, -0x1.7bfd880000000p-5, -0x1.292d020000000p-4, 0x1.20b34c0000000p-3, -0x1.b3eebc0000000p-4, 0x1.2572dc0000000p-4, -0x1.db50d40000000p-4, -0x1.a238b40000000p-4, 0x1.8ddfd00000000p-4, -0x1.033f2c0000000p-4, 0x1.eadf580000000p-4, -0x1.03b5800000000p-9, 0x1.5cdb740000000p-4, 0x1.5fe1300000000p-4, 0x1.346f700000000p-4, -0x1.e4ac080000000p-6, 0x1.306d7c0000000p-4, -0x1.4bc7300000000p-4, 0x1.f4db980000000p-4, -0x1.0ca7a00000000p-3, -0x1.818fa80000000p-6, -0x1.0e12200000000p-5, -0x1.d063340000000p-5, 0x1.6b95680000000p-4, 0x1.9700500000000p-5, 0x1.1dc1200000000p-3, 0x1.be27280000000p-4, 0x1.95b8800000000p-7, -0x1.0c22d40000000p-3, -0x1.5bdff40000000p-4, 0x1.9859580000000p-4}
}
, {{0x1.e846480000000p-4, 0x1.816aac0000000p-4, -0x1.4c07d00000000p-5, 0x1.bdf9700000000p-6, 0x1.6c9d180000000p-5, -0x1.ff3c480000000p-5, 0x1.2dacb80000000p-4, -0x1.c5cd680000000p-5, 0x1.6478000000000p-7, -0x1.55c2dc0000000p-5, -0x1.8b70280000000p-6, -0x1.f744b80000000p-6, 0x1.18fd480000000p-3, 0x1.5137a40000000p-4, -0x1.c63cc00000000p-8, 0x1.8a00b00000000p-5, -0x1.1bf7260000000p-3, 0x1.b691680000000p-4, 0x1.6d21900000000p-6, -0x1.b608540000000p-4, -0x1.1afaa60000000p-3, 0x1.0df0f00000000p-5, -0x1.32163a0000000p-4, 0x1.2a97c40000000p-4, 0x1.24dcfc0000000p-3, -0x1.64b5d40000000p-4, -0x1.100aa80000000p-3, 0x1.a751680000000p-4, -0x1.a9cd400000000p-5, -0x1.2191400000000p-3, 0x1.a344000000000p-10, 0x1.a1db180000000p-5}
, {-0x1.d1ac4c0000000p-5, 0x1.9016040000000p-4, 0x1.741a400000000p-4, -0x1.1215500000000p-5, -0x1.008ac00000000p-8, -0x1.bb3f600000000p-4, 0x1.fe22c80000000p-4, -0x1.9f50500000000p-4, -0x1.299ce00000000p-5, 0x1.769c000000000p-10, 0x1.089e900000000p-3, -0x1.6e308c0000000p-4, -0x1.8f30000000000p-9, 0x1.c39cb80000000p-4, 0x1.297afc0000000p-4, 0x1.e6ed400000000p-6, -0x1.b398a00000000p-7, -0x1.e01f840000000p-4, 0x1.8f66800000000p-9, -0x1.f2b1dc0000000p-5, 0x1.5ccab00000000p-5, 0x1.824e080000000p-5, 0x1.0cf43c0000000p-3, -0x1.f7e2000000000p-10, -0x1.a71c400000000p-5, 0x1.f5fed00000000p-5, 0x1.5eb0840000000p-4, -0x1.ab0e500000000p-6, 0x1.3f6e3c0000000p-4, -0x1.f08b580000000p-5, 0x1.0f4d240000000p-3, -0x1.0583ee0000000p-3}
, {-0x1.19bdfc0000000p-3, -0x1.1ae20e0000000p-4, 0x1.a37c180000000p-4, 0x1.aef0d00000000p-4, -0x1.672f0c0000000p-5, -0x1.052f1e0000000p-4, 0x1.0867340000000p-4, 0x1.86c3180000000p-5, 0x1.aafa580000000p-5, 0x1.653d680000000p-4, 0x1.a767680000000p-4, -0x1.07e2b60000000p-3, 0x1.e98f800000000p-4, -0x1.8d19f40000000p-5, -0x1.8865000000000p-9, -0x1.cfcd500000000p-5, 0x1.080ea00000000p-6, -0x1.b54e7c0000000p-4, -0x1.403c7e0000000p-4, -0x1.782c1c0000000p-4, -0x1.a6c1180000000p-5, 0x1.0a47200000000p-3, 0x1.99b8180000000p-4, -0x1.a765f80000000p-4, -0x1.c2e10e0000000p-4, -0x1.4a93920000000p-4, -0x1.6cd62c0000000p-5, 0x1.3a78700000000p-6, -0x1.cc17ec0000000p-5, -0x1.ca42c40000000p-5, 0x1.9326040000000p-4, -0x1.62fe000000000p-4}
}
, {{0x1.205e000000000p-7, -0x1.0597540000000p-3, 0x1.5c36bc0000000p-4, -0x1.dc32b80000000p-5, 0x1.901a280000000p-4, 0x1.57a0680000000p-4, 0x1.686d7c0000000p-4, -0x1.4a595e0000000p-4, -0x1.f62a8a0000000p-4, -0x1.2fd4200000000p-4, 0x1.e4f8c00000000p-8, -0x1.74acb00000000p-6, 0x1.6b2d280000000p-5, -0x1.6214b60000000p-4, 0x1.6787f40000000p-4, -0x1.54f6480000000p-6, -0x1.6f17700000000p-6, 0x1.a5cd740000000p-4, 0x1.d537900000000p-4, -0x1.4286a00000000p-7, -0x1.f198780000000p-5, 0x1.4ebc000000000p-11, 0x1.86c7380000000p-4, -0x1.700b4e0000000p-4, -0x1.1943680000000p-4, 0x1.70ea100000000p-6, -0x1.f0550c0000000p-4, -0x1.c89a020000000p-4, -0x1.2bd9880000000p-4, -0x1.1dcc100000000p-5, 0x1.cbddf80000000p-5, 0x1.3896200000000p-5}
, {0x1.fc1ec00000000p-5, -0x1.274fde0000000p-4, -0x1.8498fc0000000p-4, -0x1.d2a6920000000p-4, 0x1.36229c0000000p-4, -0x1.42d8200000000p-5, -0x1.8d0a700000000p-5, 0x1.19a6b00000000p-3, -0x1.ea30000000000p-14, -0x1.4223fe0000000p-4, 0x1.f9cf400000000p-7, 0x1.1d93300000000p-3, 0x1.0a6f140000000p-3, 0x1.d9e1000000000p-10, 0x1.303cc80000000p-5, 0x1.4272c00000000p-8, -0x1.57f7c00000000p-8, 0x1.032ba80000000p-5, -0x1.61e0f80000000p-5, -0x1.d24cfa0000000p-4, 0x1.b1fb000000000p-8, 0x1.5673800000000p-4, 0x1.773fc00000000p-6, 0x1.0b5c840000000p-3, -0x1.89beca0000000p-4, -0x1.4ee9c60000000p-4, 0x1.2f50900000000p-4, -0x1.66d9d00000000p-5, 0x1.4037fc0000000p-4, -0x1.ea74700000000p-4, 0x1.23d5980000000p-4, 0x1.0e16780000000p-5}
, {-0x1.13da340000000p-4, 0x1.a9c2340000000p-4, 0x1.6274680000000p-4, -0x1.6f19c00000000p-4, -0x1.b803f40000000p-4, -0x1.bcb9b80000000p-5, -0x1.122ac60000000p-4, 0x1.01f6a00000000p-4, -0x1.4322180000000p-5, 0x1.a1d7340000000p-4, -0x1.b8ce000000000p-5, -0x1.ff99ac0000000p-5, -0x1.bd83520000000p-4, -0x1.a877180000000p-4, -0x1.15a84c0000000p-4, 0x1.53feb00000000p-4, 0x1.5e11400000000p-4, -0x1.de76ea0000000p-4, 0x1.ad57400000000p-4, -0x1.8bdf280000000p-5, -0x1.5d39dc0000000p-4, 0x1.f88c100000000p-6, -0x1.ef34400000000p-7, 0x1.99ecd80000000p-5, 0x1.59c1a00000000p-7, -0x1.8f6ecc0000000p-5, -0x1.08ef2c0000000p-3, 0x1.164fe80000000p-3, -0x1.7d2ae00000000p-4, 0x1.b79b000000000p-10, 0x1.b5a9400000000p-5, 0x1.f49e580000000p-5}
}
, {{-0x1.7bdb1c0000000p-4, -0x1.1a68980000000p-5, 0x1.24e2dc0000000p-3, 0x1.0506800000000p-3, -0x1.37c6e20000000p-4, 0x1.9f779c0000000p-4, -0x1.4517d00000000p-5, 0x1.1780c00000000p-6, -0x1.948e9c0000000p-5, -0x1.0d06700000000p-3, 0x1.1da0840000000p-4, -0x1.094c740000000p-3, -0x1.71f1a80000000p-6, 0x1.59cf900000000p-6, -0x1.bd62800000000p-8, 0x1.14fc9c0000000p-3, 0x1.6616b40000000p-4, -0x1.780eb40000000p-5, -0x1.063a560000000p-3, 0x1.c2dfa00000000p-7, -0x1.95aa4c0000000p-4, 0x1.9fb8800000000p-5, 0x1.25c5780000000p-4, 0x1.f62a000000000p-4, -0x1.adfb820000000p-4, 0x1.9ccdd40000000p-4, -0x1.6890bc0000000p-5, 0x1.2e9de00000000p-5, -0x1.f628b40000000p-4, 0x1.a650380000000p-5, -0x1.bf38740000000p-4, 0x1.8c85700000000p-6}
, {-0x1.57ffc00000000p-7, 0x1.16e6080000000p-3, 0x1.c663500000000p-5, -0x1.5b70100000000p-5, -0x1.434b4e0000000p-4, 0x1.1e33c00000000p-7, -0x1.bcbbc00000000p-6, 0x1.e611c80000000p-5, -0x1.6cdb5c0000000p-4, 0x1.67cfd40000000p-4, -0x1.45ebd00000000p-4, -0x1.f4b7a00000000p-7, 0x1.d4caf80000000p-5, 0x1.0413900000000p-3, 0x1.b76d280000000p-4, 0x1.4e6bc00000000p-8, 0x1.0d6efc0000000p-3, 0x1.6c14640000000p-4, 0x1.8f9ca80000000p-4, 0x1.457f840000000p-4, -0x1.66c86c0000000p-5, 0x1.23f2080000000p-4, -0x1.0b57020000000p-3, -0x1.50f2380000000p-4, 0x1.a848500000000p-5, -0x1.18ca200000000p-3, 0x1.f117700000000p-5, 0x1.78e3740000000p-4, -0x1.24cf880000000p-3, 0x1.2a50c80000000p-4, -0x1.d7cf600000000p-7, -0x1.d2a4ea0000000p-4}
, {0x1.cce2880000000p-4, 0x1.1943e80000000p-3, -0x1.00ac3c0000000p-4, 0x1.8758300000000p-5, 0x1.b370f00000000p-4, 0x1.be3cd80000000p-4, 0x1.acc4800000000p-9, 0x1.17f3ac0000000p-3, -0x1.abd7a40000000p-4, 0x1.8d91dc0000000p-4, 0x1.2725dc0000000p-4, 0x1.80d9d00000000p-6, -0x1.b1e0320000000p-4, -0x1.17b7de0000000p-3, -0x1.b7af160000000p-4, -0x1.aeb1280000000p-4, -0x1.81296e0000000p-4, 0x1.2d1f800000000p-6, 0x1.4ad6680000000p-5, 0x1.5063900000000p-6, 0x1.f8c5700000000p-4, -0x1.e779b80000000p-4, -0x1.ad79c00000000p-4, 0x1.95e2700000000p-6, 0x1.054bd80000000p-3, 0x1.8c5ba00000000p-7, 0x1.1e8efc0000000p-3, 0x1.69359c0000000p-4, 0x1.71afb80000000p-4, -0x1.7af4280000000p-6, 0x1.c846680000000p-5, -0x1.05a9ac0000000p-3}
}
, {{0x1.4da1580000000p-4, 0x1.9cf1c00000000p-7, -0x1.931cac0000000p-4, -0x1.0efdbe0000000p-3, 0x1.e7b6400000000p-7, 0x1.9aa0080000000p-5, -0x1.b20fcc0000000p-5, 0x1.d188d80000000p-4, -0x1.a995640000000p-5, -0x1.be2e9c0000000p-5, -0x1.d9e9880000000p-4, -0x1.0cf58c0000000p-3, 0x1.d27c400000000p-7, 0x1.dd46c00000000p-5, 0x1.17f5800000000p-6, -0x1.26290e0000000p-4, 0x1.2c0ee00000000p-5, -0x1.0806780000000p-3, 0x1.0ffaa40000000p-3, 0x1.e36d780000000p-4, -0x1.02e81a0000000p-3, 0x1.21d96c0000000p-3, -0x1.f214060000000p-4, -0x1.e935840000000p-5, 0x1.ac17c40000000p-4, -0x1.ae15340000000p-4, -0x1.2119600000000p-6, 0x1.e6c0300000000p-6, 0x1.400c400000000p-8, 0x1.650ae00000000p-4, 0x1.14fcdc0000000p-3, 0x1.05578c0000000p-3}
, {0x1.02e59c0000000p-4, -0x1.7932ce0000000p-4, -0x1.f5e8f00000000p-4, -0x1.2558500000000p-3, -0x1.b4a7200000000p-7, -0x1.bda2600000000p-7, 0x1.4259000000000p-7, 0x1.ba2ce00000000p-4, -0x1.123ee80000000p-3, -0x1.2af1e00000000p-5, -0x1.ba97c40000000p-4, 0x1.3fc1fc0000000p-4, -0x1.4a6af00000000p-4, 0x1.a230b00000000p-5, 0x1.b541880000000p-4, -0x1.9156280000000p-5, 0x1.e55a500000000p-4, -0x1.5714180000000p-6, 0x1.8b32780000000p-5, -0x1.add6200000000p-4, -0x1.75793c0000000p-4, -0x1.aa966a0000000p-4, -0x1.bef4000000000p-5, -0x1.5260f20000000p-4, -0x1.eb39800000000p-7, -0x1.e538140000000p-4, 0x1.f087600000000p-4, -0x1.e1b4400000000p-8, 0x1.62f9800000000p-7, 0x1.102ce40000000p-3, 0x1.13931c0000000p-4, 0x1.8651380000000p-4}
, {-0x1.449c4c0000000p-4, 0x1.c026800000000p-9, -0x1.7f6bc80000000p-4, 0x1.2200640000000p-3, -0x1.7d80480000000p-6, -0x1.80f9c00000000p-7, -0x1.a4bdac0000000p-4, 0x1.9efc900000000p-5, 0x1.acfa500000000p-5, 0x1.1739700000000p-5, 0x1.e05e700000000p-6, 0x1.c578000000000p-4, 0x1.1649400000000p-3, 0x1.692ae00000000p-6, -0x1.52ec440000000p-4, 0x1.7d86600000000p-4, -0x1.55e8480000000p-4, 0x1.53a3540000000p-4, 0x1.5ab9540000000p-4, 0x1.2046c80000000p-4, -0x1.569ff40000000p-4, -0x1.b6c8c00000000p-8, 0x1.70a0540000000p-4, -0x1.3c7ab20000000p-4, 0x1.0fac380000000p-4, -0x1.ce744e0000000p-4, 0x1.f366600000000p-7, -0x1.1828000000000p-11, -0x1.a2cf600000000p-6, 0x1.0189e80000000p-4, -0x1.9c53080000000p-4, -0x1.5210600000000p-4}
}
, {{-0x1.fe119c0000000p-4, 0x1.456bb00000000p-5, -0x1.120f300000000p-6, 0x1.54b0200000000p-6, 0x1.8fcd780000000p-5, 0x1.7961780000000p-5, 0x1.d94e680000000p-4, 0x1.e248a80000000p-4, -0x1.d7f4920000000p-4, 0x1.3b9f000000000p-10, 0x1.91e9c40000000p-4, -0x1.d2dc580000000p-5, -0x1.780a0c0000000p-4, 0x1.6ea0280000000p-5, -0x1.7ef1f00000000p-6, -0x1.9366ee0000000p-4, -0x1.f1b5200000000p-7, 0x1.4296600000000p-4, -0x1.587c880000000p-6, 0x1.7e9b080000000p-5, 0x1.08893c0000000p-3, 0x1.2bd2a00000000p-7, 0x1.7556000000000p-5, -0x1.100e360000000p-3, -0x1.d6dc0c0000000p-5, 0x1.6b15600000000p-7, -0x1.b4d17e0000000p-4, 0x1.99417c0000000p-4, 0x1.9497d00000000p-4, -0x1.d2f0780000000p-6, 0x1.150a000000000p-3, 0x1.208a7c0000000p-3}
, {-0x1.42aa8c0000000p-4, 0x1.26a1300000000p-3, -0x1.9a8a880000000p-5, -0x1.cb76c00000000p-7, 0x1.675f940000000p-4, 0x1.a0489c0000000p-4, -0x1.022a000000000p-6, 0x1.e71a800000000p-5, -0x1.ab0d740000000p-5, 0x1.a36f080000000p-5, 0x1.1351140000000p-3, 0x1.f230b00000000p-4, 0x1.2483440000000p-3, -0x1.4fe4340000000p-4, -0x1.c470fc0000000p-5, 0x1.5dcd300000000p-6, -0x1.8d794c0000000p-5, -0x1.18ede40000000p-4, 0x1.0b9e200000000p-3, 0x1.0361ac0000000p-3, 0x1.ce44380000000p-4, -0x1.f797100000000p-4, -0x1.1c60d80000000p-5, 0x1.b6c5f80000000p-4, -0x1.030a600000000p-3, 0x1.f3c4280000000p-5, 0x1.858d600000000p-7, -0x1.0738a40000000p-4, -0x1.dd0ba80000000p-4, -0x1.8ddcbc0000000p-5, -0x1.b7f5340000000p-4, -0x1.1c2b800000000p-9}
, {-0x1.9964b20000000p-4, 0x1.79b4e00000000p-7, 0x1.1cd1900000000p-5, 0x1.f322480000000p-4, -0x1.e043ac0000000p-4, -0x1.e7f0700000000p-4, 0x1.f526400000000p-8, -0x1.8f9bb00000000p-6, 0x1.d867180000000p-5, 0x1.15b7c80000000p-4, 0x1.520bc80000000p-4, 0x1.dafb980000000p-5, -0x1.138b5c0000000p-4, 0x1.4446f40000000p-4, -0x1.a967900000000p-5, 0x1.ab38a80000000p-4, -0x1.90a6400000000p-7, 0x1.5c59000000000p-7, -0x1.852df00000000p-5, -0x1.cd3b000000000p-9, -0x1.1ce1600000000p-5, 0x1.6971380000000p-4, -0x1.c73de80000000p-4, -0x1.0c30420000000p-3, -0x1.029f3e0000000p-4, -0x1.1773800000000p-7, 0x1.5e2b440000000p-4, -0x1.12fd200000000p-7, 0x1.0eb1bc0000000p-4, 0x1.35d0c80000000p-5, 0x1.0c09b00000000p-3, -0x1.1349f80000000p-3}
}
, {{-0x1.5419a40000000p-5, 0x1.e46fa00000000p-5, 0x1.cace200000000p-6, 0x1.14afbc0000000p-3, -0x1.70fbc40000000p-5, -0x1.e9c7800000000p-7, -0x1.4bf6400000000p-7, 0x1.51fc000000000p-10, -0x1.65f86c0000000p-4, -0x1.f05e500000000p-6, -0x1.bc1be40000000p-4, 0x1.dacaa00000000p-4, 0x1.f30b500000000p-6, -0x1.4837f00000000p-6, -0x1.9036ec0000000p-4, 0x1.d82ea00000000p-4, -0x1.a7aaac0000000p-4, -0x1.9035200000000p-6, 0x1.18aec80000000p-4, 0x1.0b24cc0000000p-3, -0x1.a613800000000p-4, -0x1.0c93260000000p-3, 0x1.d51ce80000000p-4, 0x1.f9cc280000000p-5, -0x1.5b4bb00000000p-5, 0x1.94db500000000p-5, 0x1.b352200000000p-4, 0x1.6768580000000p-5, -0x1.1bd2240000000p-3, -0x1.2e20500000000p-6, 0x1.d9a3d00000000p-6, 0x1.7f56180000000p-4}
, {-0x1.45d9720000000p-4, -0x1.14c97a0000000p-4, 0x1.0d65e00000000p-5, 0x1.f102580000000p-5, 0x1.c954c80000000p-4, -0x1.50fd000000000p-9, 0x1.b188200000000p-5, -0x1.12f2f00000000p-5, 0x1.26d7100000000p-3, 0x1.0d52f40000000p-4, -0x1.4770000000000p-7, 0x1.c6e7280000000p-5, -0x1.8d79f00000000p-4, 0x1.e8b8a00000000p-7, -0x1.0647d00000000p-3, -0x1.c20db40000000p-5, -0x1.9218ae0000000p-4, -0x1.67f6600000000p-4, 0x1.12ef680000000p-4, -0x1.3af2060000000p-4, 0x1.77d7700000000p-6, -0x1.f476a40000000p-5, 0x1.a858000000000p-5, 0x1.09a3200000000p-4, 0x1.1432580000000p-3, -0x1.2738c60000000p-3, -0x1.4f44180000000p-4, 0x1.a20d200000000p-7, 0x1.b2eb280000000p-4, -0x1.71c8f00000000p-6, -0x1.4295fa0000000p-4, 0x1.0783580000000p-3}
, {0x1.6ead880000000p-4, 0x1.21bee80000000p-3, 0x1.11eb580000000p-3, -0x1.ea90940000000p-4, 0x1.f4de380000000p-4, 0x1.e727680000000p-4, -0x1.0329200000000p-4, 0x1.6efbe00000000p-6, 0x1.6cb9600000000p-4, -0x1.7573e00000000p-6, -0x1.5ce9a40000000p-4, -0x1.28f9600000000p-4, -0x1.69342a0000000p-4, -0x1.f4447c0000000p-4, -0x1.7653380000000p-5, -0x1.8677940000000p-4, 0x1.c5ca700000000p-5, -0x1.38faa00000000p-7, 0x1.277f980000000p-3, 0x1.affdb00000000p-6, 0x1.c401800000000p-9, -0x1.0d11100000000p-3, 0x1.0cc2dc0000000p-4, 0x1.1dfb680000000p-3, -0x1.b570b80000000p-6, 0x1.34e8b00000000p-6, -0x1.219be40000000p-4, -0x1.2c4d940000000p-4, -0x1.913ea00000000p-5, -0x1.14544a0000000p-3, 0x1.1c0db40000000p-3, -0x1.7d33800000000p-5}
}
, {{-0x1.c221c40000000p-5, 0x1.b486980000000p-4, -0x1.7d1d980000000p-4, -0x1.a6c8760000000p-4, -0x1.b304d80000000p-4, -0x1.b5afd80000000p-4, -0x1.05ae9e0000000p-3, 0x1.be15c80000000p-5, -0x1.26affa0000000p-3, 0x1.2316880000000p-5, 0x1.81a5bc0000000p-4, 0x1.aa9d6c0000000p-4, -0x1.2444240000000p-3, 0x1.658f900000000p-6, -0x1.0c9cb00000000p-4, 0x1.37be4c0000000p-4, 0x1.f9eeb80000000p-4, 0x1.1f61900000000p-3, 0x1.bc5ea80000000p-5, 0x1.e662b80000000p-4, 0x1.69de000000000p-6, -0x1.5dd6240000000p-5, -0x1.02ad240000000p-3, -0x1.2f8b900000000p-6, -0x1.2c533e0000000p-4, -0x1.39377c0000000p-4, -0x1.f41b480000000p-6, -0x1.2e59200000000p-4, -0x1.0b57920000000p-3, 0x1.0737e40000000p-4, 0x1.101f3c0000000p-3, -0x1.12888e0000000p-3}
, {0x1.b6e2180000000p-4, -0x1.9708000000000p-12, -0x1.d6836e0000000p-4, -0x1.0827bc0000000p-3, 0x1.ba0e700000000p-5, -0x1.e0449c0000000p-4, -0x1.1cb3a60000000p-3, -0x1.1d09900000000p-5, -0x1.c72c400000000p-7, -0x1.6358ee0000000p-4, -0x1.cb47600000000p-6, 0x1.82ae500000000p-5, -0x1.584c3c0000000p-4, -0x1.24b74c0000000p-5, -0x1.3c299e0000000p-4, 0x1.222d600000000p-6, -0x1.29301e0000000p-4, -0x1.1590c00000000p-8, 0x1.0f8ab40000000p-3, -0x1.cdc3980000000p-5, -0x1.4dd7480000000p-4, 0x1.d935980000000p-4, 0x1.dfebd80000000p-4, -0x1.85f99c0000000p-5, -0x1.0a80fa0000000p-4, 0x1.4ee0200000000p-6, -0x1.f07a780000000p-6, 0x1.8893480000000p-4, 0x1.27ed180000000p-4, -0x1.01fc8e0000000p-3, 0x1.aeea240000000p-4, -0x1.100f800000000p-5}
, {0x1.33f8100000000p-6, -0x1.7727140000000p-4, 0x1.5f00800000000p-5, -0x1.5d48e80000000p-5, 0x1.4cb9800000000p-6, 0x1.9e06c00000000p-5, -0x1.0f09180000000p-5, 0x1.0d128c0000000p-4, -0x1.3156f20000000p-4, 0x1.be72400000000p-5, -0x1.0cee4c0000000p-3, 0x1.1a85100000000p-3, -0x1.fd5c000000000p-7, -0x1.f2d5000000000p-10, -0x1.0b19bc0000000p-3, 0x1.e9c1880000000p-4, -0x1.3cb3be0000000p-4, -0x1.f741380000000p-4, -0x1.a143c20000000p-4, -0x1.0bce360000000p-3, 0x1.2879780000000p-5, -0x1.164aa80000000p-3, -0x1.586ea00000000p-7, -0x1.8813080000000p-6, -0x1.e6cd900000000p-5, 0x1.7c662c0000000p-4, -0x1.f3a6000000000p-5, 0x1.1d6f940000000p-3, 0x1.9952680000000p-4, -0x1.0c7c540000000p-5, 0x1.4b97700000000p-5, 0x1.465c100000000p-6}
}
, {{-0x1.fea8680000000p-4, 0x1.f2a2680000000p-5, 0x1.1b79140000000p-3, -0x1.7a5d680000000p-4, -0x1.1bf64c0000000p-3, 0x1.322b600000000p-7, 0x1.be0a980000000p-4, 0x1.1f33580000000p-3, -0x1.f515c40000000p-5, -0x1.2e5dac0000000p-4, 0x1.ed30b00000000p-4, -0x1.6b0d740000000p-4, -0x1.bd68140000000p-5, -0x1.1ef0500000000p-3, -0x1.0cd77e0000000p-3, -0x1.23c1760000000p-4, 0x1.518fa00000000p-4, 0x1.de53380000000p-5, 0x1.95e0240000000p-4, -0x1.81aa200000000p-7, 0x1.a07b600000000p-4, 0x1.62fbfc0000000p-4, 0x1.7a5fc80000000p-4, -0x1.8d902c0000000p-4, -0x1.88112c0000000p-5, 0x1.06d4340000000p-3, 0x1.13f1980000000p-3, 0x1.af10c00000000p-7, -0x1.3b36300000000p-4, 0x1.da1a000000000p-6, 0x1.6f60d80000000p-4, -0x1.4e830c0000000p-5}
, {0x1.a9d2a00000000p-7, 0x1.d9ad500000000p-6, -0x1.0de5ec0000000p-3, -0x1.1f6a640000000p-5, -0x1.2416b80000000p-5, -0x1.9865f00000000p-4, -0x1.a8ecbc0000000p-5, 0x1.6d69940000000p-4, -0x1.066fa60000000p-3, -0x1.345dd20000000p-4, 0x1.5287040000000p-4, -0x1.cc2d5c0000000p-5, -0x1.25a2960000000p-3, -0x1.221a1e0000000p-4, 0x1.0037480000000p-3, 0x1.7635b40000000p-4, 0x1.f0d8000000000p-11, -0x1.311fbc0000000p-4, 0x1.9740000000000p-10, 0x1.0089740000000p-4, -0x1.8849100000000p-4, -0x1.3a51f40000000p-5, -0x1.4ae0ca0000000p-4, -0x1.3b99980000000p-5, -0x1.cd74000000000p-12, 0x1.7bce940000000p-4, -0x1.9e1fb00000000p-4, -0x1.25105c0000000p-3, -0x1.e66e700000000p-5, -0x1.bb81600000000p-7, 0x1.71f8900000000p-5, -0x1.41f1600000000p-7}
, {0x1.dc8b000000000p-6, -0x1.9cdd620000000p-4, -0x1.8da0d80000000p-5, -0x1.9b923c0000000p-4, -0x1.5abe200000000p-4, 0x1.d166c80000000p-5, 0x1.3622240000000p-4, -0x1.26e0e00000000p-4, 0x1.3cb6980000000p-5, -0x1.fb1b980000000p-5, -0x1.b0245c0000000p-4, 0x1.f347e00000000p-7, -0x1.14f1640000000p-5, 0x1.1d71300000000p-6, -0x1.29e4880000000p-5, -0x1.43649a0000000p-4, 0x1.f71f900000000p-5, -0x1.e2d0500000000p-6, 0x1.50c1100000000p-6, -0x1.bfadc00000000p-7, -0x1.9eed1e0000000p-4, -0x1.5d72540000000p-4, -0x1.dbeb000000000p-10, 0x1.bec3000000000p-5, 0x1.8d61840000000p-4, -0x1.a07c000000000p-10, 0x1.23095c0000000p-4, -0x1.007e1e0000000p-4, 0x1.ba30900000000p-4, 0x1.21c6000000000p-5, -0x1.c5f6f80000000p-6, 0x1.17c61c0000000p-4}
}
, {{-0x1.b8deb40000000p-4, -0x1.6eecb80000000p-5, 0x1.1dadc80000000p-4, 0x1.e126280000000p-4, 0x1.dc5f500000000p-4, -0x1.25b9600000000p-3, 0x1.3182080000000p-5, 0x1.b237680000000p-5, 0x1.7b9d4c0000000p-4, 0x1.642c000000000p-10, 0x1.71462c0000000p-4, 0x1.a116400000000p-7, 0x1.b899500000000p-6, 0x1.56e2f80000000p-5, 0x1.3077700000000p-4, -0x1.8858300000000p-6, -0x1.7c20180000000p-5, -0x1.229d100000000p-4, 0x1.c1ec980000000p-5, 0x1.99601c0000000p-4, -0x1.5cf8700000000p-5, 0x1.adb1900000000p-6, 0x1.d03fb00000000p-5, 0x1.1022400000000p-5, 0x1.07e49c0000000p-3, -0x1.ad9db00000000p-5, -0x1.5ce6240000000p-4, -0x1.146e400000000p-5, -0x1.14f4f00000000p-6, 0x1.05c4e80000000p-4, -0x1.7b70b80000000p-6, -0x1.14cbf20000000p-3}
, {-0x1.6c80780000000p-4, 0x1.ab6c780000000p-4, 0x1.3dd7000000000p-9, 0x1.41cf280000000p-4, 0x1.0cfee40000000p-3, 0x1.e476a00000000p-7, 0x1.51b2000000000p-11, 0x1.0b33700000000p-5, 0x1.0b9cc40000000p-3, 0x1.5718380000000p-5, -0x1.e0b9a00000000p-7, -0x1.78ca600000000p-4, -0x1.ac6a300000000p-6, 0x1.4fc6cc0000000p-4, 0x1.5d6d800000000p-7, 0x1.843e180000000p-4, -0x1.f166400000000p-7, -0x1.1d69520000000p-3, 0x1.b98b680000000p-4, 0x1.39ebb00000000p-4, 0x1.372b5c0000000p-4, 0x1.5912e00000000p-7, 0x1.6f83700000000p-6, -0x1.a9bda00000000p-4, -0x1.7d12bc0000000p-4, 0x1.1c6eac0000000p-3, 0x1.c9e3b00000000p-4, 0x1.3ad0100000000p-4, 0x1.660ea80000000p-5, 0x1.9c37900000000p-5, -0x1.1919960000000p-4, 0x1.9660a40000000p-4}
, {0x1.f152d00000000p-5, -0x1.f91d480000000p-5, -0x1.8410280000000p-4, 0x1.5c0c0c0000000p-4, -0x1.8564e00000000p-6, 0x1.39d9dc0000000p-4, -0x1.1dfcda0000000p-3, -0x1.04e0b40000000p-3, 0x1.c547700000000p-4, 0x1.d420d00000000p-4, 0x1.0145840000000p-3, 0x1.0db4640000000p-3, 0x1.82c6000000000p-6, 0x1.48b3f00000000p-4, -0x1.c77b100000000p-4, -0x1.06d4260000000p-4, -0x1.bfdb940000000p-5, -0x1.7741980000000p-4, -0x1.9bf3f40000000p-4, -0x1.9ad96a0000000p-4, -0x1.0b08a80000000p-3, -0x1.01bf120000000p-3, 0x1.0627880000000p-3, 0x1.3184600000000p-4, 0x1.c5f6e00000000p-7, 0x1.b570300000000p-4, 0x1.6ec1ac0000000p-4, -0x1.f396800000000p-9, 0x1.97c2380000000p-5, -0x1.e2e5000000000p-9, 0x1.d511480000000p-5, 0x1.3cde540000000p-4}
}
, {{0x1.423be80000000p-4, -0x1.cf54700000000p-6, -0x1.18a3ce0000000p-3, 0x1.7b0c3c0000000p-4, -0x1.4953360000000p-4, 0x1.7c56200000000p-7, -0x1.01bbe00000000p-5, -0x1.69e7780000000p-4, 0x1.f8b8400000000p-5, 0x1.bd1f600000000p-4, -0x1.2709600000000p-3, 0x1.11a47c0000000p-3, -0x1.04acd00000000p-5, 0x1.93221c0000000p-4, 0x1.8b994c0000000p-4, 0x1.af36980000000p-4, -0x1.3016600000000p-4, 0x1.9031d00000000p-6, -0x1.b35b0c0000000p-5, -0x1.ff95d00000000p-4, -0x1.f73fa00000000p-7, -0x1.25325a0000000p-3, 0x1.5a08e00000000p-7, 0x1.3ddbe40000000p-4, 0x1.8b71c00000000p-4, -0x1.efee980000000p-5, 0x1.f9bf100000000p-4, -0x1.da9ac00000000p-6, -0x1.8424480000000p-6, 0x1.0ff67c0000000p-4, 0x1.443c6c0000000p-4, 0x1.199cec0000000p-3}
, {-0x1.ca76a40000000p-5, 0x1.2b68f00000000p-5, -0x1.92e43c0000000p-5, 0x1.3cd31c0000000p-4, 0x1.3f64400000000p-8, 0x1.61bb300000000p-4, 0x1.361ae00000000p-5, 0x1.09af9c0000000p-3, -0x1.6ba8000000000p-5, -0x1.9e8ce00000000p-4, 0x1.665f280000000p-4, -0x1.ae84a00000000p-4, -0x1.7b33740000000p-5, 0x1.dcade00000000p-4, -0x1.a680cc0000000p-5, 0x1.59730c0000000p-4, -0x1.170e820000000p-3, -0x1.3d2e2c0000000p-5, -0x1.7291380000000p-4, 0x1.e0a1000000000p-4, 0x1.250b600000000p-3, -0x1.323d620000000p-4, -0x1.b406e00000000p-4, 0x1.5088400000000p-7, 0x1.0b51f40000000p-3, 0x1.d453300000000p-5, 0x1.1691ec0000000p-3, -0x1.0565c80000000p-5, -0x1.1b509e0000000p-3, -0x1.6dff5c0000000p-5, 0x1.a60a940000000p-4, -0x1.08aaba0000000p-4}
, {-0x1.1d53820000000p-4, -0x1.24c1d60000000p-4, -0x1.d42f3e0000000p-4, -0x1.201ebc0000000p-3, 0x1.46f0280000000p-4, 0x1.af08980000000p-4, -0x1.563e620000000p-4, 0x1.8687a00000000p-5, -0x1.6e43180000000p-4, -0x1.a383280000000p-4, -0x1.0554080000000p-5, 0x1.501b400000000p-6, 0x1.2027c00000000p-7, 0x1.8ed3500000000p-6, 0x1.4968240000000p-4, 0x1.4177400000000p-7, -0x1.b007d00000000p-6, 0x1.226df80000000p-3, -0x1.3bc85c0000000p-5, 0x1.3fd6000000000p-11, -0x1.80d12c0000000p-4, 0x1.357f000000000p-4, -0x1.b78b300000000p-4, 0x1.0cd8fc0000000p-3, 0x1.2288e00000000p-3, -0x1.5761000000000p-4, -0x1.1b99da0000000p-3, 0x1.8100680000000p-5, 0x1.8138000000000p-10, 0x1.e28f400000000p-4, 0x1.8905b00000000p-6, -0x1.f9de000000000p-8}
}
, {{0x1.d414e80000000p-4, -0x1.d8df4e0000000p-4, -0x1.bc65760000000p-4, -0x1.0bb2240000000p-3, -0x1.f66dd60000000p-4, 0x1.3c66d80000000p-4, 0x1.7873380000000p-5, -0x1.7a1cc80000000p-4, 0x1.dd01900000000p-5, 0x1.943e800000000p-9, 0x1.2a11ac0000000p-4, -0x1.9bda300000000p-4, 0x1.8c5c280000000p-5, -0x1.f9ab180000000p-5, 0x1.6e8c880000000p-5, 0x1.bc89c00000000p-7, -0x1.1aab400000000p-8, 0x1.a305e00000000p-4, -0x1.0af10c0000000p-5, 0x1.bd06280000000p-5, 0x1.5b29840000000p-4, -0x1.7923de0000000p-4, 0x1.0907540000000p-3, 0x1.5b90340000000p-4, 0x1.2251000000000p-6, 0x1.3b92300000000p-6, 0x1.a919600000000p-7, 0x1.a5a2140000000p-4, 0x1.9d1c600000000p-7, -0x1.b02a7e0000000p-4, -0x1.31dfe00000000p-6, 0x1.a9d9e00000000p-5}
, {0x1.534dbc0000000p-4, -0x1.76234c0000000p-5, 0x1.b832900000000p-6, 0x1.cbe5a00000000p-5, -0x1.cb33040000000p-5, -0x1.6f62a40000000p-5, -0x1.0528680000000p-3, 0x1.1c91340000000p-3, 0x1.201e040000000p-3, 0x1.1b6c400000000p-4, -0x1.095fec0000000p-3, -0x1.369dc00000000p-8, 0x1.0ae32c0000000p-3, 0x1.0fa17c0000000p-3, -0x1.ad18640000000p-4, 0x1.719d080000000p-4, 0x1.6dc1700000000p-4, 0x1.dcd9400000000p-8, 0x1.e94bc00000000p-6, -0x1.453e760000000p-4, -0x1.e2fce80000000p-6, -0x1.24c4da0000000p-3, -0x1.1cd2860000000p-3, 0x1.6f7c680000000p-4, -0x1.857ac40000000p-4, -0x1.ca90d80000000p-4, -0x1.b4657e0000000p-4, 0x1.faaf800000000p-7, 0x1.01e9d80000000p-3, -0x1.2637cc0000000p-3, 0x1.7991100000000p-4, -0x1.66cac40000000p-4}
, {-0x1.3e6d180000000p-4, 0x1.f242800000000p-8, -0x1.d720c00000000p-5, -0x1.4c7a480000000p-5, -0x1.6fafb00000000p-4, -0x1.07a0900000000p-3, -0x1.538e400000000p-4, 0x1.835a400000000p-4, -0x1.daccf00000000p-4, -0x1.35e4200000000p-6, 0x1.f1fdc00000000p-4, 0x1.2dc1b00000000p-4, -0x1.121fae0000000p-3, -0x1.b4d5dc0000000p-5, 0x1.214ccc0000000p-3, 0x1.4b85a00000000p-5, 0x1.97c3800000000p-7, 0x1.1d64580000000p-3, -0x1.7bcdae0000000p-4, -0x1.39ce400000000p-6, -0x1.9f0f700000000p-4, 0x1.cd9c580000000p-4, -0x1.fe41880000000p-4, 0x1.377de00000000p-7, -0x1.f725940000000p-4, 0x1.1be25c0000000p-3, -0x1.25aeea0000000p-3, 0x1.8fb3000000000p-5, -0x1.04de200000000p-6, 0x1.24c3080000000p-4, -0x1.c14ab40000000p-5, -0x1.7057b80000000p-6}
}
, {{0x1.3a68200000000p-5, 0x1.ec1d800000000p-5, -0x1.d9a8800000000p-7, 0x1.eb03400000000p-6, -0x1.a037280000000p-6, -0x1.84a0200000000p-6, -0x1.234e6c0000000p-4, -0x1.559cb80000000p-4, -0x1.c28a340000000p-4, -0x1.18a27e0000000p-3, 0x1.4403780000000p-5, 0x1.b05d400000000p-7, -0x1.a6fa300000000p-6, 0x1.4367c00000000p-6, 0x1.753de00000000p-6, -0x1.180d100000000p-6, 0x1.0a6fe00000000p-3, -0x1.b6c2e80000000p-6, -0x1.175ef00000000p-4, 0x1.d460c80000000p-4, -0x1.7618140000000p-4, -0x1.1fa2da0000000p-3, -0x1.7694e40000000p-5, -0x1.007db00000000p-4, 0x1.d0c3800000000p-4, 0x1.17b30c0000000p-4, 0x1.9c1f080000000p-5, -0x1.835e140000000p-4, 0x1.1047b80000000p-3, 0x1.322a680000000p-5, 0x1.efe8480000000p-4, -0x1.63f4a00000000p-6}
