/**
  ******************************************************************************
  * @file    weights/conv1d.cc
  * @author  Pierre-Emmanuel Novac <penovac@unice.fr>, LEAT, CNRS, Université Côte d'Azur, France
  * @version 1.0.0
  * @date    24 march 2020
  * @brief   Template generating plain C code for the implementation of Convolutional Neural Networks on MCU
  */

#include <stdint.h>

#define INPUT_CHANNELS    8
#define CONV_FILTERS      8
#define CONV_KERNEL_SIZE  3
#define CONV_GROUPS       1


const float  conv1d_21_bias[CONV_FILTERS] = {0x0.0p+0, 0x0.0p+0, 0x0.0p+0, 0x0.0p+0, 0x0.0p+0, 0x0.0p+0, 0x0.0p+0, 0x0.0p+0}
;

const float  conv1d_21_kernel[CONV_FILTERS][CONV_KERNEL_SIZE][INPUT_CHANNELS / CONV_GROUPS] = {{{-0x1.86ba400000000p-6, 0x1.c376500000000p-4, 0x1.29f87e0000000p-2, 0x1.985bb80000000p-4, 0x1.2909200000000p-4, -0x1.0f4c4a0000000p-3, 0x1.2f943a0000000p-2, -0x1.345a760000000p-2}
, {-0x1.e225bc0000000p-3, -0x1.bfd1300000000p-3, 0x1.6c50800000000p-7, -0x1.c394880000000p-4, 0x1.ec40b00000000p-4, 0x1.369e5a0000000p-2, 0x1.48a6ae0000000p-2, 0x1.53f49a0000000p-2}
, {-0x1.55b6f60000000p-3, -0x1.4313200000000p-5, 0x1.2864000000000p-10, 0x1.6657200000000p-6, -0x1.5415a00000000p-5, -0x1.5c660c0000000p-2, 0x1.6ad21c0000000p-3, -0x1.59a3400000000p-5}
}
, {{0x1.5fbc600000000p-6, 0x1.e23c000000000p-6, 0x1.e1754c0000000p-3, 0x1.8fd7300000000p-4, 0x1.4267640000000p-3, 0x1.9c92700000000p-5, -0x1.69a0700000000p-4, 0x1.2639fe0000000p-2}
, {0x1.668b680000000p-4, -0x1.5e346e0000000p-3, -0x1.4acfa80000000p-3, -0x1.3d2a580000000p-4, 0x1.a4a3b40000000p-3, 0x1.19ddfa0000000p-2, 0x1.0b52980000000p-3, -0x1.0803360000000p-3}
, {-0x1.cf5cea0000000p-3, 0x1.6447c40000000p-3, -0x1.53ed1c0000000p-3, 0x1.35fe740000000p-3, 0x1.3044b40000000p-3, 0x1.0346f80000000p-3, 0x1.5a6b1c0000000p-3, 0x1.3948e40000000p-3}
}
, {{-0x1.1344b00000000p-5, -0x1.4958380000000p-4, 0x1.33f95e0000000p-2, -0x1.12a8e20000000p-2, 0x1.3f8d040000000p-3, 0x1.64673c0000000p-3, -0x1.1f19e80000000p-4, 0x1.5485dc0000000p-3}
, {-0x1.38547e0000000p-3, -0x1.621f280000000p-3, 0x1.9c2a540000000p-3, 0x1.88cdd40000000p-3, 0x1.5203d60000000p-2, -0x1.3936780000000p-4, -0x1.e980180000000p-3, 0x1.4058960000000p-2}
, {-0x1.59fa600000000p-6, -0x1.37cc780000000p-3, -0x1.44dd580000000p-2, -0x1.0c08200000000p-4, -0x1.7ce5300000000p-3, -0x1.571ef80000000p-3, 0x1.34c12a0000000p-2, 0x1.75dccc0000000p-3}
}
, {{-0x1.6489300000000p-2, -0x1.8727800000000p-6, 0x1.58709e0000000p-2, -0x1.f1979c0000000p-4, 0x1.c19e0c0000000p-3, 0x1.9ff2f00000000p-4, -0x1.1102800000000p-2, -0x1.b1c0840000000p-4}
, {0x1.0a56ca0000000p-2, 0x1.d64a800000000p-6, 0x1.36492a0000000p-2, 0x1.1d888a0000000p-2, -0x1.f1e9960000000p-3, 0x1.8772e40000000p-3, -0x1.0d719a0000000p-2, 0x1.c98a2c0000000p-3}
, {-0x1.1119200000000p-2, -0x1.58d11c0000000p-2, -0x1.15cdcc0000000p-3, 0x1.3fdf600000000p-4, 0x1.2ae5cc0000000p-3, -0x1.52302a0000000p-2, -0x1.819f800000000p-5, 0x1.212e020000000p-2}
}
, {{-0x1.8dbd580000000p-3, -0x1.5ea71e0000000p-3, -0x1.4b3c800000000p-4, 0x1.fc27e40000000p-3, 0x1.c5ebf40000000p-3, 0x1.0c56800000000p-3, 0x1.19303e0000000p-2, 0x1.c1cafc0000000p-3}
, {-0x1.3ce96e0000000p-2, 0x1.aabda40000000p-3, -0x1.5661220000000p-2, 0x1.fb1aa00000000p-5, 0x1.1e1ac80000000p-3, -0x1.cb44000000000p-6, 0x1.4bdcc60000000p-2, 0x1.1194ce0000000p-2}
, {0x1.3534360000000p-2, -0x1.5578f60000000p-3, 0x1.f431640000000p-3, 0x1.ece45c0000000p-3, -0x1.5eacdc0000000p-2, -0x1.421b680000000p-2, -0x1.54731c0000000p-2, -0x1.13d33e0000000p-2}
}
, {{0x1.b306200000000p-4, 0x1.431dc00000000p-6, 0x1.18c7ba0000000p-2, 0x1.a092240000000p-3, -0x1.3d9c000000000p-4, 0x1.1a89980000000p-4, -0x1.5b24800000000p-7, -0x1.06c2c80000000p-2}
, {0x1.f512200000000p-5, -0x1.0355800000000p-6, -0x1.1fff7c0000000p-2, -0x1.0fd18a0000000p-2, 0x1.eeb9480000000p-4, 0x1.4c03e80000000p-4, 0x1.3186500000000p-4, -0x1.828fae0000000p-3}
, {0x1.a7a6700000000p-4, -0x1.66f81a0000000p-2, -0x1.1ae07c0000000p-2, 0x1.8eb2b80000000p-4, 0x1.3c80c40000000p-3, 0x1.b46d440000000p-3, 0x1.0779800000000p-8, -0x1.5ff7700000000p-3}
}
, {{0x1.21e1200000000p-6, -0x1.9bdac00000000p-4, 0x1.5480a60000000p-2, 0x1.0ad3600000000p-5, 0x1.e439a40000000p-3, -0x1.ba1bc60000000p-3, 0x1.11587c0000000p-3, -0x1.4035800000000p-5}
, {0x1.b39bd40000000p-3, 0x1.294f360000000p-2, -0x1.c3c8e00000000p-5, 0x1.48fd740000000p-3, 0x1.8ff8d40000000p-3, 0x1.7ecd3c0000000p-3, -0x1.4b33120000000p-2, 0x1.d3c2500000000p-4}
, {-0x1.5fbb280000000p-4, 0x1.da9f5c0000000p-3, 0x1.6363600000000p-5, -0x1.3ecb4e0000000p-3, -0x1.70544a0000000p-3, -0x1.66a4d20000000p-3, 0x1.29f2b80000000p-3, 0x1.265e6e0000000p-2}
}
, {{-0x1.b866800000000p-5, 0x1.41364e0000000p-2, -0x1.2d1ed80000000p-4, -0x1.c75dd80000000p-3, 0x1.42365c0000000p-3, 0x1.3c6dee0000000p-2, 0x1.a602800000000p-8, 0x1.2c464e0000000p-2}
, {0x1.9561840000000p-3, 0x1.8eecf80000000p-4, -0x1.58862e0000000p-2, 0x1.0547e60000000p-2, 0x1.1c4f340000000p-3, 0x1.662ec00000000p-6, 0x1.893fac0000000p-3, -0x1.24f0840000000p-3}
, {-0x1.0a2dbc0000000p-2, 0x1.0a0ab20000000p-2, -0x1.30f03c0000000p-2, 0x1.35ffc00000000p-4, -0x1.b21c700000000p-5, -0x1.4882fe0000000p-2, 0x1.5c3b120000000p-2, -0x1.9408500000000p-4}
}
}
;

#undef INPUT_CHANNELS
#undef CONV_FILTERS
#undef CONV_KERNEL_SIZE
#undef CONV_GROUPS