/**
  ******************************************************************************
  * @file    weights/conv1d.cc
  * @author  Pierre-Emmanuel Novac <penovac@unice.fr>, LEAT, CNRS, Université Côte d'Azur, France
  * @version 1.0.0
  * @date    24 march 2020
  * @brief   Template generating plain C code for the implementation of Convolutional Neural Networks on MCU
  */

#include <stdint.h>

#define INPUT_CHANNELS    16
#define CONV_FILTERS      32
#define CONV_KERNEL_SIZE  3
#define CONV_GROUPS       1


const float  conv1d_47_bias[CONV_FILTERS] = {0x1.d12b780000000p-1, 0x1.b8e41a0000000p-1, 0x1.6a15160000000p+0, 0x1.3ef9b40000000p-3, 0x1.b045620000000p-1, -0x1.c954860000000p-4, 0x1.a4cb780000000p-1, -0x1.4f21920000000p-3, -0x1.259e500000000p-3, 0x1.7b26820000000p-1, 0x1.15d8640000000p+0, 0x1.13a1de0000000p+0, 0x1.160a460000000p-3, 0x1.7c6a520000000p-1, 0x1.9d39940000000p-3, -0x1.72bbf20000000p-4, 0x1.aa41280000000p-2, 0x1.4b22fa0000000p-2, 0x1.1eb0100000000p-1, 0x1.457b2a0000000p-1, 0x1.52650a0000000p-1, 0x1.abe0440000000p-4, 0x1.706a7a0000000p-3, 0x1.354e360000000p+0, 0x1.0d74780000000p-2, 0x1.e1e8100000000p-2, 0x1.22426a0000000p-3, 0x1.0a30420000000p-1, 0x1.221c840000000p-2, -0x1.08a5c20000000p-4, 0x1.9a7f0e0000000p-2, 0x1.fc556a0000000p-1}
;

const float  conv1d_47_kernel[CONV_FILTERS][CONV_KERNEL_SIZE][INPUT_CHANNELS / CONV_GROUPS] = {{{-0x1.b301960000000p-2, 0x1.c2d9e00000000p-3, -0x1.2bd0060000000p-6, 0x1.bd9f360000000p-3, -0x1.91cf1a0000000p-2, 0x1.7e7ba00000000p-5, 0x1.a76f0c0000000p-3, -0x1.a30d320000000p-3, 0x1.f48ff80000000p-4, -0x1.d534e80000000p-2, 0x1.7150e20000000p-9, -0x1.ce6f3c0000000p-4, -0x1.d8a50a0000000p-9, 0x1.0ce29c0000000p-2, -0x1.c451b60000000p-2, 0x1.535b600000000p-3}
, {-0x1.c987400000000p-2, -0x1.4438ac0000000p-4, -0x1.2019b00000000p-2, -0x1.9bca760000000p-3, -0x1.6451760000000p-3, 0x1.f7ce340000000p-3, -0x1.0469020000000p-1, 0x1.f4255e0000000p-5, 0x1.bab3da0000000p-4, -0x1.15bd8c0000000p-2, -0x1.46e47e0000000p-3, -0x1.6e04700000000p-3, 0x1.35a7c80000000p-7, -0x1.3f6d300000000p-3, -0x1.e7f5fe0000000p-3, 0x1.bcc1b40000000p-3}
, {-0x1.016c3c0000000p-1, 0x1.03a18c0000000p-4, -0x1.5735bc0000000p-7, -0x1.ca4f180000000p-4, -0x1.9349f80000000p-3, -0x1.7f919e0000000p-4, -0x1.58ae7e0000000p-2, 0x1.7b336a0000000p-3, -0x1.bf9b5a0000000p-2, -0x1.b024f40000000p-2, -0x1.ddf07c0000000p-3, 0x1.8c884c0000000p-4, 0x1.083dfc0000000p-4, -0x1.02c4940000000p-3, -0x1.76cb2e0000000p-2, -0x1.07616a0000000p-3}
}
, {{-0x1.4bf4460000000p-3, -0x1.1344180000000p-4, 0x1.9e31b20000000p-6, -0x1.47eaac0000000p-3, 0x1.d4285c0000000p-3, -0x1.1f42020000000p-2, 0x1.a09f200000000p-3, -0x1.a1e8100000000p-4, 0x1.e0ba840000000p-5, -0x1.fb2ae60000000p-5, -0x1.5f4ff60000000p-1, -0x1.8820720000000p-5, 0x1.0b4b8a0000000p-5, -0x1.97acda0000000p-3, -0x1.2ebb2a0000000p-3, -0x1.3a018a0000000p-3}
, {0x1.23ec540000000p-4, -0x1.333aa80000000p-3, -0x1.42c9240000000p-2, -0x1.c894220000000p-2, 0x1.73866c0000000p-4, 0x1.f650140000000p-3, -0x1.00e6200000000p-1, 0x1.1679be0000000p-2, -0x1.1a98720000000p-8, -0x1.3cdf6c0000000p-1, -0x1.58b5b00000000p-2, -0x1.cf123e0000000p-5, -0x1.3019600000000p-2, -0x1.cf272a0000000p-3, -0x1.a625460000000p-2, -0x1.8a83900000000p-4}
, {-0x1.0eebc20000000p-4, -0x1.577d060000000p-4, -0x1.02c7cc0000000p-3, 0x1.4255fa0000000p-3, -0x1.3a40f40000000p-1, 0x1.7cfbc00000000p-3, -0x1.55ecdc0000000p-1, -0x1.a391600000000p-6, 0x1.eb77740000000p-5, -0x1.1cfc660000000p-2, -0x1.f5422e0000000p-3, -0x1.194ca40000000p-4, -0x1.b6c8160000000p-2, 0x1.723eda0000000p-6, 0x1.72ce140000000p-3, 0x1.c054680000000p-3}
}
, {{-0x1.9861e40000000p-4, 0x1.6df8240000000p-5, 0x1.de3dee0000000p-4, -0x1.16420c0000000p-4, -0x1.bc184c0000000p-7, 0x1.320bc40000000p-3, 0x1.2577e00000000p-3, -0x1.9d54760000000p-3, 0x1.6c8df20000000p-3, -0x1.4eb2280000000p-4, 0x1.6316cc0000000p-2, 0x1.3302460000000p-4, -0x1.b7dbba0000000p-5, 0x1.01999a0000000p-5, -0x1.dd34e60000000p-3, -0x1.86b8d00000000p-5}
, {0x1.a12ce80000000p-5, -0x1.f6fd580000000p-2, -0x1.661d0e0000000p-5, -0x1.3b38ba0000000p-2, -0x1.1e61480000000p-6, -0x1.eb6e5c0000000p-4, 0x1.1c38f00000000p-3, -0x1.7aa88e0000000p-2, 0x1.22ab180000000p-4, -0x1.a45cee0000000p-2, 0x1.6d49440000000p-2, 0x1.503a720000000p-4, -0x1.c2dfbe0000000p-2, -0x1.2cfd040000000p-2, -0x1.8a07a80000000p-3, -0x1.a2e8740000000p-4}
, {0x1.6330e60000000p-4, -0x1.4710240000000p-2, -0x1.a89e9c0000000p-3, 0x1.48bece0000000p-3, 0x1.075dee0000000p-3, -0x1.9d1b8a0000000p-4, -0x1.5bcaec0000000p-8, -0x1.e462e60000000p-4, -0x1.8416980000000p-5, -0x1.015c420000000p-1, 0x1.ae2b7a0000000p-3, 0x1.35761c0000000p-2, -0x1.c738220000000p-2, -0x1.4b26200000000p-1, 0x1.288a100000000p-2, -0x1.b311f00000000p-3}
}
, {{-0x1.86e3aa0000000p-2, 0x1.1152020000000p-3, 0x1.47983a0000000p-5, -0x1.1846c20000000p-2, 0x1.0ed42a0000000p-3, 0x1.55d9640000000p-3, 0x1.81b6480000000p-6, 0x1.8e67740000000p-3, 0x1.5e38200000000p-3, 0x1.074bfa0000000p-4, -0x1.0606fa0000000p-4, 0x1.bc9bbe0000000p-4, 0x1.5e4ba20000000p-5, 0x1.9fc3c60000000p-3, -0x1.7f278c0000000p-2, 0x1.23cdfe0000000p-3}
, {0x1.74be6c0000000p-2, -0x1.5392d60000000p-4, -0x1.2f04b20000000p-3, -0x1.5721900000000p-4, -0x1.3fc8760000000p-2, -0x1.9977b20000000p-4, -0x1.e6d8120000000p-3, 0x1.d303a80000000p-7, -0x1.99622c0000000p-2, -0x1.57d94e0000000p-4, -0x1.db08420000000p-2, -0x1.c0be9c0000000p-5, -0x1.8f25da0000000p-4, 0x1.fe6a400000000p-3, -0x1.2f3d060000000p-3, -0x1.52477c0000000p-10}
, {0x1.f514c00000000p-6, -0x1.019faa0000000p-1, -0x1.7e74800000000p-3, -0x1.bb8d960000000p-3, -0x1.fe7cda0000000p-3, -0x1.301ba80000000p-8, 0x1.bc39900000000p-4, -0x1.4ab2660000000p-1, 0x1.3a57900000000p-2, 0x1.aac8f60000000p-2, -0x1.c7c1380000000p-3, 0x1.7115140000000p-4, -0x1.4791f00000000p-3, -0x1.05c2000000000p-1, 0x1.60bc520000000p-2, -0x1.fe96b20000000p-2}
}
, {{0x1.6b532e0000000p-4, -0x1.0d351c0000000p-2, -0x1.abd9260000000p-2, 0x1.54f46e0000000p-2, -0x1.fecdba0000000p-3, 0x1.4ab6640000000p-3, 0x1.eacbb20000000p-5, -0x1.2f5fae0000000p-3, -0x1.a9d9160000000p-5, 0x1.bdf1680000000p-2, 0x1.6ef0820000000p-3, 0x1.8ed7cc0000000p-6, -0x1.26c7b60000000p-4, -0x1.21602c0000000p-3, -0x1.9e66a80000000p-1, -0x1.f0b4020000000p-2}
, {-0x1.12c4a80000000p-2, -0x1.d2b1760000000p-4, 0x1.8667e40000000p-7, -0x1.b187240000000p-3, 0x1.05393a0000000p-5, -0x1.db17f80000000p-2, -0x1.81c48e0000000p-7, -0x1.0485ac0000000p-8, -0x1.2dc7e00000000p-2, 0x1.a5e3fe0000000p-3, -0x1.0de8980000000p-4, 0x1.6705420000000p-4, 0x1.9b2a1c0000000p-4, 0x1.19f3760000000p-3, -0x1.8ed3500000000p-2, -0x1.fb97280000000p-4}
, {-0x1.7998d80000000p-2, 0x1.fb83c40000000p-5, 0x1.4406a20000000p-4, -0x1.2fbbcc0000000p-1, 0x1.2e7e100000000p-6, -0x1.3ec09a0000000p-4, 0x1.6ced1a0000000p-3, 0x1.615a020000000p-4, -0x1.9ff6f20000000p-3, -0x1.1752440000000p-2, -0x1.a45fda0000000p-2, -0x1.a1e5a80000000p-7, 0x1.1974be0000000p-3, -0x1.7194860000000p-2, -0x1.946d220000000p-3, -0x1.74b7de0000000p-4}
}
, {{-0x1.a6c6060000000p-5, -0x1.d099180000000p-3, -0x1.3e95e60000000p-6, -0x1.b8d3420000000p-6, -0x1.0bca600000000p-3, 0x1.6c4d880000000p-4, -0x1.8b82620000000p-2, 0x1.31ab8a0000000p-4, 0x1.430d980000000p-5, -0x1.db3aa80000000p-3, 0x1.f837ec0000000p-4, -0x1.97e6440000000p-3, 0x1.7fb31a0000000p-3, 0x1.35b88c0000000p-2, 0x1.f791740000000p-4, -0x1.f689580000000p-4}
, {-0x1.b537680000000p-4, -0x1.08737a0000000p-1, -0x1.f0a8640000000p-5, 0x1.5e986c0000000p-10, -0x1.2ddb020000000p-4, -0x1.59c4b60000000p-2, 0x1.81049e0000000p-3, -0x1.641eb60000000p-2, 0x1.bd880c0000000p-5, -0x1.126cbe0000000p-2, -0x1.2667f00000000p-3, -0x1.9c69f20000000p-7, 0x1.da56080000000p-5, -0x1.c3d31e0000000p-5, 0x1.01e2860000000p-4, -0x1.bfa4f40000000p-4}
, {0x1.1a95b80000000p-6, -0x1.d77b100000000p-2, -0x1.23839e0000000p-2, -0x1.e322b40000000p-3, -0x1.28c5860000000p-2, -0x1.2a47280000000p-1, 0x1.bf48ae0000000p-3, -0x1.58e1260000000p-2, -0x1.d242a60000000p-2, -0x1.131e780000000p-6, -0x1.d601340000000p-3, 0x1.7171200000000p-7, 0x1.576e9c0000000p-3, -0x1.6558880000000p-4, 0x1.13929c0000000p-4, -0x1.02b9a80000000p-5}
}
, {{-0x1.eba7ac0000000p-5, 0x1.b8d7560000000p-3, -0x1.5383f40000000p-4, -0x1.1b752c0000000p-3, 0x1.969b060000000p-5, 0x1.fcf26a0000000p-4, 0x1.716dca0000000p-3, 0x1.10e38a0000000p-4, 0x1.4985f80000000p-3, -0x1.d90be20000000p-3, 0x1.7a89fa0000000p-4, -0x1.a7f60c0000000p-4, -0x1.a4ec340000000p-4, 0x1.3494a40000000p-3, -0x1.20d1ec0000000p-3, -0x1.93036c0000000p-5}
, {0x1.51a0880000000p-4, 0x1.f1d46a0000000p-4, -0x1.3af9180000000p-3, 0x1.23716e0000000p-8, -0x1.2d834c0000000p-7, 0x1.2365780000000p-8, 0x1.16cb000000000p-3, -0x1.6db8aa0000000p-4, 0x1.55abe60000000p-5, -0x1.7df98e0000000p-3, 0x1.f6cbd20000000p-5, -0x1.b693d20000000p-3, 0x1.4496ae0000000p-3, 0x1.c00f600000000p-3, -0x1.1733da0000000p-3, -0x1.5f22c40000000p-3}
, {-0x1.2542300000000p-1, 0x1.2ecd320000000p-4, 0x1.f603980000000p-6, -0x1.313df80000000p-1, 0x1.8d09060000000p-3, -0x1.2df1540000000p-1, -0x1.cb2a7e0000000p-5, -0x1.46221a0000000p-4, -0x1.19ae440000000p-3, -0x1.81b0d20000000p-3, -0x1.53388c0000000p-4, 0x1.8dc43e0000000p-6, 0x1.aa5e240000000p-6, -0x1.1b0c0c0000000p-3, -0x1.e1fc640000000p-4, -0x1.6d8b360000000p-2}
}
, {{0x1.6c8cbc0000000p-5, -0x1.ad97920000000p-3, -0x1.0fa0e60000000p-2, -0x1.3ee2160000000p-4, -0x1.b22e8e0000000p-4, -0x1.72742c0000000p-2, -0x1.aba25c0000000p-3, -0x1.0320b00000000p-3, -0x1.f84cdc0000000p-8, -0x1.bf8c820000000p-5, -0x1.42bae40000000p-5, 0x1.9108880000000p-5, -0x1.12dd6a0000000p-2, -0x1.09e7200000000p-3, 0x1.13920c0000000p-4, 0x1.b7e6240000000p-5}
, {-0x1.59da880000000p-2, -0x1.7920200000000p-3, 0x1.64ff280000000p-4, 0x1.a80be40000000p-5, -0x1.6d93820000000p-3, -0x1.1a631e0000000p-3, 0x1.6d70760000000p-7, -0x1.84e8bc0000000p-6, -0x1.ac65520000000p-6, -0x1.3f6a860000000p-4, -0x1.9925e00000000p-7, -0x1.ebf6520000000p-4, -0x1.71c4720000000p-4, 0x1.87c13c0000000p-7, -0x1.d6ef480000000p-4, -0x1.4722280000000p-3}
, {-0x1.67ce220000000p-3, -0x1.1c787e0000000p-3, 0x1.18e9c60000000p-4, -0x1.e62f7e0000000p-4, -0x1.86b53a0000000p-3, 0x1.7c59ba0000000p-8, -0x1.44593a0000000p-5, 0x1.40d4ec0000000p-4, -0x1.58ab400000000p-4, -0x1.59797a0000000p-3, -0x1.9e8c860000000p-8, -0x1.5e299c0000000p-3, 0x1.60ddd20000000p-3, -0x1.4c844c0000000p-2, 0x1.6820aa0000000p-6, -0x1.2cd2940000000p-4}
}
, {{0x1.0853ca0000000p-6, -0x1.e5f2180000000p-2, -0x1.2e8f820000000p-2, 0x1.8ab0720000000p-2, -0x1.2e33420000000p-4, 0x1.0a55920000000p-3, -0x1.b0f08e0000000p-3, -0x1.301cf40000000p-2, 0x1.4d83fa0000000p-4, 0x1.e82efc0000000p-2, 0x1.e927de0000000p-8, -0x1.05fc180000000p-3, -0x1.7ec70a0000000p-3, 0x1.1d41000000000p-2, 0x1.bebbc00000000p-3, -0x1.453d980000000p-1}
, {-0x1.6e61580000000p-3, -0x1.dccf100000000p-4, -0x1.76d9c20000000p-6, -0x1.016b4e0000000p-2, 0x1.a7405e0000000p-3, 0x1.1ba10e0000000p-4, -0x1.cacf5e0000000p-8, 0x1.22f2820000000p-3, 0x1.fd1e280000000p-4, 0x1.8c70560000000p-3, -0x1.710fd60000000p-4, -0x1.e71bb60000000p-5, -0x1.57878a0000000p-3, -0x1.a3d8ae0000000p-2, 0x1.10582e0000000p-3, -0x1.3696d00000000p-1}
, {-0x1.f5dffa0000000p-2, -0x1.fed48e0000000p-6, -0x1.247a6e0000000p-3, -0x1.ffbaa40000000p-3, -0x1.3a0acc0000000p-4, 0x1.af610a0000000p-4, -0x1.0013920000000p-2, 0x1.5812ae0000000p-5, -0x1.3b04960000000p-2, 0x1.5425aa0000000p-5, -0x1.ceedec0000000p-2, 0x1.203e3a0000000p-3, -0x1.6124400000000p-2, -0x1.51282a0000000p-2, -0x1.c96ecc0000000p-3, 0x1.75bb3a0000000p-3}
}
, {{-0x1.09d2500000000p-1, 0x1.31013c0000000p-3, -0x1.5e0cca0000000p-2, -0x1.353a1a0000000p-5, -0x1.2c46300000000p-2, -0x1.f01b500000000p-3, -0x1.ef2a240000000p-4, -0x1.85c15a0000000p-3, 0x1.ffb7100000000p-5, -0x1.3b28060000000p-9, -0x1.7207c80000000p-1, 0x1.eac4020000000p-3, -0x1.4694520000000p-10, 0x1.499eaa0000000p-2, -0x1.d1fce00000000p-4, 0x1.9ca28c0000000p-2}
, {-0x1.b767f20000000p-3, 0x1.4d27ba0000000p-3, 0x1.a6da2c0000000p-6, 0x1.00f77a0000000p-4, 0x1.ec72300000000p-5, -0x1.18ac560000000p-5, -0x1.d963b60000000p-11, -0x1.868f640000000p-3, 0x1.469c940000000p-2, -0x1.35cdf00000000p-2, -0x1.19db020000000p-1, -0x1.41ba720000000p-11, -0x1.c7454c0000000p-2, 0x1.0eda840000000p-6, -0x1.34cd180000000p-2, -0x1.3dc8480000000p-3}
, {0x1.90c12a0000000p-3, -0x1.9642760000000p-2, 0x1.86b75c0000000p-9, 0x1.aa471c0000000p-3, 0x1.83cd6a0000000p-4, 0x1.94aac60000000p-6, -0x1.4e26000000000p-4, -0x1.1548860000000p-3, -0x1.1c1bae0000000p-5, -0x1.34f9520000000p-3, -0x1.1543160000000p+0, 0x1.8b512a0000000p-4, -0x1.1733140000000p-1, -0x1.a09ba00000000p-3, 0x1.a3b9420000000p-6, -0x1.db5f080000000p-3}
}
, {{-0x1.8b4fe80000000p-3, -0x1.d9b8ce0000000p-4, -0x1.0317720000000p-2, 0x1.163eea0000000p-2, -0x1.37d5e20000000p-2, -0x1.834fd80000000p-4, -0x1.6460520000000p-6, -0x1.6b8f680000000p-6, -0x1.5b5d4e0000000p-3, -0x1.0393020000000p-2, -0x1.defd9a0000000p-2, -0x1.e95d400000000p-4, 0x1.b3da380000000p-4, -0x1.8353580000000p-2, -0x1.21ff540000000p-2, 0x1.e7a43e0000000p-4}
, {-0x1.de0c260000000p-2, -0x1.843d440000000p-4, 0x1.846cb20000000p-5, -0x1.6cbf680000000p-2, 0x1.49a2320000000p-5, -0x1.b238720000000p-1, -0x1.0727620000000p-3, 0x1.2ef8220000000p-2, -0x1.6cd7f60000000p-2, -0x1.bc00260000000p-3, -0x1.5455220000000p-1, 0x1.29b4d40000000p-3, -0x1.5692180000000p-5, -0x1.21200a0000000p-1, -0x1.085e1c0000000p-1, -0x1.6c1d100000000p-3}
, {-0x1.1161840000000p-3, -0x1.1a882a0000000p-3, -0x1.c2b3e40000000p-4, -0x1.85e5f20000000p-3, 0x1.6b4ac60000000p-3, -0x1.16e6040000000p-4, 0x1.54dbd20000000p-3, 0x1.23c8b60000000p-6, 0x1.7706b00000000p-3, 0x1.326df60000000p-3, -0x1.d97d080000000p-3, -0x1.fec2f80000000p-5, -0x1.c56b000000000p-3, -0x1.f51d680000000p-3, 0x1.2f56100000000p-3, -0x1.8027b20000000p-2}
}
, {{-0x1.8cf2e60000000p-3, -0x1.5dac500000000p-5, -0x1.f70ca00000000p-4, -0x1.ffa4f00000000p-4, -0x1.7221dc0000000p-4, -0x1.c2357a0000000p-9, -0x1.7301780000000p-2, 0x1.152f4c0000000p-3, -0x1.56c2760000000p-2, -0x1.495ad80000000p-2, -0x1.2f99dc0000000p-2, 0x1.8149a00000000p-9, -0x1.d6d4200000000p-5, 0x1.e49b740000000p-3, -0x1.691aa80000000p-3, 0x1.e95da60000000p-4}
, {-0x1.38f8d80000000p-3, -0x1.e1203a0000000p-5, 0x1.3d3a540000000p-5, -0x1.a2e2100000000p-3, 0x1.0fe55e0000000p-4, -0x1.72ece80000000p-1, 0x1.026fce0000000p-2, 0x1.8019940000000p-4, -0x1.661c100000000p-5, -0x1.40ae9c0000000p-2, -0x1.34f61e0000000p-4, 0x1.cebe200000000p-5, 0x1.0c2f440000000p-3, -0x1.54c2ce0000000p-3, -0x1.7a4f720000000p-2, -0x1.03efca0000000p-3}
, {0x1.40bae20000000p-5, -0x1.9fa5ba0000000p-2, -0x1.730e560000000p-6, 0x1.1b6e2a0000000p-2, 0x1.bf018a0000000p-5, -0x1.87f8b40000000p-2, 0x1.90e30c0000000p-3, -0x1.3767c80000000p-2, 0x1.adca840000000p-5, -0x1.39aa5a0000000p-1, -0x1.6d3b8c0000000p-1, -0x1.728e660000000p-3, -0x1.1d48ce0000000p-2, 0x1.efa1380000000p-3, -0x1.3c9b0c0000000p-2, -0x1.181ed20000000p-3}
}
, {{0x1.7172b20000000p-3, -0x1.0425020000000p-2, -0x1.42731e0000000p-1, 0x1.6aa16c0000000p-2, -0x1.9758280000000p-2, -0x1.b296620000000p-1, -0x1.3ca1fe0000000p-4, -0x1.8d22760000000p-2, -0x1.4f88a00000000p-1, 0x1.14ace60000000p-2, -0x1.2aa32c0000000p-2, -0x1.ae5e1c0000000p-2, -0x1.5fa9580000000p-6, -0x1.42b4600000000p-2, -0x1.617dac0000000p-3, -0x1.11db780000000p-4}
, {-0x1.ab0bae0000000p-6, 0x1.8026fe0000000p-4, -0x1.80b6460000000p-4, 0x1.9340080000000p-2, -0x1.6768940000000p-4, -0x1.2848600000000p-2, 0x1.1f36180000000p-4, -0x1.df76b00000000p-4, -0x1.8b32560000000p+0, -0x1.5080f20000000p-4, -0x1.0f99e00000000p-2, -0x1.732f360000000p-2, -0x1.12d9ac0000000p-3, -0x1.d11ed20000000p-2, -0x1.6648900000000p-4, 0x1.13a9f20000000p-2}
, {-0x1.ecd6280000000p-1, 0x1.731d9a0000000p-2, -0x1.21ba560000000p-3, -0x1.0587ae0000000p-1, 0x1.6f60780000000p-4, 0x1.60efea0000000p-3, -0x1.747a7c0000000p-4, 0x1.c735b00000000p-4, 0x1.d676060000000p-6, -0x1.8eb41c0000000p-5, -0x1.06d3c80000000p-2, -0x1.7ceb520000000p-4, 0x1.38521a0000000p-6, -0x1.d029800000000p-1, -0x1.78ff740000000p-3, -0x1.3e71ca0000000p-4}
}
, {{0x1.1068fa0000000p-2, 0x1.6c002c0000000p-4, -0x1.aca04a0000000p-2, 0x1.b581a20000000p-4, -0x1.f7a5fa0000000p-2, 0x1.f63a1a0000000p-4, 0x1.ffad260000000p-2, -0x1.8e7b060000000p-2, 0x1.24e8a40000000p-2, 0x1.e5ff9e0000000p-3, 0x1.8d72fc0000000p-4, -0x1.93a4b40000000p-3, -0x1.b4865c0000000p-4, -0x1.df529a0000000p-3, -0x1.207cde0000000p-2, -0x1.0e1e2a0000000p-5}
, {-0x1.6543900000000p-3, -0x1.006d980000000p-5, -0x1.4063c80000000p-4, -0x1.b3f1600000000p-6, -0x1.40eed00000000p-4, 0x1.946f0a0000000p-3, -0x1.e3528c0000000p-7, 0x1.e72ce80000000p-5, 0x1.24d1240000000p-3, 0x1.e19efc0000000p-4, -0x1.9e3b180000000p-8, 0x1.9367f00000000p-5, 0x1.5660c60000000p-6, -0x1.5d566a0000000p-4, -0x1.b04b820000000p-5, 0x1.26f3380000000p-3}
, {-0x1.db0cdc0000000p-2, -0x1.62315c0000000p-6, -0x1.96568e0000000p-5, -0x1.5bf2700000000p-2, -0x1.8492bc0000000p-2, 0x1.d72a140000000p-4, -0x1.47fce60000000p-1, 0x1.3954100000000p-5, -0x1.572a400000000p-2, -0x1.034eae0000000p-2, -0x1.84b4a60000000p-2, 0x1.558d200000000p-3, -0x1.6153840000000p-3, 0x1.bd5ca60000000p-7, 0x1.12f5680000000p-2, 0x1.2bca620000000p-4}
}
, {{0x1.3380780000000p-2, -0x1.b79ed80000000p-5, -0x1.2e86340000000p-2, 0x1.4fc75e0000000p-4, -0x1.e2273e0000000p-2, 0x1.1e6edc0000000p-6, -0x1.90e64c0000000p-4, -0x1.26a53c0000000p-2, 0x1.6453060000000p-3, 0x1.0ee2f00000000p-2, 0x1.2212100000000p-3, -0x1.9b16d00000000p-3, -0x1.33f4cc0000000p-3, -0x1.0941c40000000p-5, 0x1.d280b20000000p-4, 0x1.8e846e0000000p-3}
, {0x1.1dc9b80000000p-9, 0x1.0e811e0000000p-2, -0x1.1672480000000p-3, -0x1.5cbb740000000p-4, 0x1.2500920000000p-4, -0x1.90f40e0000000p-6, 0x1.5d076e0000000p-6, -0x1.ed1cda0000000p-2, 0x1.37cd960000000p-3, 0x1.a3c7460000000p-3, 0x1.5171e40000000p-2, -0x1.fe7da20000000p-3, 0x1.93d4880000000p-4, -0x1.7230b60000000p-4, -0x1.6cfd820000000p-3, 0x1.03e9460000000p-4}
, {-0x1.f349620000000p-3, -0x1.d4b9480000000p-3, 0x1.2d944e0000000p-6, -0x1.26cb520000000p-2, 0x1.12ca840000000p-3, -0x1.8294d60000000p-4, 0x1.f3496c0000000p-6, -0x1.5d54ae0000000p-2, -0x1.268c2c0000000p-3, -0x1.1fe1d60000000p-5, -0x1.777eb40000000p-2, -0x1.aaa17a0000000p-5, -0x1.e0815c0000000p-3, -0x1.c998160000000p-2, -0x1.97e4ca0000000p-5, -0x1.3a9c040000000p-1}
}
, {{0x1.14b71e0000000p-2, 0x1.75ddd00000000p-5, -0x1.3bdf5a0000000p-2, 0x1.3a52280000000p-1, -0x1.3642340000000p-3, -0x1.65c4cc0000000p-3, -0x1.2e33cc0000000p-2, 0x1.fc0a1a0000000p-8, -0x1.4fd5b80000000p-3, 0x1.ab08fa0000000p-4, 0x1.2881960000000p-2, -0x1.dc2bc80000000p-4, -0x1.123b220000000p-6, 0x1.11d0d80000000p-4, 0x1.12a6b80000000p-4, -0x1.1085360000000p-2}
, {-0x1.a758540000000p-2, 0x1.0593ac0000000p-3, -0x1.0a24080000000p-5, -0x1.75b7320000000p-1, 0x1.1408e80000000p-2, -0x1.19465c0000000p-6, 0x1.9b0e520000000p-3, 0x1.18893e0000000p-3, -0x1.cda7280000000p-7, -0x1.8a768a0000000p-5, 0x1.2ee3120000000p-2, 0x1.2e53160000000p-6, -0x1.eff2300000000p-4, -0x1.a4211c0000000p-2, -0x1.daf1c40000000p-2, -0x1.619ae80000000p-3}
, {0x1.20e24a0000000p-4, -0x1.200b960000000p-3, -0x1.a9ed1e0000000p-3, 0x1.cb5dba0000000p-4, -0x1.b3abe40000000p-3, 0x1.7112ac0000000p-3, 0x1.5c71e40000000p-4, -0x1.d36f560000000p-3, -0x1.d126680000000p-4, -0x1.42e1860000000p-2, 0x1.cef4ac0000000p-5, 0x1.9a77b00000000p-4, -0x1.db77580000000p-4, 0x1.91fbe60000000p-1, -0x1.241fc00000000p-1, 0x1.bc868e0000000p-3}
}
, {{0x1.c842760000000p-6, -0x1.e134260000000p-3, 0x1.6184a00000000p-3, -0x1.1856580000000p-6, 0x1.4761aa0000000p-3, -0x1.56c5680000000p-3, 0x1.6e1e720000000p-5, 0x1.e474040000000p-5, 0x1.e9381a0000000p-4, -0x1.d4929e0000000p-4, -0x1.afc61e0000000p-7, -0x1.0604040000000p-3, -0x1.08ec060000000p-2, -0x1.77bf280000000p-2, -0x1.26f2ee0000000p-3, -0x1.64a6420000000p-1}
, {0x1.6392920000000p-4, -0x1.58055e0000000p-3, -0x1.186ce40000000p-3, 0x1.e54f5e0000000p-4, 0x1.3f04020000000p-9, 0x1.0700420000000p-5, 0x1.9fccba0000000p-4, -0x1.33888e0000000p-1, 0x1.54ab680000000p-4, -0x1.72572e0000000p-4, 0x1.cc12800000000p-4, 0x1.52c45c0000000p-3, -0x1.d773e40000000p-3, 0x1.a349840000000p-3, -0x1.dcf5480000000p-4, 0x1.14f2d60000000p-2}
, {-0x1.1f91f60000000p-2, -0x1.1d6a740000000p-6, -0x1.aa8b320000000p-3, -0x1.a445880000000p-4, -0x1.93704a0000000p-1, 0x1.d330b20000000p-3, 0x1.3f69a20000000p-5, -0x1.4d81220000000p-1, -0x1.b931b40000000p-5, -0x1.7583f60000000p-4, 0x1.186ec00000000p-2, 0x1.fe2f420000000p-6, -0x1.cab8620000000p-3, -0x1.08fe440000000p-2, -0x1.dd5c4c0000000p-5, 0x1.64c6920000000p-2}
}
, {{0x1.80cd5c0000000p-7, 0x1.79a21e0000000p-3, -0x1.1720b20000000p-2, -0x1.0342560000000p-4, -0x1.893e460000000p-4, 0x1.2dd7580000000p-2, -0x1.2f482c0000000p-2, -0x1.86d36a0000000p-9, -0x1.2eed3c0000000p-3, -0x1.6e44660000000p-3, -0x1.c2526e0000000p-6, -0x1.ecaa8a0000000p-7, -0x1.9b6e360000000p-3, 0x1.2121680000000p-1, -0x1.272ab00000000p-2, 0x1.39e15e0000000p-2}
, {0x1.d4b5b20000000p-4, -0x1.466fac0000000p-4, -0x1.eff1d20000000p-2, 0x1.3a17840000000p-3, -0x1.c8c9b20000000p-2, -0x1.9ea1660000000p-3, 0x1.a111780000000p-6, -0x1.ec38940000000p-2, 0x1.133c0c0000000p-5, 0x1.f092600000000p-4, 0x1.55d6e80000000p-3, 0x1.0440080000000p-6, -0x1.34ec220000000p-2, 0x1.69e57a0000000p-4, -0x1.2947d60000000p-6, -0x1.c867fe0000000p-3}
, {-0x1.a4e3f80000000p-3, -0x1.f728da0000000p-4, -0x1.b137600000000p-4, -0x1.4ca0560000000p-3, 0x1.402ed60000000p-3, 0x1.d7e1700000000p-4, 0x1.5497900000000p-3, -0x1.fe4d8c0000000p-5, 0x1.b9e38c0000000p-5, 0x1.2d57440000000p-2, -0x1.e958380000000p-4, -0x1.94d9ba0000000p-5, 0x1.94d45c0000000p-3, -0x1.e803540000000p-7, -0x1.7f378a0000000p-5, -0x1.a2bafe0000000p-2}
}
, {{-0x1.7643600000000p-5, 0x1.112acc0000000p-9, -0x1.416a260000000p-4, 0x1.b458580000000p-4, 0x1.1f34e40000000p-3, -0x1.d2e5020000000p-7, -0x1.97809c0000000p-3, 0x1.53b3740000000p-3, -0x1.1509060000000p-2, -0x1.d815920000000p-4, -0x1.6b0fb40000000p-2, 0x1.fe92dc0000000p-4, 0x1.84875e0000000p-3, 0x1.ae566c0000000p-4, -0x1.22a18a0000000p-3, -0x1.fed4e00000000p-4}
, {-0x1.8f612a0000000p-2, 0x1.c17d520000000p-4, 0x1.46d4ee0000000p-5, -0x1.a2a4e60000000p-1, 0x1.38df000000000p-3, 0x1.02bd9c0000000p-4, 0x1.24b2220000000p-3, -0x1.386e560000000p-2, 0x1.33d3a20000000p-2, -0x1.fa7c680000000p-2, 0x1.9ad2ae0000000p-4, -0x1.b9e82c0000000p-2, -0x1.0c91a60000000p-2, -0x1.0a5e9a0000000p-4, -0x1.7e6b940000000p-2, -0x1.bc73d80000000p-4}
, {-0x1.88bee00000000p-5, -0x1.b4bbd40000000p-5, -0x1.5ca96c0000000p-2, -0x1.d9d3380000000p-4, -0x1.d901720000000p-3, 0x1.82742e0000000p-2, -0x1.a097a00000000p-5, -0x1.01d1b60000000p-3, 0x1.c380bc0000000p-3, -0x1.0dd63c0000000p-1, -0x1.2f87460000000p-8, -0x1.ec5a320000000p-2, -0x1.020b2e0000000p-2, 0x1.326b540000000p-3, 0x1.4c90f20000000p-7, 0x1.3266be0000000p-2}
}
, {{0x1.0182980000000p-4, 0x1.4863340000000p-6, -0x1.4a483c0000000p-1, 0x1.bae1220000000p-2, -0x1.e067840000000p-2, -0x1.2bc7020000000p-5, -0x1.14b0fe0000000p-2, -0x1.f95b120000000p-4, -0x1.3143b00000000p-1, 0x1.f8bab80000000p-4, -0x1.8a4e500000000p-4, -0x1.46b0a00000000p-3, 0x1.9829000000000p-3, -0x1.e0a81c0000000p-2, 0x1.8f6e920000000p-4, 0x1.10f1b00000000p-2}
, {-0x1.3bf7100000000p-2, 0x1.b858e40000000p-3, 0x1.18a3d00000000p-3, -0x1.2619a00000000p-3, 0x1.4303b40000000p-4, 0x1.7e6c540000000p-7, 0x1.8c98fe0000000p-3, 0x1.ea439c0000000p-4, -0x1.92bace0000000p-5, -0x1.06b2960000000p-3, 0x1.1ef1a00000000p-3, -0x1.6ee7340000000p-7, 0x1.95ba500000000p-4, 0x1.7071580000000p-3, -0x1.06c7ae0000000p-2, -0x1.f8a90a0000000p-8}
, {-0x1.7fc77e0000000p-4, -0x1.c3922c0000000p-2, 0x1.d84c5c0000000p-5, -0x1.9343500000000p-2, 0x1.bd345c0000000p-5, 0x1.1d7ed20000000p-4, 0x1.3d12440000000p-2, -0x1.3de80a0000000p-2, 0x1.4e58160000000p-3, -0x1.cde7240000000p-3, 0x1.cd7f3a0000000p-3, 0x1.337bfa0000000p-7, -0x1.6cccc60000000p-3, -0x1.820eec0000000p-2, -0x1.f6e3a20000000p-6, -0x1.4b3e220000000p-1}
}
, {{-0x1.6868b40000000p-3, 0x1.5e4fcc0000000p-4, -0x1.eb43c80000000p-6, -0x1.0d87da0000000p-3, -0x1.23e3bc0000000p-2, 0x1.03c9fa0000000p-2, -0x1.0fed1a0000000p-2, 0x1.14f09e0000000p-3, 0x1.2768780000000p-5, -0x1.ffdea40000000p-2, -0x1.30e73c0000000p-4, -0x1.1878ca0000000p-5, -0x1.5b42a00000000p-2, -0x1.58927a0000000p-3, -0x1.c3c6740000000p-3, 0x1.442a120000000p-4}
, {-0x1.339a320000000p-4, -0x1.1fe94c0000000p-4, -0x1.112fe20000000p-2, -0x1.7d5ba80000000p-3, -0x1.0f76600000000p-1, 0x1.2ee66c0000000p-3, -0x1.329ea60000000p-2, -0x1.35af700000000p-4, 0x1.d0607e0000000p-5, -0x1.0df2a00000000p-1, 0x1.f3de000000000p-6, 0x1.ba98620000000p-3, -0x1.0feb140000000p-4, -0x1.1d9a860000000p-2, -0x1.44433c0000000p-2, 0x1.b197280000000p-3}
, {0x1.21c7ce0000000p-4, 0x1.c347aa0000000p-10, -0x1.a8406a0000000p-3, 0x1.20b4360000000p-2, -0x1.c1457c0000000p-1, -0x1.01f7200000000p-4, 0x1.c62d920000000p-2, -0x1.0dfaac0000000p-1, 0x1.7095980000000p-6, 0x1.ff07c60000000p-5, 0x1.53adda0000000p-3, -0x1.3af2f20000000p-3, -0x1.51f7ea0000000p-1, 0x1.bdfbda0000000p-2, 0x1.3af4700000000p-3, 0x1.28935e0000000p-4}
}
, {{-0x1.aac7de0000000p-5, -0x1.3b3a440000000p-1, -0x1.f748f20000000p-4, -0x1.a188f20000000p-2, -0x1.2dfdd20000000p-3, 0x1.7433a00000000p-4, 0x1.dae7b00000000p-3, -0x1.c651280000000p-3, 0x1.ac5eb20000000p-3, 0x1.177a8e0000000p-3, 0x1.ec4d9e0000000p-2, 0x1.4117240000000p-2, -0x1.b358cc0000000p-5, 0x1.05da1c0000000p-1, -0x1.95c1e60000000p-2, -0x1.1380620000000p-1}
, {0x1.c9c9c00000000p-3, 0x1.8fcb920000000p-6, -0x1.a87e8e0000000p-4, -0x1.1a956e0000000p-2, 0x1.c426d40000000p-9, 0x1.df3a800000000p-5, -0x1.2707220000000p-3, 0x1.1d5c480000000p-4, -0x1.8fcfdc0000000p-4, 0x1.a1d68a0000000p-3, 0x1.5d2ce20000000p-2, -0x1.97ec180000000p-4, 0x1.cf99c40000000p-2, -0x1.16a2060000000p-2, -0x1.6241fc0000000p-2, -0x1.af36520000000p-3}
, {-0x1.531dc80000000p-1, 0x1.cda75e0000000p-4, -0x1.4cbe000000000p-3, -0x1.77c6480000000p-3, 0x1.74717a0000000p-4, -0x1.88b0660000000p-4, -0x1.4420580000000p-5, -0x1.688e700000000p-5, 0x1.ce21ac0000000p-3, -0x1.706b600000000p-4, -0x1.b87c200000000p-1, -0x1.1328880000000p-3, -0x1.437cd00000000p-3, 0x1.b57b140000000p-3, 0x1.3e7ebc0000000p-3, -0x1.2bf23c0000000p-3}
}
, {{-0x1.2443600000000p-1, 0x1.0426020000000p-3, 0x1.fdab6e0000000p-6, -0x1.08b8260000000p-3, -0x1.5949a80000000p-4, 0x1.7c1d8e0000000p-4, 0x1.5640dc0000000p-3, 0x1.e1f6c80000000p-5, -0x1.a75c560000000p-2, -0x1.2a6e100000000p-1, -0x1.65cfdc0000000p-1, -0x1.3e52720000000p-4, 0x1.500b640000000p-6, 0x1.b7c5080000000p-3, 0x1.9b08ae0000000p-5, 0x1.242dd80000000p-4}
, {0x1.3848680000000p-7, -0x1.88399e0000000p-2, -0x1.7730180000000p-4, 0x1.2d825c0000000p-4, -0x1.041df80000000p-4, -0x1.a966ce0000000p-4, 0x1.a150340000000p-2, -0x1.5018f20000000p-1, 0x1.94c9f40000000p-3, -0x1.1a63ac0000000p-2, 0x1.1ba61c0000000p-4, 0x1.966cc40000000p-6, -0x1.31e9ca0000000p-1, -0x1.55e47a0000000p-3, -0x1.cbf96c0000000p-3, -0x1.d532260000000p-4}
, {0x1.de54300000000p-2, -0x1.6619500000000p-3, -0x1.898cba0000000p-2, 0x1.e2889e0000000p-2, -0x1.afccbc0000000p-2, -0x1.322b5c0000000p-1, 0x1.de9f7a0000000p-3, -0x1.7e77d80000000p-2, -0x1.2476e80000000p-1, -0x1.315c280000000p-2, 0x1.9061260000000p-4, -0x1.23edf40000000p-2, -0x1.2d40280000000p-1, -0x1.e40a640000000p-3, -0x1.f714cc0000000p-2, -0x1.159ebe0000000p-3}
}
, {{-0x1.395a3e0000000p-2, 0x1.3a438e0000000p-3, 0x1.5e643a0000000p-4, -0x1.62f2e60000000p-2, 0x1.22b33e0000000p-3, 0x1.4f551e0000000p-3, -0x1.a5dc5a0000000p-3, 0x1.b2a0380000000p-5, -0x1.2664c00000000p-8, 0x1.0c83260000000p-5, 0x1.279ccc0000000p-4, 0x1.2307f80000000p-5, -0x1.ea88de0000000p-3, -0x1.b001ac0000000p-5, -0x1.cac5860000000p-2, 0x1.0612e80000000p-3}
, {-0x1.f6fc000000000p-3, -0x1.5f8e0c0000000p-3, -0x1.fd4c800000000p-5, -0x1.6333a00000000p-2, -0x1.44bce80000000p-3, -0x1.549dd80000000p-5, -0x1.6670500000000p-3, 0x1.31a40c0000000p-3, -0x1.1ee4880000000p-3, -0x1.838ab20000000p-8, -0x1.10424a0000000p-2, 0x1.5ddec80000000p-3, -0x1.6ce4180000000p-3, -0x1.4d90c60000000p-3, -0x1.e2e1520000000p-4, -0x1.a84e5c0000000p-3}
, {-0x1.09f6fc0000000p-2, -0x1.a679120000000p-3, -0x1.a9992a0000000p-5, -0x1.6032f20000000p-3, 0x1.fcd97a0000000p-4, -0x1.68c28c0000000p-2, -0x1.a7629c0000000p-4, 0x1.c941860000000p-4, -0x1.3bfac80000000p-6, 0x1.b5157c0000000p-7, 0x1.ecdfba0000000p-6, -0x1.7a33360000000p-6, -0x1.afc6e60000000p-2, -0x1.2aeb500000000p-2, -0x1.4c61d80000000p-3, -0x1.9c21720000000p-2}
}
, {{-0x1.0c2eda0000000p-6, -0x1.e9c2ac0000000p-2, -0x1.3ff23c0000000p-2, -0x1.061dce0000000p-4, -0x1.c1225e0000000p-7, 0x1.4280c40000000p-7, -0x1.2189a40000000p-2, -0x1.9e88a60000000p-3, 0x1.5b0aea0000000p-2, 0x1.fa2ae60000000p-2, -0x1.f59d3a0000000p-2, -0x1.deaa240000000p-3, -0x1.f952280000000p-2, -0x1.b084080000000p-3, 0x1.47c9a20000000p-1, -0x1.00c93e0000000p-1}
, {0x1.818a860000000p-3, 0x1.0a52440000000p-3, -0x1.5fe8b20000000p-3, -0x1.53d5180000000p-2, -0x1.955cf20000000p-4, -0x1.81a8b80000000p-2, -0x1.b894100000000p-3, -0x1.73db3e0000000p-4, 0x1.aae2020000000p-6, 0x1.92aee40000000p-3, 0x1.8ce9540000000p-5, -0x1.2234ee0000000p-4, 0x1.428dc20000000p-3, 0x1.004c0c0000000p-2, -0x1.e5d4c20000000p-4, 0x1.ffe76a0000000p-4}
, {-0x1.e5867c0000000p-2, 0x1.08b0b60000000p-3, 0x1.1f58000000000p-4, -0x1.9bc42a0000000p-2, -0x1.b313a60000000p-5, 0x1.b1b5220000000p-6, -0x1.1fb92c0000000p-1, -0x1.12d0980000000p-5, -0x1.61369e0000000p-7, 0x1.2252e40000000p-3, -0x1.99b9520000000p-6, -0x1.4668e20000000p-4, 0x1.13a6960000000p-7, -0x1.07ca0a0000000p-1, -0x1.86fb9c0000000p-5, 0x1.603e040000000p-5}
}
, {{0x1.3341d00000000p-3, -0x1.1ec6e40000000p-5, 0x1.b8ded00000000p-8, -0x1.8249b00000000p-2, 0x1.e3e4fe0000000p-4, -0x1.5e5e7c0000000p-2, -0x1.3e78a00000000p-4, 0x1.0c512a0000000p-4, -0x1.1c2a700000000p-6, -0x1.16dfbe0000000p-2, 0x1.f3a8700000000p-2, 0x1.410c3c0000000p-3, 0x1.467e8e0000000p-4, -0x1.31357c0000000p-3, -0x1.4aedac0000000p-3, -0x1.0d3b120000000p-2}
, {-0x1.2d65e40000000p-6, -0x1.a679960000000p-2, -0x1.6ed2e60000000p-5, -0x1.9522200000000p-2, 0x1.4bc03a0000000p-4, -0x1.8994ae0000000p-4, -0x1.ebef120000000p-5, 0x1.6e4d480000000p-5, -0x1.dea2940000000p-3, -0x1.0f44620000000p-1, 0x1.901e5c0000000p-2, -0x1.b25c9e0000000p-5, -0x1.9be1d60000000p-2, 0x1.85df060000000p-3, -0x1.295fec0000000p-2, -0x1.fa122a0000000p-2}
, {0x1.0eb1d20000000p-2, -0x1.12a6e20000000p+0, -0x1.8df7080000000p-4, 0x1.29a9720000000p-1, -0x1.6dfcba0000000p-3, -0x1.8fdf0e0000000p-2, 0x1.412c4e0000000p-2, -0x1.b387be0000000p-1, 0x1.2435020000000p-2, -0x1.cb56140000000p-3, -0x1.4f3c680000000p-8, -0x1.c8c3060000000p-3, -0x1.2f25e60000000p-1, 0x1.f41c4c0000000p-3, -0x1.74fb160000000p-3, -0x1.639af80000000p-1}
}
, {{-0x1.def82c0000000p-3, 0x1.3b4e320000000p-8, 0x1.46c9bc0000000p-4, -0x1.995e380000000p-3, -0x1.0052f80000000p-2, 0x1.5b1d160000000p-6, 0x1.afc1f80000000p-3, 0x1.4bef520000000p-7, -0x1.51856a0000000p-2, -0x1.610aa60000000p-2, 0x1.ac329a0000000p-6, 0x1.d4a81a0000000p-10, -0x1.4137540000000p-2, 0x1.b4581e0000000p-3, -0x1.37c9cc0000000p-1, 0x1.4765880000000p-3}
, {0x1.1fc5240000000p-6, -0x1.38bf540000000p-2, -0x1.539c080000000p-2, 0x1.4004b40000000p-2, -0x1.7f9a280000000p-3, -0x1.f8c7800000000p-2, 0x1.2c20e80000000p-2, -0x1.359d3e0000000p-4, -0x1.27e0680000000p-2, 0x1.65bf0a0000000p-4, -0x1.6558c00000000p-1, -0x1.fc0eb60000000p-5, -0x1.80b9160000000p-4, 0x1.5cf1aa0000000p-4, 0x1.57bb500000000p-2, -0x1.430e280000000p-5}
, {-0x1.5e48fa0000000p-3, -0x1.1f250a0000000p-3, -0x1.3c62180000000p-2, -0x1.221d7e0000000p-3, 0x1.c249640000000p-6, 0x1.9134ea0000000p-2, -0x1.9d1da80000000p-2, 0x1.1449a40000000p-4, 0x1.10ab360000000p-1, 0x1.f3405c0000000p-5, 0x1.9aaef60000000p-8, -0x1.ce9cf00000000p-4, 0x1.2cfd440000000p-7, 0x1.12455c0000000p-4, 0x1.2a2a8e0000000p-3, 0x1.3db3720000000p-3}
}
, {{-0x1.3b27a00000000p-3, -0x1.1cf2e80000000p-2, -0x1.9d2a820000000p-4, -0x1.01b4060000000p-3, 0x1.27db160000000p-2, -0x1.ba0bfe0000000p-4, 0x1.2e83f40000000p-7, -0x1.b171100000000p-4, 0x1.405b540000000p-4, -0x1.6ad0180000000p-2, -0x1.93688c0000000p-1, 0x1.3015380000000p-4, -0x1.10e93e0000000p-2, 0x1.3f7f3a0000000p-2, -0x1.04be4c0000000p-4, -0x1.55e36e0000000p-6}
, {-0x1.69c72c0000000p-2, 0x1.92406e0000000p-3, -0x1.d16c900000000p-3, 0x1.3e58580000000p-3, -0x1.ba759a0000000p-2, -0x1.efb5840000000p-5, -0x1.ef75660000000p-6, -0x1.2c13fa0000000p-4, -0x1.789fba0000000p-2, 0x1.bd331a0000000p-6, -0x1.cf89220000000p-2, 0x1.4f13b80000000p-4, -0x1.968ec20000000p-4, 0x1.42d99a0000000p-2, -0x1.9f7edc0000000p-4, 0x1.35d2600000000p-3}
, {-0x1.2583220000000p-1, 0x1.563d5e0000000p-5, 0x1.0a13a60000000p-4, 0x1.fef1e60000000p-6, 0x1.0646920000000p-3, 0x1.a96d000000000p-4, -0x1.0369c40000000p-3, 0x1.8a63480000000p-3, -0x1.d0463c0000000p-3, -0x1.a2bc080000000p-3, -0x1.cac51e0000000p-1, -0x1.090d760000000p-3, -0x1.53076a0000000p-4, 0x1.7b94920000000p-3, -0x1.545f020000000p-3, -0x1.a8cb6e0000000p-10}
}
, {{0x1.86f4820000000p-6, -0x1.36891a0000000p-3, -0x1.2141d20000000p-1, 0x1.4d81b80000000p-3, -0x1.88b1640000000p-1, 0x1.f7d3c00000000p-3, 0x1.e3b7860000000p-4, -0x1.9011540000000p-2, 0x1.9aa8f60000000p-5, 0x1.0b48ca0000000p-2, 0x1.9221f20000000p-4, 0x1.bf39100000000p-4, -0x1.abac100000000p-2, -0x1.fc84be0000000p-3, -0x1.73c5d40000000p-2, 0x1.0e03380000000p-2}
, {0x1.54b5720000000p-2, -0x1.8d377a0000000p-8, -0x1.c4b25e0000000p-4, -0x1.d3852c0000000p-3, -0x1.9ffa520000000p-3, 0x1.a164320000000p-4, -0x1.76d4a20000000p-2, -0x1.a73e420000000p-3, -0x1.e361240000000p-4, -0x1.626cbc0000000p-4, 0x1.d024620000000p-2, -0x1.81e0460000000p-3, 0x1.3dbb420000000p-3, 0x1.5bedb60000000p-2, -0x1.5d36940000000p-2, 0x1.498b5e0000000p-5}
, {-0x1.4638800000000p-2, 0x1.060ac00000000p-3, -0x1.a31de20000000p-3, -0x1.2853d00000000p-2, 0x1.1c66860000000p-3, 0x1.ad76be0000000p-3, -0x1.a415200000000p-3, 0x1.1bbc8e0000000p-3, 0x1.097ede0000000p-2, -0x1.3d404c0000000p-3, -0x1.bdf4360000000p-5, -0x1.36afbe0000000p-4, 0x1.cb30720000000p-7, -0x1.01541c0000000p-2, 0x1.e93e5e0000000p-4, -0x1.7ecfae0000000p-4}
}
, {{0x1.7f54180000000p-4, -0x1.09dfaa0000000p-2, -0x1.a09c3a0000000p-3, -0x1.9363d20000000p-2, -0x1.d1f4dc0000000p-3, -0x1.9b697e0000000p-4, -0x1.e4912c0000000p-4, 0x1.2c5cea0000000p-4, -0x1.0f32dc0000000p-2, -0x1.31d1a40000000p-3, -0x1.8cbb320000000p-4, -0x1.2327bc0000000p-2, -0x1.82efcc0000000p-3, -0x1.b58b4c0000000p-4, -0x1.638f8a0000000p-7, -0x1.3226fa0000000p-3}
, {-0x1.d3b8200000000p-5, -0x1.d177540000000p-4, 0x1.1207b80000000p-7, -0x1.984f760000000p-2, 0x1.614a880000000p-4, 0x1.41fce40000000p-4, -0x1.85e5280000000p-3, -0x1.8627960000000p-4, 0x1.9052aa0000000p-7, -0x1.5b46040000000p-3, -0x1.14233e0000000p-5, -0x1.d331280000000p-6, -0x1.18c6200000000p-3, -0x1.6e896c0000000p-4, -0x1.46f2000000000p-4, -0x1.43dd900000000p-3}
, {0x1.ea088a0000000p-4, -0x1.8037b20000000p-19, 0x1.9ec2400000000p-11, -0x1.18d0400000000p-4, -0x1.18b7f20000000p-4, -0x1.538ece0000000p-4, -0x1.01f8ce0000000p-2, -0x1.3e2b9c0000000p-2, -0x1.32081c0000000p-3, 0x1.07d2000000000p-7, 0x1.49fd2a0000000p-5, 0x1.c261200000000p-4, -0x1.02085a0000000p-2, -0x1.6f2fc60000000p-3, -0x1.7c05020000000p-3, -0x1.0b63840000000p-3}
}
, {{0x1.f3d71c0000000p-4, -0x1.567c720000000p-3, -0x1.4c4c620000000p-3, -0x1.c86b140000000p-4, 0x1.dd6cf40000000p-4, -0x1.0e6cd80000000p-3, -0x1.30f8b80000000p-6, 0x1.0ac3740000000p-3, -0x1.4bd4e60000000p-2, 0x1.7009220000000p-2, -0x1.2ea7500000000p-5, 0x1.f24a160000000p-6, 0x1.a322480000000p-4, 0x1.5dd9ac0000000p-5, -0x1.42e17c0000000p-3, 0x1.64303c0000000p-6}
, {-0x1.148c800000000p-3, -0x1.bae07e0000000p-5, 0x1.0c6a480000000p-9, 0x1.223d4a0000000p-3, -0x1.64952a0000000p-3, -0x1.9e684a0000000p-4, 0x1.d04e080000000p-6, -0x1.eef3680000000p-4, -0x1.3e68920000000p-4, -0x1.34f67e0000000p-2, -0x1.22540c0000000p-1, -0x1.36a6780000000p-2, -0x1.1c821e0000000p-1, 0x1.02e4a40000000p-2, -0x1.5ca2380000000p-5, 0x1.891c460000000p-3}
, {-0x1.8b39cc0000000p-3, -0x1.6c60580000000p-2, 0x1.74845a0000000p-9, 0x1.c307c80000000p-6, 0x1.81adac0000000p-5, 0x1.29b6200000000p-2, 0x1.047c0c0000000p-3, -0x1.5280c60000000p-2, 0x1.33e71a0000000p-2, -0x1.fae9e60000000p-4, 0x1.d6332e0000000p-2, 0x1.29ad4e0000000p-3, -0x1.5d9c9a0000000p-1, -0x1.1ff8460000000p-1, -0x1.da507a0000000p-4, -0x1.85fb760000000p-2}
}
, {{-0x1.dfb5020000000p-10, 0x1.5c6d340000000p-4, -0x1.ecb0540000000p-3, 0x1.36f3320000000p-3, -0x1.4bfb420000000p-3, 0x1.77de020000000p-6, -0x1.8104960000000p-3, -0x1.586f5a0000000p-5, 0x1.8297ac0000000p-4, 0x1.63583e0000000p-12, -0x1.2536f20000000p-2, -0x1.9dda620000000p-3, 0x1.d2f9580000000p-7, 0x1.fd84a20000000p-5, 0x1.8f5f5a0000000p-3, -0x1.5b5afc0000000p-4}
, {-0x1.172b7a0000000p-2, 0x1.e198700000000p-4, -0x1.5b2d520000000p-3, -0x1.1655060000000p-3, 0x1.353d460000000p-3, 0x1.7a2a0e0000000p-3, -0x1.9d9be00000000p-3, 0x1.9416e20000000p-4, 0x1.bf6f9a0000000p-4, -0x1.76c7500000000p-3, -0x1.16f0e40000000p-6, -0x1.ccb1900000000p-4, 0x1.4a32fe0000000p-3, 0x1.10b1ae0000000p-5, -0x1.e24b720000000p-4, -0x1.dd55f80000000p-5}
, {-0x1.4e57300000000p-1, 0x1.1ba7220000000p-7, -0x1.b742120000000p-3, 0x1.4bd5ba0000000p-12, -0x1.e9a08a0000000p-5, 0x1.b6a6680000000p-3, -0x1.e6ea0c0000000p-3, 0x1.0f7c7a0000000p-5, 0x1.a373200000000p-4, -0x1.82bb060000000p-3, -0x1.4718ac0000000p-1, -0x1.b984000000000p-3, -0x1.9abfaa0000000p-5, -0x1.14e26e0000000p-1, 0x1.0dbae00000000p-2, 0x1.58342e0000000p-3}
}
}
;

#undef INPUT_CHANNELS
#undef CONV_FILTERS
#undef CONV_KERNEL_SIZE
#undef CONV_GROUPS