/**
  ******************************************************************************
  * @file    weights/conv1d.cc
  * @author  Pierre-Emmanuel Novac <penovac@unice.fr>, LEAT, CNRS, Université Côte d'Azur, France
  * @version 1.0.0
  * @date    24 march 2020
  * @brief   Template generating plain C code for the implementation of Convolutional Neural Networks on MCU
  */

#include <stdint.h>

#define INPUT_CHANNELS    1
#define CONV_FILTERS      12
#define CONV_KERNEL_SIZE  80
#define CONV_GROUPS       1


const float  conv1d_28_bias[CONV_FILTERS] = {0x0.0p+0, 0x0.0p+0, 0x0.0p+0, 0x0.0p+0, 0x0.0p+0, 0x0.0p+0, 0x0.0p+0, 0x0.0p+0, 0x0.0p+0, 0x0.0p+0, 0x0.0p+0, 0x0.0p+0}
;

const float  conv1d_28_kernel[CONV_FILTERS][CONV_KERNEL_SIZE][INPUT_CHANNELS / CONV_GROUPS] = {{{-0x1.58cdc40000000p-5}
, {-0x1.0ef7b40000000p-4}
, {0x1.ed25b80000000p-6}
, {-0x1.2822080000000p-5}
, {-0x1.fddc640000000p-5}
, {0x1.e49e480000000p-6}
, {0x1.6c7f740000000p-5}
, {-0x1.8867a00000000p-8}
, {0x1.3663140000000p-5}
, {0x1.2487940000000p-4}
, {0x1.8733700000000p-7}
, {0x1.f9d7a00000000p-5}
, {-0x1.2627120000000p-5}
, {-0x1.5d67080000000p-6}
, {0x1.b042900000000p-7}
, {0x1.f6c1980000000p-5}
, {0x1.5b45200000000p-7}
, {-0x1.b26b9e0000000p-5}
, {0x1.6500c80000000p-5}
, {-0x1.907f7a0000000p-5}
, {-0x1.062b4c0000000p-4}
, {0x1.314db00000000p-4}
, {0x1.1a65640000000p-4}
, {-0x1.3cba4a0000000p-5}
, {0x1.6772d00000000p-7}
, {0x1.b2d3c00000000p-6}
, {-0x1.ebee7c0000000p-5}
, {-0x1.271aa80000000p-6}
, {-0x1.f347f00000000p-5}
, {0x1.65dcf00000000p-5}
, {-0x1.213cb00000000p-7}
, {0x1.0f36c00000000p-7}
, {-0x1.d03c000000000p-13}
, {-0x1.632ba60000000p-5}
, {0x1.2074400000000p-4}
, {0x1.20ae900000000p-4}
, {0x1.37e2600000000p-7}
, {0x1.5e5a5c0000000p-5}
, {0x1.9bec480000000p-6}
, {-0x1.2ad4f60000000p-4}
, {-0x1.10877a0000000p-5}
, {-0x1.e362a00000000p-6}
, {-0x1.a2d8a00000000p-7}
, {-0x1.2be0100000000p-4}
, {0x1.b5a9a80000000p-6}
, {0x1.1c0ec00000000p-6}
, {0x1.038abc0000000p-4}
, {-0x1.1da9ae0000000p-5}
, {0x1.b035800000000p-8}
, {0x1.09f0300000000p-4}
, {0x1.2e99280000000p-6}
, {-0x1.ea45700000000p-5}
, {0x1.546f640000000p-5}
, {-0x1.1980e00000000p-7}
, {-0x1.cda4000000000p-7}
, {-0x1.c3a5a80000000p-7}
, {0x1.c07a000000000p-6}
, {-0x1.4f4d000000000p-8}
, {-0x1.99a4ba0000000p-5}
, {-0x1.9c3d4c0000000p-5}
, {-0x1.45a1720000000p-5}
, {0x1.e117900000000p-5}
, {-0x1.0a32000000000p-8}
, {-0x1.ed46a20000000p-5}
, {0x1.058efc0000000p-4}
, {-0x1.2bf39e0000000p-5}
, {-0x1.0036fc0000000p-5}
, {-0x1.c4df840000000p-5}
, {-0x1.def55c0000000p-5}
, {0x1.11795c0000000p-5}
, {-0x1.00fba20000000p-4}
, {-0x1.22a9fc0000000p-5}
, {-0x1.8a34b00000000p-5}
, {0x1.8e70b80000000p-6}
, {0x1.d40dd80000000p-6}
, {-0x1.d9ff3c0000000p-6}
, {-0x1.b5baa00000000p-7}
, {0x1.b74c980000000p-5}
, {-0x1.4c7b100000000p-7}
, {-0x1.299ae40000000p-6}
}
, {{0x1.4bc3240000000p-5}
, {0x1.88a7c00000000p-8}
, {0x1.aaa7600000000p-5}
, {-0x1.141ee00000000p-7}
, {0x1.585a640000000p-5}
, {0x1.8442780000000p-5}
, {0x1.6105000000000p-6}
, {-0x1.4bea500000000p-7}
, {-0x1.8dba940000000p-6}
, {-0x1.845b300000000p-5}
, {-0x1.b1fa2c0000000p-5}
, {0x1.ff42f00000000p-5}
, {-0x1.2ae2e60000000p-4}
, {-0x1.0c96060000000p-4}
, {-0x1.795bc00000000p-8}
, {-0x1.1002e00000000p-4}
, {-0x1.20cdd20000000p-4}
, {0x1.0438700000000p-6}
, {0x1.01ba6c0000000p-4}
, {-0x1.81643e0000000p-5}
, {0x1.b8b1800000000p-5}
, {0x1.0cc8080000000p-6}
, {0x1.46c9e80000000p-5}
, {0x1.8c1e980000000p-6}
, {-0x1.96c1080000000p-5}
, {-0x1.6253360000000p-5}
, {0x1.d217400000000p-5}
, {-0x1.e5c8b80000000p-6}
, {0x1.f6cc080000000p-5}
, {-0x1.0a82440000000p-4}
, {-0x1.4e17300000000p-7}
, {-0x1.c96be80000000p-7}
, {-0x1.ed33fc0000000p-6}
, {0x1.8e6e7c0000000p-5}
, {0x1.c70e100000000p-5}
, {-0x1.f0fc480000000p-7}
, {0x1.8d34000000000p-6}
, {-0x1.79a39c0000000p-5}
, {-0x1.3860000000000p-8}
, {0x1.947f700000000p-7}
, {0x1.32d4480000000p-6}
, {-0x1.6146f00000000p-5}
, {0x1.fd11f00000000p-6}
, {-0x1.3556800000000p-8}
, {-0x1.c837920000000p-5}
, {0x1.8c90f40000000p-5}
, {0x1.da09900000000p-6}
, {0x1.57bfb40000000p-5}
, {0x1.55ed1c0000000p-5}
, {0x1.c2f5b00000000p-6}
, {0x1.263ae40000000p-4}
, {0x1.34c5a00000000p-7}
, {0x1.2080800000000p-10}
, {0x1.327d940000000p-4}
, {0x1.86ed780000000p-6}
, {0x1.0914300000000p-6}
, {-0x1.44e5e00000000p-6}
, {-0x1.95d8200000000p-7}
, {-0x1.04e20e0000000p-4}
, {0x1.a2a3480000000p-5}
, {-0x1.06a5d00000000p-5}
, {-0x1.0216660000000p-4}
, {0x1.a281100000000p-6}
, {0x1.0f40080000000p-5}
, {-0x1.47926c0000000p-5}
, {0x1.5961800000000p-5}
, {-0x1.e1f0900000000p-5}
, {-0x1.3fb23a0000000p-5}
, {0x1.8e365c0000000p-5}
, {-0x1.01da080000000p-5}
, {0x1.8bbad00000000p-7}
, {0x1.1ebc740000000p-4}
, {-0x1.c985c00000000p-7}
, {-0x1.ef3f040000000p-6}
, {-0x1.9273400000000p-9}
, {0x1.ede4200000000p-6}
, {-0x1.3b3c000000000p-6}
, {-0x1.039e760000000p-4}
, {-0x1.7b3f180000000p-6}
, {0x1.4639840000000p-5}
}
, {{0x1.d337d00000000p-6}
, {-0x1.0213700000000p-7}
, {-0x1.8505380000000p-6}
, {-0x1.80ec640000000p-5}
, {0x1.2d60b00000000p-7}
, {-0x1.9b107c0000000p-6}
, {-0x1.6cce000000000p-10}
, {0x1.7c41000000000p-5}
, {-0x1.318ed00000000p-4}
, {-0x1.a00f6c0000000p-6}
, {0x1.3004640000000p-4}
, {0x1.106a700000000p-4}
, {0x1.2a19d00000000p-4}
, {-0x1.2d65600000000p-7}
, {-0x1.12d40e0000000p-4}
, {-0x1.db07c00000000p-8}
, {0x1.6df3280000000p-6}
, {-0x1.2f12840000000p-5}
, {-0x1.a8af060000000p-5}
, {0x1.1f29b40000000p-5}
, {-0x1.1c66c20000000p-4}
, {0x1.e337c00000000p-8}
, {0x1.670f580000000p-5}
, {0x1.2515400000000p-4}
, {0x1.14dc380000000p-6}
, {-0x1.ea31a40000000p-6}
, {-0x1.ba49640000000p-5}
, {0x1.76a1cc0000000p-5}
, {-0x1.0be5180000000p-6}
, {0x1.2bfd700000000p-4}
, {-0x1.20c7c00000000p-8}
, {-0x1.8118200000000p-8}
, {0x1.05e6ac0000000p-4}
, {0x1.4ddf000000000p-11}
, {-0x1.a9e78c0000000p-6}
, {0x1.785c200000000p-7}
, {-0x1.4e21f40000000p-5}
, {0x1.d2b7600000000p-6}
, {0x1.4ea7680000000p-5}
, {0x1.d106a80000000p-6}
, {-0x1.8bba6c0000000p-5}
, {-0x1.0f77900000000p-7}
, {-0x1.3202b40000000p-6}
, {0x1.b3aac80000000p-6}
, {0x1.a1bd800000000p-7}
, {0x1.d6ee500000000p-6}
, {0x1.bfe5480000000p-5}
, {-0x1.3b2cbe0000000p-5}
, {-0x1.cb5d6c0000000p-5}
, {-0x1.80e8b40000000p-6}
, {-0x1.f669a40000000p-5}
, {-0x1.306f880000000p-5}
, {0x1.fac8c00000000p-8}
, {-0x1.88ca140000000p-6}
, {0x1.d47cc00000000p-7}
, {0x1.0a63900000000p-4}
, {0x1.592c400000000p-5}
, {0x1.27c0e40000000p-4}
, {0x1.82eb440000000p-5}
, {0x1.2b61f00000000p-5}
, {0x1.b00b700000000p-5}
, {-0x1.11a2020000000p-4}
, {-0x1.25fb180000000p-4}
, {0x1.6708040000000p-5}
, {-0x1.0b84c80000000p-6}
, {0x1.d87a000000000p-10}
, {0x1.d540c80000000p-5}
, {-0x1.de95040000000p-5}
, {0x1.4e2c180000000p-6}
, {0x1.e037400000000p-5}
, {0x1.4005e00000000p-7}
, {0x1.8f27980000000p-5}
, {0x1.0802b80000000p-4}
, {0x1.31afd80000000p-6}
, {0x1.04e09c0000000p-4}
, {-0x1.e7d12c0000000p-6}
, {-0x1.60e3800000000p-10}
, {-0x1.b119a80000000p-5}
, {0x1.0197c00000000p-6}
, {0x1.5fba200000000p-7}
}
, {{-0x1.b951300000000p-7}
, {-0x1.e9bdc80000000p-5}
, {0x1.ca9eb80000000p-5}
, {-0x1.e989600000000p-8}
, {0x1.15d30c0000000p-4}
, {0x1.2ba6c00000000p-9}
, {-0x1.9caf000000000p-11}
, {-0x1.edd2200000000p-8}
, {-0x1.c619d00000000p-7}
, {-0x1.c81da00000000p-5}
, {-0x1.c6e5740000000p-6}
, {-0x1.34bc200000000p-6}
, {0x1.a104500000000p-7}
, {-0x1.2fe3180000000p-4}
, {0x1.10e0600000000p-5}
, {0x1.036b0c0000000p-4}
, {0x1.cb05e00000000p-5}
, {0x1.7382e00000000p-7}
, {0x1.c466080000000p-5}
, {-0x1.a016180000000p-6}
, {0x1.2114500000000p-4}
, {0x1.2cf68c0000000p-4}
, {0x1.9fc8600000000p-5}
, {0x1.fb8ca80000000p-5}
, {-0x1.ae0bec0000000p-5}
, {-0x1.9ff2600000000p-7}
, {0x1.acf1d80000000p-5}
, {0x1.0d15e40000000p-5}
, {-0x1.0b53900000000p-7}
, {0x1.1987880000000p-4}
, {-0x1.9ed6000000000p-10}
, {-0x1.31dfce0000000p-4}
, {-0x1.1028600000000p-5}
, {0x1.98fe000000000p-5}
, {0x1.933ab00000000p-5}
, {-0x1.4241140000000p-5}
, {-0x1.86b9000000000p-11}
, {0x1.770d500000000p-5}
, {-0x1.8cd4360000000p-5}
, {0x1.005d640000000p-5}
, {-0x1.283bbe0000000p-4}
, {0x1.53d5180000000p-6}
, {0x1.1db3800000000p-7}
, {0x1.1173480000000p-4}
, {-0x1.4320400000000p-9}
, {0x1.1d5e300000000p-4}
, {-0x1.2b7d040000000p-4}
, {0x1.fae5e80000000p-5}
, {-0x1.79f8c80000000p-6}
, {-0x1.85f4900000000p-7}
, {0x1.5500400000000p-8}
, {0x1.7bb2c40000000p-5}
, {0x1.c7b0600000000p-8}
, {0x1.1f49940000000p-4}
, {-0x1.8bbde00000000p-5}
, {-0x1.4fe58c0000000p-6}
, {-0x1.1376700000000p-7}
, {-0x1.0233960000000p-4}
, {0x1.6b59500000000p-6}
, {0x1.fe4df80000000p-6}
, {0x1.5448d80000000p-5}
, {0x1.d8cf800000000p-6}
, {-0x1.7972a00000000p-8}
, {0x1.3151500000000p-5}
, {-0x1.dab81c0000000p-5}
, {0x1.930ea00000000p-5}
, {0x1.9901280000000p-5}
, {0x1.7279d00000000p-5}
, {-0x1.e640ec0000000p-5}
, {0x1.08fa700000000p-7}
, {-0x1.e959c00000000p-9}
, {0x1.7bf9800000000p-9}
, {-0x1.d075cc0000000p-5}
, {0x1.233d800000000p-6}
, {-0x1.ebb6b00000000p-5}
, {0x1.058d500000000p-7}
, {0x1.3c31440000000p-5}
, {-0x1.2ad4ec0000000p-4}
, {-0x1.95e7500000000p-6}
, {-0x1.ea5d480000000p-5}
}
, {{0x1.2e0a600000000p-7}
, {-0x1.2206920000000p-4}
, {-0x1.72752e0000000p-5}
, {0x1.199c700000000p-6}
, {0x1.6833040000000p-5}
, {-0x1.2d27940000000p-4}
, {-0x1.2630de0000000p-4}
, {-0x1.5395720000000p-5}
, {0x1.8b86640000000p-5}
, {0x1.2c1db40000000p-5}
, {0x1.a44cc00000000p-5}
, {0x1.20a9d80000000p-4}
, {0x1.dc8ac00000000p-9}
, {-0x1.8af8800000000p-9}
, {-0x1.0489f60000000p-5}
, {-0x1.f7f49c0000000p-5}
, {0x1.3642b40000000p-4}
, {0x1.5b2eec0000000p-5}
, {-0x1.ae8e300000000p-5}
, {-0x1.2625fc0000000p-4}
, {0x1.0ace300000000p-7}
, {0x1.fa0f800000000p-9}
, {-0x1.9472400000000p-9}
, {0x1.63ce180000000p-6}
, {-0x1.43d9de0000000p-5}
, {-0x1.0bd8760000000p-4}
, {-0x1.99e9ec0000000p-5}
, {-0x1.06b7ac0000000p-6}
, {0x1.a09f980000000p-6}
, {0x1.6e15900000000p-5}
, {-0x1.425ad40000000p-5}
, {-0x1.0ed0f60000000p-4}
, {0x1.d26ed80000000p-5}
, {-0x1.c0edd60000000p-5}
, {-0x1.2722600000000p-8}
, {-0x1.245a360000000p-4}
, {0x1.0778840000000p-4}
, {-0x1.f859540000000p-6}
, {-0x1.b293c00000000p-9}
, {-0x1.58840e0000000p-5}
, {-0x1.4dafe00000000p-7}
, {0x1.3679b80000000p-4}
, {-0x1.ec68940000000p-6}
, {-0x1.222cda0000000p-5}
, {0x1.a788800000000p-6}
, {0x1.e934400000000p-6}
, {0x1.34fabc0000000p-4}
, {0x1.cf3af00000000p-5}
, {0x1.20d3680000000p-4}
, {-0x1.672aec0000000p-5}
, {-0x1.a637300000000p-5}
, {0x1.90da980000000p-5}
, {0x1.67abe00000000p-8}
, {-0x1.f2015c0000000p-5}
, {0x1.07fd040000000p-4}
, {0x1.8a0bc00000000p-5}
, {-0x1.2b209e0000000p-4}
, {0x1.4c4ca80000000p-5}
, {0x1.2201280000000p-4}
, {-0x1.f6bbe80000000p-5}
, {0x1.99fb680000000p-5}
, {0x1.fd1ec00000000p-8}
, {0x1.6e38000000000p-12}
, {-0x1.6cc2e80000000p-5}
, {0x1.1924300000000p-6}
, {-0x1.31f6140000000p-4}
, {0x1.0c47300000000p-4}
, {0x1.cff1e00000000p-7}
, {0x1.b5ce800000000p-7}
, {-0x1.76d30c0000000p-5}
, {-0x1.4abdc00000000p-9}
, {0x1.0c86040000000p-4}
, {-0x1.abe82c0000000p-5}
, {0x1.f84a900000000p-7}
, {-0x1.c75eae0000000p-5}
, {0x1.b8f5c80000000p-5}
, {-0x1.36b2a80000000p-6}
, {-0x1.5f2e5a0000000p-5}
, {0x1.0b14940000000p-4}
, {0x1.a02b600000000p-6}
}
, {{0x1.eb01c00000000p-8}
, {-0x1.34f7d40000000p-5}
, {0x1.dd34b00000000p-5}
, {-0x1.e93bc80000000p-5}
, {-0x1.27c1440000000p-5}
, {0x1.c5c3600000000p-7}
, {0x1.17a6540000000p-4}
, {0x1.9e16580000000p-5}
, {-0x1.4d1aa80000000p-5}
, {-0x1.1fdc6a0000000p-4}
, {-0x1.f7e6300000000p-6}
, {0x1.43bc980000000p-6}
, {0x1.7a25b00000000p-6}
, {-0x1.aba1260000000p-5}
, {0x1.c94e500000000p-5}
, {0x1.42185c0000000p-5}
, {-0x1.9a8b400000000p-8}
, {0x1.c7bca00000000p-7}
, {0x1.5e32e00000000p-8}
, {0x1.726ba40000000p-5}
, {0x1.2325640000000p-4}
, {-0x1.4e04240000000p-5}
, {-0x1.08af400000000p-5}
, {0x1.36a11c0000000p-5}
, {-0x1.6137240000000p-6}
, {-0x1.4048780000000p-5}
, {-0x1.936fbc0000000p-6}
, {-0x1.91375c0000000p-6}
, {-0x1.4be3e20000000p-5}
, {0x1.0be0880000000p-5}
, {-0x1.7f4c3a0000000p-5}
, {-0x1.46386a0000000p-5}
, {-0x1.2616140000000p-4}
, {0x1.3ee1500000000p-5}
, {0x1.b0f2400000000p-9}
, {0x1.2818f80000000p-4}
, {-0x1.78bba40000000p-5}
, {0x1.7ee51c0000000p-5}
, {-0x1.311fa20000000p-4}
, {0x1.79d1d00000000p-7}
, {0x1.c4e8f00000000p-6}
, {0x1.ed73000000000p-9}
, {0x1.bcbb600000000p-5}
, {0x1.d072780000000p-5}
, {0x1.a034a00000000p-6}
, {-0x1.03f56e0000000p-5}
, {0x1.42a6700000000p-5}
, {-0x1.3576a00000000p-7}
, {-0x1.2ff1120000000p-4}
, {-0x1.0534800000000p-8}
, {0x1.3618400000000p-7}
, {-0x1.221c580000000p-4}
, {0x1.529fd80000000p-5}
, {0x1.7032180000000p-5}
, {-0x1.8051c80000000p-6}
, {-0x1.f58d680000000p-5}
, {0x1.bf96c00000000p-5}
, {0x1.f598800000000p-10}
, {0x1.7ee5580000000p-6}
, {0x1.2e419c0000000p-5}
, {-0x1.c44c500000000p-6}
, {0x1.f578800000000p-6}
, {-0x1.9b02800000000p-7}
, {-0x1.e1902c0000000p-5}
, {-0x1.93d6600000000p-7}
, {0x1.7f57f80000000p-6}
, {0x1.1f7ce00000000p-6}
, {-0x1.de53800000000p-6}
, {0x1.ca38180000000p-6}
, {0x1.efe6e00000000p-5}
, {-0x1.5f87ca0000000p-5}
, {0x1.6222000000000p-5}
, {-0x1.5cdda00000000p-8}
, {0x1.fa1b500000000p-5}
, {0x1.9350700000000p-6}
, {0x1.e163d00000000p-6}
, {0x1.189a380000000p-4}
, {-0x1.8e61600000000p-7}
, {-0x1.fd12400000000p-8}
, {0x1.b248700000000p-7}
}
, {{0x1.156df80000000p-4}
, {0x1.f9c9080000000p-5}
, {-0x1.a8d0900000000p-6}
, {-0x1.1f0f6a0000000p-4}
, {0x1.1d20500000000p-5}
, {0x1.2d365c0000000p-5}
, {0x1.b99f200000000p-6}
, {0x1.31e1400000000p-9}
, {-0x1.8d36640000000p-5}
, {-0x1.b77ad00000000p-5}
, {-0x1.f29d000000000p-5}
, {-0x1.a82d080000000p-6}
, {0x1.90e8d40000000p-5}
, {-0x1.1bd3f80000000p-4}
, {0x1.3971800000000p-8}
, {-0x1.44cda60000000p-5}
, {-0x1.14c6520000000p-5}
, {0x1.383f800000000p-7}
, {0x1.2aa7340000000p-5}
, {-0x1.da57300000000p-6}
, {-0x1.212c680000000p-4}
, {-0x1.32fd1c0000000p-4}
, {0x1.34feb40000000p-4}
, {0x1.31d15c0000000p-4}
, {-0x1.016d300000000p-4}
, {-0x1.c183000000000p-9}
, {-0x1.255ad00000000p-7}
, {0x1.420af80000000p-6}
, {0x1.0db79c0000000p-4}
, {0x1.182e240000000p-4}
, {0x1.1cdcf80000000p-4}
, {0x1.324a600000000p-4}
, {0x1.0ba2dc0000000p-4}
, {-0x1.39a4000000000p-11}
, {-0x1.56fc8a0000000p-5}
, {0x1.7c28f00000000p-7}
, {0x1.517b700000000p-6}
, {0x1.20a8080000000p-5}
, {-0x1.b1ee680000000p-5}
, {0x1.05e7640000000p-4}
, {0x1.e0a2600000000p-6}
, {-0x1.65fd200000000p-7}
, {-0x1.cbae780000000p-6}
, {0x1.b69a780000000p-5}
, {-0x1.8d1fdc0000000p-6}
, {0x1.2a8fc00000000p-4}
, {-0x1.ff56d80000000p-7}
, {0x1.8451040000000p-5}
, {-0x1.89fe500000000p-6}
, {0x1.3518880000000p-5}
, {-0x1.4babac0000000p-5}
, {-0x1.69a0000000000p-7}
, {-0x1.9bf3640000000p-5}
, {-0x1.2f4d740000000p-6}
, {-0x1.3206dc0000000p-4}
, {0x1.36aff00000000p-4}
, {-0x1.b5c5a60000000p-5}
, {0x1.2bd8c00000000p-7}
, {0x1.a7eb780000000p-6}
, {-0x1.73484c0000000p-5}
, {0x1.945da00000000p-5}
, {0x1.f043400000000p-7}
, {0x1.1910c80000000p-4}
, {-0x1.686d040000000p-6}
, {-0x1.a678000000000p-14}
, {-0x1.5500f80000000p-5}
, {0x1.3111600000000p-4}
, {-0x1.0b93c80000000p-4}
, {0x1.d653000000000p-6}
, {-0x1.9ce1680000000p-6}
, {0x1.fb3f700000000p-7}
, {-0x1.4abbb00000000p-7}
, {0x1.6f58840000000p-5}
, {-0x1.bec6040000000p-6}
, {0x1.898fb00000000p-7}
, {0x1.3a1ce00000000p-8}
, {-0x1.67cb260000000p-5}
, {-0x1.cd4a840000000p-5}
, {-0x1.f7d0f40000000p-5}
, {-0x1.1d2a0a0000000p-5}
}
, {{-0x1.14455a0000000p-5}
, {0x1.1385600000000p-5}
, {0x1.0715cc0000000p-4}
, {0x1.170e600000000p-4}
, {0x1.fb01480000000p-6}
, {-0x1.fdf0900000000p-6}
, {-0x1.2f7a9e0000000p-5}
, {0x1.c89ba00000000p-5}
, {-0x1.040e7a0000000p-4}
, {-0x1.06c1b00000000p-4}
, {0x1.0b9f000000000p-11}
, {-0x1.6f29580000000p-6}
, {0x1.9784a80000000p-5}
, {-0x1.c717400000000p-8}
, {-0x1.cfbf980000000p-7}
, {0x1.a878980000000p-5}
, {-0x1.d65e280000000p-5}
, {0x1.929e180000000p-5}
, {0x1.2d19f40000000p-5}
, {0x1.6f73d00000000p-7}
, {0x1.b021400000000p-5}
, {0x1.64261c0000000p-5}
, {-0x1.23ea020000000p-4}
, {-0x1.9a1cd00000000p-6}
, {-0x1.3560d20000000p-4}
, {0x1.1b1dec0000000p-4}
, {-0x1.ec12b60000000p-5}
, {-0x1.9d26e80000000p-6}
, {0x1.2917f00000000p-5}
, {-0x1.f893340000000p-5}
, {0x1.ed7c500000000p-7}
, {0x1.8dc4000000000p-5}
, {0x1.339a080000000p-4}
, {-0x1.54153e0000000p-5}
, {0x1.a34ea00000000p-5}
, {0x1.a1e4400000000p-5}
, {0x1.7ce4b80000000p-6}
, {-0x1.7d07e40000000p-6}
, {0x1.6784ec0000000p-5}
, {0x1.0a5a980000000p-4}
, {0x1.7747580000000p-6}
, {0x1.4ab75c0000000p-5}
, {0x1.ca0e580000000p-5}
, {-0x1.853bd40000000p-5}
, {0x1.12988c0000000p-4}
, {-0x1.30db200000000p-4}
, {-0x1.31cee20000000p-4}
, {0x1.e8a9080000000p-6}
, {0x1.6bb3080000000p-5}
, {-0x1.8492080000000p-5}
, {0x1.3300400000000p-6}
, {0x1.0da3640000000p-4}
, {-0x1.4951fe0000000p-5}
, {0x1.5649a00000000p-5}
, {0x1.6f74c00000000p-9}
, {-0x1.f170200000000p-8}
, {0x1.220fe80000000p-5}
, {-0x1.80a1600000000p-6}
, {-0x1.809d600000000p-7}
, {0x1.76a6800000000p-5}
, {-0x1.319b240000000p-5}
, {-0x1.a9cbd20000000p-5}
, {0x1.6f69140000000p-5}
, {-0x1.2f0f7a0000000p-4}
, {0x1.97b2880000000p-5}
, {0x1.23a7b00000000p-4}
, {0x1.7cb6600000000p-7}
, {-0x1.0160000000000p-12}
, {0x1.9458400000000p-6}
, {-0x1.2bdb420000000p-4}
, {0x1.05f5680000000p-4}
, {0x1.8265f40000000p-5}
, {-0x1.10abf40000000p-4}
, {0x1.0ff66c0000000p-4}
, {0x1.254dcc0000000p-5}
, {-0x1.4aff1a0000000p-5}
, {-0x1.549e4c0000000p-6}
, {0x1.403fc40000000p-5}
, {0x1.36c8a80000000p-4}
, {0x1.919ee40000000p-5}
}
, {{-0x1.6bd6ea0000000p-5}
, {-0x1.03bf020000000p-4}
, {-0x1.12199e0000000p-5}
, {-0x1.1fdb8a0000000p-4}
, {0x1.4369000000000p-11}
, {0x1.2c69480000000p-4}
, {-0x1.0093680000000p-4}
, {0x1.fc54200000000p-5}
, {0x1.f9e7580000000p-5}
, {-0x1.b00f800000000p-9}
, {0x1.1f68ac0000000p-4}
, {-0x1.b7ca740000000p-5}
, {0x1.d155280000000p-5}
, {0x1.7ae5e00000000p-7}
, {0x1.e629700000000p-5}
, {-0x1.f00a0c0000000p-6}
, {0x1.269cc00000000p-7}
, {-0x1.484b440000000p-6}
, {0x1.6613c80000000p-5}
, {0x1.60e8c00000000p-5}
, {0x1.012d540000000p-4}
, {-0x1.7f18320000000p-5}
, {-0x1.28510c0000000p-4}
, {-0x1.3e76a20000000p-5}
, {0x1.b2ed700000000p-7}
, {-0x1.ea9c360000000p-5}
, {0x1.61ad600000000p-8}
, {0x1.84e83c0000000p-5}
, {-0x1.cb3a000000000p-10}
, {0x1.1b62240000000p-4}
, {0x1.746e680000000p-6}
, {0x1.edb8500000000p-7}
, {0x1.7865c00000000p-8}
, {-0x1.907c100000000p-6}
, {-0x1.c8d1580000000p-6}
, {0x1.adaab80000000p-5}
, {0x1.8835a80000000p-6}
, {0x1.7f27f00000000p-7}
, {-0x1.cb98bc0000000p-5}
, {0x1.0388280000000p-4}
, {-0x1.e627bc0000000p-6}
, {-0x1.dfdc000000000p-11}
, {-0x1.2ead0a0000000p-4}
, {0x1.483a7c0000000p-5}
, {-0x1.baaec80000000p-5}
, {-0x1.15d9400000000p-7}
, {-0x1.19d6b00000000p-7}
, {0x1.d400980000000p-5}
, {-0x1.cc736c0000000p-6}
, {-0x1.62b6f20000000p-5}
, {-0x1.07a90c0000000p-6}
, {0x1.1596f80000000p-5}
, {0x1.ecb3200000000p-5}
, {-0x1.40b4dc0000000p-6}
, {0x1.70fc680000000p-6}
, {0x1.af57b00000000p-5}
, {0x1.b32b800000000p-9}
, {0x1.95b0800000000p-7}
, {0x1.7e7e340000000p-5}
, {-0x1.2d456a0000000p-4}
, {0x1.e750800000000p-6}
, {-0x1.7567580000000p-5}
, {-0x1.5ac9580000000p-6}
, {-0x1.297c0c0000000p-4}
, {0x1.c9dda80000000p-5}
, {-0x1.51a45a0000000p-5}
, {-0x1.557a300000000p-7}
, {0x1.9f66d00000000p-7}
, {0x1.0098dc0000000p-4}
, {-0x1.c0c6f40000000p-6}
, {0x1.2b00700000000p-7}
, {0x1.d07fe00000000p-5}
, {-0x1.139ff00000000p-4}
, {0x1.cd41e00000000p-5}
, {-0x1.e7a3a20000000p-5}
, {-0x1.3617aa0000000p-4}
, {0x1.398f280000000p-5}
, {-0x1.3cb3e00000000p-5}
, {0x1.704ffc0000000p-5}
, {0x1.2df66c0000000p-4}
}
, {{-0x1.143dca0000000p-5}
, {0x1.e0ccc00000000p-5}
, {-0x1.7d95bc0000000p-5}
, {0x1.d468880000000p-6}
, {-0x1.ad7f500000000p-7}
, {0x1.e601a00000000p-7}
, {0x1.234f580000000p-4}
, {-0x1.998e500000000p-7}
, {0x1.35a6200000000p-7}
, {0x1.db67a80000000p-6}
, {0x1.1241b00000000p-5}
, {-0x1.8444f00000000p-5}
, {0x1.e2fc380000000p-6}
, {-0x1.6ca8e40000000p-6}
, {-0x1.889eb40000000p-5}
, {-0x1.8ca1c80000000p-6}
, {-0x1.6aac120000000p-5}
, {0x1.0c9f080000000p-4}
, {0x1.9f27500000000p-5}
, {0x1.3894c00000000p-6}
, {-0x1.df39940000000p-5}
, {-0x1.0d91c80000000p-5}
, {0x1.687d800000000p-6}
, {0x1.37d5000000000p-7}
, {-0x1.28fe300000000p-5}
, {0x1.b05dc80000000p-6}
, {0x1.24c8800000000p-8}
, {0x1.bbb6480000000p-5}
, {-0x1.04db680000000p-4}
, {-0x1.36db440000000p-4}
, {0x1.ff4fc00000000p-5}
, {-0x1.2ff36c0000000p-5}
, {0x1.2816300000000p-4}
, {0x1.0ec0c40000000p-4}
, {0x1.8af8580000000p-5}
, {-0x1.6b70e00000000p-8}
, {-0x1.8a9dd00000000p-7}
, {0x1.1704780000000p-4}
, {0x1.2ce4340000000p-5}
, {-0x1.f2364e0000000p-5}
, {0x1.1b1fd80000000p-5}
, {-0x1.1e23c00000000p-7}
, {-0x1.2da7000000000p-7}
, {0x1.06ba100000000p-4}
, {-0x1.76621c0000000p-5}
, {0x1.7e31980000000p-5}
, {0x1.e413980000000p-5}
, {-0x1.8335ec0000000p-5}
, {0x1.18d2180000000p-5}
, {0x1.5356b80000000p-6}
, {-0x1.6221100000000p-7}
, {-0x1.fa7ca80000000p-7}
, {0x1.49bb6c0000000p-5}
, {-0x1.fb06c00000000p-7}
, {-0x1.1273220000000p-4}
, {0x1.db3a380000000p-5}
, {-0x1.24aee00000000p-7}
, {0x1.14b9600000000p-4}
, {-0x1.a970840000000p-6}
, {-0x1.9848b40000000p-6}
, {-0x1.6554de0000000p-5}
, {-0x1.5899a00000000p-6}
, {0x1.4130400000000p-8}
, {-0x1.5dcc700000000p-5}
, {0x1.f270c80000000p-5}
, {-0x1.57593e0000000p-5}
, {0x1.0e40200000000p-8}
, {0x1.207f840000000p-4}
, {0x1.23d2e40000000p-5}
, {0x1.279d740000000p-5}
, {-0x1.777fb40000000p-5}
, {-0x1.a37efc0000000p-6}
, {-0x1.7a2a9c0000000p-5}
, {0x1.a401f00000000p-5}
, {0x1.0fb39c0000000p-4}
, {0x1.0beeb80000000p-4}
, {-0x1.da36a00000000p-8}
, {-0x1.2577800000000p-5}
, {0x1.af75f80000000p-6}
, {0x1.7767700000000p-5}
}
, {{-0x1.d3d6dc0000000p-6}
, {0x1.cf7fe80000000p-5}
, {-0x1.2613d00000000p-4}
, {0x1.179d500000000p-6}
, {-0x1.e6b3580000000p-5}
, {-0x1.428c000000000p-13}
, {0x1.bf3eb80000000p-5}
, {0x1.e0ed180000000p-5}
, {-0x1.b6ca380000000p-6}
, {-0x1.9be2000000000p-8}
, {-0x1.8692800000000p-10}
, {-0x1.e04c440000000p-5}
, {-0x1.d001d00000000p-5}
, {0x1.d0b0600000000p-7}
, {0x1.597d380000000p-5}
, {-0x1.1b7a4e0000000p-4}
, {-0x1.01a9320000000p-5}
, {0x1.3b37240000000p-5}
, {0x1.24e2d00000000p-7}
, {0x1.4827a00000000p-7}
, {-0x1.2133100000000p-6}
, {-0x1.1df1ea0000000p-5}
, {-0x1.1d0c080000000p-5}
, {-0x1.95530c0000000p-5}
, {-0x1.79cce40000000p-6}
, {-0x1.12a1ca0000000p-4}
, {-0x1.2140b40000000p-4}
, {-0x1.08e7ee0000000p-4}
, {0x1.1737a80000000p-5}
, {-0x1.c7e3880000000p-7}
, {0x1.56d6100000000p-6}
, {-0x1.9b59b00000000p-7}
, {-0x1.31b35e0000000p-5}
, {0x1.73b0d80000000p-5}
, {0x1.df50e00000000p-8}
, {-0x1.e1c8140000000p-6}
, {-0x1.b5c65e0000000p-5}
, {-0x1.6f18440000000p-6}
, {-0x1.c2cc5c0000000p-5}
, {-0x1.3bd4560000000p-5}
, {0x1.36d6000000000p-5}
, {-0x1.2a36ac0000000p-6}
, {0x1.04991c0000000p-4}
, {0x1.8477b80000000p-5}
, {-0x1.ac4e400000000p-5}
, {-0x1.0c71e80000000p-4}
, {0x1.3128d00000000p-4}
, {0x1.39a56c0000000p-5}
, {-0x1.fa68d80000000p-6}
, {0x1.5b66580000000p-5}
, {-0x1.b726f40000000p-5}
, {0x1.f9c5680000000p-5}
, {0x1.1333800000000p-9}
, {-0x1.f6e4500000000p-6}
, {-0x1.28f2d00000000p-4}
, {-0x1.2ea7f40000000p-5}
, {-0x1.61e3800000000p-9}
, {-0x1.fca61c0000000p-5}
, {-0x1.102d340000000p-6}
, {0x1.03c8180000000p-5}
, {0x1.1d9a400000000p-6}
, {0x1.ffc0000000000p-9}
, {0x1.1ec0700000000p-5}
, {0x1.2faf5c0000000p-4}
, {0x1.77ddb00000000p-5}
, {0x1.7c48e00000000p-6}
, {-0x1.b21ce00000000p-8}
, {0x1.a265e00000000p-6}
, {-0x1.d387540000000p-6}
, {-0x1.a23af00000000p-7}
, {-0x1.94586e0000000p-5}
, {-0x1.6dfcf20000000p-5}
, {-0x1.b3e6f00000000p-6}
, {0x1.9db6c00000000p-6}
, {0x1.b14c200000000p-6}
, {0x1.95e8000000000p-12}
, {0x1.9a2df80000000p-6}
, {0x1.20e9240000000p-4}
, {0x1.2450880000000p-4}
, {0x1.2dd67c0000000p-4}
}
, {{0x1.9ef0200000000p-7}
, {0x1.f1f3b00000000p-5}
, {0x1.a235000000000p-5}
, {-0x1.e8a5280000000p-6}
, {0x1.1c2c780000000p-6}
, {-0x1.bda15c0000000p-6}
, {0x1.0a43e40000000p-4}
, {-0x1.172a860000000p-5}
, {-0x1.15a3760000000p-5}
, {-0x1.8528400000000p-7}
, {0x1.d535300000000p-5}
, {0x1.28b7680000000p-4}
, {-0x1.f4a28e0000000p-5}
, {0x1.3fe9dc0000000p-5}
, {0x1.7587800000000p-7}
, {0x1.02ed700000000p-7}
, {-0x1.494c380000000p-6}
, {0x1.a370280000000p-5}
, {0x1.b0a6d00000000p-5}
, {-0x1.4076f40000000p-5}
, {0x1.148a200000000p-8}
, {-0x1.86b8d20000000p-5}
, {-0x1.b8a5780000000p-5}
, {-0x1.28aaa00000000p-8}
, {0x1.d258800000000p-7}
, {0x1.a966f00000000p-6}
, {-0x1.2b02e00000000p-5}
, {-0x1.71d5080000000p-6}
, {0x1.18a8240000000p-4}
, {0x1.dc83e00000000p-5}
, {-0x1.0993620000000p-4}
, {0x1.e729d00000000p-7}
, {0x1.9b37580000000p-5}
, {-0x1.1c2cf40000000p-5}
, {-0x1.0a7d440000000p-4}
, {-0x1.125fe00000000p-6}
, {-0x1.8d66000000000p-10}
, {-0x1.2108c40000000p-4}
, {-0x1.2c1a960000000p-4}
, {0x1.a378e80000000p-6}
, {-0x1.ae813c0000000p-5}
, {0x1.28cfe00000000p-4}
, {-0x1.c7845a0000000p-5}
, {0x1.b9f4480000000p-6}
, {0x1.34d3b80000000p-4}
, {0x1.adc3000000000p-5}
, {0x1.1ccfe80000000p-6}
, {-0x1.6dfe5a0000000p-5}
, {0x1.0562ec0000000p-5}
, {-0x1.75f8000000000p-12}
, {0x1.00dd340000000p-4}
, {-0x1.178bf00000000p-4}
, {-0x1.0921340000000p-4}
, {-0x1.08b8d00000000p-6}
, {-0x1.18e1a80000000p-6}
, {-0x1.133bbc0000000p-4}
, {0x1.0d06280000000p-4}
, {0x1.2d1d840000000p-5}
, {0x1.6484d00000000p-7}
, {-0x1.31ed100000000p-7}
, {-0x1.fe117c0000000p-5}
, {0x1.8410c00000000p-9}
, {0x1.357d5c0000000p-5}
, {-0x1.1b32900000000p-5}
, {-0x1.6148c40000000p-5}
, {-0x1.cf80e20000000p-5}
, {0x1.77fba00000000p-8}
, {-0x1.81cce80000000p-5}
, {0x1.b2b7680000000p-5}
, {-0x1.6244700000000p-5}
, {-0x1.ca31040000000p-6}
, {-0x1.333b4c0000000p-4}
, {0x1.aa28e00000000p-5}
, {-0x1.d426320000000p-5}
, {0x1.2d58fc0000000p-5}
, {0x1.c1a8d00000000p-5}
, {0x1.4d86f80000000p-5}
, {0x1.54ed880000000p-6}
, {-0x1.fc18900000000p-6}
, {-0x1.02c8000000000p-4}
}
}
;

#undef INPUT_CHANNELS
#undef CONV_FILTERS
#undef CONV_KERNEL_SIZE
#undef CONV_GROUPS