/**
  ******************************************************************************
  * @file    weights/conv1d.cc
  * @author  Pierre-Emmanuel Novac <penovac@unice.fr>, LEAT, CNRS, Université Côte d'Azur, France
  * @version 1.0.0
  * @date    24 march 2020
  * @brief   Template generating plain C code for the implementation of Convolutional Neural Networks on MCU
  */

#include <stdint.h>

#define INPUT_CHANNELS    1
#define CONV_FILTERS      10
#define CONV_KERNEL_SIZE  80
#define CONV_GROUPS       1


const float  conv1d_40_bias[CONV_FILTERS] = {0x0.0p+0, 0x0.0p+0, 0x0.0p+0, 0x0.0p+0, 0x0.0p+0, 0x0.0p+0, 0x0.0p+0, 0x0.0p+0, 0x0.0p+0, 0x0.0p+0}
;

const float  conv1d_40_kernel[CONV_FILTERS][CONV_KERNEL_SIZE][INPUT_CHANNELS / CONV_GROUPS] = {{{-0x1.b64f980000000p-5}
, {-0x1.9cad740000000p-6}
, {-0x1.0b66b00000000p-4}
, {0x1.168a540000000p-5}
, {-0x1.b2e0a00000000p-8}
, {-0x1.3f321c0000000p-4}
, {-0x1.b100740000000p-5}
, {0x1.0a1a700000000p-4}
, {0x1.14ef280000000p-5}
, {-0x1.d4f9d00000000p-7}
, {-0x1.6bb7460000000p-5}
, {-0x1.83fccc0000000p-6}
, {-0x1.e6dcb40000000p-5}
, {-0x1.ee32120000000p-5}
, {0x1.634c800000000p-6}
, {0x1.647f380000000p-5}
, {0x1.5c71400000000p-9}
, {-0x1.610f000000000p-11}
, {-0x1.4f7e3c0000000p-6}
, {-0x1.9669e60000000p-5}
, {0x1.4e18f00000000p-6}
, {0x1.cbee280000000p-5}
, {0x1.3902000000000p-9}
, {-0x1.b2eaa00000000p-7}
, {-0x1.b2bd460000000p-5}
, {0x1.5de6000000000p-12}
, {-0x1.25a71c0000000p-4}
, {0x1.3f98d40000000p-5}
, {-0x1.bb46200000000p-8}
, {0x1.34e9640000000p-4}
, {0x1.3018200000000p-7}
, {0x1.2686500000000p-4}
, {0x1.0ec6d40000000p-4}
, {-0x1.9fe5dc0000000p-5}
, {-0x1.a568000000000p-8}
, {0x1.41f9440000000p-4}
, {-0x1.c500a00000000p-7}
, {0x1.2d558c0000000p-4}
, {0x1.89c6a00000000p-6}
, {0x1.1862200000000p-4}
, {0x1.e6a8280000000p-5}
, {0x1.ecb0800000000p-8}
, {-0x1.84b5440000000p-6}
, {-0x1.a4071c0000000p-6}
, {0x1.0b9e440000000p-5}
, {0x1.8bbe900000000p-7}
, {0x1.d04e100000000p-6}
, {-0x1.05f7540000000p-4}
, {0x1.e749400000000p-6}
, {0x1.62c8100000000p-5}
, {-0x1.4361400000000p-6}
, {-0x1.88dc8c0000000p-6}
, {-0x1.eca3000000000p-9}
, {-0x1.a73ac00000000p-7}
, {-0x1.881b680000000p-5}
, {0x1.a282f80000000p-5}
, {-0x1.4656b00000000p-4}
, {-0x1.0449600000000p-7}
, {-0x1.1cde6a0000000p-4}
, {0x1.6f6b600000000p-5}
, {-0x1.c63ef40000000p-6}
, {0x1.e38ce00000000p-7}
, {-0x1.ee8f940000000p-6}
, {-0x1.bb85000000000p-7}
, {-0x1.d123ec0000000p-6}
, {-0x1.1182e00000000p-4}
, {0x1.6a45800000000p-5}
, {0x1.6433c80000000p-5}
, {0x1.cfc4900000000p-6}
, {-0x1.4028300000000p-6}
, {-0x1.23924a0000000p-4}
, {0x1.a5f1980000000p-6}
, {-0x1.25e7600000000p-6}
, {-0x1.50392e0000000p-5}
, {0x1.34391c0000000p-4}
, {-0x1.54eb440000000p-5}
, {-0x1.d5c4c00000000p-7}
, {-0x1.c23c800000000p-5}
, {0x1.4078580000000p-4}
, {-0x1.df3be00000000p-8}
}
, {{-0x1.0f31a80000000p-5}
, {-0x1.1507400000000p-4}
, {-0x1.00bb680000000p-6}
, {-0x1.461cba0000000p-4}
, {0x1.3facd00000000p-6}
, {0x1.3ec2740000000p-4}
, {-0x1.1204ce0000000p-4}
, {0x1.0734280000000p-4}
, {-0x1.ec832c0000000p-5}
, {-0x1.4dace60000000p-5}
, {0x1.b5d4380000000p-5}
, {0x1.972f000000000p-5}
, {-0x1.4553840000000p-4}
, {-0x1.c071d00000000p-6}
, {0x1.b336c00000000p-7}
, {0x1.27b5b40000000p-4}
, {-0x1.2a5b320000000p-4}
, {0x1.118f100000000p-4}
, {0x1.a8f9480000000p-6}
, {-0x1.0fca700000000p-4}
, {-0x1.352c420000000p-5}
, {-0x1.0c36bc0000000p-5}
, {0x1.9a2aa80000000p-5}
, {0x1.96a8e80000000p-5}
, {0x1.0971700000000p-4}
, {0x1.0075b80000000p-6}
, {-0x1.01d8720000000p-5}
, {-0x1.22f7b00000000p-4}
, {0x1.1709080000000p-5}
, {0x1.c499580000000p-6}
, {-0x1.92c1600000000p-7}
, {-0x1.2e8f200000000p-7}
, {0x1.49e9c00000000p-6}
, {-0x1.dbeba80000000p-6}
, {0x1.bd56780000000p-6}
, {0x1.a5e8180000000p-5}
, {-0x1.bf61bc0000000p-6}
, {0x1.4f79640000000p-4}
, {0x1.3bba780000000p-6}
, {-0x1.4246fc0000000p-4}
, {0x1.050cc40000000p-4}
, {-0x1.b61b400000000p-5}
, {0x1.6b0d100000000p-7}
, {-0x1.e396200000000p-7}
, {-0x1.94e8a80000000p-5}
, {-0x1.450ab80000000p-6}
, {0x1.2bb92c0000000p-5}
, {-0x1.8b70a00000000p-5}
, {-0x1.b65dac0000000p-5}
, {0x1.3d31e00000000p-4}
, {0x1.7deec80000000p-5}
, {0x1.dedb900000000p-5}
, {0x1.6e43380000000p-5}
, {-0x1.385d9a0000000p-4}
, {0x1.61db900000000p-6}
, {0x1.b717400000000p-9}
, {0x1.e33e700000000p-5}
, {-0x1.2565700000000p-5}
, {0x1.222d940000000p-4}
, {-0x1.92aca40000000p-6}
, {0x1.61cfb00000000p-6}
, {-0x1.0642480000000p-5}
, {-0x1.35519a0000000p-4}
, {-0x1.13a1520000000p-4}
, {0x1.812a800000000p-9}
, {-0x1.7b42780000000p-6}
, {-0x1.b2136c0000000p-5}
, {0x1.5190940000000p-4}
, {-0x1.2523420000000p-5}
, {-0x1.35d6b40000000p-4}
, {0x1.9e53b80000000p-5}
, {0x1.5b15780000000p-6}
, {0x1.63c2480000000p-5}
, {-0x1.d284ac0000000p-5}
, {-0x1.2523bc0000000p-4}
, {-0x1.4854000000000p-8}
, {0x1.7b58f00000000p-6}
, {-0x1.dbce4c0000000p-5}
, {0x1.116dac0000000p-5}
, {0x1.67e2080000000p-6}
}
, {{0x1.e8d7f00000000p-5}
, {-0x1.3f63800000000p-10}
, {0x1.1c04280000000p-5}
, {0x1.66a8180000000p-6}
, {-0x1.2d3e180000000p-5}
, {0x1.8236b80000000p-6}
, {0x1.922da80000000p-6}
, {0x1.67cdb80000000p-5}
, {-0x1.8184340000000p-6}
, {0x1.7da4180000000p-5}
, {-0x1.b1f42c0000000p-5}
, {-0x1.1fd0d60000000p-4}
, {0x1.20fc440000000p-5}
, {-0x1.4c9ac80000000p-4}
, {-0x1.0181360000000p-5}
, {-0x1.a671d40000000p-6}
, {0x1.accbe80000000p-5}
, {-0x1.97e0280000000p-5}
, {0x1.36ab040000000p-4}
, {-0x1.a2ce940000000p-5}
, {-0x1.2982000000000p-11}
, {0x1.2d0ae40000000p-5}
, {0x1.4179e00000000p-4}
, {-0x1.23303c0000000p-4}
, {0x1.9d65700000000p-5}
, {0x1.b6edf00000000p-6}
, {0x1.1da9700000000p-4}
, {-0x1.352f2a0000000p-4}
, {-0x1.1c5cb60000000p-4}
, {-0x1.6a42d40000000p-6}
, {0x1.1ad5bc0000000p-4}
, {-0x1.cc42b00000000p-5}
, {-0x1.3f8b480000000p-6}
, {0x1.dd98080000000p-5}
, {-0x1.1eaf280000000p-4}
, {0x1.3612b80000000p-4}
, {0x1.4fa04c0000000p-5}
, {0x1.7343400000000p-6}
, {-0x1.a0e75c0000000p-5}
, {-0x1.2f07300000000p-6}
, {0x1.3ebf100000000p-4}
, {0x1.0582680000000p-4}
, {0x1.5198580000000p-4}
, {-0x1.211b7a0000000p-4}
, {0x1.6865900000000p-6}
, {-0x1.2042ee0000000p-4}
, {0x1.eeb0200000000p-8}
, {-0x1.3e7e400000000p-6}
, {0x1.0d2b5c0000000p-4}
, {-0x1.8a86f20000000p-5}
, {0x1.3f06b00000000p-4}
, {0x1.725d800000000p-8}
, {0x1.2668300000000p-7}
, {0x1.b0a3300000000p-7}
, {0x1.218f400000000p-5}
, {-0x1.494ef40000000p-4}
, {-0x1.f8f7140000000p-5}
, {0x1.df62300000000p-5}
, {-0x1.4b8a960000000p-4}
, {0x1.b4efe00000000p-6}
, {0x1.8af9d80000000p-5}
, {-0x1.8c68ac0000000p-5}
, {0x1.a9bfa00000000p-5}
, {-0x1.55150c0000000p-5}
, {-0x1.cb626a0000000p-5}
, {-0x1.417c340000000p-5}
, {-0x1.d825f00000000p-7}
, {0x1.3eae780000000p-4}
, {-0x1.db594a0000000p-5}
, {-0x1.1c97a80000000p-6}
, {-0x1.0272400000000p-8}
, {-0x1.50b1f20000000p-4}
, {0x1.0fb2a40000000p-4}
, {0x1.defc580000000p-6}
, {-0x1.123ab00000000p-4}
, {-0x1.6471380000000p-6}
, {-0x1.5c6ce00000000p-7}
, {-0x1.ff199a0000000p-5}
, {0x1.14fd140000000p-4}
, {-0x1.8a25f80000000p-5}
}
, {{0x1.1560300000000p-7}
, {0x1.6e0fa00000000p-6}
, {-0x1.91ace00000000p-8}
, {0x1.af8e600000000p-5}
, {-0x1.a4f3800000000p-9}
, {-0x1.0b3aa00000000p-6}
, {-0x1.7da4300000000p-6}
, {0x1.aed8f00000000p-7}
, {0x1.4be4c40000000p-4}
, {-0x1.4586020000000p-5}
, {-0x1.69d1d40000000p-5}
, {-0x1.4a6e940000000p-4}
, {-0x1.1dc9260000000p-5}
, {-0x1.c56a0c0000000p-5}
, {-0x1.6989000000000p-9}
, {-0x1.82403a0000000p-5}
, {-0x1.417cd80000000p-4}
, {-0x1.1588d00000000p-6}
, {0x1.abf8b00000000p-7}
, {0x1.12a1ec0000000p-4}
, {0x1.9339000000000p-6}
, {0x1.cd74700000000p-5}
, {-0x1.2ec5620000000p-4}
, {0x1.dff7580000000p-6}
, {0x1.3900dc0000000p-4}
, {-0x1.aa56900000000p-7}
, {0x1.e183480000000p-6}
, {0x1.9385000000000p-10}
, {0x1.0c43280000000p-5}
, {-0x1.89120c0000000p-5}
, {0x1.7f47500000000p-5}
, {-0x1.d2cd4a0000000p-5}
, {-0x1.d0a5400000000p-5}
, {0x1.34f9c00000000p-9}
, {0x1.b8fb980000000p-6}
, {0x1.2a36100000000p-4}
, {0x1.8a90980000000p-5}
, {-0x1.b9f57c0000000p-5}
, {-0x1.9dbd9c0000000p-6}
, {-0x1.2d1e0e0000000p-5}
, {-0x1.cd652c0000000p-6}
, {-0x1.b21e280000000p-5}
, {0x1.f1f0800000000p-8}
, {-0x1.4490b00000000p-7}
, {-0x1.551d040000000p-5}
, {-0x1.3bd6200000000p-8}
, {0x1.fa3db00000000p-6}
, {-0x1.db4cdc0000000p-6}
, {-0x1.820baa0000000p-5}
, {-0x1.3a8b600000000p-4}
, {0x1.8560f00000000p-6}
, {0x1.35f4740000000p-5}
, {-0x1.ff0d800000000p-7}
, {0x1.7f4ad00000000p-7}
, {-0x1.0cf7160000000p-5}
, {-0x1.47d2c60000000p-4}
, {0x1.a090300000000p-6}
, {-0x1.369c580000000p-4}
, {-0x1.ae55200000000p-6}
, {-0x1.cdf1100000000p-7}
, {0x1.2385fc0000000p-5}
, {0x1.59b4a40000000p-5}
, {0x1.2314940000000p-4}
, {-0x1.45fc160000000p-5}
, {0x1.019c8c0000000p-5}
, {-0x1.031a660000000p-4}
, {-0x1.57eb7a0000000p-5}
, {0x1.aecaa00000000p-5}
, {-0x1.e66f780000000p-5}
, {0x1.f168600000000p-6}
, {0x1.9c6dc80000000p-6}
, {0x1.6c8f680000000p-5}
, {0x1.6a91180000000p-5}
, {-0x1.c2ab7c0000000p-6}
, {0x1.7a32f80000000p-6}
, {0x1.4c5fa00000000p-7}
, {-0x1.d9295e0000000p-5}
, {-0x1.acb1200000000p-5}
, {0x1.6741000000000p-5}
, {-0x1.f1add00000000p-5}
}
, {{0x1.f1a4980000000p-5}
, {0x1.46251c0000000p-4}
, {-0x1.f2975e0000000p-5}
, {-0x1.179cb00000000p-6}
, {0x1.2ef0240000000p-5}
, {0x1.94c7800000000p-9}
, {0x1.5ba2e80000000p-5}
, {-0x1.1fcad00000000p-7}
, {-0x1.2ee8fe0000000p-4}
, {0x1.70d5d00000000p-6}
, {0x1.256c6c0000000p-4}
, {-0x1.26a7300000000p-6}
, {-0x1.2485da0000000p-4}
, {0x1.03f8b40000000p-4}
, {-0x1.24d8600000000p-8}
, {-0x1.adf6b00000000p-7}
, {-0x1.6fe8180000000p-5}
, {0x1.cd6a000000000p-9}
, {0x1.fd57600000000p-6}
, {-0x1.5a40ae0000000p-5}
, {-0x1.eacc0c0000000p-6}
, {-0x1.60df100000000p-7}
, {-0x1.a140000000000p-5}
, {0x1.55d3d40000000p-5}
, {-0x1.ca3cc00000000p-8}
, {-0x1.8362ac0000000p-5}
, {-0x1.f4801c0000000p-5}
, {-0x1.b6a2e00000000p-7}
, {-0x1.2dc9ee0000000p-5}
, {0x1.55a8e00000000p-8}
, {0x1.c702500000000p-6}
, {0x1.280ac00000000p-9}
, {0x1.96e9900000000p-6}
, {-0x1.4b76be0000000p-5}
, {0x1.31208c0000000p-4}
, {-0x1.16b0ae0000000p-4}
, {-0x1.1b9a400000000p-6}
, {0x1.73f3c80000000p-6}
, {0x1.0874c40000000p-4}
, {0x1.49fd940000000p-4}
, {0x1.2c69980000000p-6}
, {-0x1.1bda2a0000000p-4}
, {-0x1.a65fd40000000p-6}
, {0x1.9bafa80000000p-5}
, {0x1.778a100000000p-7}
, {-0x1.42121e0000000p-4}
, {-0x1.957c960000000p-5}
, {0x1.13e9680000000p-4}
, {0x1.d478d00000000p-5}
, {0x1.3e96e00000000p-5}
, {-0x1.8c66bc0000000p-5}
, {0x1.25a5d80000000p-5}
, {0x1.a1a3400000000p-7}
, {-0x1.8fe5700000000p-7}
, {-0x1.784d280000000p-5}
, {0x1.2660580000000p-6}
, {-0x1.2938800000000p-4}
, {0x1.d35e680000000p-5}
, {-0x1.5995580000000p-6}
, {0x1.0ea7000000000p-8}
, {-0x1.2f51820000000p-4}
, {0x1.3a0d300000000p-4}
, {0x1.084b3c0000000p-5}
, {0x1.03c0a80000000p-4}
, {-0x1.4b5e8c0000000p-5}
, {-0x1.4bbd820000000p-5}
, {-0x1.4d740c0000000p-4}
, {-0x1.49cd540000000p-6}
, {-0x1.d7ac0c0000000p-5}
, {0x1.3d5c5c0000000p-5}
, {0x1.8665300000000p-7}
, {-0x1.10fbba0000000p-4}
, {-0x1.dc31380000000p-5}
, {0x1.626be80000000p-6}
, {-0x1.13300c0000000p-4}
, {-0x1.cdb6180000000p-5}
, {-0x1.3b1c140000000p-5}
, {-0x1.5705400000000p-9}
, {0x1.394a440000000p-4}
, {-0x1.42bedc0000000p-4}
}
, {{0x1.b74ea80000000p-5}
, {0x1.dddb080000000p-5}
, {0x1.6bc4c80000000p-6}
, {0x1.03c8000000000p-14}
, {0x1.269e580000000p-4}
, {-0x1.0c99980000000p-4}
, {-0x1.cdc9de0000000p-5}
, {-0x1.0762960000000p-5}
, {0x1.2bc92c0000000p-4}
, {-0x1.fd85fc0000000p-5}
, {-0x1.e74a100000000p-7}
, {-0x1.3fbb8c0000000p-5}
, {0x1.062d700000000p-4}
, {-0x1.4f79c00000000p-9}
, {0x1.42c5a00000000p-4}
, {0x1.5010140000000p-4}
, {-0x1.a781e80000000p-6}
, {0x1.0269a00000000p-7}
, {-0x1.4245e80000000p-4}
, {-0x1.cb0a060000000p-5}
, {-0x1.6457780000000p-6}
, {-0x1.37f95c0000000p-5}
, {0x1.9a1f000000000p-5}
, {-0x1.5886000000000p-10}
, {-0x1.ad6c1c0000000p-5}
, {-0x1.af61280000000p-5}
, {-0x1.6bead80000000p-6}
, {0x1.bc09f80000000p-6}
, {0x1.0f9fc00000000p-9}
, {0x1.beff780000000p-5}
, {0x1.3f1ec00000000p-5}
, {0x1.6dcf400000000p-5}
, {0x1.2a5b080000000p-5}
, {-0x1.f4459c0000000p-5}
, {0x1.0f33c40000000p-5}
, {-0x1.9582140000000p-5}
, {0x1.4fa7480000000p-4}
, {-0x1.cd04da0000000p-5}
, {0x1.e4dde00000000p-5}
, {0x1.d68ea00000000p-6}
, {-0x1.f504e00000000p-8}
, {-0x1.41ced20000000p-5}
, {-0x1.b2f6540000000p-5}
, {-0x1.f54f740000000p-5}
, {-0x1.c75ce80000000p-5}
, {-0x1.6f3b000000000p-11}
, {-0x1.c47ea00000000p-5}
, {0x1.6ccbf00000000p-6}
, {0x1.579f700000000p-5}
, {-0x1.e2172c0000000p-5}
, {0x1.4de9440000000p-4}
, {0x1.11d1e00000000p-8}
, {0x1.4c4f440000000p-4}
, {0x1.2af70c0000000p-5}
, {-0x1.fb67200000000p-7}
, {0x1.0368b80000000p-4}
, {-0x1.d0505e0000000p-5}
, {0x1.26503c0000000p-4}
, {0x1.1fdefc0000000p-5}
, {-0x1.b547c00000000p-7}
, {0x1.79f9400000000p-6}
, {0x1.84ad000000000p-9}
, {-0x1.15a9c80000000p-6}
, {-0x1.245bae0000000p-5}
, {-0x1.278c000000000p-9}
, {0x1.dcece80000000p-5}
, {-0x1.18232e0000000p-5}
, {-0x1.b745f40000000p-6}
, {-0x1.a15d100000000p-7}
, {-0x1.9b3aca0000000p-5}
, {-0x1.9866a00000000p-5}
, {-0x1.1047d80000000p-4}
, {-0x1.052f900000000p-7}
, {-0x1.1b8cac0000000p-4}
, {-0x1.f2b6200000000p-5}
, {-0x1.0c58a00000000p-4}
, {-0x1.7011400000000p-8}
, {-0x1.2769500000000p-6}
, {0x1.446f680000000p-6}
, {0x1.15af340000000p-4}
}
, {{0x1.d15dd00000000p-6}
, {-0x1.b87e540000000p-6}
, {-0x1.89b6000000000p-5}
, {0x1.557ea00000000p-5}
, {-0x1.2beaee0000000p-4}
, {0x1.2676b80000000p-6}
, {-0x1.5c8e740000000p-5}
, {0x1.b024200000000p-6}
, {0x1.5118900000000p-4}
, {0x1.38d0c80000000p-4}
, {-0x1.7573ec0000000p-5}
, {-0x1.11068c0000000p-5}
, {0x1.303e440000000p-4}
, {0x1.4349fc0000000p-5}
, {0x1.f046600000000p-7}
, {0x1.2f4bd00000000p-4}
, {0x1.60c1300000000p-7}
, {0x1.4127680000000p-6}
, {-0x1.0a146a0000000p-4}
, {-0x1.dda5d40000000p-5}
, {-0x1.31aede0000000p-5}
, {-0x1.05cbac0000000p-4}
, {-0x1.63ccfc0000000p-6}
, {-0x1.2b9e580000000p-4}
, {0x1.cc15a00000000p-7}
, {-0x1.fa8edc0000000p-5}
, {-0x1.29c63c0000000p-4}
, {0x1.d95a500000000p-7}
, {-0x1.2639400000000p-7}
, {-0x1.432f320000000p-5}
, {-0x1.b265000000000p-9}
, {-0x1.1b17420000000p-4}
, {-0x1.d7b9a00000000p-7}
, {-0x1.b10c800000000p-8}
, {-0x1.e571a40000000p-5}
, {-0x1.341e0a0000000p-4}
, {-0x1.d5d0640000000p-6}
, {0x1.1843380000000p-6}
, {-0x1.3a516e0000000p-4}
, {-0x1.93fe520000000p-5}
, {-0x1.8ea0080000000p-6}
, {0x1.172a280000000p-6}
, {-0x1.f288960000000p-5}
, {0x1.1ad7a00000000p-8}
, {-0x1.134a800000000p-10}
, {-0x1.28bb400000000p-8}
, {0x1.9951d80000000p-5}
, {0x1.2adda00000000p-4}
, {-0x1.8642e40000000p-5}
, {-0x1.09aeb00000000p-4}
, {-0x1.8611d60000000p-5}
, {0x1.3a44d00000000p-4}
, {-0x1.d97a0a0000000p-5}
, {-0x1.29d95a0000000p-4}
, {-0x1.0e431c0000000p-4}
, {-0x1.8260a20000000p-5}
, {0x1.f776280000000p-5}
, {-0x1.4db4f80000000p-4}
, {0x1.01ce0c0000000p-4}
, {0x1.3754ac0000000p-4}
, {-0x1.ce65640000000p-5}
, {-0x1.7692d20000000p-5}
, {-0x1.e129100000000p-7}
, {0x1.82dee00000000p-7}
, {-0x1.2f80380000000p-6}
, {0x1.41c6b00000000p-4}
, {0x1.0568b80000000p-4}
, {0x1.ff19880000000p-5}
, {0x1.d598f00000000p-5}
, {-0x1.b0d9700000000p-6}
, {-0x1.54ccc20000000p-5}
, {0x1.a4a6500000000p-7}
, {-0x1.3deb000000000p-10}
, {0x1.d89e100000000p-5}
, {0x1.2c14940000000p-4}
, {0x1.51f5000000000p-4}
, {-0x1.edf0b80000000p-5}
, {-0x1.32a6d40000000p-5}
, {-0x1.361b000000000p-8}
, {-0x1.22f22e0000000p-4}
}
, {{-0x1.9170000000000p-7}
, {0x1.60e7400000000p-6}
, {0x1.6ea6e00000000p-6}
, {0x1.5a0e500000000p-6}
, {0x1.1f60840000000p-4}
, {-0x1.0171940000000p-4}
, {-0x1.4e3b180000000p-4}
, {-0x1.3aad8a0000000p-4}
, {0x1.e149b80000000p-6}
, {-0x1.f88d800000000p-9}
, {0x1.1785740000000p-4}
, {0x1.9ccf000000000p-8}
, {-0x1.0d11a00000000p-6}
, {0x1.16bd000000000p-7}
, {-0x1.110cfc0000000p-5}
, {0x1.b4a6500000000p-5}
, {-0x1.de84fa0000000p-5}
, {-0x1.059e7c0000000p-4}
, {0x1.3a71380000000p-4}
, {-0x1.43ef600000000p-8}
, {-0x1.c88cbc0000000p-5}
, {0x1.5565380000000p-6}
, {-0x1.3dca020000000p-5}
, {0x1.6cf7d00000000p-5}
, {-0x1.17acdc0000000p-5}
, {0x1.5aaf340000000p-5}
, {-0x1.42c44e0000000p-4}
, {-0x1.6893100000000p-6}
, {0x1.f967400000000p-5}
, {-0x1.084c580000000p-5}
, {0x1.c22c680000000p-5}
, {0x1.1a4f200000000p-4}
, {0x1.f162800000000p-10}
, {-0x1.e0be640000000p-5}
, {-0x1.9ab8dc0000000p-5}
, {-0x1.3c76c40000000p-4}
, {0x1.17c6740000000p-4}
, {-0x1.e6bac00000000p-7}
, {-0x1.9af5000000000p-9}
, {-0x1.dadb000000000p-9}
, {-0x1.3828f00000000p-7}
, {0x1.8b68b00000000p-6}
, {-0x1.3e96b00000000p-4}
, {-0x1.16a0d40000000p-5}
, {-0x1.bd51900000000p-5}
, {0x1.be75780000000p-5}
, {0x1.b0f9c00000000p-8}
, {0x1.0c7e680000000p-5}
, {0x1.ff6c000000000p-9}
, {0x1.43b0280000000p-4}
, {-0x1.b618d00000000p-5}
, {-0x1.3430a80000000p-4}
, {0x1.04bab80000000p-4}
, {0x1.2549dc0000000p-4}
, {-0x1.05a8a80000000p-4}
, {0x1.2697140000000p-5}
, {-0x1.3ba8f40000000p-4}
, {-0x1.3567220000000p-4}
, {-0x1.33546c0000000p-4}
, {0x1.70e9100000000p-7}
, {0x1.f0ed980000000p-5}
, {-0x1.50517a0000000p-4}
, {0x1.1064e00000000p-4}
, {0x1.771b300000000p-5}
, {0x1.6954a00000000p-7}
, {0x1.191ec00000000p-9}
, {0x1.e210880000000p-5}
, {-0x1.a68b800000000p-5}
, {-0x1.29fbf00000000p-7}
, {0x1.463ef00000000p-4}
, {-0x1.256fa40000000p-5}
, {0x1.af10e80000000p-6}
, {0x1.260a380000000p-6}
, {0x1.c46a100000000p-5}
, {-0x1.48ca900000000p-6}
, {-0x1.c40a940000000p-6}
, {-0x1.2c71f00000000p-4}
, {0x1.6c52c80000000p-6}
, {0x1.9b79400000000p-9}
, {-0x1.0c28540000000p-4}
}
, {{0x1.82cdb80000000p-5}
, {0x1.6459e00000000p-8}
, {-0x1.29a0940000000p-5}
, {0x1.3d78f00000000p-7}
, {0x1.b746a00000000p-6}
, {-0x1.5d08f40000000p-6}
, {0x1.3b89400000000p-5}
, {-0x1.cd78000000000p-5}
, {-0x1.51b8500000000p-5}
, {0x1.381d280000000p-5}
, {0x1.3494b00000000p-4}
, {0x1.efdd180000000p-6}
, {-0x1.ff8ca00000000p-8}
, {-0x1.c7be220000000p-5}
, {0x1.50ed980000000p-4}
, {-0x1.0b0ad00000000p-4}
, {0x1.f56e800000000p-8}
, {0x1.d86f280000000p-5}
, {0x1.3efafc0000000p-5}
, {-0x1.7d0ab00000000p-6}
, {-0x1.be39200000000p-7}
, {0x1.74ae200000000p-5}
, {0x1.84c7000000000p-5}
, {-0x1.3eebe60000000p-4}
, {-0x1.2050200000000p-4}
, {-0x1.6384bc0000000p-5}
, {-0x1.1d97b00000000p-4}
, {0x1.ec46f80000000p-6}
, {-0x1.b961500000000p-5}
, {-0x1.4a1ca40000000p-4}
, {0x1.cb5ff00000000p-6}
, {0x1.7ea7780000000p-6}
, {0x1.fc8af00000000p-6}
, {0x1.f06d500000000p-5}
, {0x1.1320880000000p-4}
, {0x1.ee8a000000000p-5}
, {-0x1.ea19d00000000p-5}
, {-0x1.2140a20000000p-5}
, {0x1.970a180000000p-5}
, {-0x1.3b386c0000000p-4}
, {-0x1.c443d80000000p-5}
, {0x1.c365180000000p-6}
, {0x1.037e880000000p-4}
, {0x1.498a940000000p-5}
, {-0x1.68a1d80000000p-6}
, {-0x1.7ad9080000000p-6}
, {0x1.7fb2c00000000p-9}
, {0x1.91b7900000000p-6}
, {0x1.f870880000000p-6}
, {-0x1.d21bcc0000000p-6}
, {-0x1.24013e0000000p-4}
, {0x1.75c2300000000p-6}
, {0x1.1693580000000p-4}
, {0x1.35cafc0000000p-4}
, {0x1.345f980000000p-5}
, {0x1.b33f080000000p-6}
, {0x1.b118d80000000p-5}
, {0x1.bc72580000000p-6}
, {0x1.2721840000000p-5}
, {0x1.225ee00000000p-6}
, {-0x1.b515dc0000000p-5}
, {-0x1.12a9800000000p-4}
, {0x1.b127280000000p-5}
, {0x1.4b10d80000000p-6}
, {0x1.f6de900000000p-6}
, {-0x1.d72e000000000p-12}
, {-0x1.3c81080000000p-6}
, {0x1.cfba000000000p-5}
, {-0x1.b735b00000000p-5}
, {0x1.306fb00000000p-5}
, {0x1.13f9180000000p-4}
, {0x1.35cf500000000p-7}
, {-0x1.f45f800000000p-10}
, {0x1.0e90100000000p-5}
, {0x1.2485480000000p-4}
, {-0x1.10d2ec0000000p-4}
, {-0x1.9b79ea0000000p-5}
, {0x1.d047f00000000p-5}
, {-0x1.33a91e0000000p-4}
, {0x1.3962480000000p-4}
}
, {{-0x1.1a03620000000p-5}
, {-0x1.35cd260000000p-5}
, {0x1.9700d00000000p-7}
, {0x1.7c18c00000000p-5}
, {-0x1.54326e0000000p-5}
, {-0x1.7695ec0000000p-6}
, {-0x1.d713000000000p-10}
, {-0x1.c7a8400000000p-9}
, {0x1.2852400000000p-4}
, {-0x1.01e9600000000p-5}
, {0x1.6b70f80000000p-5}
, {-0x1.d8367c0000000p-6}
, {-0x1.4129200000000p-6}
, {-0x1.35ee280000000p-4}
, {-0x1.855fbc0000000p-5}
, {-0x1.b0c1800000000p-6}
, {0x1.0312e00000000p-5}
, {0x1.649d280000000p-6}
, {0x1.db8b000000000p-5}
, {-0x1.1831100000000p-7}
, {0x1.289bc80000000p-5}
, {-0x1.a0f8140000000p-5}
, {-0x1.d497e40000000p-5}
, {0x1.05813c0000000p-4}
, {-0x1.74b9040000000p-5}
, {-0x1.127f7e0000000p-5}
, {0x1.22c8c40000000p-5}
, {-0x1.114e780000000p-6}
, {-0x1.60a7400000000p-9}
, {0x1.2178000000000p-6}
, {-0x1.e846800000000p-9}
, {0x1.a36e300000000p-5}
, {-0x1.70649c0000000p-6}
, {-0x1.21011e0000000p-4}
, {0x1.fd9c680000000p-5}
, {-0x1.429f800000000p-4}
, {0x1.8e2b700000000p-5}
, {-0x1.2c71460000000p-5}
, {0x1.47c0780000000p-4}
, {-0x1.b03bc40000000p-5}
, {-0x1.0131800000000p-7}
, {-0x1.454ca00000000p-5}
, {0x1.c12a980000000p-6}
, {-0x1.2a451c0000000p-4}
, {0x1.e270000000000p-8}
, {-0x1.fb12840000000p-5}
, {0x1.24bae80000000p-4}
, {0x1.808d200000000p-5}
, {-0x1.18cb480000000p-4}
, {0x1.419ed80000000p-4}
, {-0x1.5adc900000000p-7}
, {-0x1.05c0f40000000p-4}
, {0x1.11aae40000000p-4}
, {0x1.a7d8b00000000p-5}
, {-0x1.f595300000000p-7}
, {0x1.f787380000000p-5}
, {-0x1.be4ea40000000p-5}
, {-0x1.0d742e0000000p-5}
, {-0x1.baf8640000000p-6}
, {0x1.220ebc0000000p-5}
, {-0x1.4298260000000p-4}
, {0x1.346ae80000000p-4}
, {0x1.2424c40000000p-4}
, {0x1.3d9f400000000p-6}
, {0x1.ce9a100000000p-5}
, {0x1.358c340000000p-5}
, {-0x1.7c01aa0000000p-5}
, {0x1.36a6180000000p-4}
, {-0x1.e428500000000p-7}
, {0x1.9c33900000000p-7}
, {-0x1.e71a440000000p-5}
, {-0x1.040e900000000p-6}
, {-0x1.8524140000000p-6}
, {-0x1.f708000000000p-14}
, {0x1.34bf840000000p-4}
, {-0x1.56310e0000000p-5}
, {0x1.bfedc00000000p-5}
, {0x1.1f13240000000p-4}
, {-0x1.f750380000000p-5}
, {-0x1.3cc2300000000p-6}
}
}
;

#undef INPUT_CHANNELS
#undef CONV_FILTERS
#undef CONV_KERNEL_SIZE
#undef CONV_GROUPS