/**
  ******************************************************************************
  * @file    weights/conv1d.cc
  * @author  Pierre-Emmanuel Novac <penovac@unice.fr>, LEAT, CNRS, Université Côte d'Azur, France
  * @version 1.0.0
  * @date    24 march 2020
  * @brief   Template generating plain C code for the implementation of Convolutional Neural Networks on MCU
  */

#include <stdint.h>

#define INPUT_CHANNELS    8
#define CONV_FILTERS      16
#define CONV_KERNEL_SIZE  3
#define CONV_GROUPS       1


const float  conv1d_42_bias[CONV_FILTERS] = {0x0.0p+0, 0x0.0p+0, 0x0.0p+0, 0x0.0p+0, 0x0.0p+0, 0x0.0p+0, 0x0.0p+0, 0x0.0p+0, 0x0.0p+0, 0x0.0p+0, 0x0.0p+0, 0x0.0p+0, 0x0.0p+0, 0x0.0p+0, 0x0.0p+0, 0x0.0p+0}
;

const float  conv1d_42_kernel[CONV_FILTERS][CONV_KERNEL_SIZE][INPUT_CHANNELS / CONV_GROUPS] = {{{-0x1.23a6d00000000p-2, 0x1.982d640000000p-3, -0x1.6dcec80000000p-5, 0x1.4829680000000p-3, -0x1.2b117a0000000p-3, -0x1.3416d00000000p-5, 0x1.a7444c0000000p-3, -0x1.3a07020000000p-3}
, {-0x1.672cf40000000p-4, -0x1.6252180000000p-3, -0x1.218eec0000000p-2, 0x1.6690680000000p-4, -0x1.3beb100000000p-5, -0x1.67caec0000000p-3, -0x1.7fe6380000000p-3, 0x1.2a4a700000000p-3}
, {0x1.f282280000000p-3, -0x1.652db40000000p-3, 0x1.c7b1700000000p-3, 0x1.296b700000000p-3, 0x1.bf86e80000000p-3, -0x1.4536c00000000p-6, -0x1.7596100000000p-5, -0x1.c4ed800000000p-6}
}
, {{-0x1.06ec000000000p-3, 0x1.c259900000000p-3, 0x1.1beebc0000000p-2, 0x1.51ae000000000p-4, 0x1.bf4c480000000p-3, -0x1.6e2ce80000000p-5, -0x1.f9a8ec0000000p-4, -0x1.20fad80000000p-3}
, {-0x1.529ba80000000p-4, 0x1.2f883c0000000p-3, 0x1.ccabe00000000p-6, -0x1.37dc000000000p-4, -0x1.760dba0000000p-3, 0x1.4c89cc0000000p-3, 0x1.06225c0000000p-2, 0x1.d95a880000000p-3}
, {0x1.d6b4a00000000p-5, -0x1.1aee080000000p-4, 0x1.c8ffd00000000p-5, -0x1.21caa00000000p-2, 0x1.9d62a80000000p-4, -0x1.ba5b100000000p-5, 0x1.1a401c0000000p-3, 0x1.5c4d080000000p-3}
}
, {{0x1.ef20680000000p-4, 0x1.3a56800000000p-5, -0x1.bb4fb80000000p-3, -0x1.8d97740000000p-4, -0x1.1243be0000000p-2, 0x1.c145000000000p-4, -0x1.00921c0000000p-4, 0x1.0fea300000000p-2}
, {-0x1.080bd40000000p-2, 0x1.1546a40000000p-2, 0x1.af1e040000000p-3, 0x1.74a2800000000p-3, -0x1.1919940000000p-4, 0x1.2299140000000p-2, 0x1.d395d00000000p-3, 0x1.9004300000000p-4}
, {0x1.d5bd100000000p-3, -0x1.2fe7600000000p-5, 0x1.0461000000000p-3, -0x1.ab65e60000000p-3, 0x1.3edeb80000000p-3, 0x1.026ca80000000p-2, 0x1.9001000000000p-5, 0x1.3a0ea00000000p-3}
}
, {{0x1.fba4d80000000p-4, -0x1.0859000000000p-7, 0x1.0a58b80000000p-4, -0x1.69d5100000000p-5, -0x1.0757620000000p-3, 0x1.564c180000000p-3, 0x1.53db940000000p-3, 0x1.ed7bd00000000p-4}
, {0x1.8051300000000p-4, -0x1.9c3ea40000000p-4, 0x1.6dc1940000000p-3, -0x1.8102a00000000p-6, 0x1.1a52600000000p-4, -0x1.4d51e80000000p-5, 0x1.e3dfd00000000p-3, 0x1.d155400000000p-6}
, {-0x1.92f6c80000000p-4, -0x1.19a5600000000p-3, 0x1.e577200000000p-4, -0x1.a654bc0000000p-3, -0x1.4062380000000p-5, -0x1.3181180000000p-3, 0x1.2ce8b40000000p-3, 0x1.155bb80000000p-3}
}
, {{-0x1.e72a000000000p-7, -0x1.6746f80000000p-3, 0x1.045d800000000p-2, -0x1.94d5cc0000000p-3, 0x1.23cbe00000000p-2, 0x1.9230e00000000p-5, 0x1.ea93880000000p-4, -0x1.cf8dfa0000000p-3}
, {-0x1.d17da20000000p-3, 0x1.fa07800000000p-8, 0x1.1578700000000p-2, -0x1.0284f40000000p-2, 0x1.06ceb40000000p-3, -0x1.a91b100000000p-5, -0x1.a331c00000000p-7, -0x1.abf1600000000p-5}
, {-0x1.ebca400000000p-7, -0x1.0692e80000000p-2, 0x1.730a9c0000000p-3, 0x1.da55780000000p-3, -0x1.2a4fb00000000p-5, -0x1.cf7e600000000p-6, 0x1.aa56fc0000000p-3, -0x1.dfbfd40000000p-3}
}
, {{-0x1.82a6a00000000p-6, 0x1.34ac280000000p-3, -0x1.14f26e0000000p-2, 0x1.7925980000000p-3, 0x1.75a0780000000p-4, -0x1.f0a6aa0000000p-3, 0x1.3b85500000000p-4, -0x1.bd90580000000p-5}
, {-0x1.90ea780000000p-4, 0x1.cab7800000000p-3, 0x1.716b280000000p-3, -0x1.2ed9d80000000p-3, 0x1.b9d0000000000p-7, -0x1.3e0e000000000p-6, 0x1.13bf500000000p-4, -0x1.6359800000000p-8}
, {-0x1.dc11720000000p-3, 0x1.16d8000000000p-9, -0x1.9379200000000p-5, -0x1.9108900000000p-4, -0x1.fb26c80000000p-5, 0x1.8fef5c0000000p-3, 0x1.5a28200000000p-4, 0x1.b9bee00000000p-5}
}
, {{-0x1.27319c0000000p-2, 0x1.1a1e8c0000000p-2, 0x1.17bdb40000000p-2, 0x1.fd02700000000p-4, 0x1.417c000000000p-5, -0x1.8201080000000p-4, -0x1.ff80200000000p-3, 0x1.1270c00000000p-3}
, {-0x1.97b1c40000000p-3, 0x1.89a5400000000p-6, 0x1.8440240000000p-3, -0x1.3603940000000p-3, -0x1.d7fb000000000p-4, 0x1.0109c00000000p-5, 0x1.167a280000000p-2, 0x1.721f680000000p-3}
, {0x1.84e0380000000p-4, 0x1.cb01e00000000p-4, -0x1.14acea0000000p-2, -0x1.4e55de0000000p-3, 0x1.eca2200000000p-6, -0x1.b70aa80000000p-5, -0x1.280cb20000000p-3, -0x1.5d6a080000000p-4}
}
, {{-0x1.f47a480000000p-3, -0x1.9847700000000p-5, 0x1.bef5000000000p-5, -0x1.0033340000000p-4, 0x1.0363700000000p-2, -0x1.bbbac00000000p-7, -0x1.0c196a0000000p-3, -0x1.4c85740000000p-4}
, {0x1.bf2f580000000p-3, -0x1.5ffec00000000p-6, 0x1.8733000000000p-8, 0x1.105c780000000p-2, -0x1.8c00a40000000p-4, -0x1.f259a00000000p-6, 0x1.3efcdc0000000p-3, -0x1.29167e0000000p-3}
, {0x1.c34ca00000000p-4, -0x1.bbaeb20000000p-3, -0x1.4ea06a0000000p-3, -0x1.9dcc140000000p-4, 0x1.98dd000000000p-9, 0x1.0d311c0000000p-3, -0x1.d6fa1c0000000p-3, -0x1.ac32dc0000000p-3}
}
, {{0x1.4df2000000000p-7, -0x1.843c8a0000000p-3, 0x1.4c1f480000000p-4, 0x1.5eed700000000p-5, 0x1.2579c80000000p-4, 0x1.8e88080000000p-3, 0x1.a690180000000p-3, 0x1.287c400000000p-7}
, {-0x1.3092240000000p-4, 0x1.691b300000000p-5, 0x1.0219c00000000p-2, 0x1.3fa1b80000000p-3, -0x1.9c1d380000000p-5, 0x1.2462100000000p-3, 0x1.273fd00000000p-4, 0x1.05049c0000000p-2}
, {0x1.277fac0000000p-3, 0x1.36e6a80000000p-3, 0x1.2eac980000000p-3, 0x1.1ac5840000000p-3, -0x1.0ee60c0000000p-3, -0x1.241b260000000p-2, 0x1.c7f7c00000000p-6, -0x1.257a000000000p-7}
}
, {{0x1.6fe1d00000000p-5, -0x1.f86d780000000p-5, -0x1.85e7a00000000p-4, 0x1.b0f0480000000p-3, -0x1.3c74460000000p-3, -0x1.6f33e00000000p-3, -0x1.511dc00000000p-7, -0x1.08e61a0000000p-2}
, {-0x1.7e49c00000000p-6, -0x1.7592e40000000p-3, 0x1.694d400000000p-6, -0x1.ae46a40000000p-4, -0x1.0d62800000000p-6, -0x1.4e06680000000p-4, -0x1.6ab5800000000p-5, -0x1.0866800000000p-5}
, {0x1.145be40000000p-2, 0x1.f35b400000000p-3, -0x1.0133a00000000p-6, -0x1.242f7c0000000p-4, 0x1.ee95800000000p-4, -0x1.70ed400000000p-7, 0x1.a88bf40000000p-3, 0x1.7eb7800000000p-6}
}
, {{0x1.8297600000000p-5, -0x1.26345a0000000p-3, 0x1.f4dab00000000p-5, 0x1.9d6a240000000p-3, 0x1.0b32d40000000p-3, 0x1.47ccc80000000p-3, -0x1.3369f80000000p-4, 0x1.1135e40000000p-2}
, {-0x1.a40c800000000p-3, 0x1.8e76000000000p-8, 0x1.ceb3100000000p-3, -0x1.a6d7d40000000p-3, -0x1.09ef000000000p-8, -0x1.78e9f40000000p-4, -0x1.0808e00000000p-5, 0x1.255d900000000p-4}
, {-0x1.6a14380000000p-4, 0x1.1d51800000000p-6, 0x1.0773dc0000000p-3, -0x1.81c2a00000000p-6, 0x1.a699680000000p-4, 0x1.4867c40000000p-3, 0x1.9bec280000000p-3, 0x1.18b5b40000000p-3}
}
, {{-0x1.fcd1700000000p-3, -0x1.1fed380000000p-4, 0x1.0cbee40000000p-3, -0x1.9f890a0000000p-3, -0x1.3230d00000000p-5, 0x1.d214380000000p-3, 0x1.de36300000000p-3, 0x1.588e480000000p-3}
, {-0x1.2159760000000p-2, -0x1.07a1240000000p-3, 0x1.dd4a700000000p-4, 0x1.1683e00000000p-4, 0x1.b78e400000000p-3, -0x1.1c0eec0000000p-4, 0x1.c9fbc00000000p-3, 0x1.6d0b200000000p-4}
, {0x1.a9fd440000000p-3, 0x1.03d6200000000p-4, -0x1.04c00c0000000p-2, -0x1.f6205c0000000p-4, -0x1.47bf940000000p-4, 0x1.eb0a080000000p-3, -0x1.5156c00000000p-4, -0x1.af4c080000000p-4}
}
, {{0x1.5699c00000000p-7, 0x1.02f1c40000000p-2, 0x1.f254380000000p-3, -0x1.166e740000000p-2, 0x1.88c0180000000p-4, -0x1.5aa8000000000p-4, -0x1.bf74800000000p-8, -0x1.4ed9120000000p-3}
, {0x1.869e400000000p-6, 0x1.6fc54c0000000p-3, 0x1.a0efe00000000p-6, 0x1.84b4800000000p-5, 0x1.7838500000000p-3, 0x1.21b9740000000p-2, -0x1.acd1f40000000p-3, 0x1.233ac00000000p-2}
, {0x1.23b6b00000000p-2, -0x1.dd1f1a0000000p-3, 0x1.826bc00000000p-6, -0x1.7605080000000p-3, -0x1.acea9a0000000p-3, 0x1.1bb3300000000p-4, 0x1.d43b900000000p-5, -0x1.4e8f180000000p-4}
}
, {{0x1.13ea840000000p-3, -0x1.6f6c640000000p-4, -0x1.1236800000000p-3, 0x1.d035a80000000p-4, 0x1.157f680000000p-3, -0x1.8c30580000000p-3, 0x1.666c200000000p-4, -0x1.7219d80000000p-4}
, {0x1.71ddcc0000000p-3, -0x1.ac6ca00000000p-3, -0x1.1b6ec00000000p-6, -0x1.cc61f80000000p-3, 0x1.96d6400000000p-5, -0x1.9776740000000p-4, -0x1.dcdcac0000000p-3, -0x1.08f3600000000p-6}
, {-0x1.0811740000000p-2, -0x1.13a3100000000p-2, -0x1.6d0b5c0000000p-4, -0x1.11f7280000000p-2, 0x1.0307180000000p-3, 0x1.d538c00000000p-4, 0x1.12c16c0000000p-2, 0x1.439a600000000p-5}
}
, {{0x1.489da00000000p-4, 0x1.553f4c0000000p-3, 0x1.5e6ec80000000p-4, -0x1.32eae00000000p-4, -0x1.f825600000000p-4, -0x1.f7b56a0000000p-3, -0x1.fe5b800000000p-6, -0x1.1cb1ac0000000p-4}
, {-0x1.b0f4980000000p-4, 0x1.5ae1f00000000p-5, 0x1.580eac0000000p-3, -0x1.6c1ed40000000p-3, -0x1.159e600000000p-2, 0x1.f1a9e00000000p-4, 0x1.cf85700000000p-3, 0x1.2ebf000000000p-3}
, {-0x1.cc34c20000000p-3, -0x1.40b69a0000000p-3, -0x1.276a740000000p-4, -0x1.8986200000000p-6, 0x1.1237f40000000p-3, 0x1.804ea80000000p-3, 0x1.b581a80000000p-3, 0x1.0cdda00000000p-2}
}
, {{0x1.ee92d00000000p-3, -0x1.8c2ac00000000p-6, -0x1.2540500000000p-2, -0x1.d919b80000000p-3, -0x1.3943240000000p-3, 0x1.132d000000000p-3, 0x1.2485f00000000p-2, -0x1.10e8700000000p-5}
, {0x1.bc7b100000000p-5, 0x1.e005300000000p-4, -0x1.1af3680000000p-2, 0x1.81e7680000000p-4, 0x1.940df80000000p-3, -0x1.8d74780000000p-5, -0x1.a486000000000p-7, 0x1.2ee77c0000000p-3}
, {-0x1.104be60000000p-2, -0x1.47c6760000000p-3, 0x1.1e8ffc0000000p-2, 0x1.dae1e00000000p-3, 0x1.10276c0000000p-3, -0x1.0d338e0000000p-2, -0x1.1d246a0000000p-3, 0x1.0fe4780000000p-4}
}
}
;

#undef INPUT_CHANNELS
#undef CONV_FILTERS
#undef CONV_KERNEL_SIZE
#undef CONV_GROUPS