/**
  ******************************************************************************
  * @file    weights/conv1d.cc
  * @author  Pierre-Emmanuel Novac <penovac@unice.fr>, LEAT, CNRS, Université Côte d'Azur, France
  * @version 1.0.0
  * @date    24 march 2020
  * @brief   Template generating plain C code for the implementation of Convolutional Neural Networks on MCU
  */

#include <stdint.h>

#define INPUT_CHANNELS    8
#define CONV_FILTERS      16
#define CONV_KERNEL_SIZE  3
#define CONV_GROUPS       1


const float  conv1d_22_bias[CONV_FILTERS] = {0x0.0p+0, 0x0.0p+0, 0x0.0p+0, 0x0.0p+0, 0x0.0p+0, 0x0.0p+0, 0x0.0p+0, 0x0.0p+0, 0x0.0p+0, 0x0.0p+0, 0x0.0p+0, 0x0.0p+0, 0x0.0p+0, 0x0.0p+0, 0x0.0p+0, 0x0.0p+0}
;

const float  conv1d_22_kernel[CONV_FILTERS][CONV_KERNEL_SIZE][INPUT_CHANNELS / CONV_GROUPS] = {{{0x1.e2a4980000000p-3, -0x1.1be3ae0000000p-2, 0x1.75a3c00000000p-3, 0x1.65c1000000000p-8, -0x1.027b720000000p-3, -0x1.c6f0780000000p-4, 0x1.976b680000000p-3, 0x1.f363400000000p-7}
, {0x1.e54f380000000p-3, 0x1.c821600000000p-6, 0x1.91fa540000000p-3, -0x1.01bdca0000000p-3, 0x1.2039e80000000p-3, 0x1.9dc2900000000p-5, 0x1.f8cc100000000p-3, 0x1.1e98140000000p-3}
, {-0x1.ced3b00000000p-5, -0x1.57fecc0000000p-4, 0x1.ff8cf00000000p-3, -0x1.0108360000000p-2, -0x1.9aeca00000000p-6, -0x1.e1197a0000000p-3, 0x1.ef8af00000000p-3, 0x1.06cee00000000p-2}
}
, {{0x1.f77e780000000p-4, -0x1.ea7fb00000000p-3, -0x1.a9a1800000000p-7, 0x1.cac7900000000p-3, -0x1.af71d80000000p-4, 0x1.a336500000000p-4, 0x1.8b80c00000000p-7, 0x1.2ec2200000000p-6}
, {0x1.1dc9b80000000p-2, 0x1.2d9e600000000p-5, -0x1.6865540000000p-3, 0x1.00dbdc0000000p-3, -0x1.08e06a0000000p-2, 0x1.3c30300000000p-5, -0x1.278ea00000000p-5, 0x1.01dee00000000p-4}
, {0x1.0da76c0000000p-2, 0x1.0424d80000000p-2, 0x1.125b680000000p-2, 0x1.b474700000000p-4, -0x1.01cf180000000p-2, -0x1.a0a4e00000000p-3, 0x1.d56c100000000p-3, 0x1.9d2c300000000p-3}
}
, {{0x1.7909700000000p-5, 0x1.5109000000000p-6, -0x1.aee9980000000p-4, 0x1.0b14e00000000p-5, 0x1.1857300000000p-2, 0x1.59675c0000000p-3, -0x1.0e23120000000p-2, -0x1.0ddfe00000000p-5}
, {-0x1.0326580000000p-3, -0x1.700efc0000000p-3, 0x1.59d1b80000000p-4, 0x1.0464000000000p-11, -0x1.93df180000000p-4, 0x1.7ab5500000000p-4, 0x1.33cdd00000000p-3, 0x1.c17c880000000p-3}
, {-0x1.fc5d2c0000000p-4, 0x1.2038f40000000p-2, -0x1.4d602a0000000p-3, 0x1.07d3240000000p-2, -0x1.02ceb00000000p-4, -0x1.fe38400000000p-6, -0x1.60177c0000000p-3, 0x1.1d95700000000p-3}
}
, {{-0x1.a4d4fc0000000p-4, -0x1.c6b2420000000p-3, -0x1.e271e80000000p-4, -0x1.680f200000000p-4, 0x1.1288b00000000p-4, -0x1.67f9c40000000p-4, 0x1.d4d6100000000p-3, 0x1.8879bc0000000p-3}
, {0x1.c9c5b80000000p-3, 0x1.1c0d680000000p-2, 0x1.06f4300000000p-3, 0x1.07ddf00000000p-3, -0x1.7db59c0000000p-4, -0x1.9145000000000p-7, -0x1.73a5540000000p-3, -0x1.9b7c800000000p-7}
, {0x1.1c45d80000000p-3, 0x1.ed22700000000p-3, 0x1.11f5580000000p-4, 0x1.8723a80000000p-3, -0x1.051e020000000p-2, 0x1.09e4880000000p-2, 0x1.6b0e100000000p-3, 0x1.4c20a40000000p-3}
}
, {{0x1.ec30200000000p-3, 0x1.067d240000000p-2, -0x1.0988800000000p-3, -0x1.067c1a0000000p-2, 0x1.e1a0880000000p-3, 0x1.2555000000000p-4, 0x1.bda9d00000000p-4, -0x1.66ed940000000p-3}
, {-0x1.0f89260000000p-2, 0x1.2c761c0000000p-3, 0x1.a1b4c00000000p-5, 0x1.f70ad80000000p-4, -0x1.5026100000000p-5, 0x1.7e51200000000p-5, -0x1.3da67c0000000p-3, -0x1.0370d20000000p-3}
, {0x1.66ec1c0000000p-3, 0x1.8e28d00000000p-4, 0x1.c13f300000000p-5, -0x1.69b2ac0000000p-3, -0x1.4a21640000000p-4, 0x1.1292380000000p-4, 0x1.17bdac0000000p-2, -0x1.ea31500000000p-4}
}
, {{-0x1.17563a0000000p-2, 0x1.11a82c0000000p-2, -0x1.2163e80000000p-2, 0x1.6a24f80000000p-4, 0x1.8917400000000p-3, 0x1.040fb00000000p-5, -0x1.cebe880000000p-4, -0x1.9fa3d80000000p-3}
, {-0x1.2f42000000000p-6, -0x1.8595380000000p-3, 0x1.07a6bc0000000p-3, 0x1.8c3fb80000000p-4, 0x1.1cfff80000000p-2, -0x1.9ba55c0000000p-4, 0x1.4c9ca00000000p-4, 0x1.eee4e80000000p-3}
, {0x1.1934e00000000p-4, -0x1.7305700000000p-3, 0x1.dcaa600000000p-3, -0x1.4b2db80000000p-3, -0x1.a3b9120000000p-3, 0x1.0cb7f00000000p-2, -0x1.e520680000000p-3, 0x1.1dede00000000p-6}
}
, {{0x1.620cd80000000p-4, 0x1.fb0ec00000000p-4, -0x1.0d7d2c0000000p-2, 0x1.3a47a00000000p-5, 0x1.6851a00000000p-3, -0x1.5954580000000p-3, -0x1.1ec9980000000p-2, 0x1.d5f8100000000p-4}
, {-0x1.b57f200000000p-3, -0x1.222ed80000000p-2, -0x1.7cca7c0000000p-4, -0x1.c560940000000p-3, -0x1.4145000000000p-6, 0x1.1a56880000000p-2, -0x1.1489480000000p-3, -0x1.1fd5ec0000000p-4}
, {0x1.0982380000000p-2, -0x1.f6d9c00000000p-6, -0x1.142d2e0000000p-2, 0x1.a1cf580000000p-4, -0x1.26f8800000000p-6, 0x1.8e95000000000p-4, 0x1.a96f2c0000000p-3, 0x1.5de0dc0000000p-3}
}
, {{-0x1.fcc95c0000000p-4, -0x1.c5f4ac0000000p-3, -0x1.24d4880000000p-3, -0x1.48c0f60000000p-3, 0x1.4808500000000p-4, 0x1.35e3780000000p-4, 0x1.41d5000000000p-8, 0x1.1e0f2c0000000p-3}
, {-0x1.03060c0000000p-3, -0x1.4020580000000p-4, -0x1.ad705c0000000p-4, 0x1.6899b00000000p-4, -0x1.f0970c0000000p-3, -0x1.5286300000000p-3, 0x1.910eb40000000p-3, -0x1.7f24bc0000000p-4}
, {0x1.60b3000000000p-9, 0x1.30b3580000000p-4, 0x1.c036600000000p-4, 0x1.0077a00000000p-4, 0x1.6d40400000000p-3, 0x1.72636c0000000p-3, 0x1.09c6f00000000p-2, -0x1.d7965c0000000p-3}
}
, {{-0x1.9cd0640000000p-3, -0x1.451d600000000p-6, 0x1.8c30e00000000p-5, 0x1.4c48800000000p-7, -0x1.4597560000000p-3, 0x1.0787fc0000000p-3, -0x1.890e720000000p-3, 0x1.04b50c0000000p-2}
, {0x1.808d5c0000000p-3, -0x1.1249f40000000p-3, -0x1.1c8c800000000p-4, -0x1.faffc00000000p-7, -0x1.d885900000000p-5, 0x1.9227600000000p-4, 0x1.de70d00000000p-3, -0x1.0482c20000000p-2}
, {-0x1.5763100000000p-5, -0x1.68ca940000000p-3, -0x1.49f3c00000000p-6, -0x1.55416e0000000p-3, -0x1.901c2e0000000p-3, -0x1.c80a200000000p-5, -0x1.1e8cdc0000000p-3, 0x1.f0eca00000000p-3}
}
, {{-0x1.a8ee000000000p-9, -0x1.32f57c0000000p-3, 0x1.236f840000000p-3, 0x1.2f00400000000p-7, 0x1.6f3f500000000p-3, 0x1.7df7300000000p-5, -0x1.5e4e000000000p-7, -0x1.49b8f80000000p-4}
, {-0x1.27286e0000000p-2, 0x1.018bc00000000p-2, -0x1.1d9d840000000p-2, -0x1.4901280000000p-5, -0x1.d589140000000p-3, -0x1.f182e40000000p-3, 0x1.cba8600000000p-5, -0x1.5c1a4c0000000p-3}
, {-0x1.b8c27c0000000p-3, 0x1.14fe4c0000000p-2, 0x1.2208500000000p-2, -0x1.22e7180000000p-2, 0x1.18ed3c0000000p-3, 0x1.f1d6180000000p-3, -0x1.0e13a40000000p-3, -0x1.5318b00000000p-3}
}
, {{-0x1.18c9020000000p-2, 0x1.6777e40000000p-3, -0x1.b389600000000p-3, -0x1.b84a8a0000000p-3, -0x1.0119a80000000p-2, -0x1.71834e0000000p-3, -0x1.315b460000000p-3, -0x1.99b4e80000000p-5}
, {0x1.08e0440000000p-2, 0x1.1807340000000p-3, -0x1.11da9c0000000p-2, -0x1.eaf0a20000000p-3, 0x1.8f786c0000000p-3, -0x1.8e81240000000p-4, -0x1.0092980000000p-2, -0x1.4759980000000p-4}
, {-0x1.2b37600000000p-4, 0x1.7c27dc0000000p-3, -0x1.8813c00000000p-6, -0x1.e4ad5e0000000p-3, 0x1.256a900000000p-2, 0x1.b955800000000p-3, -0x1.68db100000000p-5, 0x1.6b31580000000p-4}
}
, {{0x1.89bab40000000p-3, -0x1.f1ebc00000000p-4, 0x1.85da900000000p-4, -0x1.bc2eb80000000p-5, 0x1.12dc100000000p-2, -0x1.b62d460000000p-3, -0x1.e0bd700000000p-5, 0x1.194a300000000p-3}
, {0x1.2576680000000p-4, 0x1.ae3f500000000p-3, 0x1.944e900000000p-3, -0x1.836e340000000p-3, 0x1.9326d80000000p-4, 0x1.5423800000000p-7, 0x1.0bce680000000p-4, -0x1.00df4a0000000p-2}
, {-0x1.4d0ba00000000p-6, -0x1.6aee180000000p-5, -0x1.1fab840000000p-2, -0x1.ae25000000000p-8, -0x1.d7d0d80000000p-5, 0x1.9c07980000000p-4, 0x1.9363400000000p-3, -0x1.16dafc0000000p-4}
}
, {{0x1.335e300000000p-5, -0x1.fb13200000000p-6, 0x1.52d2380000000p-4, -0x1.b5d7880000000p-3, -0x1.751e280000000p-3, -0x1.75a6a20000000p-3, -0x1.9f2fc00000000p-7, 0x1.883f880000000p-3}
, {0x1.16a2540000000p-3, 0x1.1c56780000000p-2, 0x1.b1c3000000000p-3, 0x1.1224a40000000p-2, 0x1.0766800000000p-6, 0x1.162ec80000000p-4, -0x1.2730000000000p-10, -0x1.4efcb80000000p-4}
, {0x1.0766ac0000000p-2, 0x1.6867000000000p-7, -0x1.a9cb600000000p-4, -0x1.e2cc0c0000000p-4, 0x1.066ce00000000p-3, -0x1.85f0b80000000p-5, 0x1.f961c80000000p-3, -0x1.fbc5400000000p-4}
}
, {{-0x1.dfce000000000p-9, -0x1.1c0f700000000p-4, -0x1.965e800000000p-7, -0x1.0cb4900000000p-5, -0x1.abe77c0000000p-3, 0x1.62d2540000000p-3, 0x1.cc24480000000p-4, -0x1.45ecd20000000p-3}
, {-0x1.3684200000000p-6, -0x1.a88b720000000p-3, -0x1.57fb440000000p-4, -0x1.9541cc0000000p-4, 0x1.c5af800000000p-5, 0x1.6545f00000000p-4, -0x1.0c4cda0000000p-2, 0x1.b74e200000000p-3}
, {-0x1.fe87380000000p-4, -0x1.595c000000000p-8, -0x1.0bf05e0000000p-2, -0x1.6842940000000p-3, 0x1.abaa080000000p-3, 0x1.2227c80000000p-4, 0x1.bfc2200000000p-5, -0x1.944ab00000000p-5}
}
, {{0x1.d266100000000p-4, 0x1.6682ac0000000p-3, -0x1.22ecbc0000000p-4, -0x1.d143800000000p-3, -0x1.e61a700000000p-4, -0x1.95e3c00000000p-5, 0x1.dbd3300000000p-3, 0x1.b415400000000p-6}
, {-0x1.32f8840000000p-3, -0x1.226a820000000p-2, 0x1.ebb1f00000000p-3, -0x1.1c264e0000000p-2, -0x1.2d910c0000000p-4, 0x1.97bea80000000p-3, 0x1.b9c6b00000000p-4, -0x1.c7c4100000000p-4}
, {0x1.b92d900000000p-5, -0x1.25f6520000000p-2, -0x1.2456000000000p-2, -0x1.b9c2800000000p-4, 0x1.cfa7c00000000p-3, 0x1.8cdf480000000p-3, 0x1.1c537c0000000p-2, 0x1.0e1c900000000p-3}
}
, {{0x1.5ddb000000000p-8, 0x1.d175880000000p-4, 0x1.7a55400000000p-5, 0x1.680bfc0000000p-3, 0x1.0353900000000p-4, 0x1.8a46800000000p-8, 0x1.c326500000000p-3, -0x1.db10400000000p-6}
, {-0x1.1ede600000000p-3, -0x1.ac45040000000p-4, -0x1.8b60480000000p-3, -0x1.d0ee580000000p-4, 0x1.bdbc000000000p-4, -0x1.61eb800000000p-3, -0x1.a7a0e40000000p-3, -0x1.eef77e0000000p-3}
, {-0x1.028e200000000p-2, 0x1.b621d80000000p-3, -0x1.d1d8b60000000p-3, -0x1.a575d00000000p-3, 0x1.c66d800000000p-5, 0x1.5038240000000p-3, -0x1.919b000000000p-3, -0x1.dbbccc0000000p-4}
}
}
;

#undef INPUT_CHANNELS
#undef CONV_FILTERS
#undef CONV_KERNEL_SIZE
#undef CONV_GROUPS