/**
  ******************************************************************************
  * @file    weights/conv1d.cc
  * @author  Pierre-Emmanuel Novac <penovac@unice.fr>, LEAT, CNRS, Université Côte d'Azur, France
  * @version 1.0.0
  * @date    24 march 2020
  * @brief   Template generating plain C code for the implementation of Convolutional Neural Networks on MCU
  */

#include <stdint.h>

#define INPUT_CHANNELS    10
#define CONV_FILTERS      8
#define CONV_KERNEL_SIZE  3
#define CONV_GROUPS       1


const float  conv1d_37_bias[CONV_FILTERS] = {0x0.0p+0, 0x0.0p+0, 0x0.0p+0, 0x0.0p+0, 0x0.0p+0, 0x0.0p+0, 0x0.0p+0, 0x0.0p+0}
;

const float  conv1d_37_kernel[CONV_FILTERS][CONV_KERNEL_SIZE][INPUT_CHANNELS / CONV_GROUPS] = {{{-0x1.5051400000000p-2, -0x1.d680ec0000000p-3, 0x1.23b04c0000000p-3, 0x1.3201000000000p-5, -0x1.8d8d8c0000000p-3, 0x1.933a340000000p-3, 0x1.6ceb040000000p-3, -0x1.d622560000000p-3, 0x1.b999800000000p-5, -0x1.8bffac0000000p-3}
, {0x1.8f75000000000p-9, 0x1.0be1f60000000p-2, 0x1.ab6d800000000p-5, 0x1.c4c0440000000p-3, 0x1.2fdd400000000p-3, -0x1.7f80180000000p-4, 0x1.62fa600000000p-6, 0x1.1783a60000000p-2, 0x1.1f6fa80000000p-4, -0x1.007db00000000p-5}
, {0x1.834cec0000000p-3, 0x1.19549a0000000p-2, 0x1.1ade4a0000000p-2, 0x1.72610c0000000p-3, 0x1.9f8d540000000p-3, 0x1.05a62c0000000p-3, 0x1.f69e000000000p-7, 0x1.15852c0000000p-3, 0x1.a1db240000000p-3, -0x1.7826b60000000p-3}
}
, {{-0x1.5327200000000p-3, 0x1.73556c0000000p-3, -0x1.ae0eec0000000p-4, 0x1.0641aa0000000p-2, 0x1.44b7540000000p-3, 0x1.0492200000000p-3, 0x1.0e8eb00000000p-5, 0x1.a5f8ec0000000p-3, -0x1.15c0100000000p-2, -0x1.0b932c0000000p-2}
, {-0x1.19838c0000000p-3, 0x1.fb0cd80000000p-4, -0x1.b406500000000p-5, -0x1.8d16a00000000p-6, -0x1.259a800000000p-3, 0x1.e656000000000p-6, -0x1.1dfc760000000p-2, -0x1.17d2280000000p-4, -0x1.2080400000000p-2, 0x1.b5a6800000000p-8}
, {0x1.f123680000000p-4, -0x1.7e43760000000p-3, -0x1.a192580000000p-4, 0x1.d92f8c0000000p-3, -0x1.1257600000000p-6, 0x1.5e27000000000p-6, 0x1.106cf60000000p-2, -0x1.9ec0000000000p-7, 0x1.2a26360000000p-2, -0x1.a026800000000p-8}
}
, {{0x1.54f1920000000p-2, -0x1.d6cf800000000p-4, -0x1.19ad8c0000000p-2, 0x1.935fcc0000000p-3, 0x1.4000520000000p-2, 0x1.f2fa800000000p-5, -0x1.297f9c0000000p-2, 0x1.470a7a0000000p-2, -0x1.75d5800000000p-5, -0x1.41c6e60000000p-2}
, {0x1.0ba0800000000p-4, -0x1.10e2a00000000p-6, 0x1.26ca4a0000000p-2, -0x1.46b5260000000p-2, -0x1.4ec7c00000000p-4, 0x1.e71c580000000p-4, -0x1.3c3ee60000000p-2, 0x1.2050920000000p-2, 0x1.e445040000000p-3, 0x1.f30ff40000000p-3}
, {-0x1.2dd2560000000p-2, -0x1.3387a60000000p-2, 0x1.c86c040000000p-3, -0x1.06f3000000000p-4, -0x1.4384cc0000000p-2, -0x1.6b35160000000p-3, 0x1.2b48e00000000p-3, -0x1.f463000000000p-4, -0x1.ebcf160000000p-3, 0x1.4bb72a0000000p-2}
}
, {{0x1.aaf9740000000p-3, 0x1.020ec00000000p-7, 0x1.9c82ac0000000p-3, 0x1.1a58000000000p-5, 0x1.61b4d00000000p-5, 0x1.8c8c600000000p-6, 0x1.3b4a800000000p-3, 0x1.be72680000000p-4, -0x1.37e0260000000p-2, 0x1.0e90500000000p-5}
, {0x1.daf8140000000p-3, 0x1.49f3f20000000p-2, -0x1.bc7e2c0000000p-4, -0x1.5a9bac0000000p-3, 0x1.561b140000000p-3, 0x1.5b898c0000000p-3, -0x1.342da80000000p-4, -0x1.23da000000000p-10, 0x1.15521a0000000p-2, -0x1.a070b00000000p-5}
, {0x1.0f4f400000000p-7, -0x1.63088c0000000p-3, 0x1.2a797a0000000p-2, -0x1.0dcc060000000p-2, -0x1.4441f00000000p-2, -0x1.f5f9800000000p-4, -0x1.89d8760000000p-3, -0x1.129bb60000000p-3, -0x1.4e87160000000p-2, -0x1.7b77d00000000p-5}
}
, {{0x1.208f000000000p-5, 0x1.5c34440000000p-3, 0x1.3a36f60000000p-2, -0x1.95fec00000000p-3, 0x1.2db1b00000000p-5, -0x1.7121600000000p-6, -0x1.a5d4400000000p-4, -0x1.c9aa6c0000000p-4, -0x1.0b68900000000p-2, 0x1.3eff0c0000000p-3}
, {-0x1.ad58600000000p-6, -0x1.c09e400000000p-3, -0x1.0d47c00000000p-2, -0x1.3be86c0000000p-2, -0x1.113a100000000p-2, -0x1.406a6c0000000p-2, -0x1.264dbc0000000p-2, 0x1.4f7cd80000000p-4, -0x1.c027000000000p-3, -0x1.5ab2200000000p-3}
, {-0x1.13ec960000000p-3, -0x1.e378600000000p-6, 0x1.1213000000000p-9, 0x1.2d21a00000000p-3, 0x1.da7c940000000p-3, 0x1.0c38940000000p-3, 0x1.446a7a0000000p-2, -0x1.d231a00000000p-3, 0x1.4a08600000000p-3, -0x1.272b800000000p-2}
}
, {{-0x1.0b7d300000000p-2, -0x1.ef366c0000000p-3, -0x1.54bd500000000p-5, 0x1.8a0ed80000000p-4, 0x1.d3e9cc0000000p-3, 0x1.7c31000000000p-4, 0x1.1878c00000000p-7, 0x1.3b83020000000p-2, 0x1.e01a180000000p-4, -0x1.4c9db00000000p-2}
, {0x1.38bf3a0000000p-2, 0x1.3427b20000000p-2, -0x1.ad87980000000p-4, -0x1.2a9e9c0000000p-2, 0x1.3f1b6c0000000p-3, -0x1.d01cc00000000p-4, 0x1.f1a4300000000p-5, -0x1.2258d80000000p-4, 0x1.62bc000000000p-8, 0x1.3989600000000p-3}
, {-0x1.2452180000000p-4, -0x1.7750c00000000p-7, -0x1.4cd0b00000000p-5, -0x1.de9fa00000000p-3, 0x1.3192600000000p-6, -0x1.3e68560000000p-3, 0x1.dcfd000000000p-5, -0x1.5137400000000p-7, -0x1.e34b2c0000000p-4, 0x1.39cffa0000000p-2}
}
, {{-0x1.cefb580000000p-4, 0x1.cba3ac0000000p-3, -0x1.73a6000000000p-4, -0x1.0608cc0000000p-2, -0x1.3d5cfc0000000p-2, 0x1.aac8b00000000p-5, -0x1.4d8f0c0000000p-3, -0x1.98a6000000000p-6, 0x1.914e280000000p-4, 0x1.02ed600000000p-6}
, {-0x1.cceeec0000000p-3, -0x1.6425600000000p-3, -0x1.5f70000000000p-4, 0x1.4798120000000p-2, -0x1.0380100000000p-2, -0x1.8b54580000000p-4, 0x1.b64bac0000000p-3, -0x1.c065ac0000000p-3, -0x1.bb92c00000000p-4, -0x1.3789900000000p-2}
, {0x1.cf9a280000000p-4, 0x1.94f3000000000p-4, -0x1.1e155c0000000p-2, -0x1.bcf3ec0000000p-4, 0x1.be940c0000000p-3, 0x1.93ac4c0000000p-3, 0x1.bf8e940000000p-3, -0x1.daefd80000000p-4, -0x1.1809a00000000p-3, -0x1.2860280000000p-4}
}
, {{-0x1.1b512c0000000p-2, 0x1.c353540000000p-3, 0x1.501d0a0000000p-2, -0x1.74ca560000000p-3, 0x1.0461000000000p-5, 0x1.8598000000000p-4, -0x1.37052c0000000p-2, 0x1.147a2c0000000p-3, 0x1.5b3fac0000000p-3, 0x1.371c2c0000000p-3}
, {-0x1.e95c180000000p-4, 0x1.d9bbec0000000p-3, 0x1.42220a0000000p-2, -0x1.43f9460000000p-2, 0x1.21cfc20000000p-2, 0x1.d59cac0000000p-3, 0x1.14a28c0000000p-3, 0x1.1928000000000p-8, -0x1.13c6cc0000000p-2, 0x1.14a8820000000p-2}
, {-0x1.c768800000000p-5, 0x1.1a51aa0000000p-2, 0x1.44fae00000000p-3, -0x1.8cef600000000p-3, 0x1.a356f40000000p-3, -0x1.af81c00000000p-3, 0x1.381c6a0000000p-2, -0x1.25a3b00000000p-5, -0x1.9b616c0000000p-4, 0x1.9fb9800000000p-8}
}
}
;

#undef INPUT_CHANNELS
#undef CONV_FILTERS
#undef CONV_KERNEL_SIZE
#undef CONV_GROUPS