/**
  ******************************************************************************
  * @file    weights/fc.cc
  * @author  Pierre-Emmanuel Novac <penovac@unice.fr>, LEAT, CNRS, Université Côte d'Azur, France
  * @version 1.0.0
  * @date    24 march 2020
  * @brief   Template generating plain C code for the implementation of Convolutional Neural Networks on MCU
  */

#include <stdint.h>

#define INPUT_SAMPLES 224
#define FC_UNITS 10


const float dense_5_bias[FC_UNITS] = {0x0.0p+0, 0x0.0p+0, 0x0.0p+0, 0x0.0p+0, 0x0.0p+0, 0x0.0p+0, 0x0.0p+0, 0x0.0p+0, 0x0.0p+0, 0x0.0p+0}
;

const float dense_5_kernel[FC_UNITS][INPUT_SAMPLES] = {{0x1.1eef4c0000000p-4, 0x1.3ea8680000000p-5, -0x1.e111200000000p-6, 0x1.5d65000000000p-6, 0x1.ccfb400000000p-7, -0x1.2f57b00000000p-3, -0x1.2375200000000p-6, -0x1.337a3c0000000p-3, -0x1.df24c00000000p-8, -0x1.5179b20000000p-4, 0x1.451b180000000p-5, 0x1.ecafb00000000p-6, -0x1.1b3cfc0000000p-3, 0x1.22f2e40000000p-3, 0x1.09df400000000p-6, -0x1.281ddc0000000p-5, 0x1.218d7c0000000p-3, -0x1.b4154c0000000p-4, 0x1.6570400000000p-8, 0x1.3853d40000000p-3, 0x1.ad44c00000000p-8, -0x1.265dc00000000p-4, -0x1.e17eb80000000p-5, 0x1.1f778c0000000p-3, 0x1.d988a00000000p-4, -0x1.e121ee0000000p-4, -0x1.33a26c0000000p-3, 0x1.0d04980000000p-3, 0x1.34b5680000000p-5, 0x1.853ce00000000p-7, 0x1.3981f40000000p-3, 0x1.5321200000000p-4, -0x1.25daa40000000p-4, -0x1.044cb00000000p-6, 0x1.037b180000000p-5, -0x1.36d6000000000p-3, -0x1.14ef040000000p-3, 0x1.3441700000000p-4, -0x1.d6e0f00000000p-6, 0x1.9045980000000p-4, 0x1.48159c0000000p-4, -0x1.08d53c0000000p-3, 0x1.73b2f00000000p-5, -0x1.d678800000000p-4, -0x1.f7afd40000000p-4, -0x1.a2ff980000000p-5, -0x1.1432620000000p-4, -0x1.3971c60000000p-3, 0x1.e445f80000000p-4, 0x1.12f1a00000000p-6, 0x1.b671f80000000p-5, 0x1.a6d6000000000p-6, 0x1.2482a80000000p-5, -0x1.1034340000000p-3, -0x1.3121b60000000p-3, 0x1.21f67c0000000p-3, 0x1.0e8e640000000p-3, -0x1.05e7400000000p-5, 0x1.8790200000000p-5, -0x1.423e7a0000000p-3, -0x1.bb1fe80000000p-4, -0x1.8dcb000000000p-9, -0x1.9cce800000000p-7, 0x1.4b55180000000p-5, -0x1.c47fe00000000p-6, 0x1.7718b00000000p-6, -0x1.1404f80000000p-3, -0x1.195b7c0000000p-3, 0x1.0675280000000p-3, -0x1.b094e80000000p-4, -0x1.e4db680000000p-5, 0x1.7c79000000000p-4, 0x1.7be2500000000p-5, -0x1.7dc9040000000p-5, -0x1.3affda0000000p-3, 0x1.e82de80000000p-4, 0x1.bd8bb00000000p-5, -0x1.eadcce0000000p-4, 0x1.0848100000000p-6, 0x1.a089000000000p-10, 0x1.2cad480000000p-3, 0x1.bb51180000000p-4, 0x1.6162000000000p-11, -0x1.87004e0000000p-4, 0x1.18c8d40000000p-3, 0x1.d87f080000000p-4, -0x1.16426e0000000p-3, 0x1.1063340000000p-3, -0x1.08ebb20000000p-3, -0x1.c201b80000000p-4, -0x1.ef7ecc0000000p-5, -0x1.b7d3600000000p-6, 0x1.5e7a400000000p-8, -0x1.3cefbc0000000p-3, -0x1.25ad9c0000000p-5, -0x1.006e9e0000000p-3, 0x1.66a3c80000000p-5, 0x1.0a83200000000p-3, -0x1.df4b400000000p-8, -0x1.12e0a20000000p-3, -0x1.9fe03e0000000p-4, 0x1.1d6f140000000p-4, 0x1.2787880000000p-3, 0x1.358d800000000p-7, -0x1.19ee7a0000000p-3, 0x1.6b166c0000000p-4, -0x1.c97a600000000p-6, -0x1.2879140000000p-3, -0x1.2568740000000p-3, 0x1.9b6da00000000p-7, -0x1.d99e080000000p-4, 0x1.3afef00000000p-6, 0x1.16a2000000000p-7, 0x1.3f01480000000p-5, 0x1.3a31280000000p-3, -0x1.1b24080000000p-3, -0x1.681e800000000p-4, -0x1.5a174e0000000p-4, -0x1.612f000000000p-5, -0x1.4ddaf40000000p-5, 0x1.6cf7f80000000p-4, 0x1.36a3340000000p-4, -0x1.ac4f700000000p-6, -0x1.e5cb540000000p-4, 0x1.22de440000000p-3, -0x1.1ca4a00000000p-5, -0x1.1dc4be0000000p-3, -0x1.80d4f60000000p-4, -0x1.fb2a580000000p-4, 0x1.b4fe700000000p-4, 0x1.1fe8100000000p-3, 0x1.f7d2600000000p-7, 0x1.b818700000000p-4, -0x1.2676180000000p-5, -0x1.33ac280000000p-3, -0x1.edfa540000000p-5, -0x1.23b2c00000000p-7, -0x1.55e6300000000p-6, 0x1.0a54a00000000p-3, 0x1.3f6e340000000p-3, -0x1.25c3480000000p-3, -0x1.3ae7000000000p-10, 0x1.0b2f440000000p-4, 0x1.cce4d00000000p-5, 0x1.0e17f80000000p-4, -0x1.a641e00000000p-6, 0x1.ba4d500000000p-6, 0x1.00bd500000000p-3, -0x1.e46e480000000p-4, 0x1.a891c00000000p-8, -0x1.75f6b20000000p-4, -0x1.296b680000000p-5, -0x1.22ff040000000p-3, 0x1.8ac5980000000p-4, 0x1.fb69d80000000p-4, -0x1.46b36e0000000p-3, -0x1.23d33a0000000p-3, 0x1.5155900000000p-6, 0x1.0a71800000000p-3, 0x1.1622dc0000000p-3, 0x1.473f880000000p-5, 0x1.13535c0000000p-3, -0x1.e2db400000000p-6, 0x1.70ac680000000p-5, 0x1.1419400000000p-8, -0x1.0035ac0000000p-3, -0x1.52e4e00000000p-5, -0x1.f9feaa0000000p-4, -0x1.6089f20000000p-4, -0x1.6010600000000p-5, -0x1.6252260000000p-4, 0x1.1ed7440000000p-3, -0x1.a7d1000000000p-8, 0x1.58c7300000000p-5, 0x1.81bde80000000p-5, -0x1.84cde00000000p-6, 0x1.a872e80000000p-4, -0x1.1a770c0000000p-3, -0x1.4e36c00000000p-4, 0x1.063c200000000p-5, -0x1.31fae00000000p-6, 0x1.077f200000000p-6, -0x1.2348800000000p-6, -0x1.185a980000000p-4, -0x1.d6183c0000000p-5, 0x1.f825200000000p-5, 0x1.98bca00000000p-5, 0x1.1182d80000000p-5, 0x1.d479c00000000p-5, -0x1.5652a00000000p-7, -0x1.9537420000000p-4, -0x1.5c4cb80000000p-4, -0x1.1ebc480000000p-3, 0x1.0168680000000p-5, -0x1.03ce980000000p-5, 0x1.283d000000000p-10, -0x1.7369920000000p-4, 0x1.2f31f00000000p-3, -0x1.313b9c0000000p-4, -0x1.4663260000000p-4, -0x1.8b60b80000000p-4, -0x1.2e56060000000p-4, -0x1.066d480000000p-5, -0x1.0af1180000000p-5, 0x1.d8f4000000000p-4, 0x1.aae5600000000p-5, -0x1.cd5bec0000000p-4, -0x1.f316bc0000000p-5, -0x1.c54f3c0000000p-4, 0x1.9956a80000000p-5, 0x1.40e3100000000p-3, -0x1.3bf6a00000000p-6, -0x1.b4eb1c0000000p-4, -0x1.3257480000000p-4, -0x1.cebc680000000p-5, -0x1.41eeea0000000p-3, 0x1.6093d80000000p-5, 0x1.72db900000000p-5, 0x1.de59c00000000p-8, -0x1.342e6c0000000p-5, -0x1.12cd600000000p-3, -0x1.72a7c80000000p-5, -0x1.2ee7600000000p-4, -0x1.0653680000000p-3}
, {0x1.1806680000000p-3, -0x1.737cc00000000p-5, -0x1.3ee48e0000000p-3, 0x1.3670100000000p-3, 0x1.0810000000000p-3, 0x1.f510400000000p-5, -0x1.028b1c0000000p-3, -0x1.02b7e00000000p-6, 0x1.0cbc3c0000000p-3, -0x1.b9e14a0000000p-4, 0x1.0e19700000000p-6, -0x1.71a8000000000p-11, 0x1.72d8780000000p-4, -0x1.89b3f00000000p-5, 0x1.698f980000000p-4, -0x1.8044340000000p-4, -0x1.36bf1a0000000p-4, 0x1.42bf340000000p-3, 0x1.12bfec0000000p-4, -0x1.2a7ab60000000p-3, -0x1.1c7ad80000000p-3, -0x1.507cfa0000000p-4, 0x1.7f05c00000000p-5, 0x1.61ebe00000000p-4, -0x1.ab0db00000000p-4, 0x1.0c0cc00000000p-5, -0x1.9a1ea80000000p-4, 0x1.eca4c80000000p-5, 0x1.7f91e00000000p-4, -0x1.2d23d60000000p-3, -0x1.afead00000000p-4, -0x1.911e740000000p-4, -0x1.5dad840000000p-4, 0x1.dcf9500000000p-5, 0x1.fd54000000000p-6, 0x1.1fe4a00000000p-4, 0x1.ba71000000000p-7, -0x1.9d7f780000000p-4, 0x1.4cd0c00000000p-4, -0x1.235d5a0000000p-3, -0x1.0a36ae0000000p-3, -0x1.3f99ae0000000p-3, -0x1.346e8c0000000p-5, -0x1.0b41fe0000000p-4, 0x1.e274c00000000p-6, -0x1.25006e0000000p-3, 0x1.5711d00000000p-4, 0x1.bfd2e00000000p-5, 0x1.5f93800000000p-7, 0x1.3b6e500000000p-5, 0x1.055d080000000p-3, 0x1.7c16100000000p-4, -0x1.948a280000000p-4, 0x1.eb57c80000000p-4, -0x1.1848b80000000p-3, -0x1.1c77780000000p-5, -0x1.85e65c0000000p-4, 0x1.1bf9800000000p-8, 0x1.ea63600000000p-6, -0x1.49bbf40000000p-4, -0x1.559e780000000p-5, 0x1.3d92440000000p-4, 0x1.2ae4140000000p-4, -0x1.b9a85c0000000p-4, -0x1.0724080000000p-3, 0x1.0cd7280000000p-4, 0x1.dc7ce00000000p-7, 0x1.2153180000000p-3, -0x1.d553640000000p-4, -0x1.0857e80000000p-5, -0x1.37e3c00000000p-8, 0x1.c2aa100000000p-4, 0x1.fbb0580000000p-5, 0x1.9c2da80000000p-5, -0x1.47de2c0000000p-4, 0x1.5364040000000p-4, 0x1.423d7c0000000p-3, -0x1.2a79260000000p-3, 0x1.62d1200000000p-4, 0x1.96caf80000000p-4, 0x1.0bc9380000000p-4, -0x1.b001240000000p-4, -0x1.47df2c0000000p-4, 0x1.b531000000000p-10, -0x1.92b1000000000p-10, 0x1.d8fc600000000p-4, -0x1.d1f5240000000p-4, -0x1.4142460000000p-3, 0x1.17a8400000000p-3, -0x1.e53d0c0000000p-4, 0x1.5c97dc0000000p-4, -0x1.10620c0000000p-3, -0x1.527dfc0000000p-4, 0x1.a2cc680000000p-4, -0x1.3101b00000000p-6, -0x1.c3d8800000000p-9, -0x1.271c2e0000000p-4, 0x1.b95fe00000000p-5, 0x1.8568e80000000p-4, -0x1.3e93160000000p-3, 0x1.87ab080000000p-4, -0x1.915e780000000p-5, 0x1.64f6400000000p-4, 0x1.746fd00000000p-6, -0x1.0d15880000000p-3, -0x1.c5ab300000000p-4, -0x1.3734d20000000p-3, 0x1.4736cc0000000p-4, 0x1.ee21900000000p-5, -0x1.d9a71e0000000p-4, 0x1.5277080000000p-5, 0x1.05ea840000000p-3, -0x1.08f6480000000p-5, -0x1.4434620000000p-3, 0x1.6417580000000p-5, 0x1.bb0b700000000p-4, -0x1.a5eb340000000p-4, -0x1.9104b00000000p-6, 0x1.47c6280000000p-3, -0x1.ef322c0000000p-4, 0x1.29bf140000000p-3, -0x1.689f140000000p-4, -0x1.13c5b00000000p-5, 0x1.c094e00000000p-5, 0x1.7647300000000p-4, -0x1.1ff3740000000p-3, 0x1.c67c700000000p-4, 0x1.041c300000000p-3, 0x1.5f1cc00000000p-6, 0x1.37b7340000000p-3, 0x1.38b9980000000p-4, 0x1.315d700000000p-3, -0x1.e224dc0000000p-4, 0x1.59aa580000000p-5, -0x1.1853460000000p-4, 0x1.1250d80000000p-3, 0x1.991b300000000p-4, 0x1.3771680000000p-5, -0x1.082e380000000p-3, 0x1.68b8740000000p-4, -0x1.48695c0000000p-4, -0x1.30f0900000000p-6, -0x1.d3e7dc0000000p-5, 0x1.79c3b80000000p-4, 0x1.80e2380000000p-5, -0x1.85ddcc0000000p-5, 0x1.3f100c0000000p-4, -0x1.0ee34c0000000p-3, -0x1.d5158c0000000p-4, 0x1.c14f400000000p-6, -0x1.35a1000000000p-10, 0x1.2884f00000000p-6, -0x1.8ed1100000000p-4, -0x1.0d00880000000p-3, -0x1.06cdb40000000p-3, 0x1.05c4980000000p-3, 0x1.a93ca00000000p-4, 0x1.8aacf00000000p-4, 0x1.4733300000000p-4, -0x1.1356000000000p-6, 0x1.259f380000000p-3, -0x1.9268000000000p-12, 0x1.be61f80000000p-4, 0x1.ee4e600000000p-6, 0x1.232df80000000p-3, 0x1.1a87000000000p-4, 0x1.78ca700000000p-4, 0x1.00fa700000000p-6, 0x1.787d400000000p-8, -0x1.34267c0000000p-5, -0x1.25dbe40000000p-5, -0x1.4300100000000p-6, 0x1.053aac0000000p-3, 0x1.4783400000000p-6, 0x1.0520bc0000000p-3, 0x1.5f96000000000p-8, 0x1.098bc00000000p-5, 0x1.2916100000000p-4, -0x1.23f1e40000000p-4, 0x1.f159400000000p-6, -0x1.f185400000000p-7, -0x1.8caec80000000p-5, 0x1.4fed880000000p-5, 0x1.24de280000000p-4, -0x1.358e280000000p-3, -0x1.39c9100000000p-3, 0x1.266e7c0000000p-4, 0x1.6426a80000000p-5, -0x1.0b76ea0000000p-4, -0x1.0680800000000p-4, 0x1.6679f80000000p-4, -0x1.0de5a00000000p-5, -0x1.dbe6b40000000p-5, -0x1.33d4300000000p-4, -0x1.1c92800000000p-9, 0x1.2d0d640000000p-3, -0x1.f421000000000p-6, -0x1.90b6560000000p-4, -0x1.4daea00000000p-6, -0x1.c6fef00000000p-4, -0x1.29da520000000p-3, 0x1.2432c80000000p-3, 0x1.d1a2400000000p-7, 0x1.22ed9c0000000p-4, -0x1.3da8700000000p-6, -0x1.3fc9cc0000000p-3, -0x1.18c3140000000p-4, 0x1.b32df00000000p-6, 0x1.3603700000000p-3, -0x1.a6cd940000000p-4, -0x1.9d4dc00000000p-8, 0x1.7367400000000p-7, -0x1.52f8f00000000p-6, 0x1.2d89980000000p-3, 0x1.02b6e40000000p-3, 0x1.e763b00000000p-5, -0x1.4eddc40000000p-4, 0x1.1150ac0000000p-3, 0x1.7cb4c00000000p-4, 0x1.2358980000000p-3, 0x1.87c2800000000p-6, 0x1.38095c0000000p-4, -0x1.2c60700000000p-3, 0x1.c207700000000p-4}
, {-0x1.12564e0000000p-3, -0x1.3bbc900000000p-3, -0x1.32d0740000000p-5, -0x1.10d9300000000p-6, 0x1.1885f00000000p-5, 0x1.85fc200000000p-5, 0x1.43cfdc0000000p-4, -0x1.a0a0640000000p-5, 0x1.d7ed600000000p-4, 0x1.96c5800000000p-4, 0x1.01969c0000000p-4, -0x1.04ddb40000000p-3, 0x1.0f14040000000p-3, -0x1.6a3c540000000p-4, -0x1.4a3b560000000p-4, 0x1.c976c00000000p-5, 0x1.2d32000000000p-3, -0x1.c4e3800000000p-4, -0x1.404ac80000000p-4, -0x1.780a520000000p-4, 0x1.77aba00000000p-7, -0x1.7072b00000000p-6, -0x1.b9e8c60000000p-4, -0x1.cf2a540000000p-4, 0x1.ee59a00000000p-4, 0x1.a500000000000p-4, 0x1.bccd200000000p-5, -0x1.3628800000000p-4, -0x1.5832a20000000p-4, -0x1.d29d7a0000000p-4, 0x1.1b88880000000p-3, 0x1.2c58400000000p-5, 0x1.af89700000000p-5, -0x1.c7de8e0000000p-4, -0x1.2612d00000000p-6, 0x1.6e4bcc0000000p-4, -0x1.8308d00000000p-4, 0x1.1853700000000p-4, 0x1.a7caa80000000p-4, -0x1.9f63800000000p-7, 0x1.6f19c80000000p-5, -0x1.316f7e0000000p-3, 0x1.f720600000000p-6, -0x1.bdc2a00000000p-7, -0x1.2883820000000p-3, 0x1.19344c0000000p-4, -0x1.aa51580000000p-5, 0x1.38e0000000000p-8, -0x1.778dfa0000000p-4, -0x1.1e27a80000000p-5, -0x1.2e9d0a0000000p-3, 0x1.ff54400000000p-7, -0x1.bec8540000000p-4, 0x1.2a642c0000000p-3, -0x1.f78ac40000000p-5, 0x1.a70fc00000000p-4, 0x1.5ecd980000000p-4, -0x1.25e80c0000000p-5, 0x1.28bba80000000p-3, -0x1.7c9d800000000p-5, -0x1.4501680000000p-3, -0x1.e757000000000p-10, -0x1.156a200000000p-6, -0x1.12de320000000p-3, -0x1.3947800000000p-4, -0x1.03a78e0000000p-4, 0x1.81b0500000000p-6, -0x1.cda0000000000p-6, -0x1.183fa80000000p-5, -0x1.46ec980000000p-3, -0x1.22df200000000p-6, 0x1.bcd1900000000p-4, 0x1.42b4800000000p-5, -0x1.78ba760000000p-4, 0x1.38da080000000p-3, -0x1.be78d40000000p-4, 0x1.ea62080000000p-4, 0x1.8d2ca80000000p-5, 0x1.23b7080000000p-5, 0x1.8fa8080000000p-4, -0x1.2792640000000p-4, 0x1.5990780000000p-4, 0x1.28a7300000000p-6, 0x1.0105bc0000000p-4, -0x1.06b1400000000p-8, -0x1.7ab4f40000000p-5, -0x1.ff2ca00000000p-7, -0x1.359dc00000000p-3, 0x1.180e2c0000000p-3, 0x1.d983400000000p-4, 0x1.60dd800000000p-8, 0x1.1414a40000000p-3, 0x1.4118780000000p-4, -0x1.0aed800000000p-9, -0x1.268f800000000p-9, 0x1.43df800000000p-7, 0x1.7730b00000000p-6, 0x1.58fcf40000000p-4, -0x1.563c840000000p-5, 0x1.e234100000000p-5, 0x1.5117780000000p-5, -0x1.9e9e580000000p-4, 0x1.3406300000000p-4, -0x1.1591400000000p-8, -0x1.682b4e0000000p-4, 0x1.5082c00000000p-7, 0x1.07c96c0000000p-3, -0x1.3c06c80000000p-3, 0x1.b592500000000p-4, -0x1.36d7600000000p-7, 0x1.bcbc380000000p-5, -0x1.e5e48c0000000p-4, -0x1.5377700000000p-6, -0x1.8f71840000000p-4, -0x1.a6a0a00000000p-4, 0x1.45cec80000000p-3, -0x1.b089700000000p-6, 0x1.1e17a80000000p-3, 0x1.93c1f00000000p-6, -0x1.9cab620000000p-4, -0x1.d0eea00000000p-6, 0x1.0696280000000p-3, 0x1.28701c0000000p-3, 0x1.6d60f00000000p-6, -0x1.03a1800000000p-6, 0x1.61d5400000000p-4, -0x1.48b4000000000p-11, -0x1.6612600000000p-7, -0x1.0b3da00000000p-5, 0x1.4b30940000000p-4, -0x1.053c5c0000000p-3, 0x1.6505380000000p-5, -0x1.06df500000000p-6, 0x1.9e55800000000p-4, 0x1.bad0080000000p-4, 0x1.0688000000000p-13, 0x1.0ef6cc0000000p-4, -0x1.ecf5000000000p-6, 0x1.1b55580000000p-3, -0x1.2861a80000000p-3, -0x1.1b658a0000000p-3, -0x1.1cbbe40000000p-4, 0x1.4d89180000000p-4, 0x1.9263880000000p-4, 0x1.6df9b00000000p-6, 0x1.b080c80000000p-5, -0x1.4e8b9e0000000p-4, 0x1.7435780000000p-4, 0x1.de37c80000000p-4, -0x1.0453400000000p-5, -0x1.45304c0000000p-5, 0x1.7ef2380000000p-4, 0x1.1ac9080000000p-3, -0x1.bf97fc0000000p-4, 0x1.1c380c0000000p-3, 0x1.f2b9300000000p-4, 0x1.32bbe00000000p-4, 0x1.0e5ae40000000p-3, -0x1.b407c00000000p-7, 0x1.2af5bc0000000p-3, -0x1.317d4a0000000p-3, -0x1.14b4400000000p-4, 0x1.0638f80000000p-4, 0x1.e8d0780000000p-4, -0x1.85f2a00000000p-6, -0x1.8ac7d60000000p-4, -0x1.e4f2780000000p-5, 0x1.e79fe00000000p-6, -0x1.3acf180000000p-4, 0x1.f8b2080000000p-5, -0x1.b063dc0000000p-5, 0x1.f874780000000p-5, 0x1.4b9ed00000000p-6, -0x1.7d776e0000000p-4, -0x1.fab6920000000p-4, -0x1.2fad360000000p-3, 0x1.36c8280000000p-5, -0x1.8b7a580000000p-4, -0x1.ed300a0000000p-4, -0x1.36d10e0000000p-3, -0x1.770d0a0000000p-4, -0x1.949cd00000000p-6, 0x1.571c400000000p-4, 0x1.9ec8d80000000p-4, -0x1.0a15c00000000p-4, 0x1.fb58e00000000p-6, -0x1.20ca200000000p-5, -0x1.5e20400000000p-4, -0x1.17ec0c0000000p-3, -0x1.f78ae00000000p-4, -0x1.2cccc00000000p-5, 0x1.a119700000000p-5, -0x1.c517e00000000p-6, -0x1.5f85000000000p-10, -0x1.2761b20000000p-3, 0x1.33d0240000000p-4, -0x1.1a10780000000p-3, 0x1.50a5b00000000p-4, -0x1.d523780000000p-5, -0x1.00c0400000000p-6, -0x1.3873780000000p-3, -0x1.c489580000000p-5, -0x1.83c1e20000000p-4, -0x1.7554e20000000p-4, 0x1.7ce0400000000p-6, 0x1.7934d00000000p-5, 0x1.5942a00000000p-7, 0x1.0bd3a80000000p-3, 0x1.d2b1a00000000p-5, 0x1.0bb5800000000p-9, 0x1.9d38800000000p-5, 0x1.f44ba00000000p-5, 0x1.2119640000000p-4, -0x1.759cc80000000p-5, 0x1.e11b700000000p-5, -0x1.32791c0000000p-3, 0x1.e917900000000p-6, -0x1.cf64f00000000p-5, -0x1.55ca800000000p-5, -0x1.8a5eea0000000p-4, 0x1.061f4c0000000p-4, -0x1.d606a80000000p-4, -0x1.c956940000000p-4, -0x1.3f8db40000000p-4}
, {0x1.0ab0e00000000p-3, -0x1.24b8da0000000p-3, -0x1.43f86a0000000p-3, 0x1.3e4a780000000p-3, 0x1.1d73800000000p-7, -0x1.ebf6640000000p-5, -0x1.d039000000000p-10, 0x1.c9f9c00000000p-4, 0x1.df18500000000p-5, 0x1.f8d8500000000p-5, -0x1.2c3b680000000p-3, -0x1.b9b3800000000p-8, -0x1.2774340000000p-5, -0x1.548ac00000000p-6, 0x1.c06f080000000p-4, -0x1.102fe20000000p-4, -0x1.e24c340000000p-4, 0x1.bc91a00000000p-5, 0x1.733d580000000p-5, 0x1.e125a00000000p-4, 0x1.86f5d80000000p-4, 0x1.6d394c0000000p-4, -0x1.41d6b20000000p-4, -0x1.3c85ce0000000p-3, 0x1.f025d00000000p-4, 0x1.0430000000000p-6, -0x1.fdb0be0000000p-4, -0x1.44db6e0000000p-4, 0x1.111ba80000000p-3, -0x1.cda3400000000p-4, 0x1.2ede280000000p-3, 0x1.04ff1c0000000p-4, 0x1.fda9a00000000p-5, 0x1.c667b00000000p-4, -0x1.2d2cdc0000000p-3, -0x1.023a680000000p-3, -0x1.b676100000000p-4, -0x1.546ed40000000p-4, -0x1.6d9dc80000000p-5, 0x1.799a080000000p-4, -0x1.3b76300000000p-4, -0x1.fddc400000000p-8, -0x1.3d28180000000p-5, -0x1.b92c4e0000000p-4, 0x1.31c8f80000000p-3, -0x1.dd4c580000000p-5, 0x1.42bc280000000p-4, 0x1.342df40000000p-3, -0x1.d0302e0000000p-4, -0x1.b72b740000000p-4, -0x1.e4e8640000000p-5, 0x1.b694000000000p-8, -0x1.241a160000000p-4, -0x1.a955c80000000p-5, -0x1.2764080000000p-5, 0x1.5f2fc80000000p-4, -0x1.991a360000000p-4, -0x1.2402c40000000p-3, 0x1.ecfdd00000000p-4, 0x1.6341180000000p-4, 0x1.34236c0000000p-3, 0x1.fdc7180000000p-5, 0x1.4699780000000p-4, 0x1.3448700000000p-3, 0x1.e9e6f00000000p-5, 0x1.449cc00000000p-8, -0x1.a6612c0000000p-4, -0x1.9a2d780000000p-4, 0x1.f4de000000000p-7, 0x1.1e77240000000p-3, -0x1.0595a20000000p-3, -0x1.e3d80c0000000p-4, -0x1.54c7000000000p-8, -0x1.ed7b000000000p-9, -0x1.3dbc7e0000000p-4, -0x1.8f66b40000000p-4, -0x1.423ad60000000p-3, 0x1.4905d00000000p-4, -0x1.436e8a0000000p-3, -0x1.37ca700000000p-3, 0x1.d5f0300000000p-5, -0x1.1f9d7c0000000p-3, -0x1.1db7a20000000p-3, 0x1.36d48c0000000p-3, -0x1.02a7ac0000000p-4, -0x1.4157980000000p-4, -0x1.0b5d180000000p-5, 0x1.1e94040000000p-3, 0x1.2de6200000000p-7, -0x1.253ce00000000p-5, 0x1.d64f400000000p-6, -0x1.55cfdc0000000p-5, 0x1.2cc3600000000p-3, -0x1.8c33740000000p-4, -0x1.3a34fe0000000p-3, 0x1.5c5d100000000p-5, -0x1.a750a40000000p-4, 0x1.9420280000000p-5, -0x1.af52000000000p-9, -0x1.1541f00000000p-6, -0x1.2f11980000000p-3, -0x1.c2fd640000000p-4, -0x1.92f6780000000p-5, -0x1.6069320000000p-4, -0x1.b297480000000p-5, 0x1.14e0b40000000p-3, -0x1.6069800000000p-6, -0x1.1d58140000000p-3, 0x1.0573000000000p-6, -0x1.9886a80000000p-5, 0x1.a0a6680000000p-5, 0x1.f079280000000p-5, 0x1.c185b00000000p-6, -0x1.1041800000000p-4, -0x1.1697f00000000p-3, 0x1.7623580000000p-4, 0x1.2757e00000000p-5, -0x1.e017c20000000p-4, -0x1.331db80000000p-4, -0x1.491b200000000p-7, 0x1.1783d80000000p-3, 0x1.b5a4f00000000p-4, 0x1.2a55280000000p-3, 0x1.0e21700000000p-6, -0x1.19a8300000000p-5, -0x1.3ccbce0000000p-3, 0x1.8d2fc00000000p-6, -0x1.c1cd780000000p-4, 0x1.d580500000000p-4, -0x1.cf0c580000000p-4, -0x1.e254900000000p-6, -0x1.0094900000000p-5, 0x1.39e6f00000000p-5, -0x1.2fff860000000p-4, -0x1.29ed000000000p-3, -0x1.8ec2a00000000p-6, -0x1.7b77600000000p-7, 0x1.39f7800000000p-9, -0x1.b1b6500000000p-6, 0x1.479c4c0000000p-3, -0x1.1675b60000000p-3, 0x1.30153c0000000p-3, -0x1.1824900000000p-6, 0x1.f43af00000000p-6, -0x1.3f07ec0000000p-4, -0x1.40e73e0000000p-3, -0x1.3a4a780000000p-4, 0x1.796a500000000p-4, -0x1.3947660000000p-3, 0x1.2c8b800000000p-3, -0x1.6b57320000000p-4, -0x1.2ecd1e0000000p-3, 0x1.aa49a00000000p-4, 0x1.9f71c80000000p-4, -0x1.7b74500000000p-6, 0x1.d8e1d00000000p-4, -0x1.9e27d80000000p-4, 0x1.f930200000000p-5, -0x1.2bd6c00000000p-3, 0x1.0822e80000000p-5, 0x1.2009b00000000p-4, -0x1.02bf1c0000000p-3, -0x1.b52b680000000p-4, 0x1.77c0500000000p-4, -0x1.ee670c0000000p-4, 0x1.56c0580000000p-4, 0x1.9abd900000000p-4, 0x1.4591e80000000p-5, -0x1.1bee5a0000000p-3, -0x1.33247c0000000p-4, 0x1.f38c180000000p-5, -0x1.41fc880000000p-5, -0x1.5530d20000000p-4, -0x1.f380180000000p-5, 0x1.3339040000000p-4, 0x1.eed1880000000p-5, 0x1.7ec8580000000p-4, 0x1.0715a00000000p-4, 0x1.0ecc300000000p-5, -0x1.d0505c0000000p-4, 0x1.ae71e00000000p-5, -0x1.401d1a0000000p-3, 0x1.12fec40000000p-3, 0x1.a103080000000p-5, 0x1.7b57080000000p-4, -0x1.582c820000000p-4, 0x1.e4f4b00000000p-4, -0x1.a13a080000000p-5, -0x1.afa8980000000p-5, -0x1.d9c2d00000000p-5, -0x1.09d59a0000000p-3, 0x1.b0a7200000000p-5, -0x1.0cf4140000000p-3, 0x1.cb7e880000000p-5, -0x1.f0b1c40000000p-5, -0x1.75c66c0000000p-5, 0x1.f2dd400000000p-6, 0x1.7a9c080000000p-4, -0x1.ec9bb80000000p-5, 0x1.d470c00000000p-6, 0x1.8431c80000000p-4, 0x1.1c0cd40000000p-4, 0x1.c9d0580000000p-4, 0x1.12d3a80000000p-4, -0x1.4669e00000000p-7, 0x1.56a8340000000p-4, -0x1.39211c0000000p-4, 0x1.3aeb980000000p-4, 0x1.3d01140000000p-3, -0x1.1899800000000p-5, 0x1.365e500000000p-3, 0x1.ae7e800000000p-5, 0x1.42d9a80000000p-3, 0x1.9640700000000p-4, -0x1.0452040000000p-3, 0x1.0e96900000000p-5, 0x1.a498600000000p-7, -0x1.0916e80000000p-3, -0x1.187ba00000000p-5, 0x1.45df680000000p-4, 0x1.4653980000000p-3, -0x1.152d260000000p-3, -0x1.31a95c0000000p-3, -0x1.050e100000000p-3}
, {-0x1.08554c0000000p-3, -0x1.33f6b20000000p-3, -0x1.f8458c0000000p-5, 0x1.16b9840000000p-3, 0x1.221b3c0000000p-4, 0x1.8a30080000000p-4, 0x1.74e1980000000p-5, -0x1.8220960000000p-4, -0x1.d4d8000000000p-10, 0x1.fce1d00000000p-4, -0x1.3a37500000000p-3, 0x1.f5aa380000000p-5, 0x1.5de2100000000p-6, -0x1.02a07c0000000p-3, 0x1.1553c80000000p-5, -0x1.073d780000000p-3, -0x1.e2f5e80000000p-4, 0x1.630ad00000000p-6, 0x1.0643540000000p-4, 0x1.0408400000000p-3, -0x1.f2abce0000000p-4, 0x1.2c30a00000000p-4, -0x1.2795e00000000p-7, 0x1.d1eca00000000p-4, 0x1.1f1d380000000p-4, -0x1.e1f9620000000p-4, 0x1.2cf8840000000p-3, -0x1.b6e1700000000p-6, 0x1.1d81880000000p-4, 0x1.623fa00000000p-6, 0x1.f533300000000p-4, -0x1.2816b80000000p-3, -0x1.69cea00000000p-6, 0x1.745b480000000p-4, -0x1.34b7400000000p-3, 0x1.a410000000000p-7, 0x1.22ee200000000p-7, -0x1.3eed6c0000000p-5, 0x1.57f1d00000000p-5, 0x1.165bfc0000000p-3, -0x1.157e000000000p-7, -0x1.1fcdae0000000p-3, -0x1.5d59360000000p-4, -0x1.24885a0000000p-3, 0x1.c986880000000p-4, 0x1.f4b5500000000p-6, -0x1.90dfa40000000p-5, -0x1.278afc0000000p-3, 0x1.a53d980000000p-4, -0x1.72b1960000000p-4, 0x1.c14ee00000000p-4, -0x1.1b55c40000000p-3, -0x1.1d9a460000000p-4, -0x1.2d36000000000p-9, 0x1.7acc800000000p-6, -0x1.12ca220000000p-3, -0x1.65fa940000000p-4, 0x1.dfc7400000000p-6, 0x1.1aed5c0000000p-4, -0x1.7ddb080000000p-4, 0x1.a193c80000000p-5, -0x1.3caacc0000000p-4, 0x1.3e32a00000000p-4, 0x1.3e0e480000000p-3, 0x1.02b1240000000p-3, 0x1.0469800000000p-7, -0x1.7d10960000000p-4, -0x1.1fc6700000000p-3, 0x1.012cd80000000p-4, 0x1.ec22c00000000p-6, -0x1.9b29000000000p-4, -0x1.3d32ec0000000p-3, -0x1.5a6aa80000000p-5, -0x1.be2b000000000p-9, -0x1.e216c00000000p-6, -0x1.d0ead80000000p-5, 0x1.5c203c0000000p-4, -0x1.05ef4e0000000p-3, -0x1.0713040000000p-4, -0x1.969e1c0000000p-5, 0x1.585fc00000000p-4, -0x1.ced0bc0000000p-5, 0x1.10b7280000000p-3, 0x1.38ece80000000p-4, -0x1.d449580000000p-4, 0x1.d206d00000000p-6, 0x1.8911400000000p-5, 0x1.9e7d300000000p-4, -0x1.afd1400000000p-6, -0x1.7ffcac0000000p-5, -0x1.9515300000000p-4, -0x1.4936400000000p-5, 0x1.7bcde00000000p-4, -0x1.c2edb40000000p-4, -0x1.00ea8e0000000p-4, 0x1.d049600000000p-6, 0x1.1b29880000000p-5, -0x1.0c30c80000000p-4, -0x1.dd6aba0000000p-4, 0x1.223a800000000p-6, -0x1.0bc9240000000p-4, -0x1.d8c7400000000p-6, -0x1.7a19800000000p-8, 0x1.16b5b40000000p-3, -0x1.e670c80000000p-5, -0x1.b454500000000p-4, -0x1.1fa3e80000000p-3, 0x1.4250dc0000000p-3, -0x1.e130000000000p-14, 0x1.11a8b40000000p-4, 0x1.12bb1c0000000p-3, -0x1.318ffc0000000p-3, 0x1.e5e9380000000p-5, 0x1.f20e980000000p-4, 0x1.2d15280000000p-4, -0x1.8835780000000p-5, -0x1.1d69800000000p-5, 0x1.56b72c0000000p-4, -0x1.3460180000000p-4, -0x1.0fe8d80000000p-3, 0x1.1284c40000000p-3, -0x1.3fa7de0000000p-3, 0x1.6d03dc0000000p-4, 0x1.c572a80000000p-4, 0x1.f71f200000000p-7, 0x1.4836900000000p-4, 0x1.1664f40000000p-3, 0x1.110bc40000000p-3, 0x1.2bc8580000000p-3, 0x1.bf38300000000p-5, -0x1.f560640000000p-5, -0x1.4062180000000p-3, -0x1.977bb80000000p-4, 0x1.2dc2300000000p-4, -0x1.247b980000000p-5, -0x1.443bb00000000p-6, -0x1.9ebaa40000000p-4, -0x1.0549a20000000p-3, -0x1.bbb31a0000000p-4, 0x1.2f07140000000p-3, -0x1.1fc6140000000p-4, 0x1.14e3a40000000p-4, 0x1.317a880000000p-3, 0x1.9e22b00000000p-4, -0x1.a997300000000p-5, 0x1.37b1880000000p-3, -0x1.417e940000000p-5, 0x1.c03f080000000p-4, 0x1.387bc80000000p-4, 0x1.1916e00000000p-6, 0x1.3067a00000000p-7, 0x1.4dba000000000p-9, -0x1.3f34f40000000p-3, -0x1.437ae40000000p-3, 0x1.0247640000000p-3, -0x1.c2a7c40000000p-5, -0x1.4387a00000000p-3, 0x1.4232440000000p-3, -0x1.c6d1000000000p-7, -0x1.6aeeac0000000p-5, -0x1.6f67ac0000000p-4, -0x1.e420a00000000p-7, -0x1.0c0ddc0000000p-3, -0x1.292dec0000000p-4, 0x1.65abb80000000p-4, -0x1.e71c1c0000000p-5, -0x1.a464480000000p-5, -0x1.4010ee0000000p-3, 0x1.015e500000000p-5, -0x1.5eeaa80000000p-4, -0x1.48f3640000000p-4, 0x1.0227c40000000p-3, -0x1.b9eb380000000p-4, -0x1.8bc3c20000000p-4, 0x1.2e66a80000000p-3, 0x1.29a5000000000p-3, 0x1.54807c0000000p-4, 0x1.6547ec0000000p-4, 0x1.f6a5e00000000p-6, 0x1.db30080000000p-4, 0x1.3801140000000p-4, -0x1.1f9a6c0000000p-3, -0x1.7e9c800000000p-8, 0x1.eeebc00000000p-4, 0x1.4474e80000000p-3, 0x1.4985b40000000p-4, 0x1.ccfaf00000000p-6, 0x1.4b53a00000000p-5, -0x1.eafefe0000000p-4, -0x1.d2ce080000000p-4, 0x1.6b56800000000p-8, 0x1.44e6000000000p-5, 0x1.51b6a00000000p-5, 0x1.1a07180000000p-3, -0x1.9174ce0000000p-4, 0x1.e056400000000p-4, 0x1.858d500000000p-4, -0x1.2144aa0000000p-3, 0x1.bc6ab80000000p-5, -0x1.a2d0840000000p-5, -0x1.baaf400000000p-5, -0x1.30acdc0000000p-4, -0x1.ccadfc0000000p-4, 0x1.0c764c0000000p-3, -0x1.70804c0000000p-5, 0x1.1712000000000p-6, 0x1.d75e580000000p-5, -0x1.192c6c0000000p-3, 0x1.49f2ac0000000p-4, 0x1.c6ea700000000p-4, 0x1.f9b7600000000p-5, -0x1.5ac6900000000p-4, 0x1.31d7480000000p-3, 0x1.ca28280000000p-4, 0x1.3299a80000000p-3, 0x1.e3cf200000000p-5, 0x1.d81e000000000p-11, 0x1.c79d580000000p-5, 0x1.f0a1a80000000p-4, 0x1.0cd65c0000000p-4, 0x1.1702c00000000p-5, 0x1.ec1ea00000000p-4, 0x1.fdae580000000p-4, -0x1.3c52960000000p-3}
, {0x1.2f2c880000000p-3, 0x1.254f340000000p-4, 0x1.0f89a00000000p-4, 0x1.45cbe80000000p-4, 0x1.0086ec0000000p-4, 0x1.3edc000000000p-4, -0x1.1c93340000000p-3, -0x1.d118600000000p-6, 0x1.1bf2a00000000p-6, 0x1.7e5d480000000p-4, -0x1.c4f6cc0000000p-4, -0x1.1fd79c0000000p-3, -0x1.4523360000000p-4, -0x1.3254c40000000p-5, -0x1.3ee2540000000p-4, -0x1.2220500000000p-5, 0x1.47139c0000000p-3, 0x1.0f9a000000000p-9, 0x1.64f39c0000000p-4, -0x1.d4b8300000000p-4, 0x1.386aa40000000p-4, -0x1.38b0c00000000p-7, 0x1.228b280000000p-3, 0x1.5c97000000000p-10, -0x1.d9c7000000000p-6, 0x1.391b6c0000000p-4, 0x1.0335080000000p-3, -0x1.dc76400000000p-6, -0x1.44920e0000000p-3, -0x1.98814a0000000p-4, 0x1.489fc40000000p-4, -0x1.08290a0000000p-4, 0x1.0238dc0000000p-4, -0x1.3e4b880000000p-3, -0x1.6c63d00000000p-4, -0x1.5942d00000000p-5, -0x1.4853d40000000p-4, -0x1.36a33c0000000p-5, 0x1.0924000000000p-5, -0x1.379b320000000p-4, -0x1.2bb3660000000p-3, 0x1.128b9c0000000p-3, 0x1.771f000000000p-9, 0x1.203c280000000p-3, -0x1.e919a40000000p-4, -0x1.25dac00000000p-6, 0x1.4658ec0000000p-3, -0x1.4061980000000p-3, -0x1.90db680000000p-4, 0x1.053db40000000p-3, -0x1.4b9c2e0000000p-4, 0x1.a949000000000p-4, -0x1.4204bc0000000p-4, 0x1.56d0380000000p-5, 0x1.1e04240000000p-3, 0x1.9dafc80000000p-4, -0x1.3f8ade0000000p-3, 0x1.4181600000000p-5, 0x1.436a580000000p-5, 0x1.3a1df80000000p-3, -0x1.ce58540000000p-5, -0x1.95996c0000000p-5, -0x1.666f400000000p-8, -0x1.ad14b40000000p-5, 0x1.a779080000000p-4, -0x1.0ed6c40000000p-3, -0x1.6f03640000000p-4, 0x1.c39bf80000000p-4, 0x1.7579500000000p-5, 0x1.3de58c0000000p-3, 0x1.d59b800000000p-4, -0x1.4feca80000000p-5, -0x1.f265e80000000p-4, -0x1.1b1daa0000000p-3, 0x1.f179700000000p-5, -0x1.23bee80000000p-3, -0x1.46acf80000000p-4, 0x1.bd90000000000p-9, -0x1.ab3dd80000000p-4, 0x1.057e800000000p-8, -0x1.911ae40000000p-4, -0x1.5913b20000000p-4, -0x1.d949000000000p-7, -0x1.3aa9620000000p-3, 0x1.c845f00000000p-6, 0x1.416bc40000000p-4, -0x1.1c6aa00000000p-7, -0x1.9f618a0000000p-4, 0x1.0734000000000p-12, -0x1.019ad60000000p-3, 0x1.2fd8340000000p-3, 0x1.b7a9580000000p-5, 0x1.400c880000000p-4, -0x1.81f2400000000p-8, -0x1.a8cade0000000p-4, 0x1.1243100000000p-5, -0x1.d141840000000p-4, -0x1.7a79f00000000p-5, 0x1.2d7f200000000p-4, -0x1.65c4f80000000p-5, 0x1.262be80000000p-4, 0x1.38146c0000000p-4, 0x1.20d3400000000p-5, 0x1.dc57600000000p-4, 0x1.3096a40000000p-4, -0x1.fa1e700000000p-6, 0x1.ee70100000000p-4, -0x1.e3de680000000p-5, -0x1.d2b5c80000000p-5, -0x1.297ae80000000p-4, -0x1.43701a0000000p-4, -0x1.f116840000000p-4, -0x1.3b97a80000000p-3, -0x1.bae2e40000000p-5, -0x1.ae2e9c0000000p-4, 0x1.6100280000000p-5, 0x1.d595b00000000p-4, -0x1.2d45800000000p-8, -0x1.0806740000000p-4, 0x1.c16f080000000p-4, -0x1.e7b90a0000000p-4, 0x1.00287c0000000p-4, 0x1.3697b80000000p-4, 0x1.a4ebe80000000p-5, 0x1.4fa7b80000000p-4, -0x1.66dad60000000p-4, 0x1.09fdc00000000p-3, -0x1.0c9c8c0000000p-4, 0x1.2e42cc0000000p-3, 0x1.1853d00000000p-6, -0x1.16b4a00000000p-5, -0x1.a1bf1c0000000p-5, -0x1.ce3de00000000p-6, 0x1.44d7000000000p-6, -0x1.0ae3680000000p-5, 0x1.0c006c0000000p-3, 0x1.cbd2000000000p-4, -0x1.1ea67c0000000p-4, 0x1.453f3c0000000p-3, 0x1.3889b40000000p-4, 0x1.e006800000000p-5, -0x1.4a60800000000p-8, 0x1.aa3c900000000p-4, -0x1.e500a40000000p-4, -0x1.0588a80000000p-3, -0x1.b83f640000000p-4, 0x1.1e0f8c0000000p-3, -0x1.2cabc20000000p-4, -0x1.01fb7e0000000p-4, 0x1.7b37e00000000p-4, 0x1.5b94680000000p-4, 0x1.a50e580000000p-4, -0x1.e212200000000p-5, -0x1.a8c2240000000p-4, -0x1.a988c00000000p-6, -0x1.e600000000000p-13, 0x1.f168500000000p-6, -0x1.7336800000000p-9, 0x1.23fe180000000p-3, 0x1.7ed4d00000000p-6, 0x1.0b21680000000p-4, -0x1.3537de0000000p-4, 0x1.3497e80000000p-3, 0x1.c2f0c00000000p-4, -0x1.93c7e00000000p-7, -0x1.4fc2400000000p-8, -0x1.35c95e0000000p-3, 0x1.51d2e00000000p-5, -0x1.1946a80000000p-5, -0x1.e7721a0000000p-4, -0x1.906d500000000p-5, -0x1.b323200000000p-7, 0x1.72b7e80000000p-4, 0x1.61c4a40000000p-4, -0x1.063bc40000000p-4, 0x1.8de6500000000p-5, 0x1.14e0d40000000p-3, 0x1.2ae2c00000000p-5, -0x1.1f71ac0000000p-3, -0x1.d2cab00000000p-6, -0x1.47ca7a0000000p-4, 0x1.5fcbb80000000p-4, 0x1.0b4b180000000p-5, 0x1.2c0b500000000p-5, -0x1.2ec2e40000000p-3, 0x1.2ae7a40000000p-3, -0x1.421b640000000p-3, -0x1.a7b99c0000000p-5, -0x1.1dee800000000p-3, 0x1.071f000000000p-9, -0x1.0aa6b60000000p-3, -0x1.63b1f40000000p-4, 0x1.ac00600000000p-7, -0x1.38c6420000000p-3, -0x1.ef16b40000000p-4, -0x1.9a1f300000000p-4, 0x1.60a6740000000p-4, -0x1.4a265c0000000p-4, 0x1.718a700000000p-4, -0x1.7c9ea80000000p-4, 0x1.3f34a40000000p-3, 0x1.6d9fdc0000000p-4, 0x1.309aa00000000p-3, -0x1.7651900000000p-5, -0x1.8a2f800000000p-8, 0x1.d9dcd00000000p-4, 0x1.c08cc80000000p-5, -0x1.ab3f0c0000000p-4, 0x1.9bf0280000000p-5, -0x1.6722c80000000p-5, -0x1.43622c0000000p-3, -0x1.237b800000000p-3, -0x1.5f93e00000000p-5, 0x1.13eefc0000000p-3, 0x1.481cb00000000p-6, -0x1.9857a80000000p-5, 0x1.38598c0000000p-4, 0x1.47e1040000000p-4, 0x1.8abf000000000p-9, 0x1.a9a1d80000000p-4, 0x1.2fdc9c0000000p-3, -0x1.8e85160000000p-4, -0x1.49fed80000000p-4, 0x1.3977400000000p-8}
, {0x1.b1b5300000000p-6, -0x1.cf88000000000p-11, 0x1.f62d200000000p-5, 0x1.ed30b00000000p-4, 0x1.a316d80000000p-4, 0x1.8466100000000p-4, 0x1.5a39680000000p-4, -0x1.5a2ae20000000p-4, 0x1.7812900000000p-5, -0x1.057c920000000p-4, -0x1.174dc00000000p-7, 0x1.76cf300000000p-6, 0x1.899bd00000000p-6, -0x1.64d9000000000p-8, 0x1.1770500000000p-3, -0x1.f7e9000000000p-6, -0x1.0771b80000000p-5, 0x1.20cf280000000p-5, 0x1.64185c0000000p-4, -0x1.170f400000000p-4, 0x1.51b3980000000p-5, -0x1.1989480000000p-5, -0x1.9aaee00000000p-6, 0x1.79b4200000000p-4, -0x1.c7cad00000000p-5, -0x1.54e1320000000p-4, 0x1.e5c0900000000p-5, 0x1.3917100000000p-3, 0x1.12c0ec0000000p-3, -0x1.6c5a000000000p-7, -0x1.fc7ea00000000p-7, -0x1.3d81c00000000p-3, -0x1.a086240000000p-5, 0x1.327b980000000p-3, 0x1.113f8c0000000p-3, -0x1.a4a6940000000p-4, 0x1.1694980000000p-3, 0x1.ec98480000000p-4, 0x1.9039980000000p-4, -0x1.b442040000000p-5, -0x1.0ba8500000000p-4, -0x1.96f6e40000000p-4, 0x1.f61a600000000p-5, -0x1.1a67180000000p-3, -0x1.c991240000000p-4, -0x1.0cbcc00000000p-8, -0x1.27d7160000000p-3, 0x1.6950380000000p-4, -0x1.dcc2a00000000p-7, 0x1.0c4b900000000p-3, 0x1.623e400000000p-4, 0x1.242c000000000p-6, -0x1.e5a9e60000000p-4, 0x1.494fe00000000p-5, 0x1.d004d00000000p-5, 0x1.ec7b780000000p-4, -0x1.839c540000000p-4, -0x1.0fd70e0000000p-3, 0x1.9644e80000000p-4, -0x1.e138b00000000p-6, 0x1.1e52a00000000p-4, 0x1.0c15540000000p-3, 0x1.84b8d80000000p-4, 0x1.4baf800000000p-6, 0x1.6cd7400000000p-6, -0x1.a0f4200000000p-6, 0x1.9ac7580000000p-4, -0x1.3816400000000p-8, -0x1.3c75b20000000p-3, -0x1.44e4000000000p-3, -0x1.6ee17c0000000p-4, 0x1.d8fa800000000p-9, -0x1.55a3460000000p-4, 0x1.37ee500000000p-4, -0x1.aaed620000000p-4, -0x1.80f2aa0000000p-4, -0x1.11113e0000000p-3, 0x1.1f42e40000000p-4, 0x1.d3f1600000000p-5, 0x1.ad74200000000p-6, 0x1.77e7e80000000p-5, -0x1.2c32b80000000p-3, -0x1.ec5f980000000p-5, 0x1.8ad1c80000000p-5, 0x1.0618bc0000000p-4, 0x1.761e400000000p-5, 0x1.9c78380000000p-4, -0x1.ca00e00000000p-5, -0x1.2dd4980000000p-4, 0x1.419bb80000000p-5, -0x1.9a3c300000000p-6, -0x1.1d0e400000000p-8, -0x1.1e90020000000p-3, -0x1.90ff8c0000000p-4, 0x1.1328040000000p-4, 0x1.8939b00000000p-6, -0x1.c577940000000p-4, -0x1.ddf90c0000000p-5, 0x1.eec7200000000p-4, -0x1.1ba4780000000p-3, 0x1.2169c40000000p-3, 0x1.b733a80000000p-4, -0x1.681da80000000p-4, 0x1.887b980000000p-4, -0x1.fe56280000000p-4, 0x1.4a3c000000000p-10, -0x1.812cea0000000p-4, -0x1.bee3600000000p-6, -0x1.e378680000000p-5, 0x1.880cb80000000p-5, 0x1.cf65e80000000p-4, -0x1.6fb1400000000p-5, -0x1.042c100000000p-3, -0x1.34e6540000000p-5, -0x1.5416ac0000000p-4, 0x1.45a3600000000p-6, 0x1.7d52b00000000p-4, -0x1.f16d080000000p-4, 0x1.047f480000000p-5, 0x1.6916c80000000p-4, -0x1.ed96c40000000p-4, 0x1.1579ec0000000p-4, 0x1.8456980000000p-4, -0x1.66c9960000000p-4, -0x1.85c9740000000p-5, 0x1.e7c1980000000p-5, -0x1.32f2ce0000000p-4, -0x1.a281400000000p-6, 0x1.dda5580000000p-4, 0x1.ccc8e80000000p-4, 0x1.4688e40000000p-3, 0x1.8c8e200000000p-4, 0x1.630e180000000p-4, 0x1.54f7540000000p-4, -0x1.478bde0000000p-3, -0x1.3ba1500000000p-6, -0x1.2765f00000000p-3, 0x1.59d0480000000p-5, -0x1.c9be180000000p-4, -0x1.c956600000000p-4, -0x1.dca2500000000p-6, 0x1.54ec900000000p-6, -0x1.903d5c0000000p-5, -0x1.6934660000000p-4, -0x1.9eb0ac0000000p-4, 0x1.e015800000000p-9, -0x1.54b5000000000p-5, -0x1.6cf7a00000000p-7, -0x1.9e54ec0000000p-4, 0x1.94a9400000000p-7, -0x1.d704c80000000p-4, -0x1.6566060000000p-4, -0x1.24b3000000000p-6, -0x1.139d620000000p-3, 0x1.12ecfc0000000p-3, 0x1.e369c00000000p-5, -0x1.1e15ac0000000p-3, -0x1.229a8a0000000p-3, -0x1.7962b80000000p-4, 0x1.a239600000000p-5, 0x1.9f71200000000p-5, -0x1.19776c0000000p-4, -0x1.5957280000000p-5, -0x1.e591ec0000000p-4, 0x1.5fa3680000000p-5, -0x1.1ed30a0000000p-3, -0x1.8a0b340000000p-5, 0x1.1ccc400000000p-3, -0x1.f001740000000p-4, -0x1.de03300000000p-6, 0x1.2cac200000000p-3, 0x1.5cf8200000000p-5, 0x1.279f800000000p-7, -0x1.4eb3740000000p-4, 0x1.df2c600000000p-4, -0x1.19b3900000000p-5, -0x1.5b6c000000000p-11, -0x1.8916380000000p-5, 0x1.3515680000000p-4, -0x1.455dfa0000000p-3, 0x1.04cbd00000000p-3, -0x1.6079300000000p-6, 0x1.569f640000000p-4, 0x1.636f400000000p-7, -0x1.72ba000000000p-8, 0x1.1dd4000000000p-4, -0x1.c457b80000000p-5, 0x1.3ab3640000000p-3, 0x1.a109680000000p-4, -0x1.c1ad900000000p-6, 0x1.b94e900000000p-6, 0x1.7b1d480000000p-5, 0x1.01ec140000000p-4, 0x1.0516200000000p-3, 0x1.415f240000000p-3, -0x1.45353e0000000p-3, 0x1.fb69500000000p-5, 0x1.102d800000000p-6, 0x1.ccbba80000000p-4, -0x1.891d000000000p-6, 0x1.cf04c00000000p-6, -0x1.c7cc200000000p-7, -0x1.21f47c0000000p-3, -0x1.143ff40000000p-4, -0x1.2164360000000p-3, -0x1.b495140000000p-4, -0x1.1d30000000000p-14, -0x1.9177d80000000p-4, -0x1.5238920000000p-4, -0x1.59f5340000000p-5, -0x1.f886600000000p-7, -0x1.a3d0c40000000p-4, -0x1.a641600000000p-7, 0x1.1bafc40000000p-4, 0x1.8b05f00000000p-4, -0x1.a0a1800000000p-7, 0x1.011de00000000p-4, -0x1.7a458a0000000p-4, 0x1.0e4d800000000p-7, -0x1.4436420000000p-4, 0x1.2292900000000p-3, 0x1.3446600000000p-3, -0x1.704c920000000p-4, -0x1.0ef0300000000p-4}
, {-0x1.ae4e840000000p-4, -0x1.1246e00000000p-7, -0x1.a200d60000000p-4, 0x1.4ccca00000000p-4, -0x1.c9e3f80000000p-4, 0x1.3059940000000p-3, -0x1.5767cc0000000p-4, -0x1.b12fa00000000p-4, -0x1.b4a6180000000p-5, -0x1.54beb00000000p-5, 0x1.b118200000000p-4, -0x1.bc85c00000000p-4, 0x1.1b4fa80000000p-5, -0x1.6e09100000000p-5, 0x1.79d2e00000000p-7, -0x1.51eaac0000000p-5, -0x1.45aef80000000p-5, -0x1.b62e900000000p-6, -0x1.109ec00000000p-3, 0x1.adec800000000p-9, 0x1.3f08ec0000000p-4, 0x1.9d1f000000000p-10, -0x1.85c56a0000000p-4, -0x1.aa18560000000p-4, -0x1.c3226c0000000p-5, 0x1.29848c0000000p-4, -0x1.7c27200000000p-4, -0x1.05c7900000000p-5, -0x1.7900080000000p-5, 0x1.3258f80000000p-4, -0x1.6678340000000p-4, 0x1.c1bdf00000000p-4, -0x1.0cfcf20000000p-3, -0x1.b0e8e00000000p-6, 0x1.384e800000000p-4, 0x1.231a5c0000000p-4, 0x1.04cdc00000000p-8, -0x1.6d202a0000000p-4, 0x1.1e8ae80000000p-3, -0x1.e7bf880000000p-5, -0x1.de022c0000000p-4, 0x1.0c76800000000p-3, 0x1.aa5a900000000p-6, -0x1.3475fe0000000p-3, -0x1.a60ae80000000p-4, -0x1.2b79300000000p-6, -0x1.0022460000000p-4, 0x1.6a0bc00000000p-7, 0x1.80f8f00000000p-6, 0x1.ae39180000000p-4, -0x1.32ae1c0000000p-5, -0x1.b210680000000p-4, 0x1.8d4ce00000000p-7, -0x1.a9eb180000000p-4, 0x1.9a37b80000000p-5, 0x1.206b100000000p-6, 0x1.4afe540000000p-4, 0x1.095db80000000p-3, 0x1.2e27300000000p-6, -0x1.0950ea0000000p-3, 0x1.89f0f00000000p-4, 0x1.7a0f600000000p-7, -0x1.2150640000000p-3, 0x1.8cc9f80000000p-4, 0x1.d26e200000000p-4, -0x1.2eff380000000p-3, 0x1.7427680000000p-4, 0x1.458b480000000p-3, 0x1.93bf400000000p-4, 0x1.553dc00000000p-6, 0x1.04bd580000000p-3, -0x1.7f27200000000p-7, -0x1.b77d000000000p-4, -0x1.83e0d40000000p-4, -0x1.2962d80000000p-5, 0x1.1d9a140000000p-4, 0x1.8cb7680000000p-4, -0x1.bb89c00000000p-5, 0x1.cfa5600000000p-7, 0x1.2c2b6c0000000p-3, -0x1.87877e0000000p-4, 0x1.7196300000000p-4, 0x1.b2d4500000000p-6, 0x1.19cb040000000p-4, -0x1.75c7740000000p-5, 0x1.e264d00000000p-5, -0x1.a3b2800000000p-4, 0x1.47d1a40000000p-4, -0x1.403efe0000000p-3, -0x1.cdaee00000000p-7, -0x1.847b1c0000000p-4, 0x1.b4c7400000000p-6, -0x1.7737980000000p-5, 0x1.08bb3c0000000p-4, -0x1.2a46b60000000p-3, -0x1.1d4d680000000p-4, 0x1.8eaef80000000p-5, 0x1.ee54600000000p-7, 0x1.f3c1700000000p-6, -0x1.fa4f4a0000000p-4, 0x1.ae21680000000p-5, -0x1.35d3180000000p-3, -0x1.0429880000000p-5, -0x1.329f560000000p-4, -0x1.5b56800000000p-9, -0x1.42f1700000000p-5, -0x1.87731e0000000p-4, 0x1.b4b4180000000p-5, 0x1.ce59980000000p-5, -0x1.84d21a0000000p-4, -0x1.de8c700000000p-5, 0x1.3899f80000000p-4, -0x1.3b6dbc0000000p-5, 0x1.0e02040000000p-3, 0x1.1dd3980000000p-5, -0x1.52de960000000p-4, -0x1.c553000000000p-7, 0x1.a854400000000p-4, 0x1.a754b80000000p-5, -0x1.8cc5ce0000000p-4, 0x1.5667480000000p-5, -0x1.d048a40000000p-4, 0x1.3a26500000000p-4, 0x1.113c340000000p-3, -0x1.cacd1c0000000p-5, 0x1.16d6b80000000p-5, 0x1.18b9a00000000p-4, -0x1.e40a540000000p-4, 0x1.2373380000000p-5, 0x1.2e0c940000000p-3, 0x1.3501fc0000000p-3, 0x1.38ca800000000p-9, -0x1.0b87400000000p-3, -0x1.1b33d20000000p-3, 0x1.6b15940000000p-4, -0x1.55f39e0000000p-4, -0x1.2d03c00000000p-3, -0x1.338dca0000000p-3, -0x1.5e9f500000000p-4, -0x1.89071e0000000p-4, -0x1.4b49c00000000p-8, -0x1.9f2f240000000p-4, -0x1.761b520000000p-4, -0x1.9593f80000000p-5, -0x1.3f67b00000000p-6, -0x1.5256200000000p-6, 0x1.40a2980000000p-3, 0x1.395a800000000p-3, 0x1.41c2780000000p-5, 0x1.7bcd700000000p-4, 0x1.1f449c0000000p-4, -0x1.12dd800000000p-5, 0x1.6c4e500000000p-5, -0x1.54ebba0000000p-4, -0x1.a8dd9a0000000p-4, -0x1.7111740000000p-4, 0x1.ddc3c00000000p-4, -0x1.ab2a600000000p-7, 0x1.0c83d80000000p-4, 0x1.f0f4480000000p-5, 0x1.3b4e800000000p-3, 0x1.5f5e100000000p-4, 0x1.245eb80000000p-3, 0x1.4626e80000000p-5, 0x1.39c5e00000000p-6, 0x1.1aaed00000000p-3, -0x1.9df0140000000p-4, -0x1.22a5340000000p-3, -0x1.01853c0000000p-3, 0x1.130d400000000p-3, 0x1.2c3da00000000p-4, -0x1.30fa240000000p-3, 0x1.ce06180000000p-4, -0x1.a4ea5a0000000p-4, -0x1.bf7cf40000000p-4, -0x1.f8efc40000000p-5, 0x1.6938340000000p-4, -0x1.66b7a00000000p-7, -0x1.b80a3c0000000p-5, -0x1.9a63840000000p-4, 0x1.04df2c0000000p-4, -0x1.ff947c0000000p-4, 0x1.ee21380000000p-5, -0x1.8f830c0000000p-5, -0x1.13ac680000000p-5, -0x1.3511280000000p-3, -0x1.1f1e580000000p-4, 0x1.9973200000000p-4, -0x1.40a1000000000p-8, 0x1.3e72900000000p-4, -0x1.40a8ac0000000p-3, 0x1.47e4900000000p-3, -0x1.68aa540000000p-4, -0x1.1a8f680000000p-4, -0x1.6694a00000000p-4, -0x1.68be200000000p-7, -0x1.d87ab80000000p-4, 0x1.175ec00000000p-3, 0x1.b36c800000000p-8, -0x1.74ea5c0000000p-4, 0x1.1564e80000000p-3, -0x1.2b304c0000000p-3, 0x1.1b9dd80000000p-3, 0x1.20f3000000000p-8, -0x1.c169c00000000p-4, 0x1.247bc00000000p-5, 0x1.8d77d80000000p-5, 0x1.6d06100000000p-4, 0x1.4198400000000p-7, 0x1.2e01040000000p-3, -0x1.2ec8800000000p-9, -0x1.005b9a0000000p-4, -0x1.7244b20000000p-4, 0x1.1536e40000000p-3, 0x1.b3b3400000000p-4, 0x1.4dc9000000000p-6, -0x1.318fe00000000p-6, -0x1.4b8a280000000p-5, -0x1.fd6ec00000000p-7, 0x1.47355c0000000p-4, -0x1.c6967e0000000p-4, -0x1.3762b60000000p-4, 0x1.e306c00000000p-4, 0x1.1802d00000000p-5}
, {0x1.bb88280000000p-4, -0x1.999bcc0000000p-4, -0x1.fea0180000000p-4, -0x1.b5d54c0000000p-5, -0x1.24cc5e0000000p-3, 0x1.bb95e80000000p-4, -0x1.ebde680000000p-4, -0x1.0a38000000000p-12, -0x1.dc77c80000000p-5, -0x1.7816300000000p-6, -0x1.fab00c0000000p-4, 0x1.03c3a80000000p-3, 0x1.1118280000000p-4, 0x1.0e663c0000000p-4, 0x1.8c5c500000000p-4, -0x1.29a6a80000000p-3, 0x1.0909400000000p-5, 0x1.89c9680000000p-4, 0x1.b39e600000000p-6, -0x1.4840000000000p-14, 0x1.2d37b00000000p-3, -0x1.f6adc00000000p-7, 0x1.09e1480000000p-5, 0x1.0bbe1c0000000p-3, -0x1.9b06c00000000p-7, 0x1.0438400000000p-3, 0x1.95aa780000000p-4, -0x1.8045340000000p-4, -0x1.ad77b40000000p-4, -0x1.9770460000000p-4, 0x1.610c300000000p-6, 0x1.5d41900000000p-5, -0x1.d4b8580000000p-4, 0x1.1750800000000p-4, -0x1.6ebe000000000p-7, 0x1.2529000000000p-9, 0x1.4293980000000p-3, -0x1.462b900000000p-3, 0x1.c82be00000000p-6, -0x1.cd0a940000000p-4, -0x1.2d81500000000p-3, -0x1.022e220000000p-3, 0x1.0b29b00000000p-5, 0x1.027dec0000000p-4, -0x1.72a5a80000000p-4, 0x1.e917280000000p-4, 0x1.1ded440000000p-3, -0x1.f44a800000000p-4, 0x1.8b21800000000p-4, -0x1.eedfd00000000p-6, -0x1.a730600000000p-5, -0x1.04bbfa0000000p-4, 0x1.4608840000000p-4, -0x1.50e6000000000p-10, -0x1.305a460000000p-3, -0x1.4efd300000000p-4, -0x1.4928800000000p-7, -0x1.69c8b80000000p-4, -0x1.2985a80000000p-3, 0x1.0be24c0000000p-3, -0x1.14f00e0000000p-4, 0x1.13f1300000000p-6, -0x1.81db600000000p-5, -0x1.cf0b600000000p-6, 0x1.0923800000000p-3, 0x1.05bb240000000p-3, 0x1.0883a00000000p-3, -0x1.0820f40000000p-4, -0x1.47e6940000000p-3, -0x1.02c2360000000p-3, 0x1.501be80000000p-5, -0x1.f84a840000000p-4, 0x1.cdbb680000000p-4, 0x1.569af40000000p-4, -0x1.1f2a480000000p-5, 0x1.9c06300000000p-6, 0x1.d844200000000p-6, 0x1.32d45c0000000p-3, 0x1.9bc0d00000000p-6, -0x1.172a980000000p-4, 0x1.2ca4a00000000p-3, 0x1.1357c00000000p-6, -0x1.2dd57a0000000p-3, -0x1.8388300000000p-5, 0x1.353b800000000p-9, -0x1.66a1000000000p-5, 0x1.3e62300000000p-3, -0x1.c9ff300000000p-4, 0x1.4c9f4c0000000p-4, 0x1.d374000000000p-11, 0x1.7dfa200000000p-7, -0x1.41e0d00000000p-6, -0x1.8ff0e40000000p-5, 0x1.5144200000000p-6, -0x1.1906fa0000000p-3, -0x1.0b3a960000000p-3, -0x1.43f3780000000p-3, 0x1.486f200000000p-4, 0x1.762e200000000p-4, -0x1.3a0a1e0000000p-3, 0x1.2724f40000000p-3, 0x1.f103c80000000p-4, 0x1.44084c0000000p-4, 0x1.903e900000000p-4, 0x1.d44e180000000p-5, -0x1.23f7f40000000p-3, 0x1.a2aa100000000p-6, -0x1.7af3200000000p-7, 0x1.2480380000000p-3, -0x1.005d940000000p-3, 0x1.2fe8000000000p-3, -0x1.278f080000000p-5, -0x1.3f22c20000000p-3, -0x1.e2fb400000000p-6, 0x1.6028580000000p-4, 0x1.c5a0d80000000p-4, -0x1.2253680000000p-5, -0x1.2b59400000000p-4, 0x1.156d100000000p-5, -0x1.5c73640000000p-5, 0x1.92cd180000000p-5, -0x1.fd2af40000000p-5, -0x1.73d42e0000000p-4, 0x1.255a000000000p-11, -0x1.ef660c0000000p-5, 0x1.1d5e940000000p-3, 0x1.13200c0000000p-4, 0x1.47cc940000000p-3, 0x1.0786080000000p-4, 0x1.bc26d00000000p-6, -0x1.08d26a0000000p-3, 0x1.3332d00000000p-3, 0x1.33ecf80000000p-4, -0x1.1ba7da0000000p-3, 0x1.4727dc0000000p-4, 0x1.213ec80000000p-4, 0x1.18f0000000000p-13, -0x1.2cd6f40000000p-4, -0x1.5380840000000p-4, 0x1.051a740000000p-3, -0x1.05a7800000000p-8, 0x1.3b16540000000p-3, -0x1.c1fa700000000p-6, -0x1.6af6d00000000p-6, 0x1.5d4f480000000p-4, 0x1.a359c00000000p-5, -0x1.1dc5260000000p-4, 0x1.b264300000000p-4, -0x1.2916000000000p-3, 0x1.92ad780000000p-5, 0x1.40fa840000000p-3, -0x1.40f3840000000p-5, 0x1.29e6ac0000000p-4, 0x1.5e60e00000000p-6, -0x1.e027180000000p-4, -0x1.5f64800000000p-6, -0x1.1135c00000000p-7, -0x1.2536820000000p-3, -0x1.771bbc0000000p-5, -0x1.0bd3360000000p-3, -0x1.e845f40000000p-5, 0x1.7975400000000p-4, 0x1.942d480000000p-4, 0x1.ece4300000000p-5, 0x1.e5f7680000000p-5, 0x1.4705b80000000p-5, 0x1.3c54240000000p-3, 0x1.282fb40000000p-3, -0x1.49e8ac0000000p-4, 0x1.08a3a80000000p-4, 0x1.934cb80000000p-5, -0x1.e6f6860000000p-4, -0x1.0a39860000000p-3, -0x1.b1f9780000000p-5, -0x1.fbbf8c0000000p-4, 0x1.da17600000000p-6, 0x1.bc12f80000000p-5, -0x1.df25480000000p-5, 0x1.488a8c0000000p-4, 0x1.b1ec180000000p-5, 0x1.c300280000000p-4, -0x1.107b000000000p-7, -0x1.d0b35c0000000p-5, -0x1.4b5fd00000000p-4, -0x1.4c082e0000000p-4, -0x1.a5e0d40000000p-5, 0x1.3f32300000000p-6, 0x1.01c6f00000000p-3, 0x1.f6c9000000000p-4, -0x1.1624100000000p-4, 0x1.6b5b540000000p-4, -0x1.fa1b600000000p-6, -0x1.736e6a0000000p-4, 0x1.d94f600000000p-5, 0x1.b285580000000p-5, -0x1.906f320000000p-4, 0x1.0bb3200000000p-4, 0x1.6b57140000000p-4, 0x1.cf28f00000000p-6, -0x1.095cce0000000p-3, 0x1.e69ce80000000p-5, 0x1.2aba4c0000000p-3, 0x1.098d100000000p-3, 0x1.0482600000000p-4, 0x1.a3f7400000000p-8, 0x1.1735c40000000p-3, -0x1.f3bbd20000000p-4, -0x1.af40e80000000p-4, 0x1.d914f00000000p-6, -0x1.0050800000000p-9, 0x1.a9ae000000000p-4, 0x1.7609000000000p-9, -0x1.9542780000000p-5, 0x1.2b87f80000000p-3, 0x1.f885d80000000p-4, 0x1.3240580000000p-4, -0x1.90b9600000000p-4, -0x1.d8d9840000000p-5, -0x1.1c62380000000p-3, 0x1.0e55940000000p-3, 0x1.3ec6e80000000p-3, 0x1.b38a500000000p-4, 0x1.ec5fc00000000p-5, -0x1.eaa55c0000000p-4}
, {-0x1.2d5bdc0000000p-4, 0x1.9eebc00000000p-4, 0x1.39e3680000000p-3, 0x1.1bec400000000p-3, 0x1.ee41f80000000p-5, 0x1.f33a080000000p-4, -0x1.7a504e0000000p-4, 0x1.dbf2000000000p-4, 0x1.39d8cc0000000p-3, 0x1.a65f900000000p-5, 0x1.4511900000000p-4, 0x1.1494b40000000p-3, -0x1.79ce480000000p-4, -0x1.fa85000000000p-9, 0x1.2cd0300000000p-5, 0x1.2dbd740000000p-3, -0x1.3e4ace0000000p-4, 0x1.cb79d80000000p-4, 0x1.5ddb480000000p-5, 0x1.498c280000000p-4, 0x1.4ebebc0000000p-4, -0x1.0b17580000000p-5, -0x1.d194800000000p-4, 0x1.c943700000000p-4, -0x1.552bbc0000000p-5, -0x1.efd2a00000000p-5, -0x1.a17ee40000000p-4, 0x1.c555300000000p-6, 0x1.32969c0000000p-4, -0x1.3df34c0000000p-5, -0x1.cbfbcc0000000p-4, 0x1.df7f900000000p-4, 0x1.9ed9200000000p-6, 0x1.2df6d40000000p-4, -0x1.6671ea0000000p-4, 0x1.64de900000000p-6, -0x1.1101da0000000p-4, 0x1.ac29b00000000p-4, -0x1.a7fb440000000p-5, -0x1.793aa40000000p-4, 0x1.dc75a80000000p-4, -0x1.faca000000000p-11, -0x1.88707a0000000p-4, -0x1.f03a240000000p-4, -0x1.cd144c0000000p-4, 0x1.b43f580000000p-4, 0x1.4021440000000p-3, -0x1.cebdec0000000p-5, 0x1.1009880000000p-4, 0x1.f823600000000p-5, 0x1.311ec00000000p-4, -0x1.9404f00000000p-5, -0x1.a454c00000000p-8, -0x1.e931300000000p-6, 0x1.2f1e680000000p-5, -0x1.3b7e3c0000000p-3, 0x1.e4edc80000000p-4, -0x1.0e08b40000000p-3, 0x1.3acc680000000p-3, 0x1.225ec80000000p-5, -0x1.8504e60000000p-4, 0x1.325f300000000p-3, 0x1.d9c8b80000000p-4, 0x1.10e3800000000p-8, -0x1.247afc0000000p-3, 0x1.08112c0000000p-4, -0x1.4b61740000000p-4, -0x1.2be6660000000p-4, 0x1.710fc80000000p-4, 0x1.b8aed80000000p-4, -0x1.7791dc0000000p-4, 0x1.45df800000000p-3, 0x1.f660d80000000p-4, -0x1.27ef000000000p-6, -0x1.769a6c0000000p-4, -0x1.2cdc280000000p-4, -0x1.dbd0000000000p-13, -0x1.e4c8c20000000p-4, 0x1.bfc7a80000000p-4, 0x1.c43db00000000p-5, -0x1.c38be00000000p-6, -0x1.73c4280000000p-5, -0x1.3b7b7a0000000p-4, 0x1.3d95d40000000p-4, 0x1.aef6a80000000p-4, -0x1.b145000000000p-8, -0x1.3f22620000000p-3, -0x1.7d4b600000000p-6, -0x1.92c0500000000p-4, 0x1.3d8a300000000p-6, -0x1.9fbef00000000p-4, 0x1.ed83980000000p-5, 0x1.f0e1800000000p-6, 0x1.d8ce180000000p-4, -0x1.f774c80000000p-4, 0x1.e253380000000p-5, -0x1.fdab600000000p-4, -0x1.22347e0000000p-4, 0x1.e41ac00000000p-4, -0x1.0613400000000p-8, 0x1.46480c0000000p-4, 0x1.39feec0000000p-3, -0x1.456e000000000p-9, 0x1.4cd1000000000p-10, -0x1.76c1040000000p-4, 0x1.3421d80000000p-5, 0x1.05fb700000000p-4, 0x1.9edbb00000000p-6, -0x1.2fa5a00000000p-7, 0x1.47c0fc0000000p-4, -0x1.0db0400000000p-4, 0x1.e0b0880000000p-4, 0x1.814c800000000p-8, 0x1.24eee00000000p-7, -0x1.94eab80000000p-4, 0x1.2f17600000000p-3, 0x1.bba4500000000p-6, -0x1.7d97600000000p-4, 0x1.df40780000000p-4, -0x1.3ec0c00000000p-8, 0x1.bb03180000000p-4, -0x1.41f30e0000000p-3, 0x1.7080f00000000p-4, -0x1.39024e0000000p-3, 0x1.49f55c0000000p-4, 0x1.6397340000000p-4, 0x1.49ff380000000p-5, 0x1.8c94b80000000p-4, 0x1.4183500000000p-3, 0x1.3d0a1c0000000p-4, 0x1.62fab80000000p-5, -0x1.bee9a00000000p-7, 0x1.b4e7e80000000p-4, -0x1.3c6dc00000000p-8, 0x1.9df9c80000000p-5, -0x1.1badfa0000000p-3, 0x1.31ac800000000p-9, -0x1.19fdb00000000p-3, 0x1.9ff5e80000000p-4, 0x1.35fb400000000p-3, -0x1.4229860000000p-4, -0x1.1560a00000000p-3, 0x1.d7c4000000000p-6, -0x1.f2847e0000000p-4, -0x1.9bc8100000000p-6, -0x1.d2dd400000000p-6, -0x1.79a2ee0000000p-4, 0x1.3468100000000p-4, 0x1.2946f80000000p-5, 0x1.0a34740000000p-3, -0x1.1520a20000000p-3, -0x1.14048c0000000p-4, -0x1.bdb2500000000p-4, 0x1.2add3c0000000p-3, 0x1.144e980000000p-5, -0x1.568b420000000p-4, -0x1.3db60c0000000p-4, -0x1.1de6360000000p-4, -0x1.ed327c0000000p-4, -0x1.e5c6840000000p-4, 0x1.1adde00000000p-5, 0x1.4512700000000p-5, 0x1.58c8400000000p-5, -0x1.114d220000000p-3, -0x1.0485da0000000p-3, -0x1.3bd6e80000000p-3, 0x1.a5b5080000000p-5, 0x1.38ec840000000p-3, -0x1.2e080e0000000p-3, 0x1.2020100000000p-3, -0x1.ca8b800000000p-4, 0x1.95d1980000000p-4, 0x1.2247880000000p-3, -0x1.f380400000000p-6, 0x1.5a06880000000p-4, 0x1.699b880000000p-5, -0x1.6e41500000000p-4, 0x1.cdea480000000p-4, 0x1.9a3c400000000p-8, -0x1.05ca200000000p-5, -0x1.36ee9e0000000p-4, -0x1.ee56d60000000p-4, 0x1.ecbb280000000p-4, -0x1.0290ee0000000p-3, -0x1.4c461c0000000p-4, -0x1.ee20d40000000p-5, 0x1.18c9880000000p-4, -0x1.108ea40000000p-4, -0x1.567ac40000000p-4, -0x1.b0bea80000000p-4, 0x1.230be40000000p-3, 0x1.2ecea00000000p-7, -0x1.4fb8380000000p-5, -0x1.fb27600000000p-4, 0x1.56c5800000000p-8, 0x1.b270000000000p-4, -0x1.3b79a20000000p-4, -0x1.2f0c0c0000000p-4, 0x1.a5de980000000p-4, 0x1.0b55d00000000p-4, 0x1.230c7c0000000p-3, -0x1.c36a540000000p-5, -0x1.bded480000000p-4, 0x1.bd44f00000000p-4, 0x1.984f480000000p-4, -0x1.c21c240000000p-5, -0x1.71b08a0000000p-4, -0x1.0432300000000p-3, 0x1.894b400000000p-4, -0x1.0ecbec0000000p-4, 0x1.c749300000000p-4, 0x1.45e2080000000p-3, 0x1.e22c100000000p-5, 0x1.79e9700000000p-5, 0x1.3fd6b80000000p-3, 0x1.141a140000000p-4, 0x1.eb1dc00000000p-4, -0x1.9f24c00000000p-7, 0x1.bf5f800000000p-7, -0x1.05398e0000000p-3, 0x1.598ccc0000000p-4, -0x1.836cbc0000000p-4, 0x1.8a4ca00000000p-7, -0x1.6884c00000000p-6}
}
;

#undef INPUT_SAMPLES
#undef FC_UNITS