/**
  ******************************************************************************
  * @file    weights/fc.cc
  * @author  Pierre-Emmanuel Novac <penovac@unice.fr>, LEAT, CNRS, Université Côte d'Azur, France
  * @version 1.0.0
  * @date    24 march 2020
  * @brief   Template generating plain C code for the implementation of Convolutional Neural Networks on MCU
  */

#include <stdint.h>

#define INPUT_SAMPLES 96
#define FC_UNITS 10


const float dense_10_bias[FC_UNITS] = {0x0.0p+0, 0x0.0p+0, 0x0.0p+0, 0x0.0p+0, 0x0.0p+0, 0x0.0p+0, 0x0.0p+0, 0x0.0p+0, 0x0.0p+0, 0x0.0p+0}
;

const float dense_10_kernel[FC_UNITS][INPUT_SAMPLES] = {{0x1.25943e0000000p-3, 0x1.4d3e140000000p-4, -0x1.c713f40000000p-4, -0x1.cf7b100000000p-5, 0x1.a348000000000p-10, -0x1.06afc40000000p-4, -0x1.88cb800000000p-7, 0x1.ab5a6e0000000p-3, -0x1.aa5c000000000p-10, 0x1.20ef620000000p-3, -0x1.8af2000000000p-5, 0x1.c90a120000000p-3, -0x1.3244a00000000p-7, -0x1.da46f00000000p-5, -0x1.0095d80000000p-3, -0x1.248a600000000p-3, -0x1.7a92180000000p-4, -0x1.993bc00000000p-8, -0x1.bec4b00000000p-4, 0x1.da508a0000000p-3, 0x1.d401620000000p-3, 0x1.d71bdc0000000p-4, -0x1.7ad8500000000p-6, 0x1.13e7340000000p-4, 0x1.a55d380000000p-5, -0x1.edea060000000p-4, -0x1.ca76060000000p-3, 0x1.82dfb00000000p-6, -0x1.c5c0240000000p-4, 0x1.2c47800000000p-7, -0x1.e2b06c0000000p-4, 0x1.5449c00000000p-7, 0x1.b483420000000p-3, -0x1.87be1a0000000p-3, 0x1.1ad14c0000000p-4, -0x1.54ec340000000p-4, 0x1.3a48840000000p-4, 0x1.da70960000000p-3, 0x1.2a89ca0000000p-3, -0x1.e4ccc80000000p-4, -0x1.7ee7000000000p-8, 0x1.611d860000000p-3, -0x1.f6504e0000000p-4, -0x1.ff32b80000000p-5, 0x1.5924660000000p-3, -0x1.84d8200000000p-4, 0x1.758cc20000000p-3, 0x1.d185080000000p-5, 0x1.351d7c0000000p-4, -0x1.c823e40000000p-3, -0x1.bae9300000000p-3, -0x1.aa3fb80000000p-3, -0x1.88c8360000000p-3, 0x1.d4efee0000000p-3, -0x1.c823fa0000000p-3, -0x1.662ebc0000000p-3, -0x1.2592200000000p-7, 0x1.32c75c0000000p-4, 0x1.c9469c0000000p-4, 0x1.77998c0000000p-4, 0x1.ef48c40000000p-4, -0x1.123a760000000p-3, 0x1.38c7c80000000p-5, 0x1.0fb9f60000000p-3, 0x1.af5f000000000p-9, 0x1.b5fc500000000p-6, 0x1.bd479c0000000p-4, -0x1.f9bea00000000p-5, 0x1.1d62480000000p-5, 0x1.4626060000000p-3, 0x1.96767c0000000p-4, 0x1.9ee6fa0000000p-3, -0x1.03dab60000000p-3, 0x1.30028e0000000p-3, 0x1.05aaa40000000p-4, 0x1.8ae45c0000000p-4, -0x1.e6a8860000000p-3, -0x1.a227c60000000p-3, -0x1.528ef00000000p-5, 0x1.5d20940000000p-4, -0x1.65473e0000000p-3, 0x1.089e5a0000000p-3, -0x1.fb37d80000000p-5, -0x1.2760ac0000000p-4, -0x1.b4b8940000000p-4, -0x1.7b93600000000p-7, -0x1.ce1c680000000p-3, 0x1.dc384c0000000p-4, -0x1.b732b80000000p-3, 0x1.6a11800000000p-7, -0x1.a299c40000000p-4, -0x1.0175c00000000p-7, -0x1.a812bc0000000p-3, -0x1.22f6d00000000p-4, 0x1.e03bda0000000p-3, -0x1.9817980000000p-3}
, {0x1.9b4a4a0000000p-3, -0x1.c8b4ee0000000p-3, -0x1.cf752c0000000p-4, 0x1.49d9f00000000p-6, 0x1.3f3d340000000p-4, 0x1.a306780000000p-5, 0x1.63f48c0000000p-4, -0x1.688d440000000p-4, 0x1.3898ce0000000p-3, 0x1.7ad6380000000p-5, 0x1.c32acc0000000p-4, -0x1.d05eb00000000p-4, -0x1.62d2b00000000p-6, -0x1.0d50ec0000000p-4, 0x1.154e060000000p-3, 0x1.4ff1840000000p-4, -0x1.182bc80000000p-3, -0x1.507e3c0000000p-3, -0x1.681fd40000000p-3, 0x1.25ccc20000000p-3, -0x1.3902300000000p-6, 0x1.dfb93a0000000p-3, -0x1.c61b180000000p-5, -0x1.048b9c0000000p-4, -0x1.eb30920000000p-4, -0x1.214a080000000p-3, -0x1.e5a4180000000p-4, -0x1.d89c7e0000000p-3, -0x1.b90b1a0000000p-3, -0x1.feac100000000p-5, -0x1.2e43c00000000p-5, 0x1.6718440000000p-4, 0x1.9602bc0000000p-4, 0x1.8410aa0000000p-3, -0x1.a6ada00000000p-3, -0x1.6b60880000000p-3, 0x1.89e8be0000000p-3, -0x1.581d600000000p-7, 0x1.a706d00000000p-6, -0x1.aa22300000000p-5, -0x1.cdb0ee0000000p-3, -0x1.0a7b680000000p-5, 0x1.2229540000000p-4, 0x1.b37fc80000000p-5, -0x1.0fdbc80000000p-3, 0x1.e6dc3c0000000p-4, -0x1.99b9900000000p-6, 0x1.5589aa0000000p-3, 0x1.d45f980000000p-5, -0x1.9941680000000p-3, 0x1.6fe1620000000p-3, -0x1.7d48180000000p-3, -0x1.b7e4000000000p-4, 0x1.942bc80000000p-5, 0x1.41db920000000p-3, -0x1.6ee0f80000000p-3, 0x1.cbd2880000000p-5, 0x1.53ee020000000p-3, 0x1.e2ae840000000p-4, 0x1.d4033a0000000p-3, 0x1.c991520000000p-3, -0x1.db1bb60000000p-3, -0x1.a3d3fe0000000p-3, 0x1.de67d60000000p-3, -0x1.cb6c4c0000000p-3, -0x1.3304b80000000p-3, -0x1.b855e40000000p-4, 0x1.144b420000000p-3, -0x1.6074600000000p-4, 0x1.3554400000000p-7, 0x1.a04d480000000p-5, 0x1.1c5c5e0000000p-3, -0x1.d9f90a0000000p-3, -0x1.b02d3c0000000p-3, -0x1.3b13c00000000p-6, -0x1.e768400000000p-8, -0x1.bc1d4a0000000p-3, 0x1.e51ddc0000000p-4, 0x1.2373380000000p-5, -0x1.9ae3100000000p-5, 0x1.5c2c300000000p-6, 0x1.f580d40000000p-4, 0x1.c27ade0000000p-3, -0x1.17c8840000000p-4, 0x1.f6b0600000000p-7, -0x1.7d9b400000000p-4, 0x1.b17b600000000p-7, -0x1.9046e00000000p-3, 0x1.53c9060000000p-3, -0x1.fe68f60000000p-4, -0x1.6896580000000p-3, 0x1.46539c0000000p-4, -0x1.bd463c0000000p-4, 0x1.cec6a20000000p-3, -0x1.47476c0000000p-4, -0x1.5f59380000000p-3}
, {0x1.3113200000000p-7, -0x1.4ae7f80000000p-3, 0x1.51fab80000000p-5, 0x1.5b5fee0000000p-3, -0x1.2c0cf80000000p-4, -0x1.a18df00000000p-4, 0x1.7d53900000000p-6, 0x1.3301f80000000p-5, 0x1.75721a0000000p-3, -0x1.0cc71e0000000p-3, 0x1.ca2f700000000p-6, 0x1.1529100000000p-6, 0x1.515d860000000p-3, 0x1.1270ec0000000p-4, -0x1.92f6800000000p-6, -0x1.f44f980000000p-4, 0x1.7b104e0000000p-3, 0x1.fa4e340000000p-4, -0x1.3ca7e60000000p-3, 0x1.8f19300000000p-6, -0x1.8fc8d00000000p-5, 0x1.83a7de0000000p-3, -0x1.2902180000000p-5, -0x1.693d980000000p-3, -0x1.8a789e0000000p-3, 0x1.5232d00000000p-6, -0x1.2c7c3a0000000p-3, -0x1.e19eb00000000p-5, -0x1.77f2f00000000p-4, -0x1.dde0a00000000p-5, 0x1.da07700000000p-6, -0x1.b383f40000000p-4, 0x1.62e3ae0000000p-3, 0x1.9cdec20000000p-3, 0x1.b157b20000000p-3, -0x1.cd566c0000000p-4, 0x1.3dc5b20000000p-3, 0x1.73054e0000000p-3, -0x1.00bb320000000p-3, -0x1.96ac200000000p-5, 0x1.edad6c0000000p-4, 0x1.cebc0a0000000p-3, 0x1.6fa5c40000000p-4, 0x1.d8adb80000000p-5, -0x1.a5e5be0000000p-3, -0x1.5433180000000p-3, -0x1.3d99a00000000p-3, 0x1.2409a00000000p-7, -0x1.8fc43c0000000p-4, -0x1.b050800000000p-4, 0x1.8d94d60000000p-3, -0x1.0361680000000p-3, -0x1.0a29980000000p-3, 0x1.fb74480000000p-5, 0x1.8effde0000000p-3, -0x1.e8e3e80000000p-5, 0x1.0508b00000000p-6, -0x1.09d2000000000p-5, 0x1.be564a0000000p-3, -0x1.ac39080000000p-4, -0x1.a5205c0000000p-4, -0x1.5377f40000000p-3, -0x1.bb25800000000p-3, 0x1.4634be0000000p-3, 0x1.7cf4a60000000p-3, -0x1.6080340000000p-3, -0x1.d2d0700000000p-6, -0x1.9801e40000000p-3, 0x1.97f7000000000p-9, -0x1.1f07980000000p-5, 0x1.3b0b000000000p-7, -0x1.02d8000000000p-13, 0x1.3630840000000p-4, -0x1.ae9f240000000p-3, -0x1.0d82100000000p-6, -0x1.6882cc0000000p-3, -0x1.61f6900000000p-3, 0x1.2185b20000000p-3, 0x1.98f7720000000p-3, 0x1.0c6d380000000p-5, -0x1.03f3c00000000p-7, 0x1.9c198e0000000p-3, -0x1.abbe0e0000000p-3, 0x1.de0efa0000000p-3, 0x1.88c19a0000000p-3, -0x1.a53db00000000p-4, -0x1.02c8800000000p-5, 0x1.1c38000000000p-11, -0x1.8ea9580000000p-4, 0x1.fc05940000000p-4, 0x1.c222000000000p-11, 0x1.b18dbe0000000p-3, 0x1.ba209c0000000p-4, 0x1.3014000000000p-8, 0x1.0713c80000000p-5, 0x1.c034a80000000p-5}
, {0x1.91b1080000000p-5, -0x1.4d6dcc0000000p-3, -0x1.bd62500000000p-3, -0x1.6b5f220000000p-3, -0x1.54e42c0000000p-4, -0x1.e584080000000p-5, 0x1.d9d3ee0000000p-3, -0x1.3c1dc00000000p-5, 0x1.c1ebf00000000p-6, -0x1.76f97c0000000p-4, 0x1.1d9d7e0000000p-3, 0x1.adc5920000000p-3, -0x1.8ea59c0000000p-4, -0x1.44d0e00000000p-6, 0x1.69b9800000000p-8, -0x1.2064800000000p-5, -0x1.b533980000000p-4, 0x1.b9c6a00000000p-7, -0x1.8979f40000000p-4, -0x1.8688de0000000p-3, 0x1.1f8d380000000p-5, 0x1.7d6cd00000000p-6, -0x1.e355720000000p-3, 0x1.360b1a0000000p-3, -0x1.56edc00000000p-8, 0x1.5086dc0000000p-4, -0x1.6309820000000p-3, -0x1.18f8100000000p-6, 0x1.f357a40000000p-4, -0x1.18c1140000000p-3, -0x1.4e580e0000000p-3, 0x1.2a5c820000000p-3, 0x1.6207c40000000p-4, -0x1.f1d4300000000p-5, -0x1.5bf5f00000000p-4, -0x1.88c4ac0000000p-4, -0x1.c251c40000000p-3, -0x1.1ef11e0000000p-3, 0x1.69091a0000000p-3, -0x1.d890f00000000p-6, -0x1.40bfdc0000000p-3, -0x1.be1be40000000p-4, -0x1.91b41c0000000p-4, -0x1.0558f40000000p-3, 0x1.ab43420000000p-3, -0x1.d3d73e0000000p-3, 0x1.1e66260000000p-3, -0x1.e6e8700000000p-3, 0x1.9150de0000000p-3, -0x1.7cf5200000000p-3, -0x1.7132e80000000p-5, -0x1.85da360000000p-3, 0x1.a8a9260000000p-3, 0x1.dec3000000000p-10, -0x1.d97d2c0000000p-3, 0x1.ba6cb80000000p-5, -0x1.97b2400000000p-3, -0x1.18b6c00000000p-3, -0x1.40f4c40000000p-3, -0x1.0b77d60000000p-3, -0x1.984e9e0000000p-3, -0x1.941e700000000p-5, -0x1.3436a40000000p-3, -0x1.ee46080000000p-4, 0x1.e97c700000000p-6, 0x1.50dc2e0000000p-3, -0x1.3d47640000000p-3, 0x1.854ef20000000p-3, -0x1.297db80000000p-3, -0x1.5122480000000p-3, -0x1.e654360000000p-4, -0x1.f525680000000p-5, 0x1.3d9e060000000p-3, -0x1.95ff020000000p-3, -0x1.c7f97a0000000p-3, -0x1.789b680000000p-3, -0x1.db4ada0000000p-3, 0x1.75a5f20000000p-3, -0x1.6d2b4c0000000p-3, -0x1.f8a9560000000p-4, 0x1.e44b2e0000000p-3, -0x1.a8f7200000000p-4, 0x1.8c95d20000000p-3, -0x1.19f6300000000p-3, -0x1.64d5e00000000p-3, -0x1.008b8e0000000p-3, 0x1.b620580000000p-5, -0x1.beb7d80000000p-3, 0x1.a82a200000000p-7, -0x1.9a127a0000000p-3, -0x1.4b10a00000000p-6, -0x1.6944680000000p-5, 0x1.33b0740000000p-4, 0x1.ae518e0000000p-3, -0x1.7809dc0000000p-3, 0x1.f165240000000p-4}
, {0x1.ee02c40000000p-4, -0x1.213ac00000000p-3, -0x1.d7b3300000000p-5, 0x1.7541000000000p-7, -0x1.d45b420000000p-3, -0x1.8973700000000p-6, 0x1.5dce6e0000000p-3, 0x1.b756860000000p-3, -0x1.17e36c0000000p-3, -0x1.319fb00000000p-3, 0x1.5d4a340000000p-4, -0x1.0fb5e80000000p-5, -0x1.0e8ce80000000p-3, 0x1.e18fe40000000p-4, 0x1.a40dd80000000p-5, 0x1.4dd95c0000000p-4, 0x1.3d0e420000000p-3, -0x1.24af800000000p-4, 0x1.363ab60000000p-3, -0x1.3903c60000000p-3, -0x1.173f6a0000000p-3, -0x1.1480d20000000p-3, 0x1.a870b80000000p-5, -0x1.eb583e0000000p-4, -0x1.d8fdd40000000p-3, 0x1.9a28360000000p-3, -0x1.ce4e840000000p-3, -0x1.6999480000000p-4, -0x1.edf0280000000p-5, 0x1.bf481a0000000p-3, 0x1.ad32d80000000p-5, -0x1.7f84f00000000p-5, 0x1.bf209e0000000p-3, 0x1.69b42a0000000p-3, -0x1.4f4c840000000p-4, -0x1.3a646c0000000p-3, -0x1.9e6b900000000p-3, 0x1.a1d2de0000000p-3, -0x1.05c5c40000000p-4, -0x1.58a7140000000p-4, -0x1.b709a80000000p-5, -0x1.f6b7a00000000p-5, 0x1.862dc40000000p-4, -0x1.494ba00000000p-5, 0x1.1bd02e0000000p-3, -0x1.20bac00000000p-5, -0x1.faae900000000p-4, 0x1.a739ca0000000p-3, -0x1.8a74ba0000000p-3, 0x1.55fbd60000000p-3, 0x1.0d1cca0000000p-3, -0x1.bd5c100000000p-5, -0x1.8c433c0000000p-4, -0x1.9bd3f60000000p-3, 0x1.3ffa400000000p-7, -0x1.ce5ec00000000p-5, -0x1.badb800000000p-9, 0x1.4acbfc0000000p-4, -0x1.6908b00000000p-5, 0x1.594e340000000p-4, -0x1.1c98c00000000p-5, 0x1.a265de0000000p-3, -0x1.8021100000000p-4, 0x1.177f8c0000000p-4, -0x1.ca41080000000p-4, 0x1.8403ca0000000p-3, 0x1.3887fa0000000p-3, -0x1.d2b8da0000000p-3, 0x1.e61d140000000p-4, 0x1.53889a0000000p-3, -0x1.469f600000000p-7, 0x1.64e1ec0000000p-4, -0x1.5a7d600000000p-3, -0x1.66fef00000000p-6, -0x1.4394740000000p-4, 0x1.e5db8e0000000p-3, -0x1.93403c0000000p-3, 0x1.e2f6a20000000p-3, -0x1.8440580000000p-4, -0x1.25e4380000000p-3, -0x1.44ef200000000p-3, -0x1.dab2500000000p-3, 0x1.04e2860000000p-3, 0x1.c22b640000000p-4, -0x1.7f4f280000000p-5, -0x1.c565440000000p-4, -0x1.0987d00000000p-3, -0x1.e037dc0000000p-4, 0x1.c58b4e0000000p-3, 0x1.0d648c0000000p-4, 0x1.c8e9c40000000p-4, 0x1.8617520000000p-3, -0x1.8afa0c0000000p-3, 0x1.290a7a0000000p-3, -0x1.e8d1e40000000p-4, 0x1.ebddf40000000p-4}
, {0x1.dae29e0000000p-3, -0x1.1905400000000p-5, 0x1.d17aaa0000000p-3, 0x1.bdd8780000000p-5, -0x1.dadd3a0000000p-3, 0x1.041d400000000p-7, -0x1.887fb00000000p-5, -0x1.dd593c0000000p-4, -0x1.137e000000000p-3, 0x1.828c360000000p-3, 0x1.4464680000000p-5, -0x1.e6f53a0000000p-3, -0x1.2954f40000000p-4, -0x1.14fda40000000p-3, 0x1.c7a0620000000p-3, 0x1.9b5e140000000p-4, -0x1.742d1e0000000p-3, 0x1.3ab5d00000000p-6, 0x1.a7879e0000000p-3, 0x1.71f5340000000p-4, 0x1.2f6ce40000000p-4, -0x1.f392740000000p-4, -0x1.2b39340000000p-3, 0x1.9881840000000p-4, 0x1.4bb49c0000000p-4, -0x1.52d0600000000p-7, 0x1.e20fb00000000p-6, 0x1.b41c580000000p-5, -0x1.b421180000000p-4, 0x1.f242180000000p-5, -0x1.bea5580000000p-3, -0x1.df1f100000000p-4, 0x1.792c8a0000000p-3, -0x1.9e18000000000p-6, 0x1.b0559c0000000p-4, 0x1.805f940000000p-4, 0x1.ac1f980000000p-5, 0x1.b8cc480000000p-5, -0x1.a9e9b00000000p-5, 0x1.4bab900000000p-6, -0x1.4edf200000000p-4, 0x1.56cab00000000p-6, -0x1.aa55860000000p-3, 0x1.b57fbe0000000p-3, -0x1.c22e140000000p-4, -0x1.08ea760000000p-3, 0x1.1d23e80000000p-5, -0x1.65c2c00000000p-6, 0x1.c1560e0000000p-3, 0x1.4f66680000000p-5, 0x1.49149e0000000p-3, -0x1.762ca20000000p-3, 0x1.11193c0000000p-4, 0x1.9cf2260000000p-3, 0x1.8159a40000000p-4, 0x1.8b46160000000p-3, -0x1.9b42260000000p-3, 0x1.eff4000000000p-8, 0x1.1a11340000000p-4, -0x1.56b6100000000p-4, 0x1.5c57de0000000p-3, -0x1.698f200000000p-6, -0x1.c084ec0000000p-4, 0x1.5d022e0000000p-3, 0x1.5858e80000000p-5, -0x1.50815c0000000p-3, -0x1.e2ce280000000p-3, -0x1.1121b00000000p-4, -0x1.6daec00000000p-5, 0x1.d5b1a80000000p-5, -0x1.daa1aa0000000p-3, -0x1.5e1b680000000p-5, 0x1.24a8720000000p-3, 0x1.e1a7b00000000p-6, 0x1.f5445c0000000p-4, -0x1.ffae500000000p-6, 0x1.d2c5640000000p-4, 0x1.8356320000000p-3, -0x1.24c9200000000p-3, 0x1.f93ba80000000p-5, -0x1.1771a40000000p-3, 0x1.6592180000000p-5, 0x1.d7d20e0000000p-3, -0x1.e8aa900000000p-6, 0x1.76a8100000000p-6, -0x1.ed62b40000000p-4, -0x1.acb8f80000000p-4, -0x1.969d600000000p-3, 0x1.26135c0000000p-4, -0x1.8cf5940000000p-3, 0x1.d7e6760000000p-3, 0x1.c0fa5e0000000p-3, 0x1.2ad4420000000p-3, 0x1.e339220000000p-3, -0x1.6ec9440000000p-4, -0x1.ed2cf00000000p-4}
, {-0x1.3032d80000000p-4, -0x1.3b00800000000p-5, 0x1.73556a0000000p-3, 0x1.ef330c0000000p-4, 0x1.6276000000000p-11, 0x1.cecd6a0000000p-3, 0x1.c97a280000000p-5, 0x1.9002c60000000p-3, -0x1.7e61c00000000p-8, 0x1.a99c000000000p-9, 0x1.6a73bc0000000p-4, -0x1.9164a00000000p-6, -0x1.25df000000000p-9, 0x1.7760140000000p-4, -0x1.ccd4e20000000p-3, 0x1.e53ebe0000000p-3, 0x1.9646de0000000p-3, -0x1.3bd81c0000000p-4, 0x1.ccbbac0000000p-4, 0x1.7e3d520000000p-3, -0x1.17d19c0000000p-4, -0x1.e067a60000000p-3, -0x1.484a200000000p-3, 0x1.e6b9140000000p-4, 0x1.4a63480000000p-5, -0x1.c339040000000p-4, -0x1.5e33e00000000p-3, -0x1.8272200000000p-4, 0x1.da5aca0000000p-3, -0x1.6734400000000p-8, -0x1.db54400000000p-4, 0x1.2ecebc0000000p-4, 0x1.a1cb660000000p-3, -0x1.6355700000000p-3, 0x1.06a42a0000000p-3, -0x1.27c16c0000000p-3, -0x1.fb72120000000p-4, 0x1.f34b8c0000000p-4, -0x1.c64d4a0000000p-3, -0x1.6e81c80000000p-5, 0x1.e549800000000p-9, 0x1.a0e6ae0000000p-3, -0x1.454b800000000p-3, 0x1.6e140a0000000p-3, -0x1.2aad400000000p-3, 0x1.1243d60000000p-3, 0x1.7238360000000p-3, 0x1.d2fd440000000p-4, -0x1.0e20380000000p-4, 0x1.084b520000000p-3, -0x1.65596a0000000p-3, -0x1.f771e00000000p-6, 0x1.cabf000000000p-8, -0x1.4096500000000p-4, -0x1.0bf1e40000000p-3, 0x1.a1d7140000000p-4, -0x1.b4f7380000000p-3, -0x1.8c05f80000000p-5, 0x1.6022e20000000p-3, 0x1.d5b5dc0000000p-4, 0x1.233f320000000p-3, -0x1.36de740000000p-3, -0x1.3718d80000000p-4, -0x1.b1b9800000000p-6, -0x1.5ecc240000000p-3, 0x1.69d4f40000000p-4, -0x1.aaad000000000p-5, -0x1.118e5c0000000p-4, 0x1.dcd4580000000p-5, -0x1.493e680000000p-3, 0x1.0246b80000000p-5, -0x1.27de2c0000000p-3, 0x1.3bb8640000000p-4, 0x1.e9ccc40000000p-4, 0x1.07ca300000000p-6, 0x1.64d20a0000000p-3, 0x1.a986620000000p-3, 0x1.7dc1da0000000p-3, -0x1.a8f2400000000p-8, -0x1.0e16c00000000p-6, 0x1.0eb9220000000p-3, -0x1.e57efc0000000p-4, -0x1.277ea00000000p-6, -0x1.14e2740000000p-3, -0x1.e3f3720000000p-4, -0x1.ee0fda0000000p-4, 0x1.10c83e0000000p-3, -0x1.3069000000000p-3, 0x1.3a27c40000000p-4, -0x1.ff03d80000000p-4, -0x1.e98fdc0000000p-4, -0x1.81648c0000000p-3, 0x1.32e0420000000p-3, -0x1.ae12000000000p-3, -0x1.6c25000000000p-8, -0x1.dccb880000000p-3}
, {0x1.5857ca0000000p-3, -0x1.b67de00000000p-4, -0x1.0626980000000p-4, -0x1.5f1adc0000000p-4, -0x1.3ddbf80000000p-5, -0x1.1eb08c0000000p-3, -0x1.87fe840000000p-3, 0x1.8fdd740000000p-4, -0x1.9dcd400000000p-8, 0x1.07c2140000000p-4, 0x1.6e057e0000000p-3, -0x1.b835000000000p-7, -0x1.60f0180000000p-5, 0x1.6490500000000p-6, 0x1.9a1b6e0000000p-3, -0x1.40fb300000000p-3, 0x1.cbc34c0000000p-4, 0x1.d987860000000p-3, 0x1.d009c40000000p-4, -0x1.3f3e780000000p-5, 0x1.f317540000000p-4, -0x1.39c4500000000p-5, -0x1.beea020000000p-3, -0x1.d41d000000000p-8, -0x1.8339280000000p-5, -0x1.708f800000000p-9, -0x1.790aee0000000p-3, -0x1.98aa280000000p-4, 0x1.69b7900000000p-6, -0x1.60de280000000p-3, -0x1.eadde60000000p-4, 0x1.6a1a860000000p-3, -0x1.8461000000000p-8, 0x1.588a280000000p-5, 0x1.5e59760000000p-3, -0x1.2bf6700000000p-4, 0x1.16cf620000000p-3, 0x1.340fb00000000p-6, 0x1.1185440000000p-4, 0x1.3006c00000000p-8, -0x1.ec36380000000p-4, -0x1.1c35800000000p-3, 0x1.46f0d00000000p-6, -0x1.95d3fa0000000p-3, -0x1.6b23ec0000000p-4, 0x1.5e6f6a0000000p-3, -0x1.7eb4680000000p-5, 0x1.631ca40000000p-4, 0x1.ac28660000000p-3, 0x1.1c8fb40000000p-4, 0x1.e44d180000000p-5, -0x1.30d2400000000p-4, 0x1.277c820000000p-3, -0x1.9426b80000000p-3, -0x1.b03a060000000p-3, -0x1.e235be0000000p-3, -0x1.71dfe40000000p-3, -0x1.88aaea0000000p-3, 0x1.300ad40000000p-4, -0x1.ac825c0000000p-3, 0x1.007da20000000p-3, 0x1.dcdf820000000p-3, -0x1.16d7a00000000p-3, 0x1.48c01a0000000p-3, -0x1.e463440000000p-3, 0x1.3885340000000p-4, -0x1.3bf0e80000000p-5, 0x1.ed93e40000000p-4, -0x1.613a600000000p-7, -0x1.755fca0000000p-3, 0x1.b9d0a80000000p-5, -0x1.9e99180000000p-3, 0x1.bd8a840000000p-4, -0x1.251df00000000p-5, 0x1.afb6640000000p-4, -0x1.c5cd780000000p-4, 0x1.210ba40000000p-4, 0x1.4b49240000000p-4, -0x1.414b540000000p-3, -0x1.9a236e0000000p-3, 0x1.58aaa40000000p-4, -0x1.ce4b3e0000000p-3, -0x1.5cfecc0000000p-4, 0x1.2ea5ae0000000p-3, 0x1.43f2660000000p-3, -0x1.02be080000000p-5, 0x1.86c5080000000p-5, 0x1.3113b60000000p-3, 0x1.eca48c0000000p-4, 0x1.bfa3900000000p-6, 0x1.42ddfc0000000p-4, 0x1.4c31220000000p-3, 0x1.47c8b20000000p-3, -0x1.c9c0220000000p-3, -0x1.5da44a0000000p-3, -0x1.5572a00000000p-7}
, {-0x1.45b0e00000000p-4, -0x1.a8efa00000000p-5, -0x1.14cb700000000p-4, 0x1.e60cc20000000p-3, 0x1.7e6dc60000000p-3, 0x1.51aad00000000p-6, -0x1.3b43680000000p-4, 0x1.b336840000000p-4, -0x1.332bd40000000p-4, -0x1.21c8020000000p-3, -0x1.2251f00000000p-3, 0x1.f8f1240000000p-4, -0x1.c685600000000p-3, 0x1.dda0600000000p-7, -0x1.49712c0000000p-3, 0x1.1348e40000000p-4, -0x1.e04a200000000p-5, -0x1.ff82a80000000p-5, 0x1.302af00000000p-6, -0x1.d452f80000000p-5, 0x1.5988ae0000000p-3, -0x1.edf21c0000000p-4, 0x1.3f20300000000p-6, -0x1.d8b8a00000000p-6, 0x1.8996aa0000000p-3, 0x1.3d37440000000p-4, -0x1.a801200000000p-7, 0x1.3cc6bc0000000p-4, 0x1.79540e0000000p-3, -0x1.381adc0000000p-4, -0x1.e1c3500000000p-6, -0x1.e2aa780000000p-5, -0x1.2a20f80000000p-4, 0x1.0e11940000000p-4, 0x1.ae6ed20000000p-3, -0x1.58ad800000000p-3, 0x1.4cb6240000000p-4, -0x1.0eba1c0000000p-3, -0x1.0de9cc0000000p-4, 0x1.842a120000000p-3, -0x1.bdb4e00000000p-4, -0x1.434d140000000p-3, -0x1.99f86c0000000p-4, 0x1.6997d20000000p-3, -0x1.b74b760000000p-3, -0x1.e6c7f60000000p-4, -0x1.8f4a200000000p-5, 0x1.f460680000000p-5, -0x1.4f920c0000000p-4, 0x1.8269020000000p-3, -0x1.0642b00000000p-5, -0x1.ba19d20000000p-3, -0x1.1b506a0000000p-3, -0x1.0e89320000000p-3, 0x1.7720ea0000000p-3, 0x1.66e5120000000p-3, -0x1.aefee80000000p-3, 0x1.b41a7c0000000p-4, 0x1.5cb4740000000p-4, -0x1.0e65340000000p-4, 0x1.b0dfd20000000p-3, -0x1.4f1a400000000p-3, -0x1.956d300000000p-6, -0x1.b627180000000p-3, -0x1.facd9c0000000p-4, 0x1.d9bd480000000p-5, -0x1.8299c00000000p-4, 0x1.525ad40000000p-4, 0x1.6beafe0000000p-3, 0x1.bee5780000000p-5, 0x1.2258bc0000000p-4, -0x1.8ad8b40000000p-3, -0x1.ff2fea0000000p-4, -0x1.4f4e440000000p-3, -0x1.4d1b180000000p-4, 0x1.c3a8e60000000p-3, -0x1.9fb6440000000p-3, -0x1.6f5e5a0000000p-3, 0x1.0639760000000p-3, -0x1.a600b80000000p-3, 0x1.8bd9a20000000p-3, -0x1.b9ed500000000p-5, 0x1.95697a0000000p-3, -0x1.2a84cc0000000p-3, -0x1.8501980000000p-5, 0x1.9883040000000p-4, -0x1.27e8c40000000p-4, 0x1.bed67c0000000p-4, 0x1.1d537e0000000p-3, 0x1.52a7840000000p-4, 0x1.26e7d60000000p-3, -0x1.bc06500000000p-5, 0x1.d582b00000000p-6, -0x1.307e640000000p-4, -0x1.e5f2040000000p-4, 0x1.f0fe1c0000000p-4}
, {0x1.aa4f300000000p-6, 0x1.c747fc0000000p-4, 0x1.683c260000000p-3, -0x1.14c9a80000000p-4, 0x1.2eb9c40000000p-4, 0x1.2b7e020000000p-3, 0x1.bb4f1c0000000p-4, -0x1.b957a00000000p-4, 0x1.0b95920000000p-3, -0x1.539ad00000000p-6, 0x1.2005c80000000p-5, 0x1.e2e0500000000p-6, 0x1.0caaac0000000p-4, 0x1.e3c1ba0000000p-3, 0x1.2d3fb80000000p-5, -0x1.d728280000000p-3, 0x1.81263c0000000p-4, -0x1.1b76d40000000p-4, 0x1.4d049a0000000p-3, 0x1.e48eb80000000p-5, -0x1.a907d00000000p-3, 0x1.2578860000000p-3, 0x1.d0ad8c0000000p-4, 0x1.2018460000000p-3, -0x1.7f58180000000p-4, -0x1.4efdd40000000p-4, -0x1.5a2e2c0000000p-3, 0x1.3ea0d20000000p-3, 0x1.76ff860000000p-3, -0x1.cb4b400000000p-5, 0x1.b583580000000p-5, 0x1.0e05280000000p-5, -0x1.09b4080000000p-4, -0x1.cf8e180000000p-3, 0x1.a1c6be0000000p-3, 0x1.789b000000000p-8, -0x1.70bdfc0000000p-3, -0x1.9be4140000000p-4, 0x1.dfed360000000p-3, 0x1.373b080000000p-5, -0x1.3c17100000000p-3, -0x1.6cd8080000000p-5, -0x1.a758a00000000p-7, -0x1.9bc5c00000000p-4, 0x1.73bce80000000p-5, -0x1.9aae0c0000000p-3, 0x1.e529340000000p-4, -0x1.7ffa180000000p-5, 0x1.084f3c0000000p-4, 0x1.4a36840000000p-4, 0x1.9e97f80000000p-5, 0x1.99bc620000000p-3, 0x1.6c76380000000p-5, -0x1.8e3ca80000000p-3, 0x1.44bdcc0000000p-4, 0x1.a755180000000p-5, 0x1.c0b7ac0000000p-4, -0x1.94a7040000000p-3, -0x1.95cbd40000000p-4, 0x1.ab63d00000000p-6, -0x1.e5ffa00000000p-5, -0x1.8fbb7c0000000p-3, 0x1.2a1d380000000p-5, -0x1.6e3ef20000000p-3, 0x1.13c6da0000000p-3, 0x1.200d220000000p-3, 0x1.49700c0000000p-4, 0x1.d33a800000000p-8, -0x1.835e280000000p-5, 0x1.b727840000000p-4, -0x1.55cc2a0000000p-3, 0x1.2b3a360000000p-3, -0x1.c9c24e0000000p-3, -0x1.5137920000000p-3, 0x1.a59bc60000000p-3, 0x1.c717e00000000p-7, 0x1.c65eb20000000p-3, 0x1.9ec2e00000000p-7, 0x1.7b118c0000000p-4, -0x1.1c90580000000p-3, 0x1.794a040000000p-4, -0x1.990dd80000000p-4, 0x1.5dc42a0000000p-3, -0x1.a18cd00000000p-5, -0x1.2c5ccc0000000p-3, 0x1.0b7af00000000p-6, 0x1.1bbe180000000p-5, 0x1.0110860000000p-3, -0x1.4346a80000000p-3, -0x1.c2ceb20000000p-3, 0x1.88489a0000000p-3, 0x1.b07da80000000p-5, 0x1.2edf940000000p-4, -0x1.9b6bc00000000p-5, -0x1.c3acea0000000p-3, -0x1.b937880000000p-3}
}
;

#undef INPUT_SAMPLES
#undef FC_UNITS