/**
  ******************************************************************************
  * @file    weights/fc.cc
  * @author  Pierre-Emmanuel Novac <penovac@unice.fr>, LEAT, CNRS, Université Côte d'Azur, France
  * @version 1.0.0
  * @date    24 march 2020
  * @brief   Template generating plain C code for the implementation of Convolutional Neural Networks on MCU
  */

#include <stdint.h>

#define INPUT_SAMPLES 224
#define FC_UNITS 10


const float dense_3_bias[FC_UNITS] = {0x0.0p+0, 0x0.0p+0, 0x0.0p+0, 0x0.0p+0, 0x0.0p+0, 0x0.0p+0, 0x0.0p+0, 0x0.0p+0, 0x0.0p+0, 0x0.0p+0}
;

const float dense_3_kernel[FC_UNITS][INPUT_SAMPLES] = {{0x1.37d8080000000p-3, 0x1.a87dd00000000p-4, -0x1.484dc80000000p-4, -0x1.de6fc80000000p-4, 0x1.2526180000000p-4, 0x1.a680800000000p-7, -0x1.3c59880000000p-5, -0x1.2f4b600000000p-3, 0x1.634ee00000000p-4, -0x1.c619000000000p-6, 0x1.d5b4000000000p-4, 0x1.408e400000000p-3, -0x1.8f3c260000000p-4, -0x1.5777a00000000p-7, -0x1.3034100000000p-3, 0x1.2fe12c0000000p-3, 0x1.5f6ec40000000p-4, -0x1.aa0ce00000000p-6, 0x1.3e1ee40000000p-4, 0x1.1fac780000000p-5, 0x1.3dc1040000000p-4, -0x1.37010e0000000p-3, 0x1.4b1fd00000000p-6, 0x1.2b21e40000000p-3, 0x1.c267a00000000p-4, 0x1.27034c0000000p-3, -0x1.3367a00000000p-5, -0x1.c025b00000000p-4, -0x1.56f6c80000000p-4, -0x1.19b6460000000p-4, -0x1.4dc26a0000000p-4, -0x1.9a72a80000000p-5, 0x1.ff7b700000000p-4, 0x1.5f81940000000p-4, -0x1.cfa7ca0000000p-4, -0x1.0a07200000000p-7, 0x1.12ea840000000p-3, -0x1.03f5040000000p-4, 0x1.ac00900000000p-5, -0x1.ba24fc0000000p-5, 0x1.a06ee80000000p-4, -0x1.1975b80000000p-3, 0x1.3531440000000p-4, -0x1.10d9f00000000p-4, 0x1.7049380000000p-5, 0x1.5325800000000p-8, 0x1.b6ae300000000p-4, 0x1.58b0b00000000p-6, 0x1.e127e80000000p-4, -0x1.3bb1c20000000p-3, 0x1.06f6d40000000p-3, 0x1.7a04f00000000p-6, 0x1.a15ce00000000p-5, 0x1.4425740000000p-4, -0x1.3991fc0000000p-3, -0x1.7ab95a0000000p-4, 0x1.e296c80000000p-5, -0x1.438d200000000p-3, 0x1.0cb4800000000p-9, 0x1.283a500000000p-3, -0x1.a463000000000p-10, 0x1.0e90e00000000p-3, -0x1.4324c40000000p-3, 0x1.f21df00000000p-4, 0x1.3816580000000p-3, -0x1.9a37e00000000p-5, -0x1.cb03840000000p-4, -0x1.28ebd00000000p-3, -0x1.871aee0000000p-4, -0x1.b27d9c0000000p-4, 0x1.d4ece00000000p-7, 0x1.d13a080000000p-5, -0x1.3f42540000000p-3, 0x1.aa7f300000000p-4, -0x1.aef8200000000p-5, -0x1.9b80380000000p-4, 0x1.06f6500000000p-4, 0x1.ee94200000000p-4, -0x1.995f400000000p-6, -0x1.caff980000000p-4, 0x1.d2d5d00000000p-5, 0x1.be14580000000p-5, -0x1.cada140000000p-5, 0x1.1c31e80000000p-3, -0x1.f1b4a00000000p-7, 0x1.870b980000000p-4, 0x1.4a3e000000000p-8, -0x1.3e47540000000p-3, 0x1.1e3ab80000000p-4, -0x1.0f387c0000000p-3, 0x1.1f208c0000000p-4, -0x1.253a4c0000000p-3, 0x1.29d0380000000p-5, 0x1.8f78400000000p-6, -0x1.e1a9b00000000p-6, 0x1.0763a80000000p-3, -0x1.4b096c0000000p-4, -0x1.54a7780000000p-4, -0x1.4fe0000000000p-12, 0x1.8c71500000000p-5, -0x1.30fdae0000000p-4, -0x1.9806a00000000p-5, 0x1.8bf4780000000p-4, 0x1.2c457c0000000p-3, 0x1.6a429c0000000p-4, 0x1.24aaec0000000p-4, -0x1.06a2900000000p-3, -0x1.0e0dc00000000p-7, 0x1.d7eb000000000p-9, 0x1.340ad00000000p-6, 0x1.9093600000000p-4, 0x1.7dfcc80000000p-4, -0x1.8719000000000p-8, -0x1.3632ac0000000p-4, -0x1.f9f0380000000p-5, 0x1.0593e00000000p-3, 0x1.fb5ba00000000p-4, -0x1.ad7c280000000p-5, -0x1.cf24500000000p-6, 0x1.1cc4c80000000p-3, 0x1.0eaf700000000p-6, 0x1.3e9e280000000p-5, 0x1.33a3300000000p-6, -0x1.cffe9e0000000p-4, -0x1.2980ac0000000p-3, -0x1.2f14bc0000000p-3, -0x1.de7bdc0000000p-5, -0x1.30d5820000000p-3, 0x1.2a89200000000p-3, 0x1.7774000000000p-7, -0x1.0ff4980000000p-5, -0x1.a545800000000p-6, 0x1.f46a500000000p-4, -0x1.a579440000000p-4, -0x1.4801000000000p-10, 0x1.29ab240000000p-4, -0x1.2300760000000p-3, -0x1.f95f040000000p-4, -0x1.8bc5f60000000p-4, 0x1.9cfc100000000p-5, 0x1.e00bc80000000p-5, -0x1.25a69a0000000p-3, -0x1.c27be40000000p-4, 0x1.586da40000000p-4, -0x1.a8d6e00000000p-6, 0x1.fd01400000000p-8, -0x1.49704a0000000p-4, 0x1.ed29800000000p-5, -0x1.244b280000000p-5, 0x1.26695c0000000p-3, 0x1.da67a80000000p-5, 0x1.c5c4000000000p-12, 0x1.a821800000000p-4, -0x1.3d4e2a0000000p-4, -0x1.413b400000000p-5, 0x1.10bd180000000p-3, 0x1.d815500000000p-4, 0x1.3cec100000000p-3, 0x1.63c1e00000000p-6, -0x1.f29ee00000000p-5, 0x1.4209600000000p-3, -0x1.9c4a400000000p-8, -0x1.271c4c0000000p-3, -0x1.c38f3c0000000p-5, -0x1.3451ce0000000p-3, 0x1.5943f00000000p-5, 0x1.b20e700000000p-4, -0x1.14db840000000p-3, -0x1.8df3880000000p-5, 0x1.c4da880000000p-5, 0x1.ed01c00000000p-4, -0x1.a1e2800000000p-9, 0x1.25906c0000000p-4, -0x1.52f5340000000p-5, 0x1.20f1780000000p-4, -0x1.3b9ff60000000p-3, 0x1.e269780000000p-4, 0x1.9620900000000p-4, -0x1.6a53d40000000p-5, 0x1.7984e00000000p-6, -0x1.0df7580000000p-3, 0x1.3939700000000p-5, -0x1.7c9ed20000000p-4, 0x1.c29e400000000p-5, 0x1.cb37c00000000p-4, 0x1.36f0240000000p-4, -0x1.d352940000000p-4, -0x1.c9239c0000000p-4, 0x1.1722b40000000p-4, -0x1.4ef4f00000000p-5, -0x1.29eff60000000p-3, 0x1.0b806c0000000p-3, 0x1.2fdc700000000p-3, -0x1.99a69c0000000p-4, 0x1.43f4e40000000p-3, 0x1.441c380000000p-3, -0x1.46fc080000000p-4, 0x1.1bc2540000000p-3, -0x1.3d60b00000000p-6, -0x1.59e3a00000000p-4, -0x1.344fce0000000p-3, -0x1.173afc0000000p-3, -0x1.74f3c40000000p-5, -0x1.4c1c000000000p-11, -0x1.d3eda00000000p-7, 0x1.32949c0000000p-4, -0x1.05ce660000000p-4, 0x1.c25fa00000000p-5, 0x1.98abb00000000p-4, -0x1.bca7400000000p-5, -0x1.f6d2e00000000p-6, 0x1.6b71dc0000000p-4, 0x1.cc1f000000000p-5, -0x1.cee21c0000000p-5, 0x1.d9a7e80000000p-4, -0x1.5f04200000000p-7, 0x1.b42e180000000p-5, -0x1.1766300000000p-6, 0x1.0227c00000000p-7, -0x1.0a43de0000000p-4, -0x1.e0b3ae0000000p-4, 0x1.39920c0000000p-4, 0x1.135eb00000000p-4, 0x1.c867a00000000p-4}
, {-0x1.53bbce0000000p-4, -0x1.b869400000000p-6, -0x1.3fb59e0000000p-4, 0x1.3228d00000000p-6, -0x1.163b900000000p-4, 0x1.cb0cc00000000p-8, -0x1.9a9ee20000000p-4, 0x1.8bee500000000p-4, -0x1.97b0540000000p-4, -0x1.e95d180000000p-4, -0x1.864c5c0000000p-4, -0x1.e613dc0000000p-4, 0x1.3edc000000000p-4, 0x1.c7bd600000000p-6, 0x1.01e96c0000000p-3, -0x1.00eb4c0000000p-3, 0x1.8645e00000000p-5, -0x1.e9fc400000000p-6, -0x1.6b7dc00000000p-4, 0x1.1cd1780000000p-4, -0x1.65a3580000000p-5, -0x1.d4923c0000000p-5, 0x1.295d8c0000000p-3, -0x1.41181c0000000p-5, -0x1.b0d2980000000p-5, -0x1.3e05080000000p-3, 0x1.41ea500000000p-3, 0x1.70eaf00000000p-6, 0x1.c966280000000p-4, -0x1.34f5220000000p-4, -0x1.ed48a80000000p-4, -0x1.4d2e100000000p-4, -0x1.ec7e380000000p-4, -0x1.4a83400000000p-6, 0x1.45eab00000000p-4, 0x1.22d5c00000000p-3, 0x1.96bc480000000p-5, -0x1.23074e0000000p-4, -0x1.6ee59c0000000p-4, 0x1.c657a00000000p-7, -0x1.2f1fe60000000p-3, 0x1.2e8e800000000p-8, 0x1.4aa3fc0000000p-4, 0x1.39775c0000000p-3, 0x1.103a000000000p-6, 0x1.12d4140000000p-3, -0x1.df7d600000000p-7, -0x1.f9f2540000000p-4, 0x1.b2a5200000000p-4, 0x1.60a89c0000000p-4, 0x1.c348100000000p-4, 0x1.7683500000000p-6, 0x1.4716580000000p-3, -0x1.31bb400000000p-6, 0x1.30e2a80000000p-3, -0x1.2fa2820000000p-3, -0x1.0828600000000p-3, -0x1.2fa5780000000p-3, -0x1.ebb8900000000p-6, 0x1.b5e2300000000p-5, 0x1.00bd740000000p-3, -0x1.4eced60000000p-4, 0x1.3e8b580000000p-4, -0x1.5b370c0000000p-5, -0x1.421d7e0000000p-3, -0x1.3a91c00000000p-8, 0x1.0257580000000p-3, -0x1.2e1d220000000p-3, 0x1.c4b3080000000p-4, -0x1.44db3c0000000p-3, -0x1.e417a00000000p-7, 0x1.51aba00000000p-7, 0x1.a1de980000000p-4, -0x1.4487e00000000p-7, -0x1.0665140000000p-3, -0x1.18d5a20000000p-3, -0x1.1716700000000p-6, -0x1.64d6240000000p-5, 0x1.dde2000000000p-9, -0x1.e735380000000p-4, -0x1.4e96000000000p-10, -0x1.9f10780000000p-4, 0x1.7340980000000p-4, -0x1.4246e80000000p-3, 0x1.45ff200000000p-6, 0x1.1349040000000p-3, -0x1.5b640c0000000p-5, 0x1.7bece00000000p-4, -0x1.119a6a0000000p-3, -0x1.07e6820000000p-3, 0x1.abcdb80000000p-4, 0x1.9dd6600000000p-5, 0x1.b0f8380000000p-4, -0x1.a35d080000000p-5, -0x1.9fdd000000000p-10, 0x1.47d2800000000p-8, 0x1.a7ccf80000000p-5, -0x1.9eee540000000p-4, -0x1.c389c00000000p-4, -0x1.912f000000000p-6, 0x1.50b91c0000000p-4, -0x1.5b69d00000000p-5, 0x1.73ebe00000000p-6, -0x1.2c55680000000p-3, -0x1.6c7e500000000p-4, 0x1.7bd8f00000000p-5, -0x1.5e86e00000000p-7, 0x1.b501e00000000p-4, 0x1.4d16000000000p-9, 0x1.0d4c680000000p-3, -0x1.3c7f700000000p-3, -0x1.9c10800000000p-9, -0x1.2273f20000000p-3, 0x1.3ce8580000000p-3, 0x1.c610400000000p-8, -0x1.e68ea40000000p-5, -0x1.c0912e0000000p-4, 0x1.e496400000000p-5, -0x1.1e99980000000p-5, 0x1.0aeca40000000p-3, 0x1.2b87900000000p-3, -0x1.1a6d420000000p-3, 0x1.ac4e780000000p-4, -0x1.dba5340000000p-4, -0x1.51d9e00000000p-6, -0x1.d111e00000000p-4, 0x1.1abe180000000p-5, -0x1.af85c00000000p-8, 0x1.1474d00000000p-5, 0x1.bdba080000000p-4, 0x1.36b2680000000p-3, 0x1.ef0af00000000p-4, -0x1.b9ac600000000p-6, 0x1.7617280000000p-4, -0x1.193b200000000p-5, 0x1.3468440000000p-4, -0x1.18e06c0000000p-3, -0x1.037d680000000p-3, 0x1.fc26580000000p-5, 0x1.f60fe80000000p-5, 0x1.27ba340000000p-3, -0x1.2c66aa0000000p-3, -0x1.f2539c0000000p-4, -0x1.8fc78a0000000p-4, -0x1.21ed0e0000000p-3, 0x1.439dfc0000000p-4, 0x1.7e28e00000000p-6, 0x1.7e8dc00000000p-8, -0x1.5904ec0000000p-4, 0x1.b5fb600000000p-4, -0x1.8432e40000000p-5, -0x1.17e4100000000p-3, -0x1.2063c80000000p-3, 0x1.07ea300000000p-3, -0x1.3293a00000000p-7, 0x1.87b8b00000000p-4, 0x1.358d800000000p-8, -0x1.41dd700000000p-6, 0x1.6f4cb00000000p-6, 0x1.ccb8800000000p-4, 0x1.6579400000000p-6, -0x1.cb02000000000p-10, -0x1.2b53000000000p-4, -0x1.10ba980000000p-5, -0x1.06dff40000000p-3, 0x1.e73bf00000000p-4, 0x1.1c1e240000000p-3, 0x1.9184a00000000p-4, -0x1.93cb9c0000000p-5, 0x1.0a8a640000000p-3, -0x1.0381680000000p-5, 0x1.aab3980000000p-4, -0x1.bc68900000000p-4, -0x1.7fd0800000000p-8, -0x1.8f11e00000000p-4, 0x1.d49f080000000p-4, 0x1.bf08800000000p-8, -0x1.ba21380000000p-5, -0x1.00d8be0000000p-4, -0x1.f564a40000000p-4, 0x1.aa85100000000p-4, 0x1.333dcc0000000p-3, -0x1.e076500000000p-4, -0x1.7063640000000p-5, 0x1.0ae4700000000p-4, 0x1.d6c0800000000p-9, 0x1.353b640000000p-3, -0x1.6340100000000p-5, -0x1.591d200000000p-6, 0x1.bbabf00000000p-5, -0x1.2d7c0c0000000p-3, 0x1.6b7a380000000p-4, -0x1.688f4e0000000p-4, 0x1.18ffa40000000p-3, -0x1.0153700000000p-3, -0x1.0d2e960000000p-3, -0x1.0141ec0000000p-3, -0x1.5429b00000000p-4, 0x1.384a580000000p-3, -0x1.2e16080000000p-3, -0x1.2358b00000000p-3, 0x1.d791900000000p-4, -0x1.d046500000000p-4, -0x1.743d2e0000000p-4, -0x1.44b9580000000p-3, -0x1.6cba480000000p-4, 0x1.6740000000000p-13, 0x1.d97d880000000p-4, -0x1.ca73540000000p-4, -0x1.37a8500000000p-6, 0x1.289cb00000000p-4, -0x1.3b1c2e0000000p-3, -0x1.da17b00000000p-6, 0x1.07f1c00000000p-5, 0x1.234d500000000p-3, 0x1.c552c00000000p-4, 0x1.9568d00000000p-4, 0x1.58df180000000p-4, 0x1.f110b80000000p-5, 0x1.be8fa80000000p-5, -0x1.3d2b900000000p-3, -0x1.e45b5a0000000p-4, 0x1.5692380000000p-4, -0x1.57e4740000000p-4}
, {0x1.1c2bb00000000p-6, -0x1.53bc500000000p-6, 0x1.68e4f00000000p-4, -0x1.439eb40000000p-5, -0x1.19deb40000000p-3, 0x1.c5afe00000000p-7, 0x1.b146480000000p-4, -0x1.74b6f00000000p-6, 0x1.6ef6a00000000p-4, -0x1.3dfb200000000p-7, -0x1.ce3d040000000p-5, 0x1.eef0000000000p-11, -0x1.ca4e400000000p-4, 0x1.e257000000000p-6, -0x1.cc36000000000p-7, 0x1.5c05600000000p-5, 0x1.c2e8b00000000p-6, 0x1.9b8f880000000p-4, 0x1.7468a00000000p-5, -0x1.142ae00000000p-7, -0x1.c9f5000000000p-6, 0x1.0f1bd80000000p-3, 0x1.35a33c0000000p-3, -0x1.05bc6c0000000p-4, 0x1.8cc4180000000p-5, -0x1.4f23e60000000p-4, -0x1.b664300000000p-6, -0x1.797fa80000000p-5, 0x1.47ebb00000000p-6, 0x1.3db3e00000000p-5, -0x1.2f64c60000000p-3, -0x1.0140580000000p-4, 0x1.2577b00000000p-3, -0x1.cd231c0000000p-5, 0x1.78fed80000000p-5, 0x1.411ff40000000p-3, 0x1.bd90600000000p-7, -0x1.4f38320000000p-4, 0x1.410e3c0000000p-3, 0x1.0f4c100000000p-4, -0x1.a8bedc0000000p-5, 0x1.2933480000000p-3, 0x1.fd1c380000000p-5, -0x1.b571600000000p-5, 0x1.3f6cec0000000p-4, -0x1.76c36c0000000p-5, -0x1.c4d6740000000p-5, -0x1.5b20280000000p-5, -0x1.0ac1260000000p-3, -0x1.e92a400000000p-7, 0x1.454f300000000p-3, 0x1.249ca00000000p-4, 0x1.a540500000000p-4, -0x1.58d3b00000000p-5, 0x1.977d900000000p-6, -0x1.d1230c0000000p-4, 0x1.d378380000000p-4, 0x1.ef4da00000000p-5, 0x1.09ea800000000p-3, 0x1.2a74000000000p-9, -0x1.a60ed00000000p-6, 0x1.27cbec0000000p-4, 0x1.0765300000000p-3, 0x1.e305f80000000p-4, 0x1.f144980000000p-4, -0x1.21b3300000000p-4, -0x1.25534c0000000p-3, -0x1.58efb60000000p-4, 0x1.f5e9280000000p-4, -0x1.38d1640000000p-3, 0x1.b1d9680000000p-4, -0x1.639d600000000p-7, 0x1.30494c0000000p-4, 0x1.4246f00000000p-4, 0x1.1fee000000000p-11, -0x1.0679600000000p-4, 0x1.3d53280000000p-5, -0x1.0eb3000000000p-3, 0x1.88d8d00000000p-6, 0x1.127fd80000000p-5, 0x1.28facc0000000p-3, -0x1.1d10f60000000p-4, 0x1.02b9c80000000p-3, -0x1.5b689e0000000p-4, 0x1.bf5b700000000p-4, 0x1.e346d00000000p-4, 0x1.0e9f9c0000000p-4, -0x1.30ab760000000p-4, 0x1.42f0980000000p-3, -0x1.3cf4840000000p-3, -0x1.5ec3000000000p-7, -0x1.c9b3b00000000p-4, -0x1.3b099a0000000p-3, 0x1.85cc980000000p-5, 0x1.4158280000000p-5, 0x1.c901980000000p-4, 0x1.85d9f00000000p-6, 0x1.44b8c80000000p-3, 0x1.100ba80000000p-5, -0x1.0760ae0000000p-3, -0x1.1d805e0000000p-4, -0x1.f305980000000p-5, 0x1.1e42a00000000p-3, -0x1.252cb40000000p-5, 0x1.bd4b400000000p-7, 0x1.cc8b900000000p-4, 0x1.39b11c0000000p-4, 0x1.5d70e80000000p-4, 0x1.38d4c00000000p-3, -0x1.ca7c040000000p-5, -0x1.cb95e00000000p-4, 0x1.55ebb00000000p-4, 0x1.1d9b400000000p-8, -0x1.4373000000000p-8, 0x1.685be80000000p-4, -0x1.cb38700000000p-4, 0x1.0224e00000000p-6, -0x1.256c980000000p-3, 0x1.e3f2200000000p-7, 0x1.1a68b40000000p-3, -0x1.df592c0000000p-5, 0x1.6282e00000000p-7, -0x1.4787e00000000p-7, -0x1.442bac0000000p-3, 0x1.425a100000000p-6, 0x1.887e400000000p-4, -0x1.fbcb1c0000000p-4, 0x1.391d180000000p-3, -0x1.169a800000000p-9, -0x1.0992440000000p-3, 0x1.510d100000000p-6, -0x1.0cba460000000p-3, 0x1.d5b4c80000000p-5, -0x1.2411e60000000p-3, 0x1.5b28280000000p-4, 0x1.3a20b00000000p-6, -0x1.5074f00000000p-6, 0x1.cef1280000000p-5, 0x1.f770680000000p-4, 0x1.ee0c880000000p-4, -0x1.3fef8c0000000p-5, -0x1.b86de00000000p-4, 0x1.ee10100000000p-4, 0x1.8583d00000000p-5, 0x1.19983c0000000p-3, 0x1.0eaa300000000p-6, 0x1.17a7600000000p-5, 0x1.d5b3180000000p-4, 0x1.26d5c40000000p-3, -0x1.0710140000000p-3, 0x1.5fb2000000000p-7, -0x1.610a920000000p-4, 0x1.6154100000000p-4, -0x1.5d15d80000000p-5, 0x1.3699000000000p-9, 0x1.71def80000000p-5, -0x1.b014ec0000000p-5, 0x1.0e87440000000p-3, -0x1.20bf9e0000000p-3, -0x1.3001e20000000p-3, -0x1.32c9020000000p-3, 0x1.fd5fc80000000p-5, -0x1.92db4c0000000p-4, -0x1.41aa040000000p-4, -0x1.2a14960000000p-4, 0x1.27a0180000000p-5, -0x1.173dd80000000p-5, 0x1.7c4c100000000p-5, -0x1.e10f5c0000000p-4, -0x1.0dc4e00000000p-5, -0x1.f32a700000000p-6, 0x1.e94e800000000p-9, -0x1.3d258e0000000p-3, 0x1.3cf7c80000000p-4, -0x1.ebf4440000000p-4, 0x1.0949a00000000p-4, 0x1.4231a40000000p-4, -0x1.353c120000000p-3, 0x1.cd89400000000p-4, -0x1.7ee4340000000p-4, -0x1.b1f3e80000000p-4, -0x1.13b6500000000p-5, 0x1.9d0fc00000000p-4, 0x1.e7e2d80000000p-4, 0x1.e059100000000p-4, -0x1.31b2920000000p-3, -0x1.3f08520000000p-3, 0x1.eab5680000000p-4, 0x1.0620e00000000p-7, -0x1.d473a00000000p-6, -0x1.1f08a00000000p-7, -0x1.8f99a00000000p-5, -0x1.384aae0000000p-3, 0x1.54f5940000000p-4, 0x1.e7e9700000000p-4, 0x1.02d1140000000p-3, 0x1.bf8d480000000p-5, 0x1.1ff0280000000p-3, 0x1.2d61400000000p-7, -0x1.de77100000000p-5, -0x1.2a095c0000000p-3, -0x1.f797bc0000000p-5, -0x1.5d386c0000000p-4, 0x1.734ba00000000p-4, 0x1.146e3c0000000p-3, 0x1.c86c500000000p-5, -0x1.0639760000000p-3, -0x1.a925bc0000000p-5, 0x1.396c2c0000000p-3, -0x1.08e3d80000000p-3, -0x1.2b37d20000000p-3, -0x1.201e780000000p-4, -0x1.1ef0a00000000p-5, 0x1.a1ac600000000p-4, 0x1.13e3840000000p-3, -0x1.af86300000000p-6, 0x1.e631c80000000p-5, -0x1.7934900000000p-5, -0x1.6b69000000000p-9, 0x1.0d65140000000p-3, 0x1.22d4940000000p-3, -0x1.a865000000000p-6, -0x1.af1fa00000000p-7, 0x1.413be40000000p-4}
, {-0x1.6bdb300000000p-6, -0x1.7b58840000000p-4, 0x1.233fe00000000p-3, -0x1.147aa80000000p-5, -0x1.bce3d40000000p-4, -0x1.7a228c0000000p-4, 0x1.1bbe400000000p-4, 0x1.21f9540000000p-4, -0x1.6cec000000000p-8, -0x1.9d5ad80000000p-4, 0x1.3395600000000p-4, 0x1.e529c00000000p-8, 0x1.7fbb680000000p-5, -0x1.2554560000000p-4, -0x1.83d5400000000p-8, 0x1.7dc4a00000000p-4, 0x1.fee3100000000p-6, -0x1.b3d2400000000p-5, 0x1.5ad3c80000000p-4, -0x1.bc5ca40000000p-5, 0x1.962b480000000p-5, 0x1.dc7ec00000000p-6, -0x1.1b5c7e0000000p-4, -0x1.bf82200000000p-7, -0x1.4d51ee0000000p-4, 0x1.6f601c0000000p-4, 0x1.2765d00000000p-3, 0x1.8c48c80000000p-5, -0x1.7bcb5e0000000p-4, 0x1.4a23c80000000p-5, 0x1.811f800000000p-8, 0x1.c492900000000p-4, -0x1.46a7000000000p-9, 0x1.31bccc0000000p-4, -0x1.6d87800000000p-6, -0x1.05b3560000000p-4, 0x1.336ed00000000p-6, -0x1.f1beda0000000p-4, 0x1.17ca7c0000000p-3, -0x1.0f4cf00000000p-3, -0x1.e2a4c00000000p-7, -0x1.873eac0000000p-4, 0x1.e5f1200000000p-4, -0x1.00448a0000000p-3, -0x1.24f3e00000000p-3, 0x1.04f6400000000p-6, 0x1.1887bc0000000p-3, 0x1.a545800000000p-5, -0x1.73eed80000000p-5, 0x1.80ea100000000p-6, 0x1.49e2280000000p-5, 0x1.2db26c0000000p-3, 0x1.b687a00000000p-7, -0x1.e7e3980000000p-4, 0x1.2dda7c0000000p-3, -0x1.6755880000000p-5, -0x1.076ab00000000p-5, -0x1.260db00000000p-6, 0x1.7f28100000000p-4, 0x1.b4e7c00000000p-5, -0x1.3920ee0000000p-3, -0x1.0f1dfc0000000p-4, 0x1.354a400000000p-6, 0x1.5e8e380000000p-5, -0x1.efbf200000000p-7, -0x1.47da720000000p-4, -0x1.3e7fda0000000p-4, -0x1.fceec80000000p-4, 0x1.17fe0c0000000p-3, 0x1.a58b280000000p-4, 0x1.bf20200000000p-7, 0x1.2abfdc0000000p-3, 0x1.9860280000000p-5, 0x1.347b840000000p-3, 0x1.6f98780000000p-4, -0x1.8e535c0000000p-5, -0x1.1db3000000000p-5, 0x1.ffd6600000000p-5, 0x1.c36ca00000000p-6, 0x1.ac88080000000p-4, -0x1.e547bc0000000p-4, -0x1.8dd96e0000000p-4, -0x1.062a460000000p-4, 0x1.755c900000000p-4, -0x1.f7aec00000000p-8, 0x1.ef4c080000000p-4, -0x1.1404120000000p-4, 0x1.af2f880000000p-5, 0x1.56e6b80000000p-5, 0x1.181f780000000p-3, 0x1.c7f9400000000p-7, -0x1.08c6340000000p-4, 0x1.1757e80000000p-3, 0x1.fd85200000000p-7, 0x1.ed2eb80000000p-5, -0x1.19e3600000000p-6, 0x1.41124c0000000p-3, -0x1.926c0c0000000p-4, 0x1.5068b80000000p-4, 0x1.627ca00000000p-5, -0x1.2358c40000000p-4, -0x1.eca60c0000000p-4, -0x1.6abdb60000000p-4, -0x1.7e9e100000000p-6, 0x1.42fc880000000p-4, 0x1.1774040000000p-4, -0x1.b6bb800000000p-7, -0x1.fe63c00000000p-7, 0x1.f8c2c80000000p-5, 0x1.26a0c00000000p-5, 0x1.8fad880000000p-4, -0x1.ed188c0000000p-5, -0x1.27f26e0000000p-3, -0x1.1b57e80000000p-3, 0x1.3530f00000000p-3, 0x1.1b6d1c0000000p-4, -0x1.bf299c0000000p-5, -0x1.3993d80000000p-4, -0x1.1ee3220000000p-4, -0x1.2e9de00000000p-4, 0x1.1327740000000p-3, 0x1.e80de00000000p-4, 0x1.1936f80000000p-4, 0x1.05b6140000000p-3, 0x1.7533500000000p-6, -0x1.10dd8a0000000p-4, -0x1.e7fba80000000p-4, -0x1.76ff200000000p-7, 0x1.db80000000000p-6, -0x1.9cd9380000000p-5, 0x1.fc96b00000000p-4, 0x1.b8deb00000000p-4, 0x1.33a5100000000p-3, -0x1.7594c00000000p-8, -0x1.28bb820000000p-4, -0x1.78e2600000000p-7, -0x1.17d1280000000p-5, 0x1.ebe2680000000p-4, 0x1.a67f800000000p-7, -0x1.9a64640000000p-5, -0x1.db02d60000000p-4, -0x1.f014000000000p-7, -0x1.4d2f2e0000000p-4, -0x1.7f07ac0000000p-5, 0x1.3d48d40000000p-3, 0x1.caff100000000p-4, 0x1.4e1e880000000p-4, -0x1.f8cf800000000p-4, -0x1.32db7c0000000p-3, -0x1.eb4ab00000000p-4, -0x1.1633500000000p-3, 0x1.1a62f80000000p-4, -0x1.ebce8e0000000p-4, 0x1.1df9900000000p-5, -0x1.ccfbc40000000p-4, 0x1.a0b8180000000p-5, 0x1.d99c600000000p-5, 0x1.3b74800000000p-8, -0x1.a13c000000000p-11, -0x1.9c8ad60000000p-4, -0x1.0c88fa0000000p-4, 0x1.4dc5000000000p-8, 0x1.e050c00000000p-4, -0x1.1662000000000p-8, -0x1.c215a00000000p-6, -0x1.36e5120000000p-3, 0x1.64a5000000000p-10, -0x1.2f1d560000000p-3, 0x1.19835c0000000p-3, 0x1.5ca6c00000000p-7, 0x1.2f4da00000000p-3, -0x1.7236d80000000p-4, 0x1.20dc8c0000000p-3, -0x1.7d320e0000000p-4, 0x1.19d7200000000p-7, -0x1.366bc00000000p-8, 0x1.4a4eac0000000p-4, -0x1.5fc8c00000000p-7, 0x1.8cf5f00000000p-6, -0x1.687ed00000000p-5, -0x1.201f260000000p-3, 0x1.127df80000000p-3, 0x1.219d800000000p-3, -0x1.37cf480000000p-3, -0x1.3ea3340000000p-3, -0x1.ee9b040000000p-4, 0x1.96f8000000000p-13, 0x1.c9ae200000000p-4, 0x1.6680a00000000p-6, -0x1.9e8f000000000p-6, 0x1.2b4fa00000000p-3, -0x1.0e44680000000p-4, 0x1.34af980000000p-4, 0x1.d846200000000p-5, 0x1.74a4300000000p-6, -0x1.5288900000000p-5, 0x1.f56f000000000p-8, -0x1.0315760000000p-3, 0x1.01b5b40000000p-3, -0x1.952d880000000p-4, 0x1.64b2000000000p-9, -0x1.fd85c00000000p-4, 0x1.a467580000000p-4, -0x1.0949ca0000000p-4, -0x1.c9bbd00000000p-4, -0x1.3e57760000000p-3, -0x1.03701c0000000p-4, -0x1.43cf240000000p-4, 0x1.8290500000000p-4, 0x1.5a5e480000000p-4, 0x1.0ed21c0000000p-3, 0x1.89a2a80000000p-5, 0x1.e6d8800000000p-7, 0x1.3934000000000p-5, 0x1.9fe3800000000p-9, -0x1.9521ae0000000p-4, 0x1.902e880000000p-4, -0x1.2544900000000p-4, 0x1.d50fa00000000p-4, -0x1.705f5a0000000p-4, -0x1.1ea5b40000000p-3, 0x1.36943c0000000p-3, 0x1.3b55680000000p-3, 0x1.de43a80000000p-4}
, {0x1.204e500000000p-4, 0x1.45ef400000000p-5, -0x1.9b57980000000p-4, -0x1.13b6800000000p-5, 0x1.ba5da00000000p-4, 0x1.2b54b40000000p-3, 0x1.6e12d80000000p-4, -0x1.1158d80000000p-4, 0x1.135d900000000p-6, 0x1.5ac1600000000p-5, -0x1.c2ad2c0000000p-4, -0x1.46b8300000000p-6, 0x1.d64f300000000p-4, -0x1.309a340000000p-3, 0x1.760e380000000p-4, 0x1.845be00000000p-5, 0x1.388dd40000000p-4, 0x1.9feba00000000p-6, 0x1.3ce1cc0000000p-4, 0x1.051d9c0000000p-3, -0x1.b9e2d80000000p-5, -0x1.d2fcd40000000p-4, -0x1.1f961e0000000p-4, -0x1.77df000000000p-8, -0x1.27d9da0000000p-4, 0x1.dc76200000000p-7, 0x1.91d9480000000p-4, 0x1.2378bc0000000p-3, -0x1.c217f80000000p-4, 0x1.1452280000000p-3, -0x1.9c70040000000p-4, 0x1.0228d80000000p-4, 0x1.e6e1480000000p-4, 0x1.4837840000000p-4, 0x1.7e86d00000000p-4, 0x1.1969900000000p-5, -0x1.7db97c0000000p-5, -0x1.8e48f00000000p-6, 0x1.fc88100000000p-4, -0x1.1328c00000000p-3, -0x1.3d99b40000000p-5, -0x1.20d7220000000p-4, -0x1.7c64180000000p-5, -0x1.8db27a0000000p-4, -0x1.4443780000000p-4, 0x1.54636c0000000p-4, 0x1.317cd00000000p-5, -0x1.5356e20000000p-4, -0x1.64d3b00000000p-6, 0x1.82e9000000000p-10, -0x1.dcd0a40000000p-4, -0x1.2fa8600000000p-5, 0x1.1271380000000p-4, 0x1.b9b8900000000p-4, -0x1.56c7300000000p-5, -0x1.f955ec0000000p-5, -0x1.44a3360000000p-3, -0x1.2ca8cc0000000p-5, -0x1.8dbf800000000p-8, 0x1.67cdac0000000p-4, -0x1.4436fc0000000p-5, 0x1.7229700000000p-5, 0x1.59c5840000000p-4, 0x1.003fec0000000p-3, 0x1.c233000000000p-10, 0x1.6085800000000p-6, -0x1.3b87d80000000p-5, -0x1.7574300000000p-6, -0x1.4401ae0000000p-3, 0x1.457a040000000p-3, 0x1.18dcec0000000p-3, -0x1.b1d9300000000p-6, -0x1.2a65220000000p-4, 0x1.91f3400000000p-7, -0x1.3d9f6e0000000p-3, 0x1.7695f00000000p-4, -0x1.b1666e0000000p-4, 0x1.f4a8500000000p-6, -0x1.d2d5cc0000000p-5, -0x1.dcd8a80000000p-5, -0x1.d42d100000000p-6, -0x1.9e94940000000p-4, -0x1.ea0ac00000000p-7, -0x1.4b57000000000p-4, -0x1.cf86280000000p-5, -0x1.5fa3340000000p-4, -0x1.1e5e020000000p-3, 0x1.7afd780000000p-4, -0x1.738e3e0000000p-4, 0x1.4da6000000000p-7, -0x1.3e75f60000000p-3, 0x1.1d009c0000000p-3, 0x1.10e3fc0000000p-4, -0x1.1b4bb80000000p-5, -0x1.ccde740000000p-4, 0x1.0630000000000p-11, -0x1.9a82100000000p-4, -0x1.af37380000000p-4, 0x1.9706180000000p-5, 0x1.246a6c0000000p-3, 0x1.d3d1300000000p-4, -0x1.2987b80000000p-3, -0x1.7563400000000p-7, 0x1.2726100000000p-4, -0x1.7332340000000p-4, -0x1.44b7900000000p-4, -0x1.8550140000000p-4, 0x1.55b9600000000p-5, 0x1.4950c00000000p-6, 0x1.06c2500000000p-6, 0x1.6709ac0000000p-4, -0x1.3dd1500000000p-3, -0x1.afb8740000000p-5, 0x1.19e6bc0000000p-3, -0x1.3338cc0000000p-3, -0x1.0852120000000p-4, 0x1.3af7800000000p-5, 0x1.597c800000000p-4, 0x1.3a75940000000p-3, 0x1.7714f00000000p-4, -0x1.b759020000000p-4, -0x1.c940600000000p-6, -0x1.14d6a20000000p-3, -0x1.9ba4540000000p-4, -0x1.094b100000000p-5, 0x1.285f900000000p-3, -0x1.02e87c0000000p-4, 0x1.fa54400000000p-4, -0x1.9ca8000000000p-12, 0x1.fe9b900000000p-5, 0x1.2948000000000p-12, 0x1.4b9d800000000p-8, 0x1.d129b00000000p-5, -0x1.c816e00000000p-6, 0x1.3e94240000000p-3, 0x1.a961a00000000p-4, -0x1.8e70800000000p-6, 0x1.7395100000000p-6, -0x1.1263f80000000p-5, -0x1.4a73800000000p-4, 0x1.10e1500000000p-4, -0x1.1369200000000p-7, -0x1.042c060000000p-3, 0x1.1bb4880000000p-5, -0x1.9b9ec40000000p-4, -0x1.89e5800000000p-7, -0x1.6d7ca00000000p-6, -0x1.dcc9d80000000p-4, -0x1.3f32300000000p-5, 0x1.d79c080000000p-4, 0x1.4643200000000p-4, -0x1.0982900000000p-6, 0x1.cb11f80000000p-4, -0x1.3d11700000000p-3, 0x1.964cd80000000p-4, -0x1.31e4ac0000000p-3, 0x1.0875500000000p-3, 0x1.95b8600000000p-6, -0x1.1cf72e0000000p-3, -0x1.9dee3c0000000p-5, -0x1.38ff160000000p-3, -0x1.0c29b20000000p-4, 0x1.c39f400000000p-6, -0x1.1ab55c0000000p-4, 0x1.a651680000000p-5, -0x1.99d0ac0000000p-5, 0x1.30e4a00000000p-4, 0x1.29dfe80000000p-5, 0x1.8f55280000000p-5, -0x1.08b5ac0000000p-3, -0x1.3683080000000p-3, -0x1.6a30500000000p-6, 0x1.b976700000000p-5, -0x1.15adde0000000p-3, -0x1.6314100000000p-4, 0x1.45d51c0000000p-4, 0x1.0c0f900000000p-3, -0x1.b9f5c00000000p-7, 0x1.96a8580000000p-4, 0x1.5612400000000p-8, 0x1.bc6e180000000p-4, 0x1.2e55f00000000p-3, -0x1.1d82840000000p-3, -0x1.f962600000000p-7, -0x1.55f3a80000000p-5, -0x1.ee0f100000000p-4, 0x1.7c30c00000000p-6, -0x1.45b13e0000000p-3, -0x1.7532a80000000p-4, 0x1.9bcc800000000p-4, -0x1.93dee00000000p-7, -0x1.d40ac00000000p-7, 0x1.d399a00000000p-5, 0x1.549d500000000p-6, 0x1.bc22700000000p-4, 0x1.7e7fd80000000p-4, 0x1.dd56700000000p-4, 0x1.576f500000000p-4, 0x1.02e6900000000p-4, 0x1.0349000000000p-8, -0x1.01b0680000000p-5, -0x1.eacb200000000p-6, -0x1.00c2000000000p-8, -0x1.5bf2900000000p-5, -0x1.a4aad00000000p-6, -0x1.9c13940000000p-4, -0x1.f248300000000p-6, -0x1.5289c20000000p-4, 0x1.04fa800000000p-5, 0x1.3679d00000000p-3, 0x1.514d240000000p-4, 0x1.34e5380000000p-5, 0x1.1115e00000000p-6, 0x1.03f8a00000000p-6, -0x1.a990c00000000p-4, -0x1.079d800000000p-6, 0x1.ee6ae00000000p-6, 0x1.48c0440000000p-4, -0x1.cd525a0000000p-4, 0x1.fbd7700000000p-4, 0x1.7b59d00000000p-5, -0x1.2a00880000000p-4, -0x1.1d0a900000000p-5, -0x1.34f4280000000p-3}
, {0x1.3268dc0000000p-4, -0x1.c186000000000p-7, -0x1.611b240000000p-4, 0x1.7f86a00000000p-4, 0x1.4697c00000000p-4, 0x1.6487c00000000p-8, -0x1.e405b80000000p-4, -0x1.4a01680000000p-4, 0x1.8d24500000000p-4, 0x1.e9a1100000000p-4, -0x1.164a220000000p-4, 0x1.5378440000000p-4, -0x1.2559ae0000000p-3, -0x1.f110000000000p-8, -0x1.ef72700000000p-6, 0x1.53defc0000000p-4, -0x1.f55e1e0000000p-4, 0x1.082a700000000p-4, 0x1.217ff40000000p-3, -0x1.c93c000000000p-10, -0x1.f0185c0000000p-5, -0x1.0b3bac0000000p-3, 0x1.e2a2300000000p-4, -0x1.2279980000000p-5, -0x1.329dd00000000p-3, 0x1.0375f80000000p-5, 0x1.cbfa280000000p-4, 0x1.34dc5c0000000p-4, 0x1.58f0fc0000000p-4, 0x1.60d3680000000p-5, -0x1.082d060000000p-3, -0x1.dfbe500000000p-6, -0x1.a755800000000p-7, -0x1.71dbb20000000p-4, 0x1.ef20100000000p-4, -0x1.8a21f20000000p-4, -0x1.1586b80000000p-3, 0x1.0b83540000000p-4, -0x1.05a0b80000000p-5, 0x1.6546080000000p-4, 0x1.92fd780000000p-4, -0x1.59d9940000000p-5, 0x1.6bad780000000p-5, -0x1.d625d80000000p-5, 0x1.e179b00000000p-6, 0x1.380cb00000000p-3, -0x1.518b780000000p-5, 0x1.5d71a00000000p-4, 0x1.1a7b680000000p-3, 0x1.e53c880000000p-4, 0x1.00f7f00000000p-5, -0x1.1d76680000000p-5, 0x1.1cc35c0000000p-3, -0x1.13bf700000000p-5, 0x1.81d9800000000p-4, -0x1.3e93300000000p-6, 0x1.e936e80000000p-4, 0x1.3b58b00000000p-4, 0x1.6404800000000p-7, -0x1.696d540000000p-5, 0x1.027abc0000000p-3, 0x1.3b014c0000000p-4, -0x1.a2eaaa0000000p-4, 0x1.f329a00000000p-6, -0x1.5d5b180000000p-4, 0x1.22b4980000000p-5, 0x1.f060300000000p-5, 0x1.ac00b80000000p-5, -0x1.dff4000000000p-9, 0x1.b7d2600000000p-4, 0x1.6c01a80000000p-4, -0x1.3956a20000000p-3, 0x1.2a9c900000000p-3, 0x1.8849000000000p-7, -0x1.d383f00000000p-4, 0x1.758c600000000p-6, 0x1.f300b80000000p-5, 0x1.c787d00000000p-4, 0x1.0907140000000p-3, -0x1.3c26600000000p-6, -0x1.17ee160000000p-3, -0x1.a597680000000p-5, -0x1.d774300000000p-4, 0x1.eb97080000000p-5, 0x1.476d800000000p-9, -0x1.0100c00000000p-3, -0x1.5ad1b00000000p-5, -0x1.8f4d7c0000000p-4, 0x1.622c840000000p-4, 0x1.c97b200000000p-7, 0x1.0094680000000p-3, -0x1.dffd180000000p-4, 0x1.4a13000000000p-7, -0x1.1a923c0000000p-3, 0x1.7900980000000p-4, 0x1.4ac9800000000p-6, 0x1.af37000000000p-9, -0x1.4445500000000p-6, -0x1.3252660000000p-4, 0x1.3d90700000000p-6, 0x1.01aa9c0000000p-3, 0x1.95c7800000000p-8, -0x1.9d2c300000000p-6, -0x1.29d9800000000p-3, 0x1.34fc800000000p-3, 0x1.192ee80000000p-3, 0x1.d742100000000p-4, 0x1.bf67100000000p-4, -0x1.e1f9760000000p-4, -0x1.9ff8b40000000p-4, 0x1.51d0600000000p-4, -0x1.544d0a0000000p-4, 0x1.43c9000000000p-7, 0x1.851ea00000000p-4, 0x1.30cd340000000p-4, 0x1.65bc800000000p-5, -0x1.b826d00000000p-4, 0x1.43e8d00000000p-3, 0x1.4a45080000000p-5, -0x1.9ce2f40000000p-4, 0x1.35073c0000000p-3, -0x1.f68cb80000000p-4, 0x1.5cd2dc0000000p-4, -0x1.e958700000000p-6, -0x1.ef9b200000000p-6, -0x1.a2d0140000000p-4, -0x1.4dcfc00000000p-4, -0x1.8b02720000000p-4, 0x1.30c7fc0000000p-3, 0x1.58a80c0000000p-4, -0x1.6152300000000p-4, -0x1.ac7a1a0000000p-4, 0x1.0408140000000p-4, -0x1.06ddb60000000p-3, -0x1.32089e0000000p-3, 0x1.316e0c0000000p-4, -0x1.7dcdd20000000p-4, 0x1.ebfc500000000p-5, 0x1.ed1d400000000p-8, 0x1.5d8cf00000000p-4, -0x1.28758a0000000p-3, 0x1.141a200000000p-4, -0x1.3ca8e00000000p-6, 0x1.e107d00000000p-6, -0x1.dd4ea00000000p-4, -0x1.f5ec580000000p-4, 0x1.edb8480000000p-4, -0x1.83e7820000000p-4, 0x1.0fe0a80000000p-3, 0x1.36502c0000000p-3, 0x1.1eb2cc0000000p-3, -0x1.1251f00000000p-3, 0x1.3de7e80000000p-3, -0x1.3998960000000p-3, 0x1.008e600000000p-3, -0x1.41a9280000000p-3, 0x1.4500540000000p-3, -0x1.82454c0000000p-4, -0x1.e5a7940000000p-5, -0x1.36cdac0000000p-4, -0x1.07a6bc0000000p-3, -0x1.fca40c0000000p-5, 0x1.4cc6d00000000p-4, -0x1.a3a4600000000p-6, 0x1.72fe000000000p-5, 0x1.60f78c0000000p-4, 0x1.7758680000000p-4, 0x1.7dd1180000000p-5, -0x1.3b46220000000p-3, -0x1.05ee380000000p-4, -0x1.38b0100000000p-4, 0x1.e83b500000000p-5, 0x1.31c4a00000000p-3, -0x1.70cea40000000p-4, 0x1.e2b9780000000p-4, 0x1.7787300000000p-4, -0x1.1fc6000000000p-5, -0x1.0bbc740000000p-3, 0x1.0760e40000000p-3, 0x1.23f5e40000000p-4, -0x1.65b8200000000p-4, 0x1.55d6280000000p-4, 0x1.0ea59c0000000p-4, -0x1.8da2040000000p-5, -0x1.1c120a0000000p-4, 0x1.7955a00000000p-4, 0x1.2312640000000p-4, -0x1.0c44480000000p-4, 0x1.ec87800000000p-9, 0x1.0955680000000p-4, 0x1.39cd300000000p-3, -0x1.2717000000000p-6, -0x1.3179060000000p-3, -0x1.0acae80000000p-5, 0x1.0b52100000000p-3, 0x1.cad2d80000000p-4, -0x1.636a540000000p-5, 0x1.8936880000000p-4, 0x1.e585500000000p-5, -0x1.79b6380000000p-4, 0x1.0a9f440000000p-3, -0x1.3686c00000000p-8, 0x1.a421c00000000p-4, -0x1.f3e9100000000p-4, 0x1.436a100000000p-4, -0x1.10982a0000000p-4, -0x1.091b040000000p-3, -0x1.369b880000000p-3, -0x1.c267280000000p-4, -0x1.3f6ae20000000p-4, 0x1.4536280000000p-5, 0x1.1736500000000p-5, 0x1.dbf4e00000000p-4, -0x1.fa75ac0000000p-5, 0x1.d663600000000p-4, 0x1.16fcec0000000p-4, 0x1.2de0b40000000p-3, 0x1.b81a080000000p-4, 0x1.7bbcb80000000p-4, 0x1.1d01080000000p-4, 0x1.186ac40000000p-4, 0x1.2d7ca40000000p-4, -0x1.a7a4600000000p-6, 0x1.32166c0000000p-3}
, {-0x1.4ac7d80000000p-4, 0x1.0505f40000000p-3, 0x1.a8acd80000000p-5, -0x1.e482500000000p-6, -0x1.8595940000000p-5, -0x1.f6b6e00000000p-4, 0x1.4166480000000p-3, 0x1.370c4c0000000p-3, -0x1.19996a0000000p-4, 0x1.9a73880000000p-5, -0x1.1073400000000p-5, 0x1.2ae9f80000000p-5, 0x1.49456c0000000p-4, 0x1.19d7dc0000000p-3, -0x1.22856c0000000p-3, 0x1.a1f1400000000p-8, -0x1.1e9f1e0000000p-3, 0x1.d2e1f80000000p-4, 0x1.75f8500000000p-6, 0x1.28eec00000000p-5, 0x1.2d896c0000000p-4, 0x1.abba700000000p-5, 0x1.a03ae00000000p-4, 0x1.20adc40000000p-3, 0x1.43def00000000p-3, -0x1.2bcb4c0000000p-3, 0x1.6aebc00000000p-4, -0x1.7385e00000000p-5, -0x1.8ac8140000000p-5, -0x1.c91d000000000p-6, -0x1.4020620000000p-4, 0x1.f0f0f80000000p-4, 0x1.0c3b400000000p-3, -0x1.c810f40000000p-4, -0x1.0eec540000000p-3, -0x1.e61a100000000p-4, 0x1.b5c5c80000000p-5, -0x1.e55c140000000p-5, -0x1.83b9640000000p-4, -0x1.9d550a0000000p-4, -0x1.3bcffc0000000p-5, -0x1.b18d240000000p-5, -0x1.ccf3e00000000p-4, 0x1.ba4cd80000000p-5, 0x1.5963c00000000p-6, 0x1.bd39580000000p-4, 0x1.0284240000000p-3, -0x1.1caf200000000p-6, 0x1.0e41480000000p-3, -0x1.0734d80000000p-3, -0x1.334e660000000p-4, -0x1.1e4e6a0000000p-4, -0x1.afae980000000p-5, -0x1.07b3c80000000p-3, -0x1.5db6480000000p-5, -0x1.40f0080000000p-4, 0x1.d0fbc00000000p-7, 0x1.a1f9f00000000p-4, -0x1.837fc00000000p-7, 0x1.c042100000000p-6, 0x1.1e05280000000p-4, 0x1.ac1e180000000p-5, -0x1.8255640000000p-5, 0x1.3e43c40000000p-4, -0x1.57a1ec0000000p-5, -0x1.ab6c7c0000000p-4, 0x1.5f0c280000000p-4, -0x1.f705a00000000p-6, -0x1.de4be80000000p-5, 0x1.29cac00000000p-6, 0x1.0275f80000000p-3, -0x1.9105840000000p-5, 0x1.7e63500000000p-5, -0x1.359d6e0000000p-4, 0x1.afc9680000000p-4, -0x1.a820da0000000p-4, 0x1.e6a9980000000p-4, -0x1.54de140000000p-5, 0x1.f752500000000p-6, 0x1.94f8000000000p-9, 0x1.5f39700000000p-4, 0x1.445ef80000000p-3, 0x1.9600380000000p-4, -0x1.dbbbe00000000p-6, -0x1.a94cc40000000p-4, -0x1.3b16b20000000p-3, 0x1.a82c880000000p-4, 0x1.40cc0c0000000p-4, -0x1.ce2c400000000p-8, 0x1.be7b780000000p-4, -0x1.0807d80000000p-5, 0x1.3220f80000000p-5, -0x1.2e4ca20000000p-3, 0x1.1e49600000000p-3, 0x1.1e1ca80000000p-4, -0x1.6318820000000p-4, 0x1.f0f6200000000p-6, -0x1.85fa560000000p-4, 0x1.443cf40000000p-4, -0x1.20448e0000000p-3, -0x1.d1ef4c0000000p-4, -0x1.3bf8640000000p-3, 0x1.a9d3000000000p-5, 0x1.4365480000000p-3, -0x1.df2ad80000000p-4, -0x1.714bbc0000000p-4, 0x1.1796500000000p-3, 0x1.e5b6b00000000p-6, 0x1.97a7780000000p-4, -0x1.58c01c0000000p-4, -0x1.1854900000000p-5, 0x1.506b280000000p-5, -0x1.441f100000000p-3, -0x1.1b26900000000p-5, 0x1.c634000000000p-5, 0x1.1b08a40000000p-3, 0x1.ca60700000000p-6, -0x1.c571560000000p-4, 0x1.53f3c00000000p-7, -0x1.0612200000000p-7, 0x1.8d18900000000p-4, -0x1.04c0d20000000p-4, -0x1.0f2ea00000000p-6, 0x1.1d8ff00000000p-3, -0x1.35901e0000000p-3, 0x1.9167500000000p-4, -0x1.eac8640000000p-4, 0x1.0f3b500000000p-5, -0x1.09ce9e0000000p-4, -0x1.6aea6e0000000p-4, 0x1.cd17200000000p-6, -0x1.17146a0000000p-4, -0x1.08ecc20000000p-3, -0x1.45b3100000000p-6, 0x1.0a3a300000000p-3, 0x1.c9fed80000000p-4, 0x1.13b7900000000p-3, 0x1.9197c00000000p-7, -0x1.c3d0200000000p-4, -0x1.f3ce000000000p-4, 0x1.ccfea80000000p-4, 0x1.10bb000000000p-5, 0x1.063da80000000p-5, -0x1.ed23820000000p-4, 0x1.fa60000000000p-8, 0x1.f99dc80000000p-4, -0x1.842b0c0000000p-5, -0x1.a0b5740000000p-5, 0x1.e8d2280000000p-4, -0x1.c2a1280000000p-4, 0x1.1d434c0000000p-3, -0x1.29f5900000000p-3, -0x1.f1a2080000000p-4, 0x1.5aec8c0000000p-4, 0x1.925d380000000p-5, -0x1.6a022a0000000p-4, 0x1.177f4c0000000p-3, 0x1.8917400000000p-7, 0x1.0352e40000000p-3, -0x1.6402fa0000000p-4, 0x1.12b6f00000000p-3, 0x1.50b6e80000000p-4, -0x1.ca769c0000000p-4, 0x1.e0c0100000000p-6, 0x1.20ecf80000000p-3, 0x1.280c080000000p-3, -0x1.97d7000000000p-4, -0x1.1c0b460000000p-3, -0x1.ce851e0000000p-4, -0x1.5551ee0000000p-4, 0x1.69ab880000000p-5, -0x1.1495c80000000p-5, -0x1.d999b00000000p-6, 0x1.8494b80000000p-5, 0x1.0827480000000p-3, -0x1.286f740000000p-5, -0x1.3e985a0000000p-3, -0x1.37792c0000000p-5, -0x1.448db00000000p-6, 0x1.812c800000000p-6, 0x1.8142400000000p-8, -0x1.1260040000000p-3, -0x1.c2e7d00000000p-4, -0x1.cfad600000000p-6, 0x1.3011000000000p-6, -0x1.a40fd00000000p-5, -0x1.51be800000000p-7, 0x1.16405c0000000p-4, -0x1.3c71f40000000p-4, -0x1.0ae8ce0000000p-3, 0x1.08cff00000000p-4, -0x1.176da80000000p-5, 0x1.8e6d780000000p-4, 0x1.2077740000000p-4, -0x1.2286700000000p-4, -0x1.541f9a0000000p-4, 0x1.3041bc0000000p-4, -0x1.044c7c0000000p-3, 0x1.7bcf680000000p-4, 0x1.3fcad00000000p-3, 0x1.c309880000000p-5, -0x1.d6e1c00000000p-7, -0x1.b06f5a0000000p-4, -0x1.77f1fa0000000p-4, -0x1.3aae3a0000000p-4, 0x1.6e7ce00000000p-4, -0x1.20fd540000000p-3, -0x1.33fa740000000p-5, 0x1.00ffb00000000p-6, -0x1.c6ce380000000p-4, 0x1.9fcb400000000p-4, -0x1.0d1b740000000p-3, -0x1.51ced00000000p-5, -0x1.63f39a0000000p-4, -0x1.f45b8c0000000p-5, 0x1.5906c00000000p-5, -0x1.15f24e0000000p-3, -0x1.f40a700000000p-5, -0x1.718af20000000p-4, 0x1.2c90dc0000000p-3, -0x1.43ce600000000p-3, -0x1.8773280000000p-5, 0x1.afcbe80000000p-4, -0x1.2340e80000000p-4}
, {-0x1.fd0d920000000p-4, 0x1.3b72d40000000p-3, -0x1.22cc100000000p-5, -0x1.3b74920000000p-3, 0x1.14dea80000000p-5, 0x1.cf2f700000000p-5, -0x1.b63a420000000p-4, -0x1.08176c0000000p-4, -0x1.0bc32e0000000p-3, -0x1.780bec0000000p-4, 0x1.f1ccf00000000p-4, 0x1.98ee000000000p-7, 0x1.690f600000000p-7, 0x1.bf7fa00000000p-4, -0x1.8886380000000p-4, -0x1.15d0e00000000p-7, -0x1.22e5400000000p-8, 0x1.3ba2800000000p-4, -0x1.fe0ed00000000p-4, 0x1.7958600000000p-4, -0x1.58d6a00000000p-7, 0x1.051f580000000p-4, 0x1.beec700000000p-4, 0x1.5dba740000000p-4, 0x1.0046940000000p-3, 0x1.4456400000000p-3, 0x1.e2dd600000000p-4, 0x1.c539000000000p-6, 0x1.1cd7400000000p-3, -0x1.9a40d80000000p-4, -0x1.a4fcee0000000p-4, 0x1.630dbc0000000p-4, -0x1.5cf7a80000000p-5, -0x1.89e6600000000p-5, 0x1.c4a8400000000p-4, 0x1.24928c0000000p-3, 0x1.55d6980000000p-5, 0x1.4e16700000000p-5, -0x1.16e7fa0000000p-3, 0x1.22a45c0000000p-3, -0x1.ab8cb60000000p-4, 0x1.0fa4c00000000p-3, -0x1.35d7c80000000p-3, -0x1.247caa0000000p-3, 0x1.14f6a80000000p-3, 0x1.1682900000000p-3, -0x1.9c962c0000000p-4, -0x1.b221f00000000p-4, 0x1.1bdfd80000000p-3, -0x1.8914220000000p-4, -0x1.e374680000000p-4, -0x1.1c1dde0000000p-3, 0x1.1bd2580000000p-3, -0x1.788ac80000000p-4, 0x1.eb2f580000000p-5, 0x1.ade7480000000p-5, -0x1.05365a0000000p-4, 0x1.3f58c00000000p-3, 0x1.6e90b00000000p-5, 0x1.43768c0000000p-3, -0x1.25c1800000000p-4, -0x1.46e36e0000000p-3, -0x1.e5f4cc0000000p-4, 0x1.ac84380000000p-4, -0x1.809a600000000p-7, 0x1.4fa9480000000p-4, -0x1.e9b3d80000000p-4, 0x1.2615700000000p-5, 0x1.f03b900000000p-6, -0x1.36293e0000000p-3, 0x1.65e9680000000p-5, -0x1.bd4fcc0000000p-5, -0x1.a63c1a0000000p-4, -0x1.1e1e3c0000000p-3, 0x1.0062b80000000p-4, 0x1.1a54fc0000000p-3, -0x1.42a3c00000000p-7, -0x1.67ad100000000p-6, 0x1.4fb6880000000p-4, 0x1.49c8d00000000p-6, 0x1.6d0a440000000p-4, -0x1.3419d80000000p-5, -0x1.1e60d40000000p-3, -0x1.133b780000000p-4, -0x1.88aac40000000p-5, -0x1.e123c40000000p-5, -0x1.16128c0000000p-3, 0x1.88fd080000000p-4, -0x1.f8b5b80000000p-5, 0x1.e0e0680000000p-4, -0x1.1ed0700000000p-5, -0x1.ede7f20000000p-4, -0x1.1c59780000000p-5, 0x1.44a2580000000p-3, -0x1.bc4dc00000000p-6, -0x1.3d36260000000p-3, 0x1.f008000000000p-6, 0x1.ce3e000000000p-8, -0x1.e9661a0000000p-4, 0x1.2d61380000000p-4, 0x1.9332a00000000p-7, -0x1.2dbdec0000000p-3, -0x1.a1c6ac0000000p-4, 0x1.1f95800000000p-7, 0x1.3fca1c0000000p-4, -0x1.592f100000000p-6, 0x1.cdc5680000000p-5, 0x1.0e93a80000000p-3, 0x1.8b2b700000000p-4, 0x1.1eb8d80000000p-3, -0x1.427c500000000p-5, -0x1.3755240000000p-4, -0x1.d921b00000000p-4, -0x1.b96a300000000p-5, -0x1.2761ea0000000p-3, 0x1.2f9d9c0000000p-4, 0x1.4181980000000p-4, 0x1.d118a00000000p-7, 0x1.1e63500000000p-6, 0x1.9d99d00000000p-4, -0x1.14a58e0000000p-3, -0x1.0fda180000000p-4, -0x1.9bca200000000p-6, -0x1.9da4200000000p-7, 0x1.26d7a40000000p-4, 0x1.241e780000000p-3, 0x1.16c6500000000p-4, 0x1.e692d00000000p-5, -0x1.8f1f680000000p-4, 0x1.8185680000000p-4, -0x1.1533460000000p-4, -0x1.0538b80000000p-5, -0x1.2897240000000p-3, 0x1.97ea180000000p-4, 0x1.67e2600000000p-6, -0x1.1cf91a0000000p-3, 0x1.994ca00000000p-4, 0x1.aa7c180000000p-4, -0x1.0137bc0000000p-3, -0x1.baf4580000000p-4, 0x1.0c57dc0000000p-4, 0x1.b58c600000000p-4, 0x1.6558900000000p-4, -0x1.7f62be0000000p-4, -0x1.8905280000000p-4, -0x1.f168dc0000000p-5, 0x1.a8a3c00000000p-8, -0x1.268bc80000000p-4, 0x1.bf00f00000000p-4, 0x1.50de540000000p-4, -0x1.3e95640000000p-3, -0x1.ea7a400000000p-6, -0x1.d450000000000p-11, -0x1.6621340000000p-5, 0x1.5608800000000p-9, -0x1.2f5e780000000p-4, -0x1.0e2c680000000p-3, 0x1.4bfe200000000p-6, 0x1.e798900000000p-6, -0x1.9e04e00000000p-7, -0x1.a5a4800000000p-4, 0x1.2a9bf00000000p-4, 0x1.48c4000000000p-4, -0x1.af54200000000p-5, -0x1.fef9f00000000p-6, -0x1.374e940000000p-3, -0x1.0b88260000000p-3, 0x1.7f2e780000000p-4, -0x1.1418900000000p-5, 0x1.0c61300000000p-3, 0x1.b41c800000000p-4, -0x1.18c8600000000p-6, -0x1.184c500000000p-5, 0x1.e55b280000000p-4, 0x1.ea82900000000p-5, -0x1.16c9840000000p-4, 0x1.cb09600000000p-6, 0x1.0518980000000p-3, 0x1.74b6100000000p-4, -0x1.cc71740000000p-5, -0x1.10ce820000000p-3, -0x1.7b0f420000000p-4, 0x1.2fb1d80000000p-3, -0x1.8fe0d00000000p-6, -0x1.102b9a0000000p-4, 0x1.3d6a6c0000000p-4, 0x1.142bd00000000p-3, -0x1.bf5fc60000000p-4, -0x1.69a7ee0000000p-4, 0x1.2f5e600000000p-3, -0x1.2da91a0000000p-3, 0x1.08380c0000000p-3, 0x1.28f1140000000p-3, 0x1.1135a00000000p-3, 0x1.34fbfc0000000p-3, 0x1.3c3ed80000000p-3, -0x1.0ac9420000000p-4, -0x1.3998920000000p-4, 0x1.2b04fc0000000p-4, -0x1.1e9c600000000p-7, 0x1.4c68c80000000p-4, -0x1.9ce8cc0000000p-4, 0x1.e7fe800000000p-4, 0x1.2b77cc0000000p-3, 0x1.ad87a00000000p-4, 0x1.a9a2d00000000p-4, 0x1.049c500000000p-3, -0x1.2e65640000000p-3, 0x1.fdd9300000000p-5, -0x1.207d500000000p-6, -0x1.04f5760000000p-4, 0x1.8fc8380000000p-5, -0x1.e397e00000000p-5, 0x1.ae23c00000000p-4, 0x1.dfc9180000000p-5, -0x1.b4bf800000000p-7, 0x1.e083000000000p-5, 0x1.2a62e00000000p-6, -0x1.981e300000000p-6, 0x1.9b98180000000p-5, -0x1.210c840000000p-3, -0x1.5713200000000p-7, 0x1.4a04c00000000p-6, -0x1.2dec0e0000000p-4}
, {0x1.8cbd200000000p-7, 0x1.7276a00000000p-5, 0x1.39cda80000000p-5, 0x1.2095f00000000p-3, 0x1.3b81d80000000p-3, -0x1.3b5cb00000000p-4, -0x1.e59bd00000000p-6, -0x1.09c9ac0000000p-3, -0x1.0a6c2e0000000p-4, -0x1.b740780000000p-5, -0x1.1102a60000000p-4, 0x1.bf50600000000p-5, 0x1.003f640000000p-3, 0x1.41eb100000000p-5, 0x1.55db800000000p-6, -0x1.e497480000000p-5, -0x1.8ccca00000000p-6, 0x1.7d43000000000p-4, -0x1.3d6b880000000p-3, -0x1.5c22f60000000p-4, -0x1.879f700000000p-5, 0x1.4434e00000000p-3, 0x1.dd14f00000000p-6, 0x1.a5f4480000000p-5, 0x1.11fe980000000p-3, -0x1.3dc2380000000p-3, -0x1.2e35120000000p-4, -0x1.3316f00000000p-6, -0x1.d1c3580000000p-5, -0x1.47053c0000000p-3, 0x1.b363080000000p-4, 0x1.60c8500000000p-4, -0x1.e777580000000p-4, 0x1.44dc080000000p-4, -0x1.a9ff980000000p-5, -0x1.3477660000000p-3, -0x1.7c342c0000000p-4, -0x1.58a3900000000p-6, -0x1.6c0f960000000p-4, -0x1.40149e0000000p-3, -0x1.8915880000000p-4, 0x1.828a800000000p-4, -0x1.0b16b80000000p-4, -0x1.490e400000000p-4, -0x1.7adce40000000p-5, -0x1.fa56800000000p-7, -0x1.5986c00000000p-7, 0x1.1edea80000000p-3, 0x1.097ea00000000p-4, 0x1.5027e80000000p-5, -0x1.2c566a0000000p-4, 0x1.511d1c0000000p-4, 0x1.0ec4540000000p-3, -0x1.21620c0000000p-3, -0x1.60ed8c0000000p-4, -0x1.5f36640000000p-4, -0x1.b972980000000p-4, 0x1.162d700000000p-4, 0x1.875f980000000p-4, 0x1.2af6b00000000p-4, -0x1.d5b9d00000000p-6, 0x1.26e8980000000p-3, 0x1.3b17780000000p-3, -0x1.9b2e800000000p-7, 0x1.3c88b40000000p-3, -0x1.e0a8b00000000p-6, -0x1.0bedda0000000p-3, 0x1.fd87500000000p-4, 0x1.a3f8d00000000p-4, 0x1.341ac40000000p-3, -0x1.1e32cc0000000p-4, 0x1.7176480000000p-4, -0x1.cb85000000000p-6, -0x1.8ef8740000000p-5, 0x1.27b4d80000000p-3, 0x1.c807700000000p-5, 0x1.1556600000000p-4, 0x1.2d760c0000000p-3, 0x1.019eec0000000p-3, -0x1.5260340000000p-4, 0x1.18d0340000000p-4, -0x1.2415480000000p-3, -0x1.2092cc0000000p-3, 0x1.5a44dc0000000p-4, 0x1.50b2580000000p-5, -0x1.e38d440000000p-4, 0x1.b06bc00000000p-7, -0x1.4e53b00000000p-5, -0x1.9ade740000000p-4, 0x1.c521080000000p-4, -0x1.1ed33e0000000p-4, 0x1.6391400000000p-5, 0x1.2f69ec0000000p-3, 0x1.c29f400000000p-7, 0x1.131d340000000p-3, -0x1.0847b40000000p-3, -0x1.33f83c0000000p-3, -0x1.d3bb440000000p-4, 0x1.2049600000000p-4, -0x1.82e3b40000000p-4, 0x1.6501dc0000000p-4, 0x1.0c2c980000000p-3, 0x1.bb9d200000000p-4, 0x1.8f28480000000p-4, 0x1.9bb1100000000p-5, 0x1.e8fb000000000p-9, -0x1.4295920000000p-3, -0x1.4821100000000p-5, -0x1.68cf9a0000000p-4, 0x1.bf7e500000000p-5, 0x1.085ce80000000p-3, -0x1.0dc5200000000p-3, 0x1.9018b00000000p-5, -0x1.051cd60000000p-3, -0x1.467db00000000p-3, 0x1.e80a600000000p-5, -0x1.3887d40000000p-3, 0x1.1ceba00000000p-7, 0x1.062c840000000p-3, -0x1.62f7d80000000p-4, -0x1.46a7520000000p-3, 0x1.a3b3c00000000p-6, 0x1.4e8e600000000p-4, -0x1.6da1440000000p-4, -0x1.452d420000000p-4, -0x1.3102160000000p-4, -0x1.5266a60000000p-4, 0x1.92fe600000000p-6, 0x1.c6c2280000000p-4, 0x1.78c6780000000p-5, -0x1.76d6d60000000p-4, 0x1.41dd940000000p-3, -0x1.aaedaa0000000p-4, 0x1.427cd40000000p-4, 0x1.a03b100000000p-6, -0x1.dda27e0000000p-4, 0x1.5c8bbc0000000p-4, 0x1.1f2b0c0000000p-3, 0x1.1225200000000p-6, -0x1.f1d0e00000000p-7, 0x1.292d340000000p-3, -0x1.02a7600000000p-6, -0x1.0752200000000p-6, 0x1.6b4c080000000p-5, -0x1.173dc80000000p-5, 0x1.7011c40000000p-4, -0x1.d403f80000000p-5, 0x1.c4d4a80000000p-4, 0x1.18b3440000000p-4, 0x1.5db9680000000p-5, -0x1.39b5a00000000p-5, 0x1.a821680000000p-4, -0x1.493e9c0000000p-4, -0x1.be875c0000000p-4, 0x1.903cb00000000p-6, 0x1.e490780000000p-4, 0x1.1e4e600000000p-4, 0x1.7887200000000p-5, 0x1.84dd480000000p-5, 0x1.3a714c0000000p-3, 0x1.18bb200000000p-5, -0x1.53afe00000000p-7, 0x1.2114640000000p-4, -0x1.02eae00000000p-5, -0x1.08781a0000000p-3, 0x1.53c9f80000000p-4, -0x1.d054a60000000p-4, -0x1.43de400000000p-7, -0x1.6b258e0000000p-4, 0x1.6612480000000p-4, 0x1.cfe8000000000p-8, 0x1.1665500000000p-3, -0x1.06cd800000000p-3, -0x1.c175000000000p-7, -0x1.fdbcd40000000p-5, 0x1.de1e680000000p-4, -0x1.69bd640000000p-5, -0x1.3c5ec20000000p-3, 0x1.5832ec0000000p-4, 0x1.127b700000000p-4, 0x1.6070340000000p-4, 0x1.e58b500000000p-5, 0x1.eee4100000000p-4, 0x1.fc5d800000000p-5, 0x1.1d7cd80000000p-4, -0x1.eb94640000000p-4, 0x1.d5a3680000000p-4, 0x1.38b6440000000p-3, -0x1.84e7c20000000p-4, 0x1.1fb04c0000000p-3, 0x1.9eaa100000000p-4, -0x1.97ffc00000000p-7, 0x1.94b4d80000000p-4, 0x1.6e64a00000000p-7, 0x1.e973c80000000p-4, -0x1.8c283e0000000p-4, -0x1.a474740000000p-4, -0x1.444fbe0000000p-3, 0x1.4fad680000000p-5, -0x1.2dd3ac0000000p-3, 0x1.9f92180000000p-5, -0x1.8792aa0000000p-4, -0x1.3428a20000000p-3, -0x1.32befc0000000p-3, 0x1.aea4f00000000p-4, 0x1.54c2480000000p-5, 0x1.1f3ae00000000p-6, 0x1.47ca300000000p-3, 0x1.0de4680000000p-4, -0x1.aa37500000000p-5, -0x1.1f4e380000000p-4, -0x1.1fdfe60000000p-3, 0x1.31bf940000000p-3, -0x1.1ac8b20000000p-4, -0x1.30d1080000000p-3, 0x1.21c9bc0000000p-4, -0x1.c32f1c0000000p-4, -0x1.8e49c00000000p-5, -0x1.590ee00000000p-6, -0x1.acaf640000000p-4, 0x1.e8f2000000000p-5, 0x1.7880000000000p-12, -0x1.2eebe60000000p-4, -0x1.90ac000000000p-5}
, {-0x1.1d22b20000000p-3, 0x1.e90c080000000p-5, 0x1.6dd6e00000000p-5, -0x1.d279c00000000p-8, 0x1.bb7b800000000p-4, -0x1.0cf3800000000p-4, 0x1.4225f40000000p-3, 0x1.1b20000000000p-14, 0x1.d503c80000000p-4, -0x1.682b780000000p-5, 0x1.22a8e00000000p-4, 0x1.e717900000000p-4, -0x1.5921ac0000000p-5, -0x1.74bcd80000000p-4, -0x1.fff1b80000000p-4, -0x1.1bba2a0000000p-4, -0x1.c5a92e0000000p-4, -0x1.8f85300000000p-6, 0x1.4325440000000p-3, -0x1.2b81860000000p-3, 0x1.3315300000000p-3, -0x1.c894a00000000p-7, -0x1.14d2d60000000p-3, -0x1.6c11580000000p-4, -0x1.0ce8400000000p-3, 0x1.ef62b00000000p-4, 0x1.494b380000000p-5, -0x1.5f2f800000000p-9, 0x1.78b6100000000p-4, -0x1.9d06740000000p-5, 0x1.ceca280000000p-5, 0x1.3a57900000000p-4, -0x1.a35b980000000p-5, -0x1.239c600000000p-6, -0x1.45a3fa0000000p-3, -0x1.21ca000000000p-11, 0x1.e06ed00000000p-4, 0x1.34f3c80000000p-3, 0x1.2d17700000000p-3, -0x1.1ec2700000000p-6, 0x1.ce36900000000p-4, -0x1.37db2c0000000p-3, 0x1.4530100000000p-5, -0x1.099b480000000p-5, -0x1.e1c2fc0000000p-4, 0x1.d054d00000000p-4, 0x1.7bf2c00000000p-4, -0x1.1524fa0000000p-3, 0x1.1a09c00000000p-6, 0x1.e6c0e80000000p-5, -0x1.5bd4b00000000p-6, 0x1.1b9c780000000p-4, -0x1.3aa8240000000p-5, 0x1.d4a2a80000000p-5, 0x1.1d33180000000p-3, 0x1.8fd5b00000000p-5, 0x1.8242480000000p-4, 0x1.792b980000000p-4, 0x1.09d3300000000p-5, -0x1.90fe140000000p-5, 0x1.86c0a00000000p-5, 0x1.21e8ac0000000p-3, 0x1.01a6940000000p-4, 0x1.264a880000000p-4, -0x1.26d77c0000000p-4, 0x1.e8d2b80000000p-4, -0x1.86aa280000000p-4, -0x1.e9faf00000000p-4, -0x1.1ae7000000000p-5, 0x1.0cd6a40000000p-4, -0x1.1ed7100000000p-3, -0x1.a13b3c0000000p-4, 0x1.22a7f40000000p-4, 0x1.b81db80000000p-4, -0x1.f142d00000000p-6, -0x1.cbf7700000000p-5, -0x1.55d4200000000p-7, 0x1.b817000000000p-4, -0x1.d4dbf80000000p-5, -0x1.0526100000000p-4, -0x1.ff05d00000000p-6, -0x1.34b1800000000p-6, -0x1.3069400000000p-8, 0x1.cbf8800000000p-8, 0x1.2ed9480000000p-3, -0x1.24a2400000000p-3, -0x1.3d6d300000000p-6, -0x1.0b61560000000p-4, 0x1.55bcf80000000p-5, -0x1.1dcbe40000000p-3, 0x1.576c700000000p-6, -0x1.44c5840000000p-3, 0x1.2c9a1c0000000p-3, -0x1.be21b80000000p-5, -0x1.630cd00000000p-5, 0x1.0de01c0000000p-3, -0x1.f6dc380000000p-4, -0x1.d390640000000p-4, 0x1.c1c5a80000000p-4, -0x1.900b5c0000000p-4, -0x1.791f8a0000000p-4, 0x1.8d0ad00000000p-6, -0x1.7bdb440000000p-5, 0x1.9c25e00000000p-4, 0x1.b9bfe00000000p-4, 0x1.8d71d00000000p-4, -0x1.3692980000000p-5, 0x1.dac1700000000p-4, -0x1.3ee2c40000000p-5, -0x1.e8f09c0000000p-4, -0x1.46eca80000000p-5, 0x1.d73d180000000p-5, 0x1.2113a80000000p-3, 0x1.7893700000000p-4, 0x1.6cef900000000p-6, 0x1.1a392c0000000p-3, 0x1.a2ae400000000p-6, 0x1.60f5500000000p-4, 0x1.3667780000000p-3, -0x1.82fd7c0000000p-4, 0x1.1f71880000000p-4, -0x1.f617aa0000000p-4, 0x1.0a57d80000000p-4, -0x1.40f3ea0000000p-4, 0x1.78efe00000000p-4, 0x1.23a7840000000p-3, 0x1.4206d00000000p-4, -0x1.12c0920000000p-3, -0x1.3959500000000p-4, 0x1.39ae400000000p-8, 0x1.0027700000000p-5, 0x1.fa2bc80000000p-5, -0x1.09751a0000000p-3, -0x1.9403a80000000p-5, 0x1.f287780000000p-4, 0x1.a7ebd00000000p-5, 0x1.5482800000000p-7, -0x1.7b42000000000p-9, 0x1.ba99800000000p-4, -0x1.04ba740000000p-4, -0x1.93720e0000000p-4, 0x1.fdd3a80000000p-4, 0x1.16f0640000000p-4, -0x1.70cc480000000p-5, 0x1.6422c40000000p-4, -0x1.e119700000000p-6, -0x1.0749c80000000p-4, -0x1.0a21d00000000p-5, -0x1.f6ca400000000p-4, -0x1.cd8d340000000p-4, 0x1.f741580000000p-5, 0x1.b9f3300000000p-4, -0x1.d0dac00000000p-8, 0x1.b2a5400000000p-8, 0x1.bee9d00000000p-5, -0x1.c10c800000000p-9, 0x1.025c3c0000000p-3, 0x1.f4f0380000000p-5, 0x1.c2d5f80000000p-4, 0x1.04c0300000000p-4, 0x1.bcd4d00000000p-4, 0x1.c046d00000000p-4, -0x1.0723800000000p-5, 0x1.4340240000000p-4, 0x1.99d3200000000p-4, 0x1.fe60280000000p-4, -0x1.9c9f040000000p-4, -0x1.152c200000000p-3, -0x1.98f8800000000p-5, 0x1.240a080000000p-4, -0x1.56eabc0000000p-4, 0x1.bf08100000000p-4, 0x1.5146500000000p-5, -0x1.b218c80000000p-5, -0x1.ff5e000000000p-4, 0x1.b47fd00000000p-4, 0x1.aee8a00000000p-6, -0x1.ef838e0000000p-4, 0x1.fe50800000000p-4, -0x1.34b4820000000p-3, -0x1.400bb60000000p-3, -0x1.6b0ff00000000p-4, -0x1.2feaa40000000p-3, -0x1.3297200000000p-5, 0x1.4544340000000p-3, -0x1.babc400000000p-7, 0x1.7e2cb00000000p-4, 0x1.197cf00000000p-5, -0x1.2a14e40000000p-3, 0x1.12cfc80000000p-3, 0x1.ac34e00000000p-4, -0x1.09d5400000000p-8, -0x1.36733e0000000p-3, 0x1.46b3b00000000p-4, -0x1.3ce58a0000000p-3, -0x1.7e1cce0000000p-4, 0x1.917e400000000p-4, -0x1.a2f1600000000p-7, 0x1.47d2e00000000p-4, -0x1.2f8f2c0000000p-3, 0x1.e4af700000000p-6, 0x1.0060140000000p-4, 0x1.06cbf00000000p-3, 0x1.9699e00000000p-4, 0x1.ca64c80000000p-5, 0x1.fe0f780000000p-4, -0x1.c833400000000p-6, 0x1.1ff7600000000p-3, 0x1.22a3600000000p-6, 0x1.7620680000000p-5, -0x1.98a0d40000000p-5, -0x1.d3cd5c0000000p-4, -0x1.448a680000000p-3, -0x1.0af5bc0000000p-3, 0x1.51cc280000000p-5, -0x1.0c6dd60000000p-4, 0x1.1fdc900000000p-5, -0x1.f8e7700000000p-4, 0x1.4080200000000p-3, -0x1.6d064e0000000p-4, 0x1.fd8a980000000p-4, -0x1.2a30e00000000p-7, 0x1.711a080000000p-4, -0x1.245dc00000000p-8}
}
;

#undef INPUT_SAMPLES
#undef FC_UNITS