/**
  ******************************************************************************
  * @file    weights/fc.cc
  * @author  Pierre-Emmanuel Novac <penovac@unice.fr>, LEAT, CNRS, Université Côte d'Azur, France
  * @version 1.0.0
  * @date    24 march 2020
  * @brief   Template generating plain C code for the implementation of Convolutional Neural Networks on MCU
  */

#include <stdint.h>

#define INPUT_SAMPLES 896
#define FC_UNITS 10


const float dense_1_bias[FC_UNITS] = {0x0.0p+0, 0x0.0p+0, 0x0.0p+0, 0x0.0p+0, 0x0.0p+0, 0x0.0p+0, 0x0.0p+0, 0x0.0p+0, 0x0.0p+0, 0x0.0p+0}
;

const float dense_1_kernel[FC_UNITS][INPUT_SAMPLES] = {{0x1.0c31c80000000p-6, 0x1.0a2b700000000p-5, 0x1.8b57000000000p-11, -0x1.57c9300000000p-6, -0x1.33b8300000000p-5, -0x1.23d1220000000p-4, 0x1.885ee00000000p-5, -0x1.4c13e20000000p-4, 0x1.44f3640000000p-4, 0x1.4347080000000p-6, -0x1.9b55f40000000p-5, -0x1.250c300000000p-4, 0x1.2139a80000000p-4, -0x1.4c6d480000000p-6, -0x1.123d060000000p-4, 0x1.1d079c0000000p-4, -0x1.a47e280000000p-6, -0x1.4b521e0000000p-5, -0x1.ea64a00000000p-5, -0x1.9db0c40000000p-5, -0x1.228a120000000p-4, 0x1.b99ff80000000p-6, -0x1.8d66700000000p-7, -0x1.2ce4000000000p-9, -0x1.544a800000000p-9, -0x1.40046a0000000p-4, 0x1.ddd4a00000000p-5, -0x1.56dee00000000p-7, -0x1.22dac20000000p-4, 0x1.1a71800000000p-4, 0x1.0e26780000000p-5, 0x1.2cd5a00000000p-4, -0x1.4906900000000p-4, 0x1.4b9f500000000p-6, 0x1.41031c0000000p-4, -0x1.70fc940000000p-6, -0x1.c103dc0000000p-6, 0x1.b08a000000000p-6, 0x1.a0fcf00000000p-6, 0x1.0736800000000p-7, -0x1.4db9640000000p-6, 0x1.8922000000000p-11, -0x1.273dbe0000000p-4, -0x1.d60d7a0000000p-5, -0x1.3fbbb40000000p-4, -0x1.682f7c0000000p-5, 0x1.b7dc000000000p-13, 0x1.678da00000000p-8, 0x1.dfa0b80000000p-6, 0x1.08f1200000000p-5, 0x1.8a75700000000p-5, 0x1.409f000000000p-8, -0x1.375b300000000p-7, -0x1.86b9a00000000p-8, -0x1.4fa8f20000000p-5, 0x1.c5d0700000000p-7, -0x1.bcec700000000p-5, 0x1.cea6e80000000p-5, 0x1.af3d800000000p-5, -0x1.bf3e180000000p-6, -0x1.38e2c20000000p-5, 0x1.2809480000000p-6, 0x1.fb95800000000p-6, 0x1.cc24200000000p-6, 0x1.09aa400000000p-4, 0x1.40c4540000000p-4, 0x1.2b53240000000p-4, 0x1.6c62780000000p-5, 0x1.00d3c00000000p-6, 0x1.16bf900000000p-4, 0x1.1011400000000p-4, -0x1.79b7600000000p-8, 0x1.dbe7400000000p-8, -0x1.cc43940000000p-5, -0x1.c34bc40000000p-6, 0x1.4a2ba00000000p-7, 0x1.d79b580000000p-5, -0x1.2f20e60000000p-4, 0x1.99b6180000000p-6, 0x1.bc36880000000p-5, -0x1.e8ec000000000p-9, -0x1.27d9d40000000p-5, -0x1.9869980000000p-6, 0x1.5120640000000p-5, -0x1.1f7a200000000p-4, -0x1.009ae00000000p-5, -0x1.1a12580000000p-5, 0x1.a628700000000p-5, -0x1.adaef80000000p-5, -0x1.5302780000000p-5, -0x1.af78800000000p-9, -0x1.0fcf500000000p-6, -0x1.4a5d800000000p-9, -0x1.22136c0000000p-5, -0x1.3ad1d80000000p-4, -0x1.54ef780000000p-6, 0x1.7cc4100000000p-6, 0x1.f1b0000000000p-9, 0x1.851e600000000p-7, 0x1.3c133c0000000p-5, -0x1.ebe2fc0000000p-5, 0x1.2201cc0000000p-4, 0x1.0ccd100000000p-4, -0x1.c6cddc0000000p-6, -0x1.5db4fe0000000p-5, -0x1.13af280000000p-6, 0x1.18024c0000000p-4, -0x1.63ce9c0000000p-5, -0x1.a3d3e80000000p-6, 0x1.f207300000000p-5, -0x1.ab684c0000000p-6, -0x1.f717780000000p-6, 0x1.efc2700000000p-5, -0x1.e6ed400000000p-8, -0x1.caf9b60000000p-5, -0x1.27083c0000000p-4, 0x1.b48c680000000p-5, -0x1.d175c20000000p-5, 0x1.488eb00000000p-4, 0x1.3e2a840000000p-4, -0x1.95d6380000000p-5, -0x1.9ff6500000000p-7, 0x1.0caec00000000p-5, -0x1.2cedbc0000000p-4, 0x1.15498c0000000p-5, -0x1.25c7520000000p-4, 0x1.78b8f00000000p-6, -0x1.ba37c80000000p-5, 0x1.ada5700000000p-6, 0x1.6b32a80000000p-5, -0x1.249efa0000000p-5, 0x1.6ef4300000000p-5, -0x1.8f94b80000000p-6, -0x1.2442fa0000000p-5, -0x1.d111400000000p-9, 0x1.bfb6c80000000p-6, -0x1.136d280000000p-4, 0x1.3d87180000000p-4, -0x1.3ec2b80000000p-6, -0x1.4d7d7c0000000p-6, 0x1.4fb7580000000p-5, -0x1.211b2c0000000p-4, 0x1.0240400000000p-4, -0x1.14f2e20000000p-5, 0x1.1527600000000p-5, 0x1.7f93000000000p-10, 0x1.3435a40000000p-5, -0x1.292d580000000p-5, 0x1.34a3740000000p-4, 0x1.3948500000000p-4, 0x1.dd8a580000000p-5, 0x1.7574b00000000p-7, 0x1.e675f80000000p-5, 0x1.2229f80000000p-6, 0x1.ce12600000000p-8, 0x1.1b2de00000000p-7, 0x1.75d5800000000p-7, 0x1.b5ff200000000p-5, 0x1.e43bd80000000p-5, 0x1.f9fa400000000p-5, 0x1.83d3200000000p-5, 0x1.4222fc0000000p-4, 0x1.c968280000000p-5, -0x1.9f25b00000000p-5, 0x1.2f20100000000p-5, 0x1.0f6a400000000p-7, -0x1.fc58540000000p-5, 0x1.d70a480000000p-5, 0x1.49c6a80000000p-4, 0x1.06b1680000000p-5, -0x1.45d93e0000000p-4, -0x1.f947800000000p-7, -0x1.90a7de0000000p-5, -0x1.1c80200000000p-8, -0x1.3ae5e00000000p-7, -0x1.f669000000000p-9, -0x1.ecb9dc0000000p-6, -0x1.109d300000000p-7, -0x1.bc40900000000p-7, 0x1.b74fd80000000p-5, -0x1.572b080000000p-5, 0x1.4029300000000p-5, -0x1.c740f80000000p-5, 0x1.947c780000000p-6, -0x1.c9cffc0000000p-5, -0x1.3349840000000p-4, -0x1.2d11400000000p-8, 0x1.110af00000000p-5, -0x1.2dea0c0000000p-4, 0x1.a43ac80000000p-5, 0x1.8d7dc00000000p-7, 0x1.c164b80000000p-6, -0x1.4b8aae0000000p-4, 0x1.f0e4680000000p-6, -0x1.072fb40000000p-4, -0x1.8728640000000p-5, -0x1.74fa400000000p-9, 0x1.1165e00000000p-6, -0x1.f475000000000p-7, -0x1.24b14a0000000p-4, -0x1.f526140000000p-6, -0x1.5ea2d20000000p-5, 0x1.8b80100000000p-5, 0x1.486db40000000p-5, -0x1.acfa1c0000000p-5, -0x1.a942300000000p-7, 0x1.09efc00000000p-5, -0x1.189b4e0000000p-4, -0x1.3b7ecc0000000p-6, -0x1.8dbfa00000000p-7, 0x1.0c38080000000p-4, -0x1.551a600000000p-8, 0x1.9746800000000p-10, -0x1.4492e00000000p-7, 0x1.feaaa80000000p-5, -0x1.63d8020000000p-5, -0x1.2a48020000000p-5, -0x1.0927280000000p-5, 0x1.414e340000000p-4, 0x1.99c0700000000p-6, 0x1.9ba1000000000p-10, 0x1.1bfbe40000000p-4, 0x1.c7bcf00000000p-5, 0x1.6e68e00000000p-5, 0x1.b559780000000p-5, -0x1.e0bbe40000000p-5, -0x1.87a3980000000p-5, 0x1.ff32e00000000p-6, 0x1.9ae6580000000p-5, -0x1.52f8620000000p-5, -0x1.0d6f5e0000000p-4, 0x1.56f21c0000000p-5, 0x1.7cdcd00000000p-7, 0x1.398ce00000000p-8, 0x1.0718000000000p-4, -0x1.929fec0000000p-5, -0x1.36c7a00000000p-5, 0x1.a6a5100000000p-7, 0x1.cf4d300000000p-6, -0x1.ed51440000000p-5, -0x1.b6a8f40000000p-5, -0x1.2987d80000000p-6, -0x1.f603400000000p-7, -0x1.1ccb060000000p-4, 0x1.4710e80000000p-4, -0x1.c8fa140000000p-6, -0x1.9764b00000000p-7, -0x1.0be34c0000000p-5, -0x1.5700780000000p-5, 0x1.2a83dc0000000p-5, -0x1.9f62e00000000p-5, -0x1.698c300000000p-5, -0x1.27713c0000000p-4, 0x1.be3dc80000000p-5, -0x1.3913580000000p-4, -0x1.e061300000000p-5, -0x1.83ac700000000p-7, -0x1.8675460000000p-5, 0x1.8db9100000000p-6, 0x1.6441800000000p-9, -0x1.47a2fc0000000p-4, 0x1.338cfc0000000p-5, 0x1.ed12900000000p-6, 0x1.1eaeb40000000p-4, -0x1.68dd300000000p-5, 0x1.0ea2200000000p-4, -0x1.f58c400000000p-8, 0x1.0b02480000000p-5, 0x1.1775880000000p-5, -0x1.01183e0000000p-4, 0x1.41a2c80000000p-6, -0x1.20e4000000000p-10, -0x1.2af46a0000000p-4, 0x1.8a75e00000000p-5, -0x1.bc9f000000000p-8, 0x1.122ad00000000p-5, 0x1.1991800000000p-9, 0x1.2845140000000p-4, 0x1.e59d680000000p-5, -0x1.3d63100000000p-4, -0x1.1719900000000p-6, 0x1.c00dc00000000p-9, -0x1.f825e40000000p-6, -0x1.1327940000000p-5, -0x1.8b15600000000p-6, 0x1.e481500000000p-5, 0x1.86a7c80000000p-5, 0x1.fde0a80000000p-5, 0x1.d7d2500000000p-6, 0x1.757a800000000p-10, 0x1.8c15800000000p-9, -0x1.ad77200000000p-7, 0x1.805c800000000p-5, 0x1.24d5780000000p-4, -0x1.aa4ad00000000p-7, 0x1.166b500000000p-7, -0x1.2942560000000p-4, -0x1.dca2200000000p-7, 0x1.3f73ac0000000p-4, -0x1.b3e4f00000000p-7, 0x1.3636140000000p-4, -0x1.241fd40000000p-4, -0x1.89dac40000000p-5, -0x1.04968e0000000p-5, -0x1.229e700000000p-4, -0x1.1920800000000p-4, -0x1.d456b80000000p-6, 0x1.7574080000000p-5, 0x1.52ee500000000p-7, 0x1.0248dc0000000p-4, 0x1.5c16880000000p-5, -0x1.20b5400000000p-8, 0x1.6fee000000000p-10, 0x1.a27c600000000p-8, 0x1.852b200000000p-5, 0x1.bf48000000000p-9, 0x1.e3c0600000000p-7, -0x1.579f480000000p-5, -0x1.bc68140000000p-5, 0x1.2b80340000000p-4, 0x1.656cd80000000p-5, -0x1.71cfa00000000p-8, 0x1.0ef6080000000p-6, 0x1.0380a80000000p-6, 0x1.f09c200000000p-7, 0x1.4317300000000p-5, -0x1.faa5b00000000p-5, -0x1.7932300000000p-7, -0x1.d6b4440000000p-5, 0x1.2122dc0000000p-5, 0x1.8f36880000000p-5, -0x1.34b1a80000000p-5, 0x1.200ad80000000p-5, -0x1.9107000000000p-6, 0x1.41abe80000000p-6, 0x1.cbddd80000000p-5, 0x1.c892f00000000p-5, -0x1.ae83c00000000p-8, 0x1.175de80000000p-4, 0x1.28e2140000000p-4, -0x1.f038d40000000p-5, 0x1.a5e8f80000000p-5, 0x1.47a3ac0000000p-4, 0x1.049edc0000000p-5, 0x1.b7ddf00000000p-6, 0x1.c6ec580000000p-5, 0x1.7e0f400000000p-8, 0x1.4dee080000000p-6, -0x1.4a74b00000000p-4, 0x1.7f67f00000000p-6, -0x1.d81f380000000p-6, -0x1.6345400000000p-6, 0x1.a11ff00000000p-5, 0x1.be3fb80000000p-5, 0x1.6ec9400000000p-8, -0x1.39b45a0000000p-5, 0x1.faa9280000000p-5, -0x1.f7e1e40000000p-5, -0x1.0b376c0000000p-4, -0x1.d263000000000p-10, -0x1.97d6880000000p-6, -0x1.1f19240000000p-4, -0x1.bf77c00000000p-5, 0x1.a210000000000p-11, 0x1.04abe40000000p-4, 0x1.8c85180000000p-5, -0x1.d0b9880000000p-6, 0x1.9f97c80000000p-6, 0x1.0a93800000000p-10, 0x1.41898c0000000p-4, 0x1.3cfd5c0000000p-5, -0x1.0c1f120000000p-4, 0x1.86a0700000000p-5, 0x1.0f47c40000000p-4, 0x1.6221b00000000p-7, -0x1.f8c5200000000p-8, 0x1.7ed7000000000p-5, -0x1.37ff8c0000000p-5, -0x1.67cca00000000p-7, -0x1.ea2a5c0000000p-5, 0x1.4581940000000p-5, 0x1.156de40000000p-4, -0x1.1e9a3c0000000p-4, 0x1.f7af000000000p-10, -0x1.dee69e0000000p-5, -0x1.47a95a0000000p-4, -0x1.29ffce0000000p-4, -0x1.3c05940000000p-4, 0x1.d564400000000p-5, 0x1.0dbad80000000p-4, -0x1.f223400000000p-9, 0x1.461aa40000000p-4, 0x1.a9f4000000000p-5, 0x1.72e3200000000p-7, -0x1.85deb80000000p-5, 0x1.bffa180000000p-6, -0x1.17bdc00000000p-8, 0x1.b76ac80000000p-6, 0x1.2d67700000000p-6, 0x1.377ea00000000p-4, 0x1.57b9000000000p-8, 0x1.b9cfc00000000p-7, 0x1.cad9700000000p-5, 0x1.3018600000000p-6, -0x1.8255000000000p-7, -0x1.2332400000000p-9, -0x1.1b3b400000000p-7, -0x1.ace8000000000p-11, -0x1.04bfc00000000p-4, 0x1.2a60f40000000p-4, 0x1.1829480000000p-6, -0x1.96b0000000000p-12, 0x1.a948b00000000p-6, -0x1.c464e20000000p-5, -0x1.fcc02c0000000p-6, -0x1.269ad00000000p-6, -0x1.04356e0000000p-4, 0x1.1eb9840000000p-5, -0x1.c0bb600000000p-8, -0x1.ab87240000000p-6, -0x1.d63b300000000p-7, 0x1.c343200000000p-7, -0x1.15a1980000000p-6, 0x1.4e16540000000p-5, -0x1.42c2900000000p-7, -0x1.0e5eaa0000000p-4, -0x1.0df6180000000p-5, -0x1.2624020000000p-4, -0x1.aeba640000000p-5, 0x1.abbb800000000p-8, -0x1.9062480000000p-6, 0x1.b711f00000000p-6, -0x1.31df5c0000000p-4, -0x1.fa2be00000000p-7, 0x1.f5bb000000000p-6, 0x1.59a0800000000p-10, 0x1.6469600000000p-8, 0x1.3bff040000000p-4, -0x1.347f400000000p-7, 0x1.663cd80000000p-5, 0x1.24874c0000000p-4, -0x1.9789640000000p-5, -0x1.fc7b600000000p-8, -0x1.f001c80000000p-5, 0x1.b4a4b00000000p-6, 0x1.473e4c0000000p-4, -0x1.0112200000000p-8, -0x1.1e048a0000000p-4, 0x1.11474c0000000p-4, 0x1.3a5b400000000p-8, 0x1.7536600000000p-5, 0x1.84bc900000000p-5, -0x1.12dce00000000p-4, 0x1.168abc0000000p-4, -0x1.02e3ca0000000p-5, -0x1.5a25580000000p-5, 0x1.e94dd00000000p-6, -0x1.6d4a820000000p-5, 0x1.8ba9000000000p-8, -0x1.ec0cb00000000p-7, -0x1.2550f40000000p-5, 0x1.a39c600000000p-8, -0x1.8dc17c0000000p-5, -0x1.9bf1780000000p-6, -0x1.1f09660000000p-4, 0x1.6a58000000000p-13, 0x1.6b61c80000000p-6, -0x1.a5df200000000p-8, 0x1.2b2a9c0000000p-5, -0x1.35be260000000p-4, 0x1.b7ce400000000p-7, 0x1.13f4f00000000p-5, 0x1.fa1ba80000000p-5, 0x1.45a3080000000p-4, -0x1.464c700000000p-7, 0x1.3724e40000000p-4, -0x1.ea55a00000000p-8, -0x1.5e04000000000p-13, 0x1.84a4080000000p-5, 0x1.fc9b800000000p-10, -0x1.9a055c0000000p-6, -0x1.1f9a020000000p-4, 0x1.386c540000000p-4, -0x1.1c91000000000p-4, 0x1.3666f00000000p-5, -0x1.056a500000000p-6, -0x1.3d108c0000000p-4, 0x1.0fe6d00000000p-6, 0x1.190f180000000p-6, 0x1.4f82400000000p-6, 0x1.1a64300000000p-4, 0x1.c453200000000p-7, 0x1.23d6d00000000p-4, 0x1.2792600000000p-5, -0x1.87d3da0000000p-5, 0x1.46cce40000000p-4, 0x1.2cb9cc0000000p-4, -0x1.4649340000000p-6, -0x1.2d66b00000000p-7, 0x1.1773a40000000p-4, -0x1.ded0d80000000p-5, 0x1.bbf7a00000000p-7, 0x1.6a5aa80000000p-5, 0x1.939e500000000p-5, -0x1.2176ee0000000p-4, -0x1.4ab5ca0000000p-4, 0x1.63e3100000000p-7, 0x1.8715c00000000p-5, -0x1.ccf3600000000p-7, -0x1.70d4b40000000p-6, 0x1.6b33780000000p-6, 0x1.3682140000000p-5, -0x1.061f000000000p-11, -0x1.05daca0000000p-4, -0x1.52426a0000000p-5, -0x1.8d13220000000p-5, -0x1.bb81c00000000p-9, 0x1.14e8480000000p-4, 0x1.263bec0000000p-4, -0x1.3b51ac0000000p-5, 0x1.7fca500000000p-7, 0x1.6dcf780000000p-5, -0x1.31f1980000000p-6, -0x1.0855860000000p-4, 0x1.c216600000000p-7, -0x1.09f6b00000000p-4, -0x1.48a4580000000p-5, 0x1.ebd1880000000p-6, 0x1.056b2c0000000p-4, -0x1.786b000000000p-10, 0x1.6ec5880000000p-6, -0x1.17f4660000000p-4, -0x1.12a3ee0000000p-4, 0x1.533aa00000000p-7, 0x1.4520a80000000p-4, 0x1.5865400000000p-9, 0x1.6f67a00000000p-5, 0x1.3c4e600000000p-4, 0x1.7339c80000000p-5, 0x1.202df00000000p-4, 0x1.5c0ab00000000p-6, 0x1.3a131c0000000p-5, 0x1.38ed740000000p-5, 0x1.9dde100000000p-6, 0x1.dda2000000000p-7, 0x1.6586800000000p-9, 0x1.8393d80000000p-6, 0x1.1f7b7c0000000p-5, 0x1.94a7180000000p-5, 0x1.23387c0000000p-4, -0x1.f9f7740000000p-6, -0x1.45c93c0000000p-4, -0x1.2080b00000000p-7, 0x1.2373b00000000p-4, -0x1.6fd3aa0000000p-5, -0x1.8d07e60000000p-5, -0x1.09d1320000000p-5, -0x1.5d29820000000p-5, -0x1.4581000000000p-8, 0x1.87d6600000000p-5, -0x1.74172a0000000p-5, -0x1.4636c00000000p-4, -0x1.2f1dd00000000p-6, -0x1.28cce00000000p-8, 0x1.9aa0b80000000p-5, -0x1.c864ac0000000p-5, 0x1.41e7b80000000p-5, 0x1.30bcf00000000p-4, 0x1.5a26140000000p-5, -0x1.004d040000000p-4, 0x1.7077000000000p-5, 0x1.21683c0000000p-4, 0x1.bf89680000000p-5, 0x1.b97fa80000000p-6, -0x1.9fa4cc0000000p-5, -0x1.2f82b60000000p-4, -0x1.5a70220000000p-5, -0x1.7a53a80000000p-6, -0x1.89a5380000000p-5, 0x1.471dc00000000p-6, 0x1.9ba1180000000p-5, 0x1.beb2b00000000p-7, -0x1.be34f80000000p-6, -0x1.fa25700000000p-6, 0x1.f371400000000p-7, -0x1.1537400000000p-8, 0x1.cb67c00000000p-7, -0x1.0ea8800000000p-9, 0x1.bf12400000000p-5, -0x1.cbfa600000000p-5, -0x1.6e63100000000p-5, 0x1.b168400000000p-8, -0x1.f1e4ac0000000p-5, 0x1.c2f5100000000p-5, -0x1.aad2200000000p-8, 0x1.70c3000000000p-5, -0x1.80a8d80000000p-5, 0x1.4b4d340000000p-4, 0x1.9e71780000000p-5, 0x1.1d26f00000000p-5, 0x1.33a6080000000p-6, 0x1.4337200000000p-4, 0x1.f226180000000p-5, -0x1.6846a40000000p-6, 0x1.19c9ac0000000p-5, -0x1.3de3e80000000p-6, 0x1.4a8ef00000000p-6, -0x1.302f6c0000000p-5, 0x1.ef3ab80000000p-6, -0x1.b230d80000000p-5, -0x1.f743d00000000p-5, -0x1.a650600000000p-6, 0x1.3e9c000000000p-11, -0x1.5c55840000000p-5, -0x1.e1a8100000000p-7, 0x1.100b680000000p-4, 0x1.f49f000000000p-6, -0x1.b3f1d00000000p-7, -0x1.633cc80000000p-5, -0x1.0c05e80000000p-4, -0x1.7d869c0000000p-5, 0x1.05c39c0000000p-4, 0x1.cffb300000000p-6, 0x1.27c9740000000p-4, 0x1.88db280000000p-6, 0x1.ff7a100000000p-7, -0x1.acba000000000p-7, 0x1.4693d40000000p-5, 0x1.adc5580000000p-6, -0x1.35f04c0000000p-6, -0x1.166f4e0000000p-4, 0x1.1ebdf40000000p-5, 0x1.19beb40000000p-4, 0x1.1e690c0000000p-5, 0x1.d20ee00000000p-8, -0x1.edb6780000000p-6, -0x1.812ee80000000p-6, -0x1.a549640000000p-5, 0x1.196d000000000p-4, -0x1.f7c5dc0000000p-6, -0x1.3ba1a00000000p-4, 0x1.5f69100000000p-5, 0x1.aab0700000000p-5, 0x1.b75e800000000p-10, 0x1.37d8d00000000p-6, 0x1.15a3ec0000000p-5, 0x1.4767940000000p-4, -0x1.4a72540000000p-5, 0x1.09ded40000000p-5, 0x1.5ad2b00000000p-5, -0x1.04883c0000000p-4, 0x1.3635ec0000000p-5, -0x1.e95d9c0000000p-5, 0x1.2942c80000000p-5, 0x1.35b2a80000000p-5, 0x1.39c2200000000p-4, 0x1.26dd8c0000000p-5, -0x1.370c580000000p-4, -0x1.b0757e0000000p-5, 0x1.22a0740000000p-5, 0x1.ff6f400000000p-6, -0x1.27ab7c0000000p-4, -0x1.1565380000000p-5, -0x1.4213a00000000p-4, 0x1.8c47b00000000p-7, 0x1.4083b00000000p-7, 0x1.8835b80000000p-5, -0x1.b134740000000p-5, 0x1.ea69700000000p-6, -0x1.dfa7f80000000p-6, -0x1.150b020000000p-4, 0x1.69b4900000000p-5, 0x1.bbd8600000000p-8, -0x1.210b140000000p-4, -0x1.1244d00000000p-4, 0x1.2a93e40000000p-5, -0x1.1d9b080000000p-4, 0x1.0e49000000000p-10, 0x1.0633e00000000p-4, 0x1.e6a2000000000p-8, 0x1.c545200000000p-8, 0x1.9ccfe00000000p-8, -0x1.083d000000000p-7, 0x1.dd31600000000p-6, 0x1.f0e6b00000000p-5, -0x1.9c51dc0000000p-5, 0x1.232d140000000p-4, 0x1.2d3fe80000000p-4, 0x1.1a0fa80000000p-4, -0x1.5cc6060000000p-5, 0x1.137d100000000p-5, -0x1.4bf6340000000p-4, -0x1.dd06f80000000p-5, 0x1.f0dc000000000p-5, -0x1.89028c0000000p-6, -0x1.54c9900000000p-7, -0x1.4dcec80000000p-6, 0x1.10e2080000000p-4, 0x1.981d880000000p-5, -0x1.992ae80000000p-5, 0x1.4547ec0000000p-4, -0x1.23c3700000000p-4, -0x1.1b407a0000000p-4, 0x1.7925800000000p-5, -0x1.e113800000000p-6, -0x1.ff50d00000000p-5, -0x1.6317440000000p-5, 0x1.8d08f80000000p-5, 0x1.142cc40000000p-5, 0x1.571c2c0000000p-5, -0x1.feb5400000000p-9, 0x1.357ed00000000p-4, -0x1.3b5bee0000000p-5, -0x1.0796b00000000p-6, -0x1.2abac60000000p-4, -0x1.243c100000000p-4, -0x1.22bf400000000p-5, -0x1.e14a780000000p-5, -0x1.946b260000000p-5, 0x1.9520e00000000p-6, 0x1.68fb480000000p-5, 0x1.7511500000000p-5, 0x1.19d1040000000p-4, 0x1.32faf80000000p-6, -0x1.05e8860000000p-5, -0x1.63ab220000000p-5, -0x1.2835420000000p-4, -0x1.a939640000000p-6, 0x1.54d8d80000000p-5, -0x1.d3b5980000000p-6, 0x1.1aa8a00000000p-4, -0x1.8394ac0000000p-5, -0x1.f4b5540000000p-5, 0x1.2764b80000000p-4, -0x1.9e54560000000p-5, -0x1.42481e0000000p-5, 0x1.1530880000000p-5, 0x1.82ebd00000000p-6, 0x1.8d37900000000p-7, -0x1.aa6dd00000000p-5, 0x1.2ec8a80000000p-4, 0x1.3c327c0000000p-4, 0x1.1527740000000p-4, -0x1.0fd7540000000p-4, 0x1.c3cae00000000p-7, 0x1.b630380000000p-5, 0x1.a966080000000p-5, 0x1.7e6cb80000000p-6, -0x1.3880740000000p-6, -0x1.c0d0d80000000p-5, 0x1.61872c0000000p-5, 0x1.6b18980000000p-5, -0x1.b26de00000000p-6, -0x1.9306f40000000p-6, -0x1.9cfdf00000000p-7, 0x1.03dae40000000p-4, -0x1.12186c0000000p-4, 0x1.6fa8600000000p-5, 0x1.060e880000000p-5, -0x1.fbbff40000000p-5, 0x1.fe53f00000000p-5, 0x1.43bf780000000p-6, 0x1.e098600000000p-6, 0x1.0050bc0000000p-5, -0x1.129b900000000p-4, -0x1.81b5ec0000000p-6, 0x1.1731dc0000000p-4, 0x1.aa5ab00000000p-6, 0x1.d1e6c80000000p-5, -0x1.0e6c800000000p-6, -0x1.81274e0000000p-5, 0x1.0a83200000000p-4, 0x1.d989800000000p-5, -0x1.311fd00000000p-7, 0x1.4356b40000000p-5, -0x1.d09f800000000p-7, 0x1.62627c0000000p-5, 0x1.8cc2e00000000p-8, 0x1.4fc9c00000000p-8, -0x1.2d23340000000p-5, -0x1.29e04c0000000p-5, 0x1.0ef2300000000p-4, -0x1.8eac1a0000000p-5, 0x1.a893380000000p-6, -0x1.6c51600000000p-8, 0x1.90c3a00000000p-8, 0x1.b364200000000p-5, 0x1.aae1a00000000p-5, 0x1.a481d00000000p-5, 0x1.8d1f600000000p-8, -0x1.18cf000000000p-11, 0x1.915cf80000000p-5, -0x1.1bb3e60000000p-4, 0x1.18e2580000000p-5, 0x1.d629500000000p-5, 0x1.aeeb100000000p-7, -0x1.b9e20c0000000p-5, 0x1.00f50c0000000p-4, 0x1.38f9940000000p-4, -0x1.0638f20000000p-4, 0x1.1861f00000000p-7, 0x1.ee72c80000000p-5, 0x1.e466780000000p-5, -0x1.caa10c0000000p-5, 0x1.93e3800000000p-5, 0x1.383c580000000p-4, -0x1.e5ba640000000p-6, 0x1.541c800000000p-8, -0x1.6e1fd80000000p-6, -0x1.ea7b600000000p-8, 0x1.31e1800000000p-5, 0x1.79baa80000000p-6, -0x1.9103940000000p-6, 0x1.79f3f00000000p-6, 0x1.0b44d40000000p-4, 0x1.1037500000000p-7, 0x1.1308dc0000000p-5, 0x1.2120100000000p-5, 0x1.1e1e580000000p-6, -0x1.0101000000000p-11, 0x1.4794900000000p-6, -0x1.1787500000000p-4, -0x1.d226980000000p-6, -0x1.ad78a80000000p-5, 0x1.2944940000000p-4, 0x1.6e27400000000p-5, -0x1.8766980000000p-6, 0x1.156a980000000p-5, 0x1.b7ba100000000p-7, 0x1.2e3dd00000000p-4, 0x1.fd17700000000p-7, -0x1.077d140000000p-4, 0x1.765b300000000p-5, 0x1.19e9c40000000p-4, -0x1.cb13f00000000p-7, 0x1.678ce00000000p-7, -0x1.3943a40000000p-5, 0x1.15eec00000000p-4, 0x1.9338900000000p-5, 0x1.da1d000000000p-7, 0x1.8f8c200000000p-7, -0x1.0dc9680000000p-6, 0x1.81de000000000p-10, 0x1.0e788c0000000p-4, -0x1.a2f6d80000000p-5, -0x1.3ec8320000000p-4, 0x1.01ef6c0000000p-4, 0x1.7ab5c80000000p-5, 0x1.27b3c00000000p-7, -0x1.7426380000000p-6, -0x1.f392660000000p-5, 0x1.fb49000000000p-8, -0x1.f464c00000000p-7, 0x1.0903900000000p-7, 0x1.903fc00000000p-5, 0x1.7f1a700000000p-5, 0x1.b0aef00000000p-5, 0x1.0f90300000000p-7, -0x1.5f5c200000000p-6, 0x1.4595b80000000p-5, -0x1.7ea8c00000000p-7, -0x1.9970da0000000p-5, -0x1.81a2800000000p-7, -0x1.3122740000000p-5, -0x1.cffa9c0000000p-5, -0x1.9f3d700000000p-7, -0x1.2a4b000000000p-8, -0x1.113b280000000p-6, -0x1.ac9f0c0000000p-5, 0x1.ccd5a00000000p-6, -0x1.96eb5a0000000p-5, 0x1.0c4d000000000p-8, 0x1.1260600000000p-8, -0x1.aff6380000000p-5, 0x1.5923f00000000p-5, -0x1.f0998c0000000p-6, 0x1.55c5fc0000000p-5, -0x1.9d5aa00000000p-5, 0x1.00f8f80000000p-4, -0x1.faf9c00000000p-7, -0x1.0132e40000000p-5, -0x1.3163460000000p-4, 0x1.11b5780000000p-4, -0x1.5f53e00000000p-8, -0x1.01f24c0000000p-4, 0x1.d50da00000000p-5, 0x1.8d3b600000000p-8, 0x1.29408c0000000p-4, -0x1.3819cc0000000p-5, -0x1.86b89c0000000p-6, 0x1.ddad280000000p-5, 0x1.2d61f00000000p-5, 0x1.7903280000000p-6, -0x1.1df0800000000p-9, 0x1.02ea400000000p-4, -0x1.0378c60000000p-4}
, {0x1.666c700000000p-7, 0x1.59bec00000000p-7, 0x1.342d6c0000000p-5, -0x1.34c1380000000p-4, -0x1.166d020000000p-5, 0x1.404ed40000000p-5, -0x1.0bb1880000000p-4, 0x1.1909200000000p-4, 0x1.843ba80000000p-5, 0x1.d6e5880000000p-5, 0x1.2978200000000p-6, -0x1.1e3f1c0000000p-4, 0x1.2f40800000000p-6, 0x1.07d0580000000p-4, -0x1.4071f00000000p-7, -0x1.340e800000000p-9, -0x1.0401b60000000p-4, 0x1.3fd79c0000000p-5, 0x1.be18e00000000p-8, -0x1.16ed380000000p-6, -0x1.fc74a00000000p-7, -0x1.b83e240000000p-6, 0x1.3c96cc0000000p-4, -0x1.1fdabe0000000p-5, 0x1.a3ac880000000p-6, 0x1.c3cd100000000p-5, 0x1.21bdac0000000p-4, 0x1.3e3a640000000p-4, 0x1.fc9e280000000p-5, 0x1.7243100000000p-5, -0x1.83c09e0000000p-5, -0x1.c239c00000000p-9, -0x1.7e276a0000000p-5, 0x1.a78a400000000p-6, 0x1.296ebc0000000p-4, -0x1.fd45440000000p-5, -0x1.c9207c0000000p-6, -0x1.b8dde20000000p-5, -0x1.7a58dc0000000p-5, 0x1.c4ac100000000p-6, 0x1.7bf8200000000p-8, -0x1.3ac8cc0000000p-5, 0x1.561f200000000p-8, 0x1.0aae800000000p-7, 0x1.09ad640000000p-5, 0x1.06a5000000000p-10, 0x1.0c0ab80000000p-6, 0x1.29b4300000000p-6, 0x1.6a08d00000000p-5, -0x1.0c0c000000000p-9, 0x1.0ff51c0000000p-5, 0x1.6f92b80000000p-5, -0x1.06779c0000000p-4, -0x1.aee2f40000000p-5, 0x1.86c4180000000p-5, 0x1.9b45b00000000p-6, -0x1.3dac680000000p-5, 0x1.e69cb80000000p-6, -0x1.651dd00000000p-6, 0x1.44fb200000000p-4, -0x1.47d6000000000p-6, 0x1.2cd3800000000p-6, 0x1.6edc400000000p-7, 0x1.0bab400000000p-7, -0x1.39d3c00000000p-9, 0x1.4bccb80000000p-4, -0x1.fc6aee0000000p-5, -0x1.8fdce00000000p-8, 0x1.6000ac0000000p-5, 0x1.8528500000000p-7, -0x1.1a2ebe0000000p-4, -0x1.8651580000000p-6, 0x1.3da6d40000000p-4, -0x1.d946740000000p-5, 0x1.05e5480000000p-4, 0x1.eec7100000000p-7, 0x1.085e780000000p-5, 0x1.9a61000000000p-7, 0x1.eceab00000000p-7, -0x1.0881600000000p-6, 0x1.6b84c80000000p-5, 0x1.5f1f0c0000000p-5, -0x1.cb29900000000p-6, 0x1.ad7ed00000000p-5, 0x1.5fc8d80000000p-6, 0x1.43d0180000000p-4, -0x1.8963c00000000p-5, 0x1.4b00e00000000p-6, -0x1.3e7c7e0000000p-4, -0x1.ebdff00000000p-6, -0x1.8c5d880000000p-5, 0x1.c446800000000p-6, 0x1.341a400000000p-5, -0x1.321f380000000p-5, -0x1.0315900000000p-7, -0x1.8c19620000000p-5, -0x1.1bbdb80000000p-4, -0x1.37e4000000000p-5, -0x1.2e74a80000000p-4, 0x1.cdacc00000000p-5, 0x1.7337700000000p-5, 0x1.505bd00000000p-5, -0x1.fbfce80000000p-5, -0x1.b93cc00000000p-8, 0x1.a1f3c80000000p-5, 0x1.42cb5c0000000p-4, -0x1.02e11a0000000p-4, 0x1.f7bf300000000p-6, 0x1.7d52280000000p-6, 0x1.b397a80000000p-6, -0x1.0363000000000p-11, -0x1.06fada0000000p-5, 0x1.c0d3f00000000p-5, -0x1.6015400000000p-7, -0x1.e9fc740000000p-6, 0x1.b61e400000000p-8, -0x1.1127380000000p-6, 0x1.bcc4e00000000p-5, 0x1.d4f1200000000p-7, -0x1.82c30a0000000p-5, 0x1.e691200000000p-8, -0x1.1826980000000p-6, -0x1.03866c0000000p-5, -0x1.2b9e260000000p-4, -0x1.7e2d980000000p-5, -0x1.fc80880000000p-5, 0x1.c6cad00000000p-5, 0x1.4bb5480000000p-4, -0x1.61447a0000000p-5, -0x1.b0b25c0000000p-6, 0x1.f493b00000000p-6, 0x1.1a6d900000000p-4, 0x1.286eac0000000p-4, -0x1.d905c00000000p-9, 0x1.138c180000000p-4, -0x1.0dfdbe0000000p-5, 0x1.9829380000000p-6, 0x1.cf01200000000p-7, 0x1.212f7c0000000p-4, -0x1.a622a40000000p-6, -0x1.48ef360000000p-5, -0x1.4050a00000000p-5, 0x1.19ea980000000p-5, -0x1.953f4c0000000p-6, -0x1.b5c2a00000000p-7, -0x1.3247ca0000000p-5, -0x1.f288940000000p-6, -0x1.1711bc0000000p-4, -0x1.3bd2b20000000p-5, 0x1.967fc80000000p-5, -0x1.0dd4380000000p-4, -0x1.bf1c480000000p-5, -0x1.dc41600000000p-6, -0x1.3a3eb20000000p-5, -0x1.fb0d540000000p-5, 0x1.dccd200000000p-8, -0x1.3399f40000000p-5, 0x1.522e080000000p-5, -0x1.79a6c00000000p-8, -0x1.03ad520000000p-4, -0x1.82da320000000p-5, 0x1.39c9d00000000p-4, 0x1.f835180000000p-6, -0x1.b8ea800000000p-9, -0x1.4a1ac40000000p-4, 0x1.5835b40000000p-5, 0x1.2272dc0000000p-4, 0x1.9a4ed80000000p-5, 0x1.20e69c0000000p-5, -0x1.a3e6a00000000p-5, -0x1.8969200000000p-8, 0x1.2afe500000000p-7, 0x1.8643280000000p-5, -0x1.1962660000000p-5, 0x1.f993d80000000p-6, -0x1.9fbbfc0000000p-6, 0x1.39f2140000000p-4, 0x1.6cdcd00000000p-5, 0x1.3e6b040000000p-4, 0x1.196a740000000p-4, 0x1.c9d8180000000p-5, 0x1.a11b800000000p-5, 0x1.2871ec0000000p-4, 0x1.d374400000000p-7, -0x1.6bdcc00000000p-5, -0x1.b0fa000000000p-10, -0x1.c01b9c0000000p-5, 0x1.9fb0080000000p-5, -0x1.d262500000000p-7, -0x1.60f2f00000000p-7, -0x1.fd7f600000000p-5, -0x1.d14db80000000p-5, 0x1.1d47740000000p-4, 0x1.2db6800000000p-5, 0x1.0d58000000000p-4, 0x1.4310880000000p-4, -0x1.bb58cc0000000p-6, 0x1.6e8a000000000p-8, 0x1.2d44480000000p-5, 0x1.dafd680000000p-6, 0x1.11e7980000000p-4, -0x1.19e1e00000000p-4, -0x1.9be40a0000000p-5, 0x1.877ca00000000p-7, 0x1.4a9ac00000000p-4, -0x1.c62dbe0000000p-5, 0x1.25d3d00000000p-4, 0x1.5325500000000p-7, -0x1.0cff7e0000000p-4, 0x1.43983c0000000p-4, -0x1.47afbc0000000p-4, -0x1.698d600000000p-5, -0x1.b0ff1c0000000p-5, 0x1.3cd8580000000p-6, 0x1.de07800000000p-9, -0x1.0891fc0000000p-5, -0x1.0101e80000000p-4, 0x1.0db7e00000000p-4, -0x1.43a1a00000000p-4, 0x1.9fcee00000000p-6, 0x1.57fb800000000p-10, 0x1.47e3580000000p-4, 0x1.0464000000000p-8, -0x1.4342000000000p-7, -0x1.29ca0a0000000p-4, -0x1.0f0b100000000p-5, 0x1.0d29680000000p-4, 0x1.0c55240000000p-5, 0x1.3e10dc0000000p-4, 0x1.ec7b800000000p-5, 0x1.113a400000000p-7, 0x1.2e7f3c0000000p-4, -0x1.6e9ee00000000p-6, 0x1.79eb200000000p-8, 0x1.1070c00000000p-6, -0x1.d97f180000000p-6, -0x1.2a46900000000p-7, 0x1.4684000000000p-5, -0x1.eb0b9c0000000p-5, 0x1.0138600000000p-7, 0x1.201bec0000000p-5, -0x1.3e97200000000p-8, -0x1.3d9b500000000p-4, 0x1.2edce40000000p-4, 0x1.3c16100000000p-4, -0x1.aa573c0000000p-5, -0x1.0931100000000p-4, -0x1.46488c0000000p-6, 0x1.09bde40000000p-4, 0x1.620e200000000p-6, -0x1.84fd8c0000000p-5, -0x1.3936c20000000p-4, 0x1.fb3c800000000p-7, -0x1.d32dc60000000p-5, 0x1.1baf740000000p-4, -0x1.d08f6a0000000p-5, -0x1.9485100000000p-5, -0x1.257e480000000p-5, -0x1.3454220000000p-4, -0x1.5453fe0000000p-5, 0x1.70a9600000000p-5, -0x1.76c1480000000p-5, -0x1.b072d00000000p-7, -0x1.84b5d00000000p-5, -0x1.0c00a20000000p-4, -0x1.03fb580000000p-4, 0x1.f0d2b00000000p-6, 0x1.f254400000000p-5, -0x1.3962340000000p-6, -0x1.4f05a00000000p-7, -0x1.d888980000000p-5, -0x1.5c3fea0000000p-5, -0x1.da70a00000000p-8, 0x1.014eb00000000p-5, 0x1.3fe7c40000000p-4, 0x1.3e51b80000000p-5, -0x1.393f9c0000000p-5, 0x1.369b880000000p-4, 0x1.4d020c0000000p-4, -0x1.669f380000000p-5, 0x1.97c3000000000p-6, 0x1.9bc2980000000p-6, 0x1.5c7a040000000p-5, -0x1.2010940000000p-5, -0x1.3584720000000p-4, -0x1.3ee1f80000000p-4, 0x1.139a700000000p-5, -0x1.86a2b80000000p-6, 0x1.1bd00c0000000p-5, -0x1.a07eb00000000p-5, -0x1.0354900000000p-4, -0x1.274ad80000000p-5, 0x1.edd0880000000p-5, 0x1.c222600000000p-5, 0x1.2072700000000p-6, 0x1.46d9440000000p-4, -0x1.8705700000000p-5, 0x1.8f5ce80000000p-6, 0x1.e0fce00000000p-7, -0x1.486cd80000000p-5, 0x1.665a480000000p-6, -0x1.eb39c00000000p-7, -0x1.f317800000000p-9, -0x1.1a3c360000000p-5, 0x1.0fe0c00000000p-8, 0x1.4738a00000000p-4, -0x1.1a53340000000p-4, 0x1.ad88b00000000p-5, -0x1.a75fa40000000p-5, 0x1.f0d2280000000p-5, -0x1.3c477a0000000p-4, -0x1.ae895c0000000p-5, 0x1.ee46d80000000p-6, 0x1.0687d80000000p-4, -0x1.3154ca0000000p-4, 0x1.301e840000000p-4, -0x1.81499c0000000p-6, -0x1.7614ec0000000p-5, 0x1.3103b40000000p-4, -0x1.98d47c0000000p-5, -0x1.ea4d200000000p-8, -0x1.0813520000000p-4, -0x1.96c9040000000p-6, 0x1.645c6c0000000p-5, 0x1.3ea8280000000p-4, -0x1.1e772e0000000p-4, 0x1.fb4ab80000000p-6, -0x1.aa443c0000000p-6, 0x1.032dd80000000p-5, -0x1.2dd9140000000p-5, 0x1.1539100000000p-4, -0x1.bff3f00000000p-5, -0x1.48c5a00000000p-5, 0x1.2e13400000000p-4, 0x1.24e79c0000000p-5, -0x1.6e8f400000000p-6, -0x1.eec3000000000p-11, -0x1.d2be540000000p-5, 0x1.2b5d080000000p-5, -0x1.063d900000000p-5, 0x1.9337900000000p-7, -0x1.2383dc0000000p-4, -0x1.ea336e0000000p-5, 0x1.87f9b80000000p-5, 0x1.19b9c80000000p-4, -0x1.348aa20000000p-5, -0x1.9ff8000000000p-10, -0x1.b260680000000p-5, -0x1.3079200000000p-7, 0x1.b98a280000000p-5, -0x1.dfcbe00000000p-7, 0x1.0f79300000000p-7, 0x1.42b65c0000000p-4, 0x1.39cd940000000p-4, -0x1.7ec9f80000000p-5, 0x1.ba1e080000000p-6, -0x1.0216680000000p-4, -0x1.d163b00000000p-6, 0x1.6eee380000000p-6, -0x1.aa56240000000p-5, -0x1.de62040000000p-5, -0x1.bfaca80000000p-5, 0x1.e993980000000p-5, -0x1.4147820000000p-4, -0x1.72aa000000000p-12, 0x1.5108c00000000p-5, 0x1.cab3900000000p-5, 0x1.8dbbe80000000p-6, 0x1.4742880000000p-6, -0x1.d952aa0000000p-5, -0x1.9422500000000p-6, -0x1.93133c0000000p-6, -0x1.7f4fc00000000p-6, -0x1.0bbaba0000000p-5, 0x1.51d7d00000000p-5, 0x1.3ffca00000000p-8, -0x1.61c9fa0000000p-5, -0x1.0b5e820000000p-4, -0x1.9b8b940000000p-5, 0x1.afdd100000000p-5, 0x1.61dca80000000p-5, 0x1.4b00e00000000p-7, -0x1.9ea4000000000p-10, -0x1.a28e100000000p-7, -0x1.7f9ab40000000p-6, -0x1.68711e0000000p-5, -0x1.095f3a0000000p-5, 0x1.4aaaa40000000p-5, -0x1.9c091c0000000p-5, -0x1.a2d6000000000p-12, 0x1.86ccb80000000p-6, 0x1.1b18000000000p-9, 0x1.2214e40000000p-4, 0x1.13c30c0000000p-5, 0x1.b4f8000000000p-8, -0x1.4574840000000p-4, 0x1.0d486c0000000p-4, 0x1.28d38c0000000p-4, 0x1.1b49680000000p-5, 0x1.f566180000000p-5, -0x1.a7e3c00000000p-8, -0x1.16627c0000000p-4, 0x1.f31ff00000000p-6, -0x1.9512780000000p-6, 0x1.cc01880000000p-6, -0x1.637f100000000p-5, -0x1.7bf75c0000000p-5, -0x1.9f10480000000p-6, -0x1.31fd000000000p-8, -0x1.7d856e0000000p-5, 0x1.c883180000000p-6, -0x1.3423d80000000p-6, -0x1.7acbc00000000p-9, 0x1.7840580000000p-5, 0x1.d3c6980000000p-5, -0x1.dc41780000000p-5, -0x1.efca480000000p-6, 0x1.12a8b80000000p-6, -0x1.227c5c0000000p-4, 0x1.ce64080000000p-6, 0x1.0376640000000p-5, 0x1.6f98400000000p-7, 0x1.33dcb80000000p-6, 0x1.4e97ac0000000p-5, -0x1.75ef9c0000000p-5, -0x1.411a9a0000000p-5, -0x1.bc51340000000p-5, 0x1.735f600000000p-8, -0x1.30fd920000000p-4, 0x1.165fd80000000p-4, 0x1.c92ac00000000p-6, 0x1.ab7d300000000p-5, 0x1.3e80000000000p-12, 0x1.4669ac0000000p-4, -0x1.406e200000000p-5, 0x1.d20db80000000p-5, -0x1.2a23640000000p-4, -0x1.cc18a00000000p-7, 0x1.84d1900000000p-5, 0x1.a243080000000p-6, -0x1.b6dad40000000p-6, -0x1.ea6cb00000000p-7, 0x1.4779300000000p-5, 0x1.1c4f840000000p-4, -0x1.4322d00000000p-6, -0x1.4098700000000p-4, 0x1.40c7000000000p-9, -0x1.8ead520000000p-5, 0x1.b54bd80000000p-5, 0x1.2ad1380000000p-5, 0x1.0715f80000000p-4, -0x1.4225140000000p-5, 0x1.04cee00000000p-5, 0x1.6000300000000p-6, -0x1.4a77300000000p-7, -0x1.59e5de0000000p-5, 0x1.9bf0d80000000p-5, -0x1.ca8a800000000p-5, -0x1.1dfd8a0000000p-5, 0x1.2df3c40000000p-4, -0x1.892ed00000000p-6, 0x1.4e78900000000p-7, -0x1.7145b20000000p-5, 0x1.8750580000000p-5, -0x1.36a2c20000000p-5, 0x1.356fe00000000p-6, 0x1.e7dd580000000p-6, 0x1.7b1d100000000p-5, 0x1.a660700000000p-5, 0x1.e067780000000p-6, -0x1.3c3f900000000p-4, -0x1.52ffb00000000p-7, -0x1.ad84b00000000p-7, -0x1.12f9d80000000p-4, -0x1.d0f0b00000000p-7, -0x1.4229260000000p-4, 0x1.af3ce80000000p-5, 0x1.2f05e00000000p-7, -0x1.ede29c0000000p-5, 0x1.256d280000000p-4, 0x1.465c8c0000000p-4, -0x1.87508c0000000p-6, 0x1.992e080000000p-6, -0x1.6007620000000p-5, 0x1.382a000000000p-10, -0x1.05d0980000000p-5, -0x1.35dc280000000p-5, 0x1.9988c00000000p-9, -0x1.7b330a0000000p-5, 0x1.86a0c80000000p-5, -0x1.bc82a40000000p-6, 0x1.73f2800000000p-8, 0x1.2fc3200000000p-4, 0x1.21b7a40000000p-4, 0x1.efd5c00000000p-8, 0x1.5d36c00000000p-7, 0x1.15b5000000000p-11, 0x1.7231400000000p-8, 0x1.3fa0a40000000p-4, 0x1.aaf9980000000p-5, -0x1.07c01c0000000p-4, -0x1.00f5600000000p-6, 0x1.ac03680000000p-6, 0x1.0c15640000000p-5, -0x1.cfd8700000000p-5, 0x1.abad700000000p-5, 0x1.3969e80000000p-4, -0x1.23debe0000000p-4, -0x1.4276f20000000p-4, -0x1.2c78100000000p-4, -0x1.3dd5800000000p-8, -0x1.7867d60000000p-5, -0x1.85b3380000000p-6, -0x1.897eba0000000p-5, -0x1.d591c80000000p-5, 0x1.2f0d980000000p-5, 0x1.9283f80000000p-5, -0x1.eb04400000000p-5, -0x1.823e3a0000000p-5, -0x1.df9ab40000000p-6, -0x1.9fabd60000000p-5, -0x1.1f46100000000p-7, 0x1.6fefc00000000p-8, 0x1.6f46c00000000p-5, 0x1.c79b000000000p-10, 0x1.3d25700000000p-4, -0x1.0b10000000000p-15, -0x1.cd5b480000000p-5, 0x1.149bf80000000p-5, 0x1.baec080000000p-5, 0x1.dfeaa00000000p-8, -0x1.02fefc0000000p-4, -0x1.6934500000000p-7, -0x1.2427100000000p-7, 0x1.17ac240000000p-5, 0x1.ca1ad00000000p-5, -0x1.fd28580000000p-6, -0x1.1d781e0000000p-4, -0x1.384d6e0000000p-4, 0x1.851d300000000p-5, -0x1.f5b6b00000000p-6, -0x1.341c200000000p-4, -0x1.7564200000000p-5, -0x1.f9c4840000000p-6, -0x1.88f5080000000p-5, 0x1.f0ae880000000p-5, -0x1.a887600000000p-5, -0x1.225b860000000p-4, 0x1.36cb9c0000000p-5, 0x1.8439380000000p-6, 0x1.c0a6300000000p-6, 0x1.0847200000000p-7, 0x1.fb51d00000000p-7, 0x1.0e08000000000p-6, 0x1.4696ec0000000p-4, -0x1.a0a7f20000000p-5, -0x1.315cbe0000000p-4, 0x1.28662c0000000p-5, 0x1.9eabf00000000p-7, -0x1.5e41940000000p-6, 0x1.ed31e80000000p-6, 0x1.0fff880000000p-5, 0x1.d359e00000000p-8, -0x1.1e8a680000000p-4, -0x1.3a4e000000000p-12, -0x1.14827e0000000p-4, 0x1.55a0e00000000p-8, 0x1.d070200000000p-7, -0x1.eb51b00000000p-7, -0x1.3590100000000p-5, 0x1.9394300000000p-5, 0x1.a4d8580000000p-5, -0x1.742e500000000p-5, -0x1.39afe40000000p-4, -0x1.63c7f00000000p-5, -0x1.22a34c0000000p-4, -0x1.539b760000000p-5, -0x1.fba7400000000p-7, 0x1.9664c00000000p-6, 0x1.4b10440000000p-4, 0x1.1a06040000000p-5, -0x1.9381ac0000000p-6, -0x1.7c36f00000000p-7, 0x1.6dae600000000p-8, 0x1.05add00000000p-5, -0x1.27404e0000000p-5, 0x1.0193300000000p-4, -0x1.708c3c0000000p-5, -0x1.1f7a280000000p-6, -0x1.24c5980000000p-5, -0x1.e69cd40000000p-5, -0x1.17d7580000000p-4, 0x1.390a440000000p-4, -0x1.55f8840000000p-6, -0x1.5764520000000p-5, -0x1.9df8800000000p-6, -0x1.2692ee0000000p-5, -0x1.1e855c0000000p-4, -0x1.4a4a0c0000000p-5, 0x1.47ba080000000p-4, -0x1.e5a5900000000p-5, -0x1.695d7a0000000p-5, 0x1.1a95f80000000p-5, 0x1.49edf80000000p-4, -0x1.4ad6620000000p-4, 0x1.ec66e00000000p-8, 0x1.b1eb700000000p-7, 0x1.60b6280000000p-6, 0x1.0a58f00000000p-5, -0x1.e052c00000000p-8, -0x1.ea818e0000000p-5, -0x1.81dfe00000000p-8, 0x1.3fcf400000000p-4, -0x1.c074f80000000p-5, 0x1.d8f8180000000p-6, 0x1.0581cc0000000p-4, 0x1.57d5600000000p-8, 0x1.fc57700000000p-6, -0x1.7c48800000000p-8, -0x1.09e9000000000p-4, 0x1.dff8880000000p-5, 0x1.791ea80000000p-6, -0x1.5d6fc80000000p-6, 0x1.ff78000000000p-5, -0x1.da7f400000000p-7, -0x1.0234180000000p-4, -0x1.34c56e0000000p-5, 0x1.29df400000000p-6, -0x1.401f200000000p-7, -0x1.4db2a00000000p-7, 0x1.be8fc80000000p-6, 0x1.2a62a00000000p-4, 0x1.b096180000000p-5, -0x1.215d400000000p-4, -0x1.82dc580000000p-6, -0x1.a8e4640000000p-5, -0x1.470dbc0000000p-6, -0x1.61d9100000000p-7, -0x1.3171f00000000p-6, -0x1.15fea00000000p-6, 0x1.7a85c80000000p-5, 0x1.bc9f800000000p-10, 0x1.9560900000000p-7, 0x1.35c8240000000p-4, -0x1.e47d580000000p-6, -0x1.090ab60000000p-4, 0x1.0ce1000000000p-6, -0x1.a7fff60000000p-5, 0x1.f528d00000000p-5, 0x1.f6c7b00000000p-7, 0x1.4abfdc0000000p-4, -0x1.aba8800000000p-9, 0x1.0f2ed80000000p-4, 0x1.ea2f680000000p-6, 0x1.42b8480000000p-4, -0x1.1c4d080000000p-4, 0x1.4a82280000000p-5, 0x1.06594c0000000p-4, 0x1.27ab8c0000000p-4, -0x1.1fe0860000000p-4, 0x1.94d6600000000p-5, -0x1.8c4e600000000p-7, -0x1.cd19000000000p-10, 0x1.292dc40000000p-4, -0x1.317d940000000p-4, -0x1.19e77e0000000p-4, 0x1.38e6000000000p-7, -0x1.14d2780000000p-4, -0x1.bb60740000000p-6, 0x1.3a4a000000000p-5, -0x1.6ed9500000000p-6, -0x1.3084220000000p-5, -0x1.c1f8100000000p-7, 0x1.5aeb4c0000000p-5, -0x1.3710f40000000p-6, -0x1.11b1aa0000000p-4, 0x1.fd8d880000000p-5, -0x1.0b2e700000000p-7, 0x1.6debc00000000p-6, -0x1.02d5ea0000000p-4, 0x1.6d91f80000000p-5, -0x1.69ff960000000p-5, -0x1.0166400000000p-6, 0x1.16f7e80000000p-4, 0x1.eac8d80000000p-5, 0x1.1405800000000p-5, 0x1.0183800000000p-10, -0x1.424c3a0000000p-5, -0x1.2f470a0000000p-4, 0x1.0711a00000000p-6, -0x1.0c57100000000p-4, -0x1.f9c1700000000p-7, -0x1.fa13c00000000p-7, 0x1.98d1300000000p-5, 0x1.057d980000000p-4, 0x1.3832740000000p-4, 0x1.e862980000000p-5, -0x1.f02bf00000000p-6, 0x1.3785000000000p-11, 0x1.cd04400000000p-6, -0x1.2f41a60000000p-4, 0x1.aba7480000000p-6, 0x1.d701f80000000p-5, -0x1.a766e40000000p-5, -0x1.21e3a60000000p-5, 0x1.9a5fc80000000p-6, 0x1.2a60000000000p-13, -0x1.0e41480000000p-5, -0x1.9d64100000000p-5, 0x1.a984400000000p-6, -0x1.4ae55c0000000p-6, -0x1.2b71100000000p-7, -0x1.1afa980000000p-4, -0x1.23f2640000000p-4, 0x1.5ecf2c0000000p-5, 0x1.12bab00000000p-6, 0x1.6671b80000000p-5, -0x1.38fcd00000000p-7, 0x1.b87a200000000p-6, -0x1.32f8000000000p-13, 0x1.2165300000000p-5, -0x1.b08eb80000000p-6, 0x1.23c61c0000000p-4, 0x1.a472980000000p-5, -0x1.94e1a20000000p-5, 0x1.d6ad800000000p-6, -0x1.e2a5e00000000p-8, -0x1.c925360000000p-5, 0x1.b032980000000p-6, -0x1.8e0aba0000000p-5, -0x1.8eb4da0000000p-5, -0x1.ad49940000000p-6, 0x1.56b4d00000000p-6, 0x1.ed49e00000000p-5, -0x1.466bda0000000p-4, 0x1.e3bd300000000p-5, -0x1.c76f780000000p-6, 0x1.0dd6a80000000p-4, -0x1.5663800000000p-8, 0x1.3d08880000000p-4, 0x1.3da7080000000p-6, -0x1.cdaa560000000p-5, 0x1.7cea900000000p-5, -0x1.6700a20000000p-5, 0x1.2630a00000000p-5, -0x1.7a5a600000000p-7, 0x1.611b180000000p-5, 0x1.9cf5600000000p-5, 0x1.6f95e00000000p-5, -0x1.4611560000000p-4, -0x1.6582e00000000p-8, 0x1.a1f0e80000000p-5, 0x1.f2f3980000000p-6, 0x1.8fe2c00000000p-9, 0x1.2513e00000000p-6, 0x1.9957c80000000p-6, 0x1.bb4ac00000000p-8, 0x1.dddee00000000p-5, 0x1.bf29600000000p-5, 0x1.0d7aa80000000p-4, 0x1.436ae00000000p-5, 0x1.303fc00000000p-8, -0x1.3e1a1a0000000p-4, -0x1.5cf24c0000000p-5, -0x1.fe09640000000p-5, 0x1.b5a1400000000p-8, 0x1.07e0dc0000000p-5, -0x1.bc6b100000000p-7, 0x1.d2e8d80000000p-5, -0x1.afea0c0000000p-5, 0x1.1bcd740000000p-4, -0x1.354c860000000p-5, -0x1.4a86800000000p-9, -0x1.49f1900000000p-7, 0x1.3ef6700000000p-5, 0x1.5806380000000p-6, -0x1.1ad55e0000000p-5, -0x1.49b4880000000p-4, 0x1.511ef40000000p-5, 0x1.c202b00000000p-7, 0x1.f7bfc00000000p-8, -0x1.dea1100000000p-7, 0x1.e64a100000000p-5, -0x1.ded3dc0000000p-5, 0x1.eb84800000000p-9, -0x1.5d23c40000000p-6, -0x1.8ad4200000000p-7, -0x1.d185800000000p-5, 0x1.171f080000000p-6, -0x1.21ec700000000p-6, -0x1.81a01c0000000p-6, -0x1.61a9040000000p-5, 0x1.0794480000000p-4, -0x1.3d56d60000000p-5, 0x1.20f92c0000000p-4, 0x1.1374340000000p-5, -0x1.ff1f180000000p-5, -0x1.2860880000000p-4, -0x1.8d04900000000p-6, 0x1.f92ea00000000p-6, 0x1.ea22800000000p-10, 0x1.f59f000000000p-11, 0x1.1397080000000p-4, -0x1.cfeb300000000p-5, -0x1.813b280000000p-5, -0x1.1d6baa0000000p-5, 0x1.3051000000000p-9, 0x1.8d41080000000p-6, 0x1.096ed80000000p-4, 0x1.f4b4d00000000p-6, -0x1.eb91000000000p-9, -0x1.d17cac0000000p-5, -0x1.0758700000000p-4, -0x1.d4415c0000000p-5, 0x1.7025d00000000p-5, 0x1.cdc8200000000p-8, 0x1.0a10b80000000p-6, 0x1.0851540000000p-4, 0x1.25b5bc0000000p-5, 0x1.1fd93c0000000p-5, -0x1.7e42b00000000p-7, 0x1.d133980000000p-6, -0x1.ac5f740000000p-5, 0x1.2ff5a40000000p-4, 0x1.eea2300000000p-5, -0x1.8f4ca00000000p-6, -0x1.fca3200000000p-6, -0x1.2bab020000000p-4, 0x1.3ecb000000000p-11, 0x1.9ecb700000000p-5, 0x1.7e14800000000p-7, -0x1.d058000000000p-14, -0x1.e266b80000000p-5, -0x1.24ebf00000000p-6, 0x1.4c7e100000000p-7, -0x1.55e3200000000p-7, -0x1.db8ad00000000p-5, 0x1.3451e80000000p-5, 0x1.ea27380000000p-5, -0x1.2182860000000p-4, -0x1.8ab99e0000000p-5, 0x1.18ae040000000p-4, 0x1.43b8a00000000p-6, -0x1.0a40ce0000000p-4, 0x1.0051c40000000p-4, 0x1.2d87c80000000p-4, -0x1.431c980000000p-5, -0x1.02d8e80000000p-4, 0x1.0bce580000000p-5, 0x1.6490e00000000p-6, 0x1.076c980000000p-4, 0x1.ee07c00000000p-5, 0x1.5c7a200000000p-7, -0x1.6f86900000000p-5, 0x1.0b3d000000000p-6, -0x1.9e0de00000000p-8, 0x1.6442600000000p-5, 0x1.d330a00000000p-6, -0x1.f24d200000000p-5, 0x1.a387900000000p-6, -0x1.0314280000000p-6, 0x1.696f980000000p-6, 0x1.07d7980000000p-5, 0x1.ac17b80000000p-5, -0x1.15d98c0000000p-4, -0x1.a0da400000000p-9, 0x1.0be4600000000p-7, -0x1.8c17cc0000000p-5, -0x1.b378e20000000p-5, 0x1.4458040000000p-5, -0x1.7616100000000p-6, -0x1.c73cd00000000p-5, -0x1.0b3d340000000p-4, 0x1.dbd6c00000000p-8, 0x1.2a696c0000000p-4, 0x1.2b28fc0000000p-4, 0x1.f282d80000000p-5, -0x1.3784a00000000p-4, -0x1.e86ac80000000p-6, -0x1.7879600000000p-5, 0x1.1593600000000p-8, 0x1.b868b00000000p-6, -0x1.38321a0000000p-4, 0x1.099a8c0000000p-5, -0x1.25daee0000000p-5, -0x1.2b50880000000p-6, -0x1.1d108a0000000p-4, 0x1.bee1600000000p-8, -0x1.fddb200000000p-5, -0x1.1424d40000000p-5, -0x1.8379540000000p-6, -0x1.3138a80000000p-4, 0x1.0b5e440000000p-4, 0x1.d18ba80000000p-5, 0x1.1be5f00000000p-5, -0x1.d335c00000000p-8}
, {0x1.197ddc0000000p-4, -0x1.2a7fa20000000p-4, 0x1.3db1340000000p-4, 0x1.2336640000000p-4, -0x1.f428800000000p-5, 0x1.ffbe400000000p-7, 0x1.4a72e80000000p-4, -0x1.e281740000000p-6, -0x1.445db20000000p-4, 0x1.080b6c0000000p-5, 0x1.ec76e00000000p-6, -0x1.d675ec0000000p-6, 0x1.ee0d000000000p-11, -0x1.ae63b80000000p-5, -0x1.e128f80000000p-6, 0x1.7a05f00000000p-7, 0x1.143d540000000p-4, 0x1.3cc5100000000p-4, -0x1.2e78de0000000p-5, 0x1.6e01d80000000p-5, 0x1.d0be800000000p-9, 0x1.8c0e900000000p-7, -0x1.1d9fe40000000p-4, 0x1.21a7f00000000p-7, 0x1.e763580000000p-5, -0x1.08ed5c0000000p-4, -0x1.c63bbe0000000p-5, 0x1.4524840000000p-5, -0x1.b79a900000000p-6, -0x1.3a75380000000p-5, -0x1.0ec3980000000p-4, -0x1.fdde8c0000000p-6, 0x1.612a700000000p-6, 0x1.6763e80000000p-5, -0x1.3e37a40000000p-6, 0x1.3215180000000p-6, -0x1.4f980e0000000p-5, -0x1.3a2cba0000000p-4, 0x1.a318000000000p-9, 0x1.3b4c080000000p-6, 0x1.74e3300000000p-6, 0x1.660e800000000p-8, 0x1.2bf9180000000p-4, -0x1.00b5000000000p-9, 0x1.1f70380000000p-6, 0x1.1776040000000p-4, -0x1.d3f1bc0000000p-6, -0x1.1d5d800000000p-10, 0x1.1f76c00000000p-7, -0x1.1cc09c0000000p-5, -0x1.b0d7a40000000p-6, 0x1.3b45440000000p-5, -0x1.21f8da0000000p-4, -0x1.3fd13e0000000p-4, 0x1.aa3d400000000p-9, 0x1.cef7c00000000p-5, -0x1.45f1be0000000p-4, 0x1.c757400000000p-7, 0x1.a2fc800000000p-9, -0x1.1f50680000000p-6, -0x1.ee60d40000000p-5, -0x1.3a81a00000000p-8, 0x1.1578b00000000p-4, -0x1.8736600000000p-8, 0x1.532a300000000p-7, -0x1.3c48000000000p-13, 0x1.0d7f040000000p-4, 0x1.5015200000000p-7, -0x1.3435000000000p-4, -0x1.0f63520000000p-5, 0x1.18cf900000000p-6, 0x1.3d2f100000000p-4, 0x1.4503e40000000p-5, -0x1.f94f500000000p-7, 0x1.3a0a400000000p-4, -0x1.430f540000000p-5, 0x1.1ccbb80000000p-6, -0x1.38dd8c0000000p-5, -0x1.8586100000000p-6, -0x1.5d97740000000p-5, 0x1.3428740000000p-5, 0x1.0a7e400000000p-4, -0x1.8a2ec00000000p-7, -0x1.1698aa0000000p-4, -0x1.b4e8200000000p-8, -0x1.5b91ec0000000p-5, 0x1.40e6000000000p-4, -0x1.6a8cbc0000000p-5, -0x1.0166040000000p-4, 0x1.a721080000000p-6, -0x1.35b4b00000000p-4, 0x1.4975200000000p-6, -0x1.359bce0000000p-4, 0x1.2dfd4c0000000p-5, 0x1.8a51f00000000p-5, -0x1.c336d80000000p-6, 0x1.e4f7f00000000p-5, -0x1.a90c800000000p-7, 0x1.d211e00000000p-5, -0x1.5ae2240000000p-5, -0x1.15d5700000000p-5, 0x1.6816100000000p-5, 0x1.11e3280000000p-4, -0x1.0ea7ce0000000p-4, 0x1.f0d2e00000000p-5, 0x1.3fc9e00000000p-8, -0x1.c8d5940000000p-5, -0x1.aa47000000000p-5, 0x1.da9ec80000000p-6, 0x1.0c14b80000000p-4, -0x1.717d080000000p-5, 0x1.ef09d80000000p-5, -0x1.bb23000000000p-11, -0x1.b77c800000000p-9, -0x1.2cb74a0000000p-4, 0x1.3b06a00000000p-7, 0x1.5687300000000p-7, -0x1.c219480000000p-6, 0x1.a76c300000000p-5, -0x1.ecc9a00000000p-7, 0x1.028ffc0000000p-4, 0x1.1d7e300000000p-5, -0x1.1a53e40000000p-4, 0x1.f3e2b00000000p-7, -0x1.7856760000000p-5, 0x1.415b6c0000000p-4, -0x1.3777620000000p-4, 0x1.72a3080000000p-5, -0x1.02984a0000000p-4, 0x1.3745ec0000000p-5, -0x1.3868960000000p-4, 0x1.0c735c0000000p-4, 0x1.b9a7380000000p-5, -0x1.0100580000000p-6, 0x1.3e40700000000p-7, -0x1.44b3fa0000000p-5, 0x1.7ca0c00000000p-7, -0x1.080ece0000000p-5, -0x1.c1b7a00000000p-7, -0x1.7386100000000p-5, -0x1.d947ec0000000p-5, -0x1.fff1940000000p-5, -0x1.6865640000000p-6, -0x1.feb3000000000p-7, 0x1.48d6440000000p-4, -0x1.fa3dd80000000p-6, 0x1.f410000000000p-5, 0x1.69ec000000000p-9, -0x1.b4d7800000000p-10, -0x1.77f3780000000p-5, -0x1.941fd40000000p-5, -0x1.490ed00000000p-7, -0x1.4e97800000000p-9, 0x1.239d440000000p-4, -0x1.1f648a0000000p-5, -0x1.406f440000000p-6, -0x1.eafcb80000000p-5, 0x1.a4e6280000000p-6, 0x1.6374880000000p-6, -0x1.230bca0000000p-5, -0x1.d5a9e00000000p-5, -0x1.3e78480000000p-4, 0x1.839f000000000p-6, 0x1.0b88d80000000p-6, -0x1.91596e0000000p-5, -0x1.6da9600000000p-8, 0x1.4543dc0000000p-4, 0x1.cfee400000000p-9, -0x1.8b2a000000000p-11, -0x1.39570c0000000p-4, -0x1.f7ee800000000p-7, 0x1.7887000000000p-9, 0x1.e27d180000000p-5, -0x1.b7a7e00000000p-5, -0x1.8fcd800000000p-8, -0x1.e3a3720000000p-5, -0x1.1a4f560000000p-4, -0x1.f04bac0000000p-5, -0x1.b0d2b60000000p-5, -0x1.c90bbc0000000p-6, -0x1.4b97f20000000p-5, -0x1.60e8000000000p-7, 0x1.bd55400000000p-7, -0x1.2c00740000000p-4, -0x1.17dc5a0000000p-4, 0x1.0d11200000000p-5, 0x1.4ff7640000000p-5, 0x1.5884b00000000p-5, 0x1.a525880000000p-6, -0x1.3370d20000000p-4, 0x1.1821d00000000p-7, 0x1.70a9500000000p-6, 0x1.4e04600000000p-5, -0x1.4016700000000p-4, -0x1.20ee1c0000000p-4, 0x1.4225180000000p-4, 0x1.a47ac80000000p-5, 0x1.f92c400000000p-6, -0x1.b0cf000000000p-9, -0x1.1a41c40000000p-4, -0x1.422ffc0000000p-6, -0x1.219a680000000p-4, -0x1.489a8e0000000p-4, -0x1.c71ea00000000p-5, 0x1.0c57780000000p-6, -0x1.0906600000000p-4, -0x1.f2a4a80000000p-6, 0x1.cb84500000000p-6, -0x1.10a8000000000p-4, -0x1.68fb4c0000000p-6, -0x1.3068800000000p-9, 0x1.8db4500000000p-5, -0x1.46bd0c0000000p-5, -0x1.5a20000000000p-9, -0x1.c7e1f80000000p-6, -0x1.05b8400000000p-6, -0x1.06a47c0000000p-4, 0x1.2093940000000p-4, 0x1.29976c0000000p-4, 0x1.47f1500000000p-4, -0x1.4af1580000000p-4, 0x1.178a2c0000000p-4, 0x1.29b3540000000p-5, 0x1.45e4880000000p-6, -0x1.d69a600000000p-7, -0x1.b4d6800000000p-7, -0x1.92c91a0000000p-5, 0x1.82b4400000000p-7, 0x1.845fa80000000p-5, -0x1.d312700000000p-7, 0x1.7835c00000000p-7, 0x1.381ec80000000p-4, 0x1.bbcfb00000000p-5, 0x1.3fed3c0000000p-4, 0x1.ef03c00000000p-9, 0x1.a188b80000000p-5, 0x1.fe9a080000000p-5, 0x1.fbd8c80000000p-5, 0x1.09e7700000000p-6, 0x1.5b24780000000p-5, 0x1.19022c0000000p-5, -0x1.374b600000000p-5, 0x1.4584340000000p-4, 0x1.b303c80000000p-6, -0x1.b308d40000000p-5, 0x1.6e54900000000p-5, 0x1.1229e00000000p-4, -0x1.e508020000000p-5, -0x1.1551a00000000p-8, -0x1.a32e420000000p-5, 0x1.0af1a80000000p-6, 0x1.1aa6b00000000p-4, -0x1.a7d1fc0000000p-5, -0x1.958d300000000p-7, -0x1.28bb000000000p-4, 0x1.2422f40000000p-5, -0x1.1f32a80000000p-5, -0x1.14b59a0000000p-4, 0x1.ab74580000000p-5, 0x1.c08e400000000p-7, 0x1.658fd00000000p-5, 0x1.5009300000000p-6, -0x1.a2540a0000000p-5, -0x1.73c4d80000000p-5, -0x1.23047c0000000p-4, -0x1.8391180000000p-6, 0x1.6933300000000p-7, -0x1.183d7a0000000p-4, -0x1.13e9c00000000p-6, 0x1.19f6500000000p-5, -0x1.44a05e0000000p-4, 0x1.5d44000000000p-6, -0x1.3355dc0000000p-4, -0x1.58e0b80000000p-6, -0x1.2a4bb60000000p-5, 0x1.1a0e4c0000000p-4, 0x1.22a0f00000000p-5, 0x1.19dfc00000000p-6, 0x1.1e23e00000000p-6, -0x1.44c56a0000000p-4, -0x1.9ed4000000000p-10, 0x1.8336d80000000p-5, 0x1.bc40600000000p-7, -0x1.a6e8180000000p-5, 0x1.3c41800000000p-5, 0x1.5321280000000p-5, 0x1.3d88d40000000p-4, 0x1.36e2900000000p-4, 0x1.07d6680000000p-4, 0x1.2c92700000000p-7, -0x1.112c620000000p-5, -0x1.1b46a00000000p-7, 0x1.bb9e200000000p-8, -0x1.1503520000000p-4, 0x1.0b1a900000000p-4, -0x1.978f940000000p-5, -0x1.32a9a60000000p-4, -0x1.1fa6020000000p-4, -0x1.9176b00000000p-5, 0x1.e59f100000000p-6, 0x1.3731e80000000p-6, 0x1.00986c0000000p-4, -0x1.8049400000000p-7, -0x1.28a2180000000p-6, 0x1.18d0c80000000p-6, -0x1.1950b80000000p-4, -0x1.48dd600000000p-7, -0x1.dcc0d40000000p-6, 0x1.b3c5800000000p-9, -0x1.badc000000000p-10, 0x1.003dd40000000p-4, 0x1.0321c00000000p-8, -0x1.da24f00000000p-7, 0x1.d972800000000p-9, -0x1.4501bc0000000p-6, -0x1.46a6580000000p-4, 0x1.1e8d940000000p-4, -0x1.b0daa00000000p-8, 0x1.4eca9c0000000p-5, 0x1.1573a80000000p-4, -0x1.12c2480000000p-4, 0x1.148adc0000000p-4, 0x1.d263300000000p-5, -0x1.9d3ce00000000p-8, 0x1.2190840000000p-5, -0x1.36580c0000000p-6, 0x1.3fe1400000000p-8, 0x1.e46ca00000000p-5, -0x1.bc9bc00000000p-8, -0x1.e122cc0000000p-5, 0x1.fd4b600000000p-5, 0x1.60af580000000p-5, -0x1.a585a00000000p-8, -0x1.92489c0000000p-5, -0x1.2daa800000000p-9, 0x1.17c2a80000000p-4, 0x1.9fd0c00000000p-7, 0x1.b17bc00000000p-8, -0x1.91a5700000000p-5, -0x1.c401660000000p-5, 0x1.93f3000000000p-5, 0x1.c384d00000000p-5, 0x1.83b8a00000000p-7, 0x1.1e67680000000p-6, 0x1.bbce680000000p-6, -0x1.c8c0180000000p-5, -0x1.db590c0000000p-5, -0x1.31d7720000000p-5, 0x1.ba5ea80000000p-5, -0x1.f6593e0000000p-5, -0x1.c459400000000p-5, 0x1.264aac0000000p-4, -0x1.6b55020000000p-5, -0x1.0e9fc00000000p-8, 0x1.ebdc300000000p-7, -0x1.416cac0000000p-4, 0x1.b459500000000p-7, 0x1.83e3180000000p-5, -0x1.cfa3c80000000p-5, -0x1.c06acc0000000p-6, -0x1.835d000000000p-10, -0x1.3ed4e80000000p-4, 0x1.d6fae00000000p-5, -0x1.5a731a0000000p-5, 0x1.76f3500000000p-5, -0x1.1233480000000p-5, -0x1.ec7d5c0000000p-5, 0x1.d7c5580000000p-5, -0x1.c9fdb80000000p-5, 0x1.2c25b00000000p-4, 0x1.dd2da00000000p-6, 0x1.d419600000000p-5, -0x1.ed3e500000000p-5, -0x1.2be5ce0000000p-4, 0x1.1673900000000p-5, 0x1.72a4c00000000p-8, -0x1.72a1d60000000p-5, -0x1.1bd9a20000000p-4, 0x1.b002800000000p-5, -0x1.13c6540000000p-4, 0x1.c58c580000000p-5, 0x1.05b6e00000000p-8, -0x1.10351e0000000p-4, -0x1.ce23d60000000p-5, -0x1.d8cfc00000000p-9, -0x1.f544500000000p-5, -0x1.ccd2700000000p-6, 0x1.2e20400000000p-6, 0x1.b47e980000000p-6, -0x1.1554d60000000p-4, -0x1.99adc00000000p-9, -0x1.ccd9300000000p-7, 0x1.414da00000000p-4, 0x1.1ce3080000000p-5, 0x1.1d6be00000000p-6, -0x1.18d0820000000p-4, 0x1.335dfc0000000p-5, -0x1.60bcbc0000000p-5, -0x1.50cc500000000p-6, -0x1.09597c0000000p-4, -0x1.fe055c0000000p-5, -0x1.6286740000000p-5, -0x1.cb5edc0000000p-5, -0x1.0849f20000000p-4, -0x1.f78f400000000p-9, 0x1.3dbe1c0000000p-5, -0x1.a810300000000p-7, -0x1.1845400000000p-5, 0x1.4ffaa00000000p-8, 0x1.6d89a00000000p-5, 0x1.4deba00000000p-7, 0x1.d5f6a00000000p-7, 0x1.dac6500000000p-5, 0x1.7b45980000000p-5, 0x1.3958e00000000p-4, -0x1.c51f700000000p-6, -0x1.1b1ea00000000p-4, 0x1.2693a00000000p-5, -0x1.1f46f00000000p-4, -0x1.484aa40000000p-4, -0x1.7798300000000p-7, -0x1.0d8d660000000p-4, -0x1.051d700000000p-5, 0x1.5737140000000p-5, 0x1.1520980000000p-4, 0x1.fd06400000000p-6, -0x1.6461a00000000p-5, -0x1.5acd3c0000000p-6, 0x1.bda9d00000000p-6, 0x1.98d1700000000p-7, 0x1.861c080000000p-6, 0x1.acc5300000000p-6, 0x1.5972b80000000p-5, 0x1.1cb5500000000p-4, 0x1.3ce14c0000000p-4, 0x1.eb11100000000p-7, 0x1.775f480000000p-5, 0x1.9646c00000000p-8, 0x1.1ab6800000000p-4, 0x1.d7a4080000000p-5, -0x1.2150f60000000p-5, 0x1.44dce40000000p-4, 0x1.175f780000000p-4, 0x1.1717d40000000p-5, 0x1.3b7ee00000000p-5, 0x1.2066300000000p-4, 0x1.8f3cd00000000p-7, -0x1.2423e00000000p-4, 0x1.31b13c0000000p-5, -0x1.8d22700000000p-6, 0x1.438dc00000000p-4, -0x1.cadf180000000p-6, 0x1.90a7300000000p-5, 0x1.6bab980000000p-5, 0x1.6f17880000000p-5, -0x1.1fc3740000000p-4, 0x1.5bff000000000p-10, 0x1.7a4e400000000p-5, -0x1.ae31500000000p-7, -0x1.9daa380000000p-6, -0x1.17db020000000p-5, -0x1.b626400000000p-5, 0x1.4bc9940000000p-4, 0x1.1621200000000p-6, 0x1.b47d300000000p-5, 0x1.b797b80000000p-6, -0x1.c243480000000p-5, -0x1.3afd9c0000000p-4, -0x1.befbd00000000p-5, 0x1.05440c0000000p-5, 0x1.f19b000000000p-10, -0x1.4bed800000000p-7, -0x1.c17d800000000p-7, 0x1.e0d0380000000p-5, -0x1.b39e7c0000000p-5, 0x1.22abcc0000000p-5, -0x1.9955400000000p-9, 0x1.65d9d80000000p-5, -0x1.80e7b40000000p-5, 0x1.abaf780000000p-5, -0x1.1b96500000000p-6, 0x1.2678c80000000p-4, 0x1.3a53cc0000000p-4, 0x1.263ec00000000p-9, -0x1.3f402a0000000p-5, -0x1.2ce5680000000p-6, 0x1.537cb40000000p-5, -0x1.e29d100000000p-7, -0x1.b481880000000p-5, 0x1.5db9d80000000p-6, 0x1.74db600000000p-7, -0x1.e4f2800000000p-7, 0x1.97fd900000000p-5, 0x1.e3d9700000000p-6, -0x1.4f22000000000p-10, -0x1.b37e700000000p-7, -0x1.076f780000000p-6, 0x1.d8fc400000000p-6, 0x1.2fd8d00000000p-7, -0x1.6d7f2a0000000p-5, 0x1.c7ee900000000p-5, -0x1.20c5120000000p-5, -0x1.ceeb180000000p-5, 0x1.e5f1e00000000p-7, -0x1.c004400000000p-7, -0x1.a948d00000000p-5, -0x1.6141580000000p-5, -0x1.f9386c0000000p-5, -0x1.8057760000000p-5, -0x1.8da2840000000p-6, 0x1.78c5500000000p-5, -0x1.8b03240000000p-6, -0x1.095ed20000000p-5, -0x1.9e67900000000p-7, 0x1.016b7c0000000p-5, 0x1.f860a80000000p-6, 0x1.22da840000000p-5, 0x1.d413200000000p-7, 0x1.4febf00000000p-7, 0x1.8abf080000000p-5, 0x1.943f300000000p-7, 0x1.2519200000000p-4, 0x1.e614780000000p-5, 0x1.c75a400000000p-5, 0x1.94f0400000000p-5, -0x1.909fce0000000p-5, 0x1.0b4db00000000p-5, 0x1.d748c80000000p-5, -0x1.4b9f540000000p-4, -0x1.2c0b6c0000000p-5, -0x1.20f63a0000000p-4, 0x1.be94980000000p-6, 0x1.8471200000000p-6, -0x1.5b043c0000000p-6, 0x1.9b42a80000000p-5, 0x1.ea28b80000000p-6, -0x1.4d25f80000000p-5, -0x1.0549e00000000p-4, -0x1.aca5080000000p-5, 0x1.487a840000000p-5, -0x1.3c00ae0000000p-4, -0x1.f58f180000000p-5, 0x1.6bf7880000000p-6, 0x1.46bb7c0000000p-4, -0x1.48fe240000000p-5, 0x1.cbbc600000000p-7, -0x1.20ec400000000p-6, 0x1.d509800000000p-9, -0x1.2f72f00000000p-6, 0x1.201fe00000000p-5, -0x1.227d460000000p-4, 0x1.01a6900000000p-7, -0x1.8940cc0000000p-5, -0x1.e8679a0000000p-5, -0x1.ab57e00000000p-8, -0x1.70c3540000000p-5, 0x1.8207b00000000p-7, 0x1.1cb2480000000p-5, -0x1.4e82100000000p-5, 0x1.2bfa440000000p-4, -0x1.2873000000000p-7, -0x1.434b200000000p-7, -0x1.fe91f20000000p-5, -0x1.95a44a0000000p-5, -0x1.4f62ec0000000p-6, -0x1.ea9b400000000p-7, 0x1.af02500000000p-6, -0x1.a8e3dc0000000p-6, -0x1.c236800000000p-9, -0x1.4a48040000000p-5, -0x1.e2e87c0000000p-5, -0x1.71d1cc0000000p-6, 0x1.d15d700000000p-5, 0x1.d7c7980000000p-5, 0x1.93af280000000p-6, -0x1.49b2b80000000p-6, 0x1.a43b000000000p-11, 0x1.15b0200000000p-5, -0x1.8079840000000p-6, -0x1.0cdeae0000000p-5, 0x1.18d2c00000000p-8, -0x1.9e93540000000p-5, 0x1.12a0900000000p-6, -0x1.6cefe40000000p-5, -0x1.0e47540000000p-4, -0x1.779ad80000000p-5, 0x1.e7b6600000000p-8, 0x1.deef800000000p-6, -0x1.1f85e00000000p-7, -0x1.028c000000000p-4, -0x1.3760c20000000p-4, -0x1.29244a0000000p-4, -0x1.6731e00000000p-8, 0x1.9e16c00000000p-9, 0x1.b305800000000p-6, 0x1.168b7c0000000p-5, 0x1.73dca00000000p-8, -0x1.db940c0000000p-6, -0x1.26f4420000000p-4, -0x1.41d0b60000000p-4, 0x1.dd5ae00000000p-5, 0x1.c657f00000000p-6, -0x1.26e7e40000000p-4, -0x1.2e4e100000000p-4, 0x1.f328b80000000p-6, 0x1.26ecc80000000p-6, 0x1.4b89500000000p-4, 0x1.467ca00000000p-8, 0x1.022d300000000p-4, -0x1.3312ca0000000p-4, 0x1.4791f80000000p-5, 0x1.ce48200000000p-5, -0x1.0f63d00000000p-6, 0x1.d74a000000000p-12, -0x1.6f35c00000000p-7, -0x1.ce4bd00000000p-7, -0x1.a3acb00000000p-6, 0x1.4480980000000p-6, 0x1.14bb6c0000000p-5, -0x1.456c420000000p-4, -0x1.9998f80000000p-5, -0x1.3cab0c0000000p-5, 0x1.ff9c000000000p-12, 0x1.32c3280000000p-4, 0x1.3f8bd00000000p-6, -0x1.6d3fce0000000p-5, 0x1.e489100000000p-7, 0x1.13f1180000000p-4, 0x1.e415680000000p-5, -0x1.8e20000000000p-15, -0x1.7eea260000000p-5, 0x1.4a72080000000p-4, 0x1.00fe000000000p-5, -0x1.25eff00000000p-7, -0x1.2671520000000p-5, -0x1.ee687c0000000p-5, -0x1.30ab520000000p-5, -0x1.5380d00000000p-5, -0x1.073c300000000p-7, 0x1.754bb00000000p-7, -0x1.4509ca0000000p-5, 0x1.123d400000000p-9, -0x1.796d060000000p-5, 0x1.2434000000000p-5, 0x1.bae9000000000p-10, 0x1.a9db000000000p-8, 0x1.72f2f00000000p-6, -0x1.8cf0f40000000p-5, 0x1.0b8b2c0000000p-4, -0x1.0d57500000000p-7, 0x1.c289900000000p-5, -0x1.418c4a0000000p-5, 0x1.a2d5500000000p-5, -0x1.32b02c0000000p-4, 0x1.a8e1000000000p-5, -0x1.19a8680000000p-4, -0x1.9644e40000000p-5, -0x1.2ee3200000000p-8, -0x1.5c88180000000p-5, -0x1.194ad80000000p-6, 0x1.f32fe00000000p-6, 0x1.1192440000000p-5, -0x1.05c1c40000000p-4, -0x1.d0f5e80000000p-6, 0x1.359f4c0000000p-4, 0x1.11bf900000000p-5, -0x1.094d620000000p-4, -0x1.42d2320000000p-4, 0x1.839da00000000p-5, 0x1.a8d6000000000p-9, 0x1.0d37400000000p-5, -0x1.9e4b6c0000000p-5, -0x1.967c120000000p-5, -0x1.358ab20000000p-4, -0x1.b374880000000p-5, 0x1.17c77c0000000p-4, 0x1.5ef8700000000p-6, -0x1.befe740000000p-6, 0x1.0080d80000000p-6, -0x1.2556a20000000p-4, 0x1.e931980000000p-5, -0x1.c083880000000p-5, 0x1.1613cc0000000p-4, -0x1.e29b4a0000000p-5, 0x1.b570c00000000p-5, 0x1.6c1f100000000p-6, -0x1.1560e80000000p-6, -0x1.c046d40000000p-5, -0x1.16cbc00000000p-9, -0x1.3c8e000000000p-8, -0x1.fc43d40000000p-6, 0x1.d69f700000000p-6, -0x1.1a6b740000000p-4, -0x1.2fc4040000000p-4, 0x1.3a7b580000000p-4, 0x1.7ca4000000000p-7, -0x1.f275480000000p-6, -0x1.76d4720000000p-5, 0x1.adebf00000000p-6, -0x1.2c26000000000p-12, 0x1.c913780000000p-6, 0x1.0eb2ac0000000p-4, 0x1.0cb5600000000p-7, 0x1.03a1b80000000p-4, 0x1.7ca3700000000p-5, 0x1.1fda700000000p-4, 0x1.9ff9600000000p-5, 0x1.5b1e740000000p-5, 0x1.33a09c0000000p-4, -0x1.0f6b400000000p-5, 0x1.eb5f380000000p-5, -0x1.9451840000000p-5, 0x1.57a4000000000p-12, -0x1.d67b000000000p-7, -0x1.d75cf60000000p-5, 0x1.95af700000000p-6, -0x1.9b20da0000000p-5, -0x1.337e780000000p-4, -0x1.dd8be00000000p-8, 0x1.1f83800000000p-4, -0x1.df1ac00000000p-7, 0x1.b306780000000p-5, -0x1.2f3f7a0000000p-4, 0x1.d361600000000p-8, 0x1.05e9a80000000p-5, 0x1.46909c0000000p-5, 0x1.5859a00000000p-7, -0x1.9698d40000000p-6, -0x1.6141fe0000000p-5, -0x1.1c24420000000p-4, -0x1.0695740000000p-4, -0x1.2c67840000000p-4, 0x1.2d01840000000p-5, 0x1.c3ad900000000p-6, -0x1.2449bc0000000p-5, -0x1.2ff3720000000p-4, 0x1.7775f80000000p-5, 0x1.ed90b00000000p-7, 0x1.19f95c0000000p-5, -0x1.5146780000000p-6, 0x1.c26fc00000000p-5, -0x1.8de16e0000000p-5, -0x1.0c40c00000000p-6, 0x1.7950e00000000p-6, -0x1.d720000000000p-7, 0x1.0d3aa80000000p-4, 0x1.b7e5600000000p-7, -0x1.6318280000000p-5, -0x1.1f7b540000000p-5, -0x1.369bdc0000000p-4, -0x1.26bbbe0000000p-4, 0x1.094ed40000000p-4, -0x1.d5cc000000000p-12, 0x1.0968800000000p-5, 0x1.4e00e80000000p-6, -0x1.10a7ac0000000p-4, -0x1.cde9140000000p-6, -0x1.3e889e0000000p-4, -0x1.d929d00000000p-6, -0x1.9baebc0000000p-5, 0x1.907d700000000p-7, 0x1.4752740000000p-5, 0x1.ac52580000000p-6, -0x1.5503ba0000000p-5, -0x1.80a33a0000000p-5, -0x1.0243bc0000000p-4, -0x1.6fe2800000000p-8, -0x1.b9e6080000000p-6, 0x1.653b980000000p-6, 0x1.6df7e00000000p-6, -0x1.529fc20000000p-5, 0x1.1ccdc40000000p-4, 0x1.0de9480000000p-4, 0x1.7a11680000000p-5, 0x1.d3c1780000000p-6, 0x1.73bc780000000p-5, -0x1.36ef180000000p-5, 0x1.1ad5a80000000p-5, -0x1.2623760000000p-4, -0x1.0afd0e0000000p-4, -0x1.10d4740000000p-5, -0x1.b148580000000p-5, 0x1.4dd1240000000p-5, -0x1.01e23e0000000p-4, -0x1.433da80000000p-4, -0x1.70cd400000000p-9, 0x1.2393440000000p-4, 0x1.005ed80000000p-4, 0x1.9b13400000000p-7, -0x1.1894980000000p-5, 0x1.cbbfa00000000p-8, -0x1.395bf40000000p-4, -0x1.3da8b80000000p-4, -0x1.e9d9ac0000000p-5, 0x1.a764180000000p-5, 0x1.f728500000000p-6, -0x1.287caa0000000p-5, 0x1.2d57d00000000p-6, -0x1.0403f80000000p-4, 0x1.97fea00000000p-5, -0x1.2e102c0000000p-5, 0x1.b78e200000000p-8, -0x1.c7d44c0000000p-6, 0x1.139e200000000p-8, 0x1.e9d3080000000p-6, 0x1.870bf00000000p-6, 0x1.dd80400000000p-5, 0x1.304dcc0000000p-4, 0x1.ed16e00000000p-6, 0x1.3e7ab00000000p-4, -0x1.1715800000000p-9, -0x1.245e1e0000000p-5, -0x1.c00eb00000000p-7, -0x1.d845f40000000p-6, -0x1.2db88c0000000p-4, -0x1.c999300000000p-7, 0x1.76e1f00000000p-5, -0x1.3a97f80000000p-4, -0x1.85d64c0000000p-6, 0x1.30fa900000000p-7, 0x1.dca1800000000p-10, 0x1.db00d80000000p-6, -0x1.fb09180000000p-5, -0x1.4d50100000000p-4, -0x1.087ce80000000p-5, -0x1.42c14e0000000p-4, 0x1.0ad6840000000p-4, 0x1.2869d80000000p-4, -0x1.105da00000000p-6, -0x1.cf095c0000000p-5, -0x1.5252a80000000p-5, 0x1.222cb00000000p-4, -0x1.303f340000000p-5, 0x1.d4b3c00000000p-6, 0x1.aff9280000000p-6, 0x1.f6bc300000000p-7, -0x1.9b485c0000000p-6, 0x1.bcb2880000000p-5, 0x1.cdc9400000000p-5, -0x1.6372400000000p-7, 0x1.3184b80000000p-4, -0x1.7043320000000p-5, 0x1.a550d00000000p-5, -0x1.084db60000000p-4, -0x1.1479760000000p-4, -0x1.cc18a00000000p-7, -0x1.05be820000000p-4, -0x1.e32ea00000000p-6, 0x1.1d1f000000000p-4, -0x1.fbcdfc0000000p-6, 0x1.40f6a80000000p-4, 0x1.2002c80000000p-5, 0x1.b9f2700000000p-7, -0x1.a969200000000p-5, -0x1.abe36c0000000p-6, 0x1.da01500000000p-5, -0x1.3f55da0000000p-4, -0x1.bfd7d40000000p-6, 0x1.bfae000000000p-10, -0x1.13a3a80000000p-4, -0x1.b2c1200000000p-5, -0x1.14baf80000000p-5, -0x1.72cf480000000p-6, -0x1.0de8f20000000p-5, 0x1.39c7f00000000p-7, -0x1.2dc4920000000p-5, -0x1.cef02c0000000p-6, -0x1.9513d80000000p-5, 0x1.546dd40000000p-5, -0x1.37eeee0000000p-4, 0x1.ab86200000000p-8, 0x1.357c580000000p-6, 0x1.0901840000000p-4, -0x1.851e600000000p-6, 0x1.ad6c900000000p-7, 0x1.3bc8140000000p-4, -0x1.1908ae0000000p-5, -0x1.871d400000000p-9, 0x1.133f8c0000000p-5, -0x1.7a261e0000000p-5, 0x1.1122600000000p-5, -0x1.23fe480000000p-6, -0x1.12b4bc0000000p-4, -0x1.1b7ae00000000p-7, 0x1.b51c280000000p-6, -0x1.4934620000000p-5, 0x1.acfff80000000p-5, 0x1.34a3740000000p-5, 0x1.4a9a1c0000000p-4, 0x1.087fb80000000p-4, -0x1.c7b4140000000p-6, -0x1.8eac820000000p-5, -0x1.b077200000000p-6, -0x1.3660080000000p-5, 0x1.47d5980000000p-4, 0x1.1891940000000p-4}
, {-0x1.f3dd240000000p-5, -0x1.2261380000000p-4, 0x1.beb6000000000p-5, -0x1.b82e1c0000000p-5, -0x1.4ddac00000000p-5, -0x1.c1f19c0000000p-5, -0x1.6dcdd00000000p-5, -0x1.090f600000000p-4, 0x1.2c76000000000p-8, 0x1.04bda80000000p-5, 0x1.d267200000000p-6, -0x1.26176a0000000p-4, 0x1.5c4a9c0000000p-5, -0x1.4c05d80000000p-5, -0x1.ac74900000000p-5, 0x1.c2d1d80000000p-6, -0x1.1cf9880000000p-6, -0x1.fcf6100000000p-7, 0x1.0f78e40000000p-5, -0x1.2ac41c0000000p-5, -0x1.26ee220000000p-4, 0x1.5d04080000000p-6, -0x1.466cee0000000p-4, 0x1.71f1800000000p-5, 0x1.df1df80000000p-6, -0x1.130eb80000000p-4, -0x1.c7ee200000000p-8, 0x1.13f8300000000p-5, -0x1.adf9b80000000p-5, 0x1.4045640000000p-4, -0x1.2de5300000000p-4, -0x1.343a000000000p-10, 0x1.61df6c0000000p-5, -0x1.4ee5000000000p-8, -0x1.d2ecf40000000p-5, -0x1.72874e0000000p-5, 0x1.6d2fc00000000p-8, 0x1.f5c6900000000p-7, -0x1.f5e9b80000000p-6, -0x1.8855000000000p-9, 0x1.132d380000000p-4, -0x1.36e3d80000000p-4, -0x1.9ed5c00000000p-8, -0x1.3098020000000p-4, -0x1.ef23e00000000p-7, -0x1.be14e80000000p-5, -0x1.d3220c0000000p-6, 0x1.29bcc00000000p-9, -0x1.6a24160000000p-5, -0x1.e5c6080000000p-5, -0x1.c3c6a40000000p-6, 0x1.0ef81c0000000p-4, -0x1.c20ce00000000p-5, 0x1.16f2440000000p-5, 0x1.5186a00000000p-7, 0x1.0a3fd00000000p-4, 0x1.0c28f40000000p-5, 0x1.beb2d00000000p-5, 0x1.b8a6000000000p-9, -0x1.c4b3000000000p-8, -0x1.635f920000000p-5, -0x1.0ac6160000000p-4, -0x1.7de3220000000p-5, 0x1.8a5c080000000p-5, -0x1.e4a1a00000000p-7, -0x1.154b560000000p-4, 0x1.e6bd200000000p-5, 0x1.ae7f380000000p-5, 0x1.3a84500000000p-5, -0x1.47ee220000000p-5, -0x1.12af800000000p-8, 0x1.005bf80000000p-5, 0x1.1804740000000p-4, -0x1.f683840000000p-5, 0x1.28eca00000000p-4, 0x1.e28d800000000p-6, -0x1.541d600000000p-7, -0x1.2a0fec0000000p-4, -0x1.4c24800000000p-7, 0x1.20dcb80000000p-4, -0x1.478e300000000p-4, 0x1.5ea1980000000p-6, 0x1.90c3000000000p-5, -0x1.2488500000000p-6, -0x1.a378500000000p-5, -0x1.03f7940000000p-4, -0x1.c2d4000000000p-10, 0x1.140f300000000p-7, 0x1.6e28080000000p-5, 0x1.6642380000000p-6, -0x1.2f818e0000000p-4, -0x1.eba47c0000000p-5, -0x1.1a07200000000p-7, 0x1.b8a7800000000p-7, 0x1.9e09a00000000p-8, 0x1.43ce700000000p-6, 0x1.92b8580000000p-5, 0x1.cef3000000000p-9, 0x1.f46fc00000000p-9, 0x1.b6ab280000000p-6, 0x1.37e1080000000p-5, -0x1.43aa500000000p-6, -0x1.8fdf440000000p-6, -0x1.20ec700000000p-4, 0x1.483f980000000p-5, 0x1.21b2600000000p-5, -0x1.ae3e000000000p-5, -0x1.a77fc00000000p-6, 0x1.a73cc00000000p-7, 0x1.3680280000000p-4, -0x1.a401000000000p-7, 0x1.82a2900000000p-6, -0x1.a448e00000000p-8, -0x1.9dd8500000000p-5, -0x1.9b8f480000000p-5, 0x1.1eb1f00000000p-4, 0x1.c88d080000000p-6, -0x1.8182000000000p-5, 0x1.4599380000000p-4, 0x1.e4aac00000000p-9, -0x1.3165a20000000p-5, -0x1.b190a00000000p-7, -0x1.a1dc180000000p-6, 0x1.c4aaa00000000p-5, -0x1.f5da0c0000000p-5, 0x1.aa17800000000p-9, 0x1.44b2e00000000p-5, -0x1.69dfd00000000p-6, -0x1.e832220000000p-5, -0x1.14d0380000000p-6, -0x1.4cb9820000000p-4, 0x1.3881a00000000p-5, 0x1.561db40000000p-5, 0x1.054dd80000000p-4, 0x1.6c3ff00000000p-6, 0x1.21710c0000000p-4, -0x1.524e800000000p-5, -0x1.1a0bca0000000p-4, -0x1.f3f7d60000000p-5, -0x1.b146b00000000p-7, 0x1.133cb00000000p-5, -0x1.1e8f1a0000000p-4, -0x1.5bc9800000000p-6, 0x1.2678000000000p-4, -0x1.410f740000000p-5, 0x1.6273080000000p-6, -0x1.41b1380000000p-4, -0x1.a69d840000000p-6, -0x1.3a114e0000000p-4, 0x1.08f2380000000p-5, -0x1.f494940000000p-6, -0x1.2a00940000000p-4, 0x1.8812280000000p-5, -0x1.b587340000000p-5, 0x1.32d4880000000p-4, -0x1.df14700000000p-5, 0x1.ca9d400000000p-7, -0x1.b0d4600000000p-6, -0x1.61d6060000000p-5, 0x1.60fe140000000p-5, -0x1.35047a0000000p-4, 0x1.973ac80000000p-5, -0x1.b49b600000000p-7, 0x1.2763c00000000p-5, -0x1.668f080000000p-6, -0x1.0bab400000000p-7, -0x1.6880400000000p-9, -0x1.ac9d760000000p-5, -0x1.e63ae40000000p-5, -0x1.a015f00000000p-7, 0x1.04df640000000p-5, -0x1.0abca00000000p-5, 0x1.af4a200000000p-7, -0x1.1bf0900000000p-4, 0x1.cbb7b80000000p-5, 0x1.35e3280000000p-5, -0x1.f29cd00000000p-7, -0x1.01e55c0000000p-4, 0x1.c849f80000000p-6, -0x1.02e3580000000p-6, 0x1.6e3f400000000p-5, -0x1.79c1540000000p-6, 0x1.6e34f00000000p-7, 0x1.41f46c0000000p-4, -0x1.d164c00000000p-6, -0x1.10e7d00000000p-6, 0x1.94f3680000000p-5, -0x1.9f66800000000p-9, -0x1.e851a00000000p-8, 0x1.53a7300000000p-6, 0x1.1a32680000000p-4, 0x1.a9d7500000000p-5, -0x1.1524ce0000000p-5, -0x1.f8ef4c0000000p-6, -0x1.36162e0000000p-4, -0x1.f2be3e0000000p-5, 0x1.b90c300000000p-5, -0x1.4297800000000p-6, -0x1.6763580000000p-5, 0x1.875ec80000000p-6, -0x1.61e2c20000000p-5, 0x1.188db80000000p-4, -0x1.224bf80000000p-6, -0x1.a539d80000000p-5, 0x1.d666800000000p-10, -0x1.411d940000000p-5, -0x1.91eac80000000p-6, 0x1.74a1e00000000p-8, -0x1.c7dbe00000000p-7, -0x1.10b5820000000p-4, 0x1.15eee80000000p-6, 0x1.542db00000000p-6, 0x1.2207200000000p-4, -0x1.d035c60000000p-5, -0x1.65f9e00000000p-7, 0x1.218af80000000p-4, 0x1.66cd280000000p-5, -0x1.f918900000000p-6, -0x1.fcc4900000000p-5, -0x1.2024840000000p-5, 0x1.c067380000000p-6, 0x1.15a8800000000p-8, -0x1.1122800000000p-7, -0x1.af10000000000p-11, -0x1.1882180000000p-6, 0x1.fd56d00000000p-6, 0x1.f6c2e00000000p-5, 0x1.2fe3280000000p-6, -0x1.fac7580000000p-5, -0x1.ab38000000000p-12, -0x1.1841e00000000p-8, 0x1.352f540000000p-4, 0x1.d522e80000000p-6, 0x1.2486f80000000p-5, 0x1.107af00000000p-4, -0x1.f33c620000000p-5, 0x1.461a900000000p-6, 0x1.4e5f100000000p-6, 0x1.215b480000000p-4, 0x1.f0d4600000000p-6, -0x1.04a7500000000p-6, 0x1.f629700000000p-6, 0x1.13b9b80000000p-4, 0x1.2aa8d80000000p-5, -0x1.2cd0460000000p-4, 0x1.9d66a00000000p-5, 0x1.3f5c540000000p-4, 0x1.ee22400000000p-5, -0x1.2888620000000p-5, 0x1.432c240000000p-4, 0x1.8f50700000000p-6, -0x1.dbdfb00000000p-5, -0x1.40a2ac0000000p-4, -0x1.c0a8e20000000p-5, -0x1.3aeec20000000p-5, 0x1.c3fd000000000p-6, -0x1.2a9e6a0000000p-4, -0x1.055aec0000000p-4, -0x1.4b03440000000p-4, 0x1.70a0e00000000p-5, 0x1.4abdf80000000p-6, 0x1.3a45880000000p-5, 0x1.fa56580000000p-5, -0x1.35c7660000000p-4, -0x1.a7de800000000p-9, -0x1.e82f540000000p-5, -0x1.3ce2040000000p-5, 0x1.fdaf180000000p-5, 0x1.351f840000000p-5, -0x1.b302120000000p-5, -0x1.703c340000000p-6, -0x1.00d6c60000000p-4, -0x1.4b5fda0000000p-4, 0x1.d3f6c00000000p-5, 0x1.24c7440000000p-4, -0x1.1300a80000000p-4, -0x1.f853740000000p-6, -0x1.49039e0000000p-4, -0x1.08a1140000000p-4, -0x1.16e3b80000000p-4, -0x1.03c5880000000p-4, 0x1.a32e380000000p-6, -0x1.b215180000000p-6, 0x1.9021200000000p-8, -0x1.346d280000000p-4, 0x1.8480d80000000p-5, 0x1.343f1c0000000p-4, -0x1.2361400000000p-9, -0x1.023ae20000000p-5, 0x1.2047480000000p-4, 0x1.bde7180000000p-6, -0x1.8581b00000000p-7, 0x1.3a43380000000p-6, -0x1.e1b0600000000p-8, 0x1.e52f780000000p-6, 0x1.1ff3e40000000p-4, -0x1.8a3dce0000000p-5, -0x1.fb860c0000000p-5, -0x1.5c34200000000p-8, -0x1.742f800000000p-6, 0x1.2eded80000000p-6, -0x1.279be60000000p-5, 0x1.6f13900000000p-5, -0x1.2a6d8c0000000p-4, 0x1.74e6f00000000p-7, -0x1.28c39c0000000p-4, 0x1.8787f80000000p-5, 0x1.7f45200000000p-5, -0x1.58e3540000000p-6, 0x1.2da5a80000000p-5, 0x1.27dcd80000000p-4, -0x1.22f3740000000p-4, -0x1.8b6e340000000p-5, -0x1.d3d6600000000p-7, -0x1.2c24fe0000000p-4, -0x1.53fd800000000p-10, 0x1.0653480000000p-6, 0x1.3f8b400000000p-6, 0x1.3bfc7c0000000p-4, 0x1.c0fc500000000p-7, 0x1.29969c0000000p-5, 0x1.14db400000000p-7, 0x1.edbed00000000p-5, -0x1.2c62b20000000p-4, -0x1.8bbc740000000p-6, -0x1.5d5b7a0000000p-5, 0x1.265f080000000p-4, -0x1.ecf6e80000000p-6, -0x1.a75d9c0000000p-5, -0x1.40ec040000000p-6, -0x1.2e5f2c0000000p-4, 0x1.0e0e180000000p-6, 0x1.2d5a840000000p-4, 0x1.9295100000000p-5, -0x1.b348380000000p-5, 0x1.332b400000000p-7, -0x1.ec70f40000000p-5, -0x1.04ff400000000p-8, 0x1.2317580000000p-6, -0x1.dabf280000000p-6, -0x1.32f8a00000000p-4, -0x1.c495800000000p-10, 0x1.ae1e580000000p-5, -0x1.29eac00000000p-5, -0x1.ae77a00000000p-7, 0x1.15e7440000000p-4, -0x1.c9a4400000000p-9, 0x1.2690480000000p-4, 0x1.0d57440000000p-4, 0x1.c819900000000p-7, 0x1.e311400000000p-5, -0x1.62c60c0000000p-6, -0x1.0701f00000000p-6, 0x1.9cdab00000000p-5, 0x1.716b180000000p-5, 0x1.74faf00000000p-6, 0x1.d5c5300000000p-5, 0x1.1b0cf40000000p-5, -0x1.b7c1ca0000000p-5, 0x1.3fe2e40000000p-4, -0x1.5b19900000000p-7, 0x1.46b4000000000p-8, -0x1.501cb40000000p-5, -0x1.24bab00000000p-7, -0x1.6e7d600000000p-7, -0x1.52ec2c0000000p-6, 0x1.a70b380000000p-6, -0x1.4224000000000p-8, 0x1.d8d2a80000000p-6, -0x1.06ce3c0000000p-4, -0x1.e9af640000000p-6, -0x1.7b7f360000000p-5, -0x1.1c7bb40000000p-4, 0x1.06740c0000000p-5, -0x1.9bb4700000000p-6, 0x1.73f2f00000000p-5, 0x1.edb4300000000p-7, 0x1.3e75a80000000p-6, -0x1.024c0e0000000p-5, 0x1.2143c00000000p-6, -0x1.0fcc100000000p-7, 0x1.4f0c140000000p-5, -0x1.6995300000000p-6, 0x1.23f9ec0000000p-4, 0x1.0ad8d00000000p-6, 0x1.cd73b80000000p-5, 0x1.cd0a180000000p-6, -0x1.06adec0000000p-4, -0x1.09cd160000000p-4, 0x1.c554900000000p-7, 0x1.39ad000000000p-4, 0x1.ed65000000000p-10, 0x1.1b1aac0000000p-4, -0x1.821a600000000p-8, -0x1.648e580000000p-6, -0x1.f42ba40000000p-5, 0x1.c219280000000p-5, -0x1.ef67e40000000p-6, 0x1.0719e00000000p-4, -0x1.65c4500000000p-5, 0x1.ea9d780000000p-5, -0x1.246b6c0000000p-5, -0x1.0b61740000000p-4, -0x1.fc02100000000p-7, -0x1.fda7c00000000p-9, 0x1.ba67980000000p-5, -0x1.ade9f00000000p-5, -0x1.14aa200000000p-4, 0x1.0e6f680000000p-4, -0x1.b07d600000000p-7, 0x1.7d83a00000000p-5, 0x1.68c5080000000p-5, 0x1.1418740000000p-5, -0x1.3d446c0000000p-4, 0x1.bea9800000000p-10, -0x1.0c3ed40000000p-4, 0x1.0f70e80000000p-4, 0x1.9043e00000000p-7, 0x1.8c76e00000000p-7, -0x1.1e53c20000000p-5, 0x1.07b5ac0000000p-4, 0x1.a416680000000p-5, -0x1.c700800000000p-7, -0x1.21ae400000000p-6, 0x1.16e5cc0000000p-4, -0x1.4d1d6c0000000p-5, -0x1.a2a3600000000p-7, 0x1.7543b00000000p-7, -0x1.3a9cc40000000p-5, 0x1.4b8d900000000p-5, 0x1.da3c880000000p-6, -0x1.7d3b900000000p-7, -0x1.6436000000000p-5, -0x1.101e680000000p-4, 0x1.541ad00000000p-6, 0x1.8205300000000p-6, -0x1.7390460000000p-5, -0x1.6d09140000000p-5, -0x1.396c200000000p-4, -0x1.2514100000000p-7, 0x1.0821700000000p-6, 0x1.c6e7880000000p-5, -0x1.1c44420000000p-5, 0x1.15451c0000000p-5, 0x1.36da380000000p-4, -0x1.6fc4880000000p-5, 0x1.0c33380000000p-4, 0x1.ae99300000000p-5, 0x1.99f5f00000000p-5, -0x1.9832940000000p-6, -0x1.79674a0000000p-5, 0x1.4618880000000p-4, -0x1.a54dc00000000p-5, 0x1.4178780000000p-6, 0x1.06418c0000000p-4, 0x1.4b73900000000p-5, 0x1.4145bc0000000p-5, 0x1.9eaba00000000p-7, -0x1.f358740000000p-5, 0x1.ac71f00000000p-7, -0x1.ad04280000000p-5, -0x1.098e8c0000000p-4, 0x1.e067f00000000p-6, 0x1.7e40980000000p-5, -0x1.e9fb5c0000000p-5, 0x1.66ecf80000000p-5, 0x1.f9fbd00000000p-5, -0x1.fa6b500000000p-7, 0x1.694be00000000p-6, -0x1.1b873c0000000p-4, 0x1.e0de000000000p-12, -0x1.127e100000000p-4, -0x1.3f68000000000p-14, 0x1.d77d580000000p-5, 0x1.3f253c0000000p-5, 0x1.00c5300000000p-5, 0x1.8617800000000p-9, 0x1.faea580000000p-5, -0x1.2f0e800000000p-7, -0x1.293a760000000p-4, 0x1.b910800000000p-8, -0x1.900a460000000p-5, 0x1.978f900000000p-5, 0x1.37c1e40000000p-4, 0x1.491dd80000000p-5, -0x1.0ce3900000000p-4, 0x1.00d3200000000p-4, 0x1.5f60880000000p-6, 0x1.0207200000000p-5, -0x1.156f4e0000000p-5, -0x1.6df5700000000p-6, 0x1.cd69280000000p-6, 0x1.4b688c0000000p-4, 0x1.e8a9800000000p-9, -0x1.4041140000000p-5, 0x1.892d900000000p-7, 0x1.4babd80000000p-5, 0x1.71cbc00000000p-9, -0x1.98dbe20000000p-5, 0x1.62f4300000000p-6, -0x1.9896ec0000000p-6, 0x1.10e9440000000p-4, 0x1.1dbb640000000p-4, 0x1.8148a00000000p-5, -0x1.52aa6c0000000p-6, 0x1.83d4a00000000p-7, 0x1.867b780000000p-5, 0x1.8800a00000000p-5, -0x1.bd2ce00000000p-7, 0x1.4826880000000p-5, 0x1.4657d00000000p-5, 0x1.fd6f100000000p-5, 0x1.3bf2200000000p-8, -0x1.f523900000000p-6, 0x1.9b59380000000p-5, 0x1.26855c0000000p-4, -0x1.f1b3480000000p-5, 0x1.9e7ce00000000p-7, 0x1.006d6c0000000p-5, -0x1.e67b400000000p-7, 0x1.a3a7500000000p-7, -0x1.e64cc00000000p-8, 0x1.a575000000000p-8, 0x1.ef9f380000000p-5, -0x1.4d95fc0000000p-6, -0x1.b2ba180000000p-5, -0x1.34f05c0000000p-4, -0x1.da2f880000000p-6, -0x1.36de680000000p-6, -0x1.4bb9840000000p-5, -0x1.9fa4380000000p-6, -0x1.24ea800000000p-9, 0x1.0b7b080000000p-4, 0x1.4162080000000p-4, -0x1.0553260000000p-5, 0x1.c231600000000p-6, -0x1.e6ed1c0000000p-6, 0x1.82ab900000000p-5, 0x1.44a82c0000000p-4, -0x1.092fc20000000p-4, 0x1.1d7a000000000p-9, -0x1.5302200000000p-7, 0x1.5acc880000000p-5, 0x1.40bacc0000000p-4, -0x1.8af4760000000p-5, 0x1.0315300000000p-4, -0x1.95abf00000000p-7, 0x1.1acf100000000p-5, -0x1.e685100000000p-5, 0x1.0bdf740000000p-4, 0x1.1af7800000000p-5, 0x1.eafc000000000p-10, 0x1.18b69c0000000p-4, -0x1.95702c0000000p-5, 0x1.f30f900000000p-7, -0x1.3142e00000000p-6, 0x1.35fee00000000p-7, -0x1.3daae00000000p-8, -0x1.e06c800000000p-8, -0x1.c62f180000000p-6, 0x1.f408280000000p-5, -0x1.949e6c0000000p-6, -0x1.ae4e640000000p-5, 0x1.395f440000000p-5, 0x1.07d6fc0000000p-4, -0x1.42d4e60000000p-4, -0x1.3baf080000000p-4, -0x1.6fd3240000000p-5, 0x1.9607480000000p-5, 0x1.224e380000000p-5, -0x1.c9031c0000000p-5, -0x1.bf79940000000p-6, -0x1.6b95f40000000p-5, 0x1.f89c480000000p-6, -0x1.3b969a0000000p-4, -0x1.4395de0000000p-4, -0x1.2221180000000p-4, 0x1.8252d00000000p-6, 0x1.ee92100000000p-5, -0x1.2782000000000p-12, -0x1.f46d440000000p-5, 0x1.90bfc00000000p-8, -0x1.3bb1e80000000p-5, -0x1.411c1c0000000p-6, 0x1.c6a4700000000p-5, -0x1.ff5ee00000000p-8, -0x1.ae24140000000p-5, -0x1.958a540000000p-6, 0x1.36cd600000000p-8, -0x1.77576c0000000p-6, 0x1.477adc0000000p-4, 0x1.3046800000000p-7, -0x1.ed58000000000p-9, 0x1.0e47500000000p-6, 0x1.fe03a00000000p-5, 0x1.d946200000000p-5, 0x1.e309d80000000p-5, -0x1.279e3c0000000p-4, 0x1.3cc5c80000000p-4, -0x1.9b1a900000000p-7, -0x1.9f099c0000000p-5, 0x1.0d06e00000000p-8, 0x1.00d8e40000000p-5, -0x1.3ef7740000000p-4, 0x1.4bde5c0000000p-4, 0x1.b4c5080000000p-5, 0x1.490b280000000p-4, 0x1.3fcafc0000000p-4, -0x1.6731d40000000p-5, 0x1.68e1800000000p-7, -0x1.29d8c40000000p-4, 0x1.5da6600000000p-7, -0x1.6351100000000p-7, 0x1.3e5dcc0000000p-4, -0x1.b4f9840000000p-5, -0x1.cba77e0000000p-5, -0x1.bb93500000000p-5, 0x1.96f5600000000p-5, -0x1.f9dd540000000p-6, 0x1.58e6e80000000p-5, -0x1.33bf260000000p-4, -0x1.1a00f80000000p-4, -0x1.4da3bc0000000p-6, -0x1.e219800000000p-8, 0x1.d270400000000p-5, 0x1.8759300000000p-5, 0x1.032ecc0000000p-4, -0x1.94dec00000000p-9, 0x1.aa62e00000000p-5, 0x1.31d6540000000p-4, -0x1.0de4160000000p-4, -0x1.e6f1fc0000000p-5, 0x1.6941600000000p-6, 0x1.9d00780000000p-6, -0x1.957b000000000p-10, 0x1.2c02e00000000p-4, -0x1.1226900000000p-4, 0x1.f516800000000p-8, 0x1.4d91980000000p-6, 0x1.018a800000000p-4, -0x1.dd90180000000p-5, -0x1.927fbe0000000p-5, -0x1.0e48980000000p-6, 0x1.b4ed000000000p-5, -0x1.bc845c0000000p-5, -0x1.c366340000000p-5, 0x1.ec13e00000000p-8, 0x1.2c2a100000000p-4, 0x1.ef15080000000p-6, 0x1.fae6900000000p-5, -0x1.938aaa0000000p-5, 0x1.8be9700000000p-7, -0x1.3fa1260000000p-4, -0x1.e5b3ac0000000p-5, 0x1.2cd76c0000000p-4, -0x1.8557440000000p-6, 0x1.04b6280000000p-4, -0x1.0407900000000p-7, -0x1.636bbc0000000p-5, -0x1.daa9780000000p-5, 0x1.73a3600000000p-5, 0x1.ba2d000000000p-7, 0x1.5e7d000000000p-10, 0x1.8e7b880000000p-5, -0x1.920ac00000000p-8, -0x1.fe13300000000p-7, -0x1.48805a0000000p-4, -0x1.434b180000000p-6, 0x1.90f2f00000000p-5, -0x1.f658300000000p-5, 0x1.413a400000000p-8, -0x1.5071aa0000000p-5, -0x1.f2293c0000000p-5, 0x1.19a1f40000000p-5, -0x1.0a37da0000000p-5, 0x1.634ef00000000p-6, -0x1.b296a80000000p-6, -0x1.0c98900000000p-7, -0x1.1b17340000000p-4, 0x1.68de380000000p-5, -0x1.20a6be0000000p-4, -0x1.c499400000000p-6, 0x1.feb7c00000000p-7, -0x1.05b8a80000000p-6, -0x1.351c780000000p-4, 0x1.eebe600000000p-6, 0x1.3e80900000000p-5, -0x1.f80d800000000p-8, -0x1.1f5ae00000000p-7, 0x1.3d9b500000000p-4, 0x1.35c7e40000000p-5, 0x1.0e2b180000000p-4, 0x1.bdd7780000000p-6, -0x1.7c1f880000000p-6, -0x1.3e7ad80000000p-4, 0x1.f9d6100000000p-5, -0x1.3582bc0000000p-4, -0x1.e420c00000000p-9, -0x1.0c70d00000000p-5, 0x1.20f4fc0000000p-4, 0x1.98acf80000000p-5, -0x1.dc0c000000000p-5, 0x1.f7e0b80000000p-6, 0x1.52de240000000p-5, 0x1.57cfc00000000p-8, -0x1.a6ec600000000p-8, -0x1.3fca8c0000000p-6, -0x1.fd04200000000p-6, 0x1.1050040000000p-4, -0x1.87b2c00000000p-8, -0x1.00244a0000000p-4, -0x1.7dbd540000000p-6, 0x1.0c23300000000p-5, -0x1.c637000000000p-7, -0x1.8d93ac0000000p-5, -0x1.7eb9b00000000p-6, 0x1.93d6c80000000p-6, -0x1.fcead00000000p-7, 0x1.5bf4440000000p-5, 0x1.e1fe000000000p-7, -0x1.46c74c0000000p-4, 0x1.c0d8600000000p-8, -0x1.37c21c0000000p-6, -0x1.4a281c0000000p-5, 0x1.07fec00000000p-9, 0x1.9305b00000000p-5, -0x1.2851560000000p-5, 0x1.49c3580000000p-4, 0x1.159de40000000p-5, -0x1.1413c80000000p-5, 0x1.677e700000000p-5, 0x1.a693300000000p-6, 0x1.4a37a00000000p-6, 0x1.5e8ed00000000p-7, -0x1.e40e400000000p-6, 0x1.8668a00000000p-8, -0x1.a1a6040000000p-5, 0x1.a9a0e00000000p-7, 0x1.3993940000000p-4, 0x1.68d6400000000p-7, -0x1.a737900000000p-5, -0x1.2dc3f60000000p-5, 0x1.fdec100000000p-6, 0x1.1a65300000000p-4, -0x1.e2c8a80000000p-6, -0x1.c68bf00000000p-5, 0x1.ec53480000000p-5, 0x1.e7dd100000000p-7, -0x1.43eace0000000p-4, -0x1.1dc1d40000000p-4, 0x1.ba62380000000p-5, 0x1.bc62f00000000p-5, -0x1.a478dc0000000p-6, -0x1.002d1e0000000p-4, -0x1.19e1980000000p-4, -0x1.b9a8080000000p-5, 0x1.1da8900000000p-4, 0x1.28e73c0000000p-4, 0x1.a923600000000p-8, -0x1.1095780000000p-6, 0x1.b2c1600000000p-6, 0x1.b9e6b00000000p-6, 0x1.bace200000000p-7, -0x1.8c2cb60000000p-5, -0x1.40449e0000000p-4, 0x1.b852500000000p-5, -0x1.9d54b80000000p-5, -0x1.3fcfc40000000p-6, 0x1.21d7d00000000p-5, -0x1.4cecc00000000p-8, -0x1.cf4a580000000p-6, -0x1.ec39880000000p-6, -0x1.f50c800000000p-7, -0x1.52880a0000000p-5, 0x1.6772400000000p-6, 0x1.77af300000000p-5, -0x1.29d0ba0000000p-4, 0x1.4421ec0000000p-4, -0x1.c228580000000p-6, -0x1.2d1aa80000000p-5, -0x1.abc9820000000p-5, -0x1.6a77800000000p-9, -0x1.d926500000000p-5, 0x1.35d6a00000000p-5, 0x1.44a3dc0000000p-4, -0x1.bd2c520000000p-5, 0x1.0ac6b00000000p-4, -0x1.c6c0000000000p-9, -0x1.248b640000000p-4, -0x1.1bf8780000000p-6, 0x1.6e8f700000000p-7, 0x1.5478d00000000p-7, 0x1.9a73500000000p-6, 0x1.3c4e600000000p-4, -0x1.fb25340000000p-5, 0x1.c2eb000000000p-5, -0x1.efeab40000000p-5, 0x1.b528b00000000p-6, 0x1.ba5e780000000p-5, 0x1.e4aac00000000p-5, 0x1.3364340000000p-5, 0x1.6b24400000000p-5, -0x1.05376c0000000p-4, 0x1.d73d300000000p-5, -0x1.9007a00000000p-6, -0x1.cf5dec0000000p-5, 0x1.e1a8c00000000p-5, 0x1.186f780000000p-4, -0x1.1914800000000p-4, -0x1.d34c200000000p-5, 0x1.1257ac0000000p-4, -0x1.910e660000000p-5, -0x1.52af4e0000000p-5, -0x1.0572ee0000000p-4, 0x1.075b780000000p-4, 0x1.2a9a000000000p-4, 0x1.d193200000000p-6, -0x1.4c09ca0000000p-5, -0x1.8991840000000p-6, -0x1.3b4afa0000000p-4, -0x1.8d02e60000000p-5, -0x1.e428800000000p-8, 0x1.39c0080000000p-4, 0x1.4609c80000000p-4, 0x1.9403700000000p-5, -0x1.6f8ac00000000p-9, 0x1.43e7780000000p-4, 0x1.e3bf000000000p-5, 0x1.9f73f00000000p-5, -0x1.27ef980000000p-4, 0x1.caa1100000000p-5, -0x1.717bdc0000000p-6, 0x1.34acdc0000000p-5, 0x1.e3ae900000000p-5, -0x1.0c9bbe0000000p-5, 0x1.9e58b00000000p-6, -0x1.e60b400000000p-8, -0x1.ba04780000000p-5, 0x1.9306100000000p-7, -0x1.3f40200000000p-8, -0x1.efdc800000000p-6, -0x1.bd7a5c0000000p-6, -0x1.cbcfc80000000p-5, 0x1.186bb00000000p-6, -0x1.8a8cb20000000p-5, -0x1.596e540000000p-6, 0x1.cec9b80000000p-5, -0x1.f90aa40000000p-5, 0x1.8ea2380000000p-5, 0x1.f787c80000000p-6, -0x1.11c9d00000000p-7, 0x1.ca4e280000000p-6, 0x1.e3d3d00000000p-5, -0x1.447e580000000p-5, -0x1.3cbbe40000000p-4, 0x1.2120f40000000p-5, 0x1.0764f80000000p-6, 0x1.2af1f80000000p-5, 0x1.6744f00000000p-5, -0x1.9dd3d80000000p-5, -0x1.def6300000000p-7, -0x1.9762400000000p-5, 0x1.a59a300000000p-7, -0x1.5a3f640000000p-6, -0x1.02bed80000000p-5, 0x1.c960a00000000p-6, -0x1.7ec1c00000000p-6, 0x1.53b8200000000p-7, 0x1.08bb000000000p-7, -0x1.61ad9e0000000p-5, 0x1.229bb00000000p-5, 0x1.9c6bd00000000p-5, 0x1.f7ecd00000000p-5, 0x1.9022b80000000p-6, 0x1.746c880000000p-6, 0x1.bc36900000000p-6, 0x1.b6b1800000000p-9, -0x1.582ad80000000p-5, 0x1.1f4f000000000p-11, -0x1.d2e4c00000000p-8, 0x1.e580a00000000p-5, 0x1.ab03a00000000p-5, 0x1.d97b080000000p-5, 0x1.2753100000000p-4, 0x1.df51b80000000p-6, 0x1.f427280000000p-5, 0x1.2c04200000000p-6, -0x1.1462840000000p-5, 0x1.2e10500000000p-7, -0x1.f756600000000p-5, -0x1.aa58b00000000p-7, 0x1.8659d00000000p-5, -0x1.a4c2240000000p-5, 0x1.8c6f600000000p-7, 0x1.589ce00000000p-7, 0x1.abeea00000000p-5}
