/**
  ******************************************************************************
  * @file    weights/fc.cc
  * @author  Pierre-Emmanuel Novac <penovac@unice.fr>, LEAT, CNRS, Université Côte d'Azur, France
  * @version 1.0.0
  * @date    24 march 2020
  * @brief   Template generating plain C code for the implementation of Convolutional Neural Networks on MCU
  */

#include <stdint.h>

#define INPUT_SAMPLES 896
#define FC_UNITS 10


const float dense_bias[FC_UNITS] = {0x0.0p+0, 0x0.0p+0, 0x0.0p+0, 0x0.0p+0, 0x0.0p+0, 0x0.0p+0, 0x0.0p+0, 0x0.0p+0, 0x0.0p+0, 0x0.0p+0}
;

const float dense_kernel[FC_UNITS][INPUT_SAMPLES] = {{0x1.6621000000000p-5, 0x1.4e48e40000000p-5, -0x1.4a2e400000000p-7, -0x1.93488a0000000p-5, 0x1.1d33c00000000p-8, -0x1.1569d00000000p-5, -0x1.6725d40000000p-6, -0x1.dc92440000000p-6, 0x1.2340dc0000000p-4, -0x1.ee81700000000p-7, 0x1.2358100000000p-7, -0x1.d2dd9c0000000p-5, -0x1.48b4cc0000000p-4, 0x1.33468c0000000p-5, 0x1.5f9cd00000000p-5, 0x1.095cf00000000p-6, 0x1.af1b480000000p-5, 0x1.b7f0000000000p-15, -0x1.458b8c0000000p-4, -0x1.d950f40000000p-6, -0x1.3c305e0000000p-5, 0x1.b142900000000p-6, -0x1.27fb120000000p-5, 0x1.1442700000000p-6, 0x1.2be6bc0000000p-4, 0x1.1d20880000000p-4, -0x1.c2de040000000p-5, 0x1.06ec200000000p-7, 0x1.0f3ec80000000p-4, -0x1.5f1fbc0000000p-5, 0x1.376e940000000p-4, 0x1.6ed6d00000000p-5, -0x1.59fb440000000p-6, -0x1.fdecfc0000000p-5, 0x1.2fb9480000000p-4, 0x1.2dcdd40000000p-4, 0x1.6de6480000000p-5, 0x1.5865cc0000000p-5, 0x1.1f44a00000000p-7, 0x1.3be97c0000000p-5, 0x1.ed38000000000p-5, -0x1.f168600000000p-8, -0x1.3121e40000000p-5, -0x1.4529740000000p-6, -0x1.4e893a0000000p-5, 0x1.16ef040000000p-5, 0x1.9b0cc00000000p-8, 0x1.1c14f40000000p-4, -0x1.7216000000000p-9, -0x1.8fd04c0000000p-6, -0x1.e26fa00000000p-6, 0x1.37e3b80000000p-6, -0x1.498d200000000p-8, 0x1.3db55c0000000p-5, 0x1.0b04c40000000p-4, 0x1.936af00000000p-5, 0x1.9c92c00000000p-9, 0x1.b8f4300000000p-7, 0x1.0446980000000p-5, 0x1.6dcac00000000p-5, 0x1.a205580000000p-6, -0x1.f106f00000000p-7, -0x1.03b1f60000000p-5, -0x1.a75c6e0000000p-5, 0x1.221aa00000000p-4, -0x1.3c3a020000000p-5, -0x1.c98a200000000p-5, -0x1.0619000000000p-7, -0x1.0abaa20000000p-5, 0x1.e295500000000p-5, 0x1.62b03c0000000p-5, 0x1.8954380000000p-5, -0x1.98680c0000000p-6, 0x1.9c3ca80000000p-5, 0x1.af1dd00000000p-7, 0x1.d70e800000000p-10, 0x1.6644d00000000p-5, 0x1.f08d800000000p-6, 0x1.7fccc00000000p-6, -0x1.3aa4f00000000p-7, -0x1.152edc0000000p-4, 0x1.eebf180000000p-6, 0x1.70c8f80000000p-6, 0x1.3465280000000p-5, -0x1.b526900000000p-7, 0x1.43a9400000000p-4, 0x1.ae55900000000p-5, 0x1.8b2fc80000000p-5, 0x1.40f0400000000p-4, 0x1.20f3280000000p-4, 0x1.0873880000000p-4, 0x1.7ffbf00000000p-7, 0x1.c1b4b00000000p-7, 0x1.c6e0900000000p-7, 0x1.a89c300000000p-7, 0x1.299a440000000p-5, 0x1.329d700000000p-5, -0x1.a095980000000p-6, 0x1.8666e80000000p-6, -0x1.4864e20000000p-4, 0x1.3762a00000000p-4, 0x1.4c7a780000000p-6, 0x1.0da6d40000000p-5, 0x1.4011cc0000000p-4, 0x1.7da0a00000000p-7, -0x1.7b2d000000000p-7, -0x1.f65c000000000p-13, 0x1.f977800000000p-5, -0x1.3ceffe0000000p-4, 0x1.1055ac0000000p-5, -0x1.e428de0000000p-5, -0x1.d43a520000000p-5, -0x1.34aba80000000p-4, 0x1.36ec400000000p-4, -0x1.f45a000000000p-7, 0x1.7396800000000p-5, -0x1.2d69f00000000p-4, -0x1.2c69540000000p-5, 0x1.0696240000000p-5, -0x1.48bf180000000p-4, 0x1.fec6f80000000p-6, -0x1.4504e80000000p-5, -0x1.0a1f5c0000000p-4, 0x1.31a95c0000000p-4, 0x1.3ba3400000000p-5, 0x1.3bf4200000000p-4, -0x1.3e99400000000p-9, -0x1.3d07e00000000p-4, -0x1.1749ba0000000p-4, 0x1.5d9f600000000p-7, 0x1.8bb8100000000p-6, -0x1.4ed0000000000p-11, -0x1.3fc6de0000000p-4, 0x1.a473b00000000p-5, -0x1.65f7c00000000p-7, -0x1.44e1580000000p-4, -0x1.10afda0000000p-4, 0x1.449c4c0000000p-5, -0x1.3b73da0000000p-5, 0x1.2c524c0000000p-5, 0x1.e2db480000000p-5, 0x1.0dd5200000000p-7, 0x1.bbacf00000000p-6, -0x1.d25ec80000000p-5, 0x1.1623080000000p-5, -0x1.41da6a0000000p-5, 0x1.406c700000000p-7, 0x1.88b0780000000p-5, -0x1.5bb1600000000p-5, 0x1.7cb6900000000p-7, -0x1.e1bc500000000p-5, -0x1.256d000000000p-6, 0x1.2aab700000000p-4, -0x1.bcbfb80000000p-5, -0x1.0ec2ae0000000p-4, 0x1.2d5ab40000000p-4, -0x1.bdc98c0000000p-6, 0x1.c3d0100000000p-7, 0x1.91ef380000000p-5, -0x1.24c6e00000000p-7, -0x1.559ddc0000000p-5, 0x1.8217e80000000p-5, 0x1.4494080000000p-5, 0x1.75c2500000000p-7, -0x1.322a9c0000000p-4, -0x1.f2a9880000000p-6, 0x1.597f000000000p-5, 0x1.c176e00000000p-7, 0x1.30e2e00000000p-6, -0x1.9f69400000000p-9, -0x1.3eb2ee0000000p-4, 0x1.1035b00000000p-6, 0x1.3e36c00000000p-5, -0x1.1c16520000000p-5, -0x1.1426a00000000p-7, -0x1.f8e7400000000p-6, -0x1.3b37d60000000p-4, 0x1.17c0b80000000p-6, -0x1.515d600000000p-8, -0x1.449f640000000p-5, 0x1.e524c00000000p-6, 0x1.8aace00000000p-6, 0x1.c2b9d00000000p-5, -0x1.57f8240000000p-6, 0x1.0413840000000p-4, 0x1.1c3cd00000000p-5, -0x1.a92a040000000p-6, -0x1.838d840000000p-6, 0x1.6453c00000000p-9, -0x1.b9beb00000000p-5, -0x1.0d3c720000000p-4, 0x1.7330f00000000p-6, 0x1.60727c0000000p-5, 0x1.d662000000000p-6, 0x1.ec61400000000p-5, -0x1.177e220000000p-4, -0x1.ab83200000000p-8, 0x1.0017dc0000000p-5, -0x1.b193dc0000000p-5, 0x1.ca04980000000p-6, -0x1.e71cac0000000p-5, 0x1.96f7d00000000p-6, -0x1.031f860000000p-5, -0x1.d34b120000000p-5, -0x1.a524540000000p-6, 0x1.23e1dc0000000p-5, -0x1.08f1a60000000p-5, -0x1.b754600000000p-5, -0x1.bf1f6c0000000p-5, 0x1.d536700000000p-5, -0x1.3132da0000000p-5, 0x1.93fdd80000000p-5, 0x1.03d9140000000p-4, 0x1.19a9100000000p-6, -0x1.8b92f20000000p-5, -0x1.c158000000000p-10, -0x1.6a3e020000000p-5, -0x1.2f7e180000000p-5, -0x1.535b040000000p-5, 0x1.09924c0000000p-4, 0x1.f0d1180000000p-5, -0x1.f82a000000000p-12, -0x1.843fc00000000p-7, -0x1.12e34c0000000p-4, 0x1.2b4c680000000p-4, 0x1.e6de100000000p-7, -0x1.237fac0000000p-5, -0x1.439e360000000p-4, -0x1.57e4b20000000p-5, -0x1.2105140000000p-4, 0x1.4487180000000p-4, 0x1.6316fc0000000p-5, 0x1.b716e80000000p-6, -0x1.1d77820000000p-4, 0x1.0785b00000000p-4, 0x1.f10ba00000000p-6, 0x1.8fd9a80000000p-6, -0x1.a358bc0000000p-5, -0x1.e258e40000000p-5, -0x1.a0bcdc0000000p-5, 0x1.8d0dc00000000p-7, 0x1.8d38000000000p-5, -0x1.35d6260000000p-4, 0x1.ca83600000000p-6, -0x1.ecec000000000p-10, -0x1.0cd2000000000p-7, -0x1.7832fc0000000p-5, 0x1.139d800000000p-10, -0x1.398d800000000p-10, -0x1.010c400000000p-6, 0x1.ec8ab80000000p-5, -0x1.15b9480000000p-6, 0x1.ff9e880000000p-5, 0x1.4143400000000p-6, 0x1.09bc880000000p-4, -0x1.6b8db20000000p-5, 0x1.15e6d00000000p-4, 0x1.f051200000000p-7, 0x1.3acb600000000p-7, 0x1.209ccc0000000p-4, -0x1.40f9180000000p-4, -0x1.c7f9940000000p-5, -0x1.326eca0000000p-4, 0x1.666cb00000000p-5, 0x1.fce1f00000000p-6, 0x1.1ee4980000000p-4, 0x1.7f08400000000p-5, 0x1.8844680000000p-5, 0x1.7c56400000000p-8, 0x1.c4e9680000000p-6, -0x1.a707500000000p-6, -0x1.2e34d60000000p-4, -0x1.b857880000000p-6, -0x1.9e12500000000p-7, 0x1.be6d480000000p-5, -0x1.13512a0000000p-5, 0x1.c80fa00000000p-7, 0x1.e4eb200000000p-6, 0x1.66e3f00000000p-5, 0x1.63e4fc0000000p-5, 0x1.3222500000000p-5, 0x1.3d71540000000p-5, -0x1.410ac60000000p-5, 0x1.1454180000000p-6, 0x1.44e9d40000000p-4, 0x1.a741380000000p-5, -0x1.5833500000000p-6, -0x1.499eee0000000p-4, -0x1.21584a0000000p-5, -0x1.5a04cc0000000p-6, 0x1.024bc00000000p-4, -0x1.0caea00000000p-4, 0x1.b834d00000000p-5, 0x1.a6cea80000000p-6, -0x1.e055300000000p-5, -0x1.2c471c0000000p-4, 0x1.7fc5380000000p-5, 0x1.1c01540000000p-4, -0x1.3805100000000p-7, -0x1.d718700000000p-6, 0x1.353b340000000p-4, 0x1.9dcb200000000p-8, 0x1.4dc2400000000p-8, 0x1.3bc47c0000000p-4, -0x1.1efab00000000p-4, -0x1.f714fc0000000p-5, 0x1.4398580000000p-6, 0x1.ce10600000000p-7, -0x1.7ea8ba0000000p-5, -0x1.1de57e0000000p-4, -0x1.364f000000000p-11, -0x1.1da8500000000p-4, 0x1.c017a00000000p-6, -0x1.de8d440000000p-5, 0x1.cd6f300000000p-6, -0x1.0e59400000000p-4, 0x1.04c9c00000000p-7, 0x1.a071c80000000p-6, 0x1.3c13dc0000000p-4, 0x1.42cc600000000p-8, 0x1.3c4ce80000000p-4, 0x1.54c5280000000p-6, 0x1.0157f00000000p-7, 0x1.ebaa780000000p-5, 0x1.3833000000000p-11, 0x1.18274c0000000p-5, 0x1.17aa580000000p-5, -0x1.21e0a40000000p-5, -0x1.e5d59c0000000p-5, 0x1.5593600000000p-7, -0x1.3d5cb20000000p-4, -0x1.6fe9400000000p-8, 0x1.a19dc00000000p-9, -0x1.4b7f880000000p-5, -0x1.b821a80000000p-6, -0x1.429e180000000p-4, 0x1.3dd0800000000p-4, 0x1.d5df580000000p-5, 0x1.44f2440000000p-5, -0x1.a72ef00000000p-6, 0x1.068e340000000p-5, 0x1.28df080000000p-4, 0x1.3642340000000p-4, -0x1.2151d00000000p-6, 0x1.3e64440000000p-4, 0x1.3cda100000000p-4, -0x1.8eab680000000p-6, -0x1.ba2b740000000p-5, -0x1.fe70380000000p-6, 0x1.871e200000000p-5, 0x1.8333400000000p-9, 0x1.0ae0b40000000p-4, 0x1.d242a80000000p-6, -0x1.05ed000000000p-6, 0x1.608fc80000000p-5, 0x1.00d1000000000p-5, -0x1.1de1520000000p-4, -0x1.547b420000000p-5, -0x1.04ca740000000p-4, 0x1.13daa00000000p-7, -0x1.2677820000000p-4, 0x1.67df400000000p-5, 0x1.a702c80000000p-5, 0x1.7c33380000000p-5, -0x1.d328a40000000p-6, 0x1.f8aa800000000p-5, 0x1.20faa00000000p-4, 0x1.077d5c0000000p-4, 0x1.347f800000000p-6, 0x1.47dbc80000000p-6, 0x1.3232500000000p-6, -0x1.8740c20000000p-5, -0x1.91aa800000000p-10, 0x1.ee1d000000000p-8, 0x1.78a8600000000p-5, -0x1.b6ed000000000p-8, -0x1.3502ea0000000p-5, -0x1.e555500000000p-7, -0x1.13b0360000000p-5, -0x1.8e26b00000000p-7, -0x1.3fa3980000000p-4, 0x1.93a9380000000p-6, -0x1.08dbe00000000p-7, -0x1.cb25000000000p-8, -0x1.683cc00000000p-8, -0x1.4648b60000000p-4, -0x1.3cb4480000000p-6, 0x1.2205e80000000p-5, 0x1.7443300000000p-5, 0x1.ee8c600000000p-5, 0x1.59dae00000000p-8, -0x1.0cb8ea0000000p-5, 0x1.9574900000000p-5, -0x1.5d8c2e0000000p-5, -0x1.0a9d6a0000000p-5, -0x1.2893000000000p-11, -0x1.adbcf80000000p-5, -0x1.4182760000000p-4, 0x1.993ae80000000p-5, 0x1.70f1b80000000p-5, 0x1.024c800000000p-8, -0x1.0a06f80000000p-4, -0x1.1f19000000000p-7, -0x1.0370b80000000p-4, -0x1.10ee400000000p-5, 0x1.60c2cc0000000p-5, -0x1.186fee0000000p-4, 0x1.1f68bc0000000p-4, 0x1.06ca400000000p-4, -0x1.7cdf400000000p-5, -0x1.e774080000000p-5, 0x1.ed1ed80000000p-6, 0x1.5c6b480000000p-6, 0x1.1e9d180000000p-4, 0x1.4bb1100000000p-6, 0x1.3610b00000000p-4, 0x1.f00a780000000p-5, -0x1.f0ce1e0000000p-5, 0x1.6db8680000000p-6, 0x1.30d6b00000000p-5, 0x1.38c3d00000000p-4, 0x1.39ddb80000000p-6, 0x1.338d380000000p-5, -0x1.7d68380000000p-6, -0x1.14bd880000000p-4, 0x1.28f6d80000000p-4, 0x1.30d0500000000p-6, -0x1.6609000000000p-11, 0x1.ca39e80000000p-5, 0x1.0ae2240000000p-5, -0x1.39e05a0000000p-4, -0x1.403dc40000000p-4, -0x1.b7dc280000000p-5, 0x1.997f680000000p-5, -0x1.caa4b60000000p-5, -0x1.2b3be80000000p-5, -0x1.04383c0000000p-5, -0x1.0e587a0000000p-4, -0x1.eb1a180000000p-6, -0x1.b10dac0000000p-6, 0x1.9a0d180000000p-5, -0x1.66da640000000p-6, -0x1.a2bd200000000p-8, -0x1.446b180000000p-6, 0x1.b4bef80000000p-6, -0x1.325f060000000p-4, 0x1.a80de80000000p-6, -0x1.ea15340000000p-5, -0x1.a76e900000000p-7, -0x1.dba3900000000p-7, 0x1.5297a00000000p-5, 0x1.9dff780000000p-5, -0x1.ae82100000000p-7, 0x1.88c1b80000000p-5, -0x1.4cbb0a0000000p-5, 0x1.74ac000000000p-9, 0x1.3e88d00000000p-4, 0x1.b0dee00000000p-7, 0x1.756b600000000p-5, 0x1.07db000000000p-4, -0x1.0a8e760000000p-4, -0x1.b5fa500000000p-6, 0x1.34bee00000000p-4, -0x1.7f8caa0000000p-5, 0x1.aa87880000000p-5, 0x1.08c8f40000000p-4, -0x1.f545d00000000p-7, -0x1.0fca200000000p-4, -0x1.0c71b00000000p-7, -0x1.b9da280000000p-6, -0x1.c2ca9c0000000p-6, -0x1.0b12900000000p-5, -0x1.0791c80000000p-4, 0x1.b452b00000000p-5, 0x1.2941c40000000p-5, -0x1.bbe4a00000000p-7, -0x1.917a400000000p-8, -0x1.0b778e0000000p-4, 0x1.edd4400000000p-6, 0x1.420db00000000p-5, -0x1.022e260000000p-5, -0x1.97c1200000000p-7, -0x1.e063600000000p-7, -0x1.21c7540000000p-5, 0x1.7ed3000000000p-9, -0x1.c54f300000000p-7, -0x1.7352e00000000p-6, 0x1.18af800000000p-10, -0x1.fb82e00000000p-5, -0x1.4276560000000p-5, 0x1.3b0e780000000p-4, 0x1.4932140000000p-4, 0x1.3df1c80000000p-5, -0x1.1721d00000000p-4, -0x1.4bbc760000000p-4, 0x1.f7b1d00000000p-5, 0x1.4265400000000p-5, 0x1.3f3e600000000p-4, -0x1.f865e40000000p-5, 0x1.a5ef480000000p-6, 0x1.a450c00000000p-6, 0x1.95e6a00000000p-6, -0x1.beba440000000p-5, -0x1.0c58e40000000p-4, -0x1.00b2ce0000000p-4, 0x1.0a71dc0000000p-4, 0x1.1e95740000000p-4, -0x1.2e36960000000p-5, -0x1.e2044c0000000p-6, 0x1.4b337c0000000p-5, 0x1.aaa9600000000p-7, -0x1.b3eb4c0000000p-5, 0x1.44ec500000000p-4, 0x1.be89f00000000p-6, 0x1.eb51400000000p-8, 0x1.e5f6400000000p-5, -0x1.5d2fe40000000p-6, -0x1.1795700000000p-6, -0x1.2d34540000000p-4, 0x1.e3f3500000000p-6, 0x1.e1c7880000000p-5, -0x1.9640220000000p-5, -0x1.075f8e0000000p-5, -0x1.326eaa0000000p-4, -0x1.9715600000000p-8, -0x1.1142c40000000p-4, -0x1.b666f40000000p-5, 0x1.2937f40000000p-5, -0x1.c7a8f80000000p-5, -0x1.bee5cc0000000p-5, 0x1.30e4000000000p-9, -0x1.1c26f20000000p-4, 0x1.2a04d80000000p-6, 0x1.222da40000000p-4, -0x1.26e6fe0000000p-5, -0x1.0e0f000000000p-6, 0x1.0c45b80000000p-5, 0x1.a853700000000p-7, -0x1.3762f00000000p-4, 0x1.24ae2c0000000p-4, -0x1.3e98280000000p-6, -0x1.9038800000000p-9, 0x1.6eb8000000000p-9, 0x1.276e0c0000000p-4, -0x1.5bcae40000000p-5, -0x1.12711c0000000p-4, -0x1.d8d3e00000000p-6, 0x1.5e28c00000000p-6, 0x1.fe32a80000000p-5, -0x1.bca8bc0000000p-5, 0x1.7a45000000000p-10, -0x1.9094c00000000p-7, -0x1.5fd3e00000000p-8, 0x1.8996900000000p-7, -0x1.0187300000000p-6, 0x1.2176640000000p-5, -0x1.6477a20000000p-5, -0x1.3b02c20000000p-4, 0x1.28e6000000000p-9, -0x1.d430d80000000p-5, -0x1.f1a6440000000p-5, 0x1.c41f980000000p-5, -0x1.008cd00000000p-7, -0x1.9c06c00000000p-9, 0x1.8be6600000000p-7, -0x1.2806ac0000000p-5, -0x1.db4cc20000000p-5, 0x1.a68a000000000p-12, -0x1.356c2e0000000p-4, -0x1.c150700000000p-7, 0x1.2ef2140000000p-5, -0x1.a904180000000p-6, 0x1.46e5d80000000p-4, -0x1.3f59ec0000000p-6, 0x1.e184a80000000p-5, -0x1.2179bc0000000p-4, 0x1.292e500000000p-5, 0x1.c94ab80000000p-5, -0x1.0acd000000000p-11, -0x1.c5421c0000000p-6, -0x1.72b1200000000p-8, -0x1.ce236c0000000p-6, -0x1.26c54e0000000p-4, -0x1.e305a80000000p-5, -0x1.65e4400000000p-5, -0x1.478fc80000000p-6, -0x1.1581200000000p-8, 0x1.f843900000000p-7, 0x1.4f68a00000000p-6, 0x1.cb14900000000p-7, -0x1.8cd2500000000p-5, -0x1.8f01600000000p-8, 0x1.7c42300000000p-6, -0x1.3d56f40000000p-6, -0x1.3808700000000p-4, -0x1.43e31e0000000p-4, -0x1.2801d40000000p-4, -0x1.4b763c0000000p-4, 0x1.c8c8d00000000p-5, 0x1.0af13c0000000p-4, -0x1.0d87ce0000000p-4, 0x1.fa79300000000p-5, -0x1.c889000000000p-10, -0x1.574ae40000000p-6, 0x1.5a39b00000000p-5, 0x1.3966640000000p-5, 0x1.8e59500000000p-7, -0x1.2e09fe0000000p-5, -0x1.8647360000000p-5, 0x1.c76dd00000000p-5, -0x1.3f9f380000000p-4, 0x1.024a140000000p-4, 0x1.33879c0000000p-5, -0x1.23292a0000000p-4, -0x1.30bc9c0000000p-4, 0x1.2b7f540000000p-4, -0x1.7d48c00000000p-7, 0x1.5b5bec0000000p-5, -0x1.ad10880000000p-6, -0x1.e1e9000000000p-8, -0x1.b56e940000000p-6, -0x1.e91f980000000p-6, -0x1.1b7e9c0000000p-4, 0x1.0d60300000000p-6, -0x1.949b600000000p-8, 0x1.3fbc080000000p-5, 0x1.49add80000000p-4, -0x1.9d3f400000000p-8, 0x1.7619b80000000p-6, -0x1.c172f40000000p-5, -0x1.4656720000000p-4, -0x1.70ee2c0000000p-5, 0x1.a2e3480000000p-6, -0x1.0b11aa0000000p-4, -0x1.66f6180000000p-5, -0x1.eecae80000000p-6, -0x1.07c6400000000p-9, -0x1.bfea000000000p-10, -0x1.d2bfa00000000p-8, -0x1.732fb80000000p-6, 0x1.897a400000000p-5, -0x1.2af2000000000p-12, 0x1.7ce5d80000000p-5, 0x1.1963fc0000000p-4, -0x1.0f75e00000000p-4, 0x1.4510fc0000000p-4, 0x1.05e1d80000000p-6, 0x1.aa2b280000000p-5, -0x1.0ec4fa0000000p-4, 0x1.4769b00000000p-5, 0x1.fe10080000000p-5, -0x1.f52b200000000p-6, -0x1.dbd42c0000000p-5, 0x1.6c43000000000p-10, -0x1.05b5e80000000p-6, 0x1.14ca700000000p-5, 0x1.d625d00000000p-5, 0x1.bb96a80000000p-5, -0x1.b409400000000p-7, -0x1.07e3f60000000p-5, -0x1.9e9a1e0000000p-5, 0x1.46e0280000000p-6, -0x1.8eef140000000p-5, 0x1.a953900000000p-5, 0x1.3f50940000000p-4, 0x1.f7c8900000000p-7, 0x1.641f580000000p-5, -0x1.da244c0000000p-5, 0x1.d7e3e00000000p-5, -0x1.04b9780000000p-4, -0x1.11fa000000000p-6, -0x1.95f20c0000000p-5, 0x1.3ab9f00000000p-6, 0x1.6aa0700000000p-7, -0x1.84dfe40000000p-6, 0x1.294b200000000p-5, -0x1.1103740000000p-4, 0x1.320c780000000p-5, -0x1.faf4f40000000p-6, -0x1.f3cf500000000p-5, 0x1.d144f80000000p-5, 0x1.b645300000000p-5, 0x1.013ef00000000p-5, 0x1.74ea300000000p-5, 0x1.21dca80000000p-6, 0x1.3d70f40000000p-4, 0x1.49679c0000000p-4, 0x1.09248c0000000p-4, -0x1.5feaf00000000p-7, 0x1.03d4a00000000p-5, -0x1.15f5500000000p-7, 0x1.60d1000000000p-6, 0x1.30c2d00000000p-4, 0x1.0228280000000p-6, 0x1.e046a80000000p-6, -0x1.c7b9200000000p-5, -0x1.2bcb8e0000000p-4, 0x1.fb67d80000000p-5, -0x1.0efb660000000p-4, 0x1.b957a00000000p-7, 0x1.12dd080000000p-5, 0x1.30969c0000000p-4, 0x1.63c7c80000000p-5, 0x1.f221500000000p-6, -0x1.1f1da40000000p-4, -0x1.065f580000000p-6, 0x1.ebf0000000000p-12, -0x1.38e2200000000p-4, -0x1.62dd5e0000000p-5, 0x1.2783280000000p-4, 0x1.5fdea00000000p-8, -0x1.35ce960000000p-4, 0x1.b508a00000000p-6, -0x1.1fe9e20000000p-5, 0x1.e636e00000000p-8, 0x1.a233900000000p-7, -0x1.0c4b320000000p-4, -0x1.2736ee0000000p-4, 0x1.48493c0000000p-5, 0x1.267e780000000p-5, -0x1.45a4980000000p-4, -0x1.3a2bc00000000p-8, 0x1.4124000000000p-12, 0x1.0e425c0000000p-4, 0x1.3acb980000000p-4, -0x1.174cd60000000p-5, -0x1.11bcb80000000p-6, 0x1.1d4ea80000000p-6, -0x1.77fa100000000p-5, 0x1.8b73380000000p-6, -0x1.e743b20000000p-5, -0x1.3482180000000p-6, 0x1.a38cd00000000p-5, 0x1.27e92c0000000p-4, -0x1.452c600000000p-4, -0x1.e35cb00000000p-5, -0x1.28a42e0000000p-4, -0x1.79e6520000000p-5, 0x1.1304380000000p-4, -0x1.22fac80000000p-4, 0x1.95ced00000000p-5, -0x1.1784420000000p-5, -0x1.41a2da0000000p-4, -0x1.adf50c0000000p-5, 0x1.77ff400000000p-7, -0x1.1edf340000000p-4, 0x1.3b89780000000p-6, -0x1.5967fa0000000p-5, 0x1.3183a80000000p-4, 0x1.d913980000000p-5, -0x1.a6a4400000000p-7, 0x1.1e24c40000000p-4, -0x1.3850c40000000p-5, 0x1.19dc080000000p-6, 0x1.783f980000000p-5, -0x1.b47b8c0000000p-5, -0x1.4a7f160000000p-4, -0x1.4575f00000000p-7, 0x1.242f300000000p-4, -0x1.6a20800000000p-6, -0x1.264e200000000p-5, -0x1.8740c00000000p-8, 0x1.0359400000000p-7, -0x1.0fe4780000000p-4, 0x1.a963a00000000p-5, -0x1.0d0ea60000000p-4, 0x1.3c7bec0000000p-4, -0x1.46c7d40000000p-5, -0x1.303ee60000000p-4, -0x1.3a9da00000000p-8, -0x1.22de600000000p-4, 0x1.2925240000000p-4, -0x1.43c8440000000p-6, 0x1.35ce700000000p-6, 0x1.108ca00000000p-7, 0x1.4d80000000000p-11, 0x1.78d1380000000p-5, -0x1.3ece7a0000000p-5, 0x1.5c02100000000p-5, -0x1.f553a80000000p-5, 0x1.268fe00000000p-8, -0x1.740e8a0000000p-5, -0x1.253f120000000p-4, -0x1.05bbfc0000000p-4, 0x1.658be80000000p-5, 0x1.7b9a100000000p-7, -0x1.11e9580000000p-4, 0x1.34103c0000000p-4, 0x1.2811340000000p-4, 0x1.c509700000000p-5, -0x1.0e95500000000p-4, -0x1.37ee940000000p-4, 0x1.db11080000000p-5, -0x1.c35d000000000p-7, 0x1.d83cb80000000p-5, 0x1.2a19100000000p-5, 0x1.1eb5780000000p-6, -0x1.4c13ae0000000p-4, -0x1.f2ced80000000p-5, -0x1.367a700000000p-4, 0x1.211c900000000p-5, -0x1.0489a20000000p-4, 0x1.3911540000000p-4, 0x1.21b8400000000p-4, -0x1.ff5de00000000p-5, -0x1.74d9a80000000p-5, 0x1.0f8e7c0000000p-5, -0x1.4b16d60000000p-4, 0x1.0845140000000p-5, 0x1.0cc6280000000p-4, 0x1.8a32a80000000p-5, 0x1.313e400000000p-5, 0x1.09aa040000000p-4, -0x1.9c95c40000000p-6, -0x1.0b7e000000000p-8, 0x1.2d86840000000p-4, 0x1.35029c0000000p-4, -0x1.e821700000000p-7, -0x1.0682920000000p-5, -0x1.7160b80000000p-5, 0x1.0140440000000p-4, 0x1.5583bc0000000p-5, -0x1.894b020000000p-5, 0x1.7a10300000000p-6, 0x1.2b4dc40000000p-4, 0x1.9043480000000p-6, 0x1.0aa3200000000p-4, 0x1.c1a8800000000p-10, -0x1.a8116c0000000p-5, -0x1.b379d20000000p-5, -0x1.d5e0d80000000p-6, 0x1.4cb9c00000000p-7, 0x1.8fd8b00000000p-6, 0x1.47061c0000000p-4, -0x1.d982000000000p-8, -0x1.a83e800000000p-5, -0x1.32da980000000p-5, -0x1.332ec80000000p-4, 0x1.e8fcd80000000p-5, 0x1.b9e5100000000p-6, 0x1.1f85b80000000p-4, -0x1.f88b140000000p-5, -0x1.3bc2d40000000p-5, -0x1.0933080000000p-4, 0x1.274f800000000p-7, -0x1.68c0380000000p-6, -0x1.899bd20000000p-5, -0x1.1e5fc40000000p-5, -0x1.44517c0000000p-4, 0x1.4932980000000p-5, 0x1.7bc0680000000p-5, -0x1.ff12c00000000p-8, 0x1.0d4d440000000p-4, 0x1.086b680000000p-4, 0x1.0d80a80000000p-5, 0x1.41f0340000000p-4, 0x1.b79ac80000000p-5, -0x1.38c7f60000000p-4, 0x1.c06ec00000000p-9, -0x1.57f8c00000000p-8, 0x1.0776d00000000p-4, -0x1.730d500000000p-7, 0x1.9ba4900000000p-7, 0x1.190d400000000p-9, -0x1.d7c1a00000000p-6, 0x1.48a8e80000000p-5, 0x1.8746780000000p-6, 0x1.d53a500000000p-7, -0x1.4077ce0000000p-4, 0x1.1b7ad40000000p-4, -0x1.c1479c0000000p-5, -0x1.f0364e0000000p-5, 0x1.4136800000000p-10, -0x1.756a1c0000000p-6, 0x1.adbc800000000p-8, 0x1.65a6200000000p-6, -0x1.b3a9800000000p-10, 0x1.1553380000000p-4, -0x1.c997100000000p-7, 0x1.b236380000000p-6, 0x1.474a800000000p-4, 0x1.53f4500000000p-7, 0x1.412e500000000p-4, 0x1.ce66400000000p-5, -0x1.1d60e20000000p-5, -0x1.1af9dc0000000p-5, -0x1.bd32c00000000p-5, -0x1.adf9300000000p-7, -0x1.297b280000000p-4, 0x1.84b6b80000000p-6, -0x1.ae741c0000000p-5, -0x1.419b820000000p-4, -0x1.dad32c0000000p-6, -0x1.0b6c700000000p-7, 0x1.0118280000000p-4, 0x1.92ddb80000000p-5}
, {-0x1.489b980000000p-4, -0x1.30d5160000000p-4, 0x1.0d8fa00000000p-6, 0x1.c8f8800000000p-5, 0x1.e847e80000000p-5, 0x1.0501680000000p-6, -0x1.1e050c0000000p-4, -0x1.2bc1a00000000p-8, 0x1.4cb5600000000p-6, -0x1.06d7880000000p-6, 0x1.004bb40000000p-4, -0x1.040e800000000p-6, 0x1.8bc9900000000p-5, -0x1.4417c00000000p-4, 0x1.ee90800000000p-9, -0x1.6aded80000000p-6, -0x1.4607700000000p-7, 0x1.3ccd6c0000000p-4, 0x1.c0f2600000000p-5, 0x1.2e4b7c0000000p-4, -0x1.e13fb00000000p-6, -0x1.5a4e480000000p-6, -0x1.494fca0000000p-4, 0x1.087a140000000p-4, -0x1.9d82400000000p-9, 0x1.0e58740000000p-4, -0x1.017caa0000000p-4, 0x1.465d5c0000000p-4, 0x1.1a548c0000000p-4, -0x1.52d65c0000000p-6, 0x1.872fd80000000p-5, 0x1.d997c00000000p-5, 0x1.c46c480000000p-5, -0x1.14e3b40000000p-5, -0x1.2c1fe20000000p-5, -0x1.5252e60000000p-5, -0x1.4c7be80000000p-4, -0x1.1876080000000p-5, -0x1.72ddbc0000000p-5, 0x1.fc4b800000000p-7, -0x1.0a1ad20000000p-4, -0x1.4951400000000p-7, 0x1.7fe3a00000000p-6, -0x1.8042240000000p-5, -0x1.87aa8c0000000p-6, -0x1.7742820000000p-5, 0x1.b169d80000000p-5, -0x1.5ca24c0000000p-6, -0x1.06daba0000000p-4, -0x1.54d8000000000p-11, 0x1.4c29b00000000p-4, -0x1.2d81700000000p-4, -0x1.03a7100000000p-6, 0x1.9f83280000000p-5, -0x1.fe698c0000000p-6, 0x1.9bf8a80000000p-5, 0x1.8c39700000000p-6, 0x1.cecc280000000p-5, -0x1.31cf640000000p-5, -0x1.5052940000000p-5, 0x1.4935380000000p-4, 0x1.2fa1640000000p-4, 0x1.c0f5000000000p-7, 0x1.c667300000000p-5, -0x1.03d0ae0000000p-4, 0x1.d5db100000000p-6, 0x1.0b3d640000000p-4, 0x1.0c94d00000000p-6, -0x1.ee3a380000000p-6, -0x1.41dfb00000000p-4, -0x1.7b710c0000000p-6, 0x1.5f4f800000000p-7, 0x1.32db500000000p-7, -0x1.1054860000000p-4, 0x1.4921ac0000000p-4, 0x1.7bd5a00000000p-8, 0x1.cabd280000000p-6, 0x1.872d500000000p-6, -0x1.f393f20000000p-5, -0x1.3c008e0000000p-5, -0x1.e3b1c40000000p-5, 0x1.ba84c80000000p-5, 0x1.2a6d140000000p-4, 0x1.3c2e680000000p-4, -0x1.5e78000000000p-10, -0x1.47aa000000000p-8, -0x1.f5abbe0000000p-5, -0x1.0f8d160000000p-4, 0x1.c7c4f80000000p-5, 0x1.6a71680000000p-5, -0x1.a4e7200000000p-8, 0x1.cbc4780000000p-5, 0x1.958d700000000p-5, 0x1.19408c0000000p-4, -0x1.2694dc0000000p-4, -0x1.fd18240000000p-5, -0x1.5216f60000000p-5, -0x1.0c4b580000000p-5, 0x1.8f1a600000000p-5, 0x1.4ccc980000000p-4, 0x1.3ac1940000000p-4, 0x1.5857ec0000000p-5, 0x1.51d0f00000000p-5, 0x1.4235480000000p-4, 0x1.6f3c380000000p-5, -0x1.2ae8680000000p-5, -0x1.4007f40000000p-5, 0x1.33d5480000000p-4, -0x1.4185300000000p-7, -0x1.db8d200000000p-8, -0x1.9edda80000000p-6, 0x1.1ec3680000000p-4, 0x1.346ce40000000p-4, 0x1.4ab3f80000000p-6, 0x1.de04700000000p-7, 0x1.193dbc0000000p-5, -0x1.1704fc0000000p-5, -0x1.d3f13e0000000p-5, -0x1.cad7bc0000000p-5, 0x1.33b2c00000000p-6, 0x1.0129080000000p-6, -0x1.74a12e0000000p-5, 0x1.3793f00000000p-4, -0x1.3d5ed00000000p-5, -0x1.36f8a20000000p-4, -0x1.7543b00000000p-7, -0x1.70dab80000000p-6, -0x1.234ab00000000p-7, -0x1.924f5c0000000p-5, 0x1.5cb6200000000p-7, 0x1.10fa800000000p-4, 0x1.2da7080000000p-5, 0x1.402a400000000p-5, 0x1.1a32e00000000p-8, -0x1.335bb80000000p-4, -0x1.9e224a0000000p-5, -0x1.ffaaa80000000p-6, -0x1.3ec9000000000p-8, -0x1.5c65700000000p-7, -0x1.c373840000000p-5, -0x1.3346d80000000p-6, -0x1.c556300000000p-7, -0x1.de69200000000p-5, -0x1.9e4ee20000000p-5, 0x1.407c380000000p-4, 0x1.d209200000000p-5, 0x1.193ce00000000p-8, -0x1.cca7f60000000p-5, 0x1.43b7480000000p-4, -0x1.5030f80000000p-5, -0x1.8807720000000p-5, -0x1.1030200000000p-8, 0x1.00d7b00000000p-7, 0x1.1a54f80000000p-4, -0x1.6d4c760000000p-5, -0x1.ff627c0000000p-6, 0x1.6629100000000p-6, -0x1.4cf7be0000000p-4, 0x1.1465c80000000p-6, 0x1.0961bc0000000p-4, -0x1.dc29a80000000p-5, 0x1.3d21880000000p-4, -0x1.2a2d3c0000000p-5, -0x1.f8daf40000000p-6, -0x1.1459100000000p-6, 0x1.7349880000000p-6, -0x1.881b400000000p-9, -0x1.4afd5c0000000p-6, 0x1.4b84f00000000p-4, -0x1.1cc4060000000p-4, 0x1.29721c0000000p-5, 0x1.6dcef00000000p-5, 0x1.41abdc0000000p-4, -0x1.0725400000000p-7, 0x1.3c39b80000000p-5, -0x1.8e51000000000p-9, -0x1.d621b40000000p-6, 0x1.e13f300000000p-5, -0x1.4b1e680000000p-4, -0x1.05d9400000000p-7, 0x1.137f800000000p-4, -0x1.de33800000000p-7, 0x1.f3ebc80000000p-6, -0x1.1974c00000000p-4, -0x1.a6ed300000000p-5, 0x1.d32b000000000p-5, -0x1.104cea0000000p-4, 0x1.e7d7d00000000p-5, -0x1.018ed00000000p-5, -0x1.c3a2980000000p-5, -0x1.229fd00000000p-6, -0x1.57f8d60000000p-5, 0x1.6500440000000p-5, -0x1.dd78300000000p-7, -0x1.69697c0000000p-5, 0x1.da72a00000000p-8, -0x1.b2ea000000000p-10, 0x1.cc1b000000000p-9, -0x1.236b500000000p-6, 0x1.033f340000000p-4, 0x1.44fcc00000000p-4, 0x1.d163700000000p-6, 0x1.3ca2800000000p-4, -0x1.1054380000000p-4, -0x1.1f23400000000p-8, 0x1.0a7ca80000000p-4, 0x1.1fb2d80000000p-4, -0x1.0705800000000p-8, 0x1.0452080000000p-6, -0x1.f4dc700000000p-6, 0x1.5de6380000000p-5, -0x1.3f82440000000p-4, -0x1.3eccfa0000000p-5, 0x1.2ffc380000000p-4, 0x1.42fa100000000p-6, 0x1.259fe80000000p-4, -0x1.26cb880000000p-4, -0x1.2d668a0000000p-4, -0x1.104a840000000p-5, -0x1.d85ac80000000p-6, -0x1.a97ba20000000p-5, -0x1.105c400000000p-6, 0x1.d081600000000p-5, -0x1.23a1140000000p-5, -0x1.5faab20000000p-5, -0x1.9b5cf00000000p-7, 0x1.4c8a400000000p-4, -0x1.3b29500000000p-4, -0x1.0cda580000000p-4, -0x1.fcb6dc0000000p-5, -0x1.e6ad000000000p-8, 0x1.1d03a40000000p-4, 0x1.df59700000000p-6, -0x1.bef6f00000000p-5, -0x1.65c5000000000p-5, 0x1.692ef00000000p-5, -0x1.1e8f160000000p-4, 0x1.75d1800000000p-9, -0x1.e9e4b40000000p-5, 0x1.0362840000000p-4, 0x1.788d000000000p-7, -0x1.3e72c00000000p-8, -0x1.c17cf40000000p-6, -0x1.53a9180000000p-5, 0x1.ec72680000000p-6, 0x1.f6bca00000000p-8, -0x1.04caec0000000p-4, 0x1.6604e00000000p-5, 0x1.244b3c0000000p-4, 0x1.c2c3600000000p-6, -0x1.4e743c0000000p-5, -0x1.1c86880000000p-6, 0x1.72e2f00000000p-5, 0x1.12e0c80000000p-5, -0x1.388c800000000p-5, -0x1.befe6c0000000p-5, 0x1.2ec6a00000000p-4, 0x1.1263800000000p-5, 0x1.4d72000000000p-10, 0x1.d351280000000p-6, 0x1.d92c200000000p-5, 0x1.94a9d00000000p-7, 0x1.5e8b980000000p-5, -0x1.3cda800000000p-7, -0x1.cdb8200000000p-8, 0x1.1c31580000000p-5, -0x1.01f6440000000p-4, 0x1.59138c0000000p-5, 0x1.e81de00000000p-7, -0x1.b59b2c0000000p-6, -0x1.03f43a0000000p-4, 0x1.0b91fc0000000p-4, 0x1.c04b100000000p-5, 0x1.9369400000000p-6, -0x1.b477e20000000p-5, -0x1.5439d00000000p-7, 0x1.c9a4e00000000p-7, -0x1.e05a280000000p-5, 0x1.f268d80000000p-6, 0x1.e56e100000000p-7, -0x1.b964a40000000p-6, -0x1.27cbf40000000p-5, -0x1.d8d9fa0000000p-5, 0x1.c1b2780000000p-5, -0x1.8f503e0000000p-5, 0x1.6c09e80000000p-6, 0x1.f1b7980000000p-6, 0x1.5261380000000p-5, 0x1.bdbf780000000p-6, 0x1.0d79800000000p-6, -0x1.47716c0000000p-5, -0x1.9fad6c0000000p-5, -0x1.8cf0ac0000000p-5, 0x1.98d5a00000000p-5, -0x1.3f1cc40000000p-4, 0x1.3d6f540000000p-5, 0x1.d526000000000p-7, -0x1.cbb6180000000p-6, -0x1.2c51720000000p-4, 0x1.c794400000000p-6, 0x1.7d82f00000000p-5, 0x1.4260100000000p-4, 0x1.81a6200000000p-6, -0x1.31d3800000000p-10, 0x1.3345600000000p-6, -0x1.e39a200000000p-6, -0x1.6725400000000p-5, 0x1.06b3a40000000p-5, 0x1.0ff5900000000p-6, -0x1.2094c20000000p-4, 0x1.163ca00000000p-4, 0x1.4206e00000000p-6, 0x1.8d3da80000000p-5, 0x1.4134000000000p-11, -0x1.86d5a00000000p-5, 0x1.9fb9c80000000p-6, -0x1.44bcf80000000p-5, -0x1.4f573c0000000p-5, -0x1.7a62040000000p-5, -0x1.b8fb180000000p-5, -0x1.0695e00000000p-7, -0x1.f696600000000p-7, -0x1.0022c40000000p-4, 0x1.efd3200000000p-7, 0x1.c99cc00000000p-5, -0x1.1b64160000000p-4, -0x1.eddaa00000000p-8, 0x1.127b680000000p-4, -0x1.bedff00000000p-7, -0x1.d766340000000p-5, -0x1.b465f00000000p-5, -0x1.e7571a0000000p-5, -0x1.fb490e0000000p-5, -0x1.d0bcd40000000p-5, 0x1.b0e6880000000p-5, 0x1.9973380000000p-6, 0x1.0db3400000000p-7, -0x1.757a620000000p-5, 0x1.15bc000000000p-11, -0x1.02342c0000000p-4, 0x1.382b4c0000000p-5, -0x1.12f8560000000p-4, -0x1.0ffcf60000000p-4, -0x1.e6d4fc0000000p-5, 0x1.2ce9e80000000p-5, 0x1.1fd3c80000000p-4, 0x1.1b6b500000000p-5, 0x1.01eac00000000p-4, -0x1.c028cc0000000p-6, -0x1.fe70000000000p-11, -0x1.36d7e60000000p-4, 0x1.4c7f800000000p-7, -0x1.41df300000000p-7, 0x1.45d0080000000p-5, -0x1.a9a1780000000p-6, -0x1.3a0c3c0000000p-4, 0x1.c04fd00000000p-5, 0x1.1e73dc0000000p-5, 0x1.5271400000000p-5, -0x1.ccff340000000p-5, 0x1.faa8480000000p-5, -0x1.2674300000000p-4, 0x1.9c9bf80000000p-6, 0x1.7553f00000000p-5, -0x1.4d05800000000p-5, 0x1.a6d6780000000p-6, -0x1.4ce2cc0000000p-6, -0x1.c563e20000000p-5, -0x1.6af5980000000p-5, 0x1.234c180000000p-4, 0x1.4fd7480000000p-6, -0x1.77ad800000000p-8, -0x1.b141820000000p-5, 0x1.7a27c80000000p-6, 0x1.573b500000000p-5, -0x1.0398680000000p-6, -0x1.f81a800000000p-9, -0x1.1b5f380000000p-6, -0x1.60c1c80000000p-6, -0x1.9369fe0000000p-5, -0x1.b345400000000p-5, 0x1.1800ac0000000p-4, -0x1.378e1c0000000p-5, 0x1.5226800000000p-10, 0x1.0988a80000000p-6, -0x1.a9c1560000000p-5, 0x1.1ee5240000000p-4, 0x1.1de9900000000p-4, -0x1.40c66c0000000p-4, -0x1.859a140000000p-6, 0x1.30a1a80000000p-4, -0x1.ff61fc0000000p-6, -0x1.90c1800000000p-6, 0x1.39f9280000000p-6, 0x1.ade7200000000p-7, 0x1.4ae7dc0000000p-4, -0x1.cc544c0000000p-6, -0x1.0cc1420000000p-4, -0x1.3d4ce40000000p-4, 0x1.03e4dc0000000p-5, -0x1.187c0e0000000p-5, -0x1.e094d40000000p-5, -0x1.a0a2a80000000p-5, 0x1.9f1ee00000000p-5, 0x1.30b3180000000p-5, 0x1.3edad00000000p-6, -0x1.2ca5300000000p-5, -0x1.cb225c0000000p-5, 0x1.408a180000000p-4, 0x1.5993e00000000p-8, 0x1.5690380000000p-6, -0x1.2f7c3a0000000p-5, -0x1.315d8a0000000p-5, 0x1.59c2200000000p-8, 0x1.7bdc800000000p-9, -0x1.56da440000000p-6, -0x1.e2c3c80000000p-5, -0x1.3a61b00000000p-5, 0x1.36fb940000000p-4, -0x1.7c6e8c0000000p-6, -0x1.741bf60000000p-5, -0x1.34ee380000000p-4, 0x1.168f980000000p-4, 0x1.d153400000000p-6, -0x1.4502100000000p-6, -0x1.3432e80000000p-4, -0x1.1503ba0000000p-5, -0x1.c6fdc00000000p-5, 0x1.47d6400000000p-4, 0x1.371e800000000p-4, 0x1.31b7700000000p-4, 0x1.39d8480000000p-5, 0x1.e36eb80000000p-5, 0x1.6112200000000p-8, 0x1.98c3300000000p-6, -0x1.c371480000000p-6, 0x1.1e89380000000p-5, -0x1.974b8c0000000p-5, -0x1.a750980000000p-5, 0x1.1f2f840000000p-5, -0x1.49804e0000000p-5, -0x1.2d51860000000p-4, -0x1.13a2be0000000p-4, -0x1.29bcfa0000000p-5, -0x1.eda5fc0000000p-5, -0x1.b220bc0000000p-5, -0x1.43bba00000000p-4, -0x1.5588f40000000p-6, -0x1.2702380000000p-4, 0x1.28c4100000000p-4, 0x1.3340b40000000p-4, -0x1.1372100000000p-4, 0x1.5ea7e00000000p-6, -0x1.7d5b700000000p-5, 0x1.345cbc0000000p-4, -0x1.efc7900000000p-7, 0x1.7880380000000p-5, 0x1.5c28c00000000p-8, 0x1.0112e00000000p-5, 0x1.b7a8c00000000p-8, -0x1.2b82800000000p-4, 0x1.b759a00000000p-6, 0x1.2a3c580000000p-6, 0x1.178e180000000p-6, 0x1.4acdcc0000000p-5, -0x1.14ea580000000p-6, -0x1.25b2e00000000p-4, -0x1.1107840000000p-5, -0x1.85c6ac0000000p-5, -0x1.6178900000000p-6, -0x1.b1bb400000000p-8, 0x1.0ca9800000000p-10, 0x1.44a2e80000000p-4, 0x1.5222700000000p-6, 0x1.411f900000000p-4, 0x1.323f000000000p-5, 0x1.f210400000000p-5, -0x1.ffe27c0000000p-5, -0x1.8efb0a0000000p-5, 0x1.3f43c80000000p-6, 0x1.3a8d000000000p-8, -0x1.c9b8c00000000p-6, 0x1.3a2b0c0000000p-4, 0x1.b19e400000000p-5, 0x1.c7a9800000000p-5, -0x1.2947580000000p-5, -0x1.94305a0000000p-5, -0x1.166d020000000p-5, -0x1.65f1900000000p-7, 0x1.741e980000000p-5, -0x1.31a1880000000p-6, 0x1.018f440000000p-4, 0x1.44beb00000000p-6, 0x1.0cd67c0000000p-4, 0x1.3cb2400000000p-6, -0x1.0137880000000p-4, 0x1.368f900000000p-6, 0x1.d7a1400000000p-5, -0x1.0d7a780000000p-6, -0x1.daea600000000p-6, -0x1.657ef00000000p-5, 0x1.8572b00000000p-5, -0x1.8815680000000p-6, -0x1.d004600000000p-5, -0x1.e346640000000p-5, -0x1.7735f80000000p-6, 0x1.fe6b480000000p-5, 0x1.44e6800000000p-10, -0x1.125ee80000000p-6, 0x1.06f7300000000p-5, -0x1.49486c0000000p-4, 0x1.f636100000000p-7, 0x1.25a3ac0000000p-4, 0x1.96c8700000000p-7, 0x1.8a8f900000000p-7, -0x1.ef07880000000p-5, -0x1.2350400000000p-8, 0x1.9714200000000p-5, -0x1.8e1f460000000p-5, -0x1.4b6c720000000p-5, -0x1.4bdc580000000p-4, -0x1.5be8400000000p-7, -0x1.6a93920000000p-5, 0x1.01cba80000000p-4, -0x1.8c92a20000000p-5, -0x1.c169c00000000p-6, -0x1.6050420000000p-5, 0x1.a941a80000000p-5, 0x1.0aa8e00000000p-4, -0x1.772c200000000p-7, 0x1.46d49c0000000p-4, 0x1.d928000000000p-7, -0x1.d9f5400000000p-8, 0x1.7e2e700000000p-6, -0x1.691db80000000p-5, -0x1.5b62700000000p-5, 0x1.a661200000000p-6, 0x1.401f400000000p-7, 0x1.308dd00000000p-7, 0x1.0e604c0000000p-4, 0x1.1b88700000000p-4, -0x1.1dbac00000000p-4, -0x1.1a59300000000p-7, -0x1.1031540000000p-4, -0x1.f4c0800000000p-7, 0x1.7017800000000p-5, 0x1.3d35380000000p-4, -0x1.0e35620000000p-4, -0x1.46b2800000000p-6, 0x1.292f5c0000000p-4, 0x1.2cad400000000p-9, -0x1.ea17460000000p-5, -0x1.0fea680000000p-6, -0x1.3f30fc0000000p-6, -0x1.4432620000000p-5, 0x1.f1c8f00000000p-6, 0x1.ae1b400000000p-8, 0x1.10d1b40000000p-4, -0x1.351cac0000000p-5, -0x1.3bf7fe0000000p-4, -0x1.35d0300000000p-4, 0x1.2651500000000p-4, 0x1.1a5a3c0000000p-4, -0x1.2577d00000000p-4, 0x1.fc8e000000000p-5, 0x1.cf1e500000000p-6, 0x1.a9e9800000000p-10, -0x1.0220b00000000p-6, 0x1.2259f00000000p-4, 0x1.43be180000000p-5, -0x1.0984e20000000p-4, -0x1.2276c80000000p-4, -0x1.316e0e0000000p-4, -0x1.e45e200000000p-5, -0x1.3d5db00000000p-7, 0x1.6e60d00000000p-5, -0x1.a4ac740000000p-6, 0x1.3abf300000000p-5, 0x1.54edb80000000p-5, -0x1.573c280000000p-6, 0x1.2157dc0000000p-4, -0x1.572ae80000000p-5, -0x1.c25aa40000000p-6, -0x1.d459bc0000000p-6, -0x1.4b442a0000000p-4, -0x1.2657040000000p-4, -0x1.933f820000000p-5, 0x1.da76a80000000p-5, 0x1.7a54c00000000p-5, 0x1.2365d40000000p-4, 0x1.c808200000000p-8, -0x1.695e940000000p-5, 0x1.725c580000000p-5, -0x1.b4688c0000000p-6, -0x1.0e6b860000000p-4, -0x1.2933520000000p-5, -0x1.cc42280000000p-5, 0x1.f940600000000p-7, -0x1.f622300000000p-5, 0x1.f90ec80000000p-6, -0x1.1ef6c20000000p-4, 0x1.aa37780000000p-5, 0x1.efa6380000000p-5, 0x1.6271600000000p-5, 0x1.8d1cd80000000p-5, 0x1.3d0c1c0000000p-4, -0x1.0e489c0000000p-5, 0x1.7365780000000p-5, 0x1.cea3700000000p-6, -0x1.8c73200000000p-8, 0x1.feb3d00000000p-5, 0x1.3bb2b80000000p-6, 0x1.8f52800000000p-7, -0x1.075a580000000p-5, -0x1.0ac2100000000p-7, -0x1.bf6d600000000p-8, 0x1.c063e00000000p-5, 0x1.eb5a600000000p-6, -0x1.73391e0000000p-5, 0x1.4473340000000p-5, 0x1.922d780000000p-5, 0x1.1a3c0c0000000p-4, -0x1.21171a0000000p-5, -0x1.11cba40000000p-5, -0x1.1b00640000000p-4, -0x1.7e86380000000p-5, -0x1.0d92400000000p-6, -0x1.9dca840000000p-5, -0x1.b954e60000000p-5, 0x1.ac4cd00000000p-6, 0x1.d9c0480000000p-5, 0x1.4728f40000000p-5, 0x1.cba9800000000p-7, -0x1.02e8780000000p-5, -0x1.93886c0000000p-5, 0x1.3e2c000000000p-4, 0x1.7078400000000p-5, -0x1.1808900000000p-7, -0x1.ca80340000000p-6, -0x1.aa2d720000000p-5, 0x1.96d2c00000000p-9, -0x1.51304c0000000p-5, 0x1.1597f40000000p-4, -0x1.7243280000000p-6, -0x1.3b93440000000p-4, -0x1.cade000000000p-9, 0x1.7253080000000p-5, 0x1.108a1c0000000p-5, -0x1.a935f80000000p-5, 0x1.18f9400000000p-9, 0x1.d941b00000000p-5, 0x1.6e31d00000000p-7, 0x1.5ff66c0000000p-5, -0x1.8919400000000p-6, 0x1.e65f400000000p-7, 0x1.cc95980000000p-5, 0x1.01d8000000000p-9, 0x1.85e3b80000000p-6, 0x1.75b9e00000000p-7, 0x1.5e9e900000000p-7, -0x1.4ddaa00000000p-8, 0x1.1afe8c0000000p-4, -0x1.d7b7fc0000000p-5, -0x1.8c36440000000p-6, 0x1.9a87b00000000p-5, -0x1.de17640000000p-5, 0x1.22336c0000000p-4, 0x1.feffb00000000p-7, -0x1.e1d8c00000000p-7, -0x1.755d5e0000000p-5, 0x1.26f3e00000000p-4, -0x1.adddd80000000p-5, -0x1.a838500000000p-6, 0x1.1296b00000000p-5, -0x1.105ec80000000p-5, 0x1.7429c00000000p-5, 0x1.6094380000000p-6, 0x1.ab9d280000000p-5, 0x1.20ea000000000p-7, -0x1.9fa9800000000p-10, -0x1.9295820000000p-5, -0x1.7ea2800000000p-5, -0x1.3770ba0000000p-4, 0x1.bca7c00000000p-5, 0x1.3b28400000000p-8, 0x1.16c85c0000000p-5, -0x1.e15e400000000p-9, -0x1.8bfbcc0000000p-5, -0x1.d7e7b00000000p-7, -0x1.3f4fac0000000p-5, 0x1.1842480000000p-6, -0x1.2a56be0000000p-4, -0x1.17668e0000000p-5, 0x1.09f8b80000000p-6, -0x1.41f1480000000p-5, 0x1.2a9f140000000p-5, 0x1.bae0700000000p-6, 0x1.500d340000000p-5, 0x1.acdde80000000p-6, 0x1.4024cc0000000p-4, 0x1.7e68c00000000p-9, -0x1.93429a0000000p-5, 0x1.5cb3040000000p-5, 0x1.227f400000000p-6, 0x1.1220e80000000p-4, -0x1.2e138e0000000p-4, 0x1.2b99f00000000p-6, 0x1.c6f9780000000p-5, -0x1.d47c900000000p-6, 0x1.2bfa500000000p-4, -0x1.1fb1f40000000p-4, 0x1.d686600000000p-8, -0x1.f257800000000p-7, -0x1.0ed9240000000p-5, 0x1.728a000000000p-5, 0x1.9a26680000000p-6, -0x1.8bf4d80000000p-5, 0x1.82dcc00000000p-9, 0x1.c481d00000000p-5, 0x1.d098d00000000p-7, -0x1.373e300000000p-6, 0x1.5f3b000000000p-10, 0x1.1c9b940000000p-5, -0x1.f100900000000p-7, -0x1.25851e0000000p-4, 0x1.378e200000000p-4, 0x1.71d3a00000000p-5, 0x1.7d95e80000000p-5, -0x1.5971700000000p-7, -0x1.2058600000000p-4, 0x1.e68d880000000p-5, 0x1.ca25a00000000p-6, 0x1.ee63600000000p-8, -0x1.0cfc8a0000000p-5, -0x1.a5c4c00000000p-8, -0x1.13fd3c0000000p-5, 0x1.b5a6a00000000p-5, 0x1.534ffc0000000p-5, 0x1.c782f80000000p-5, 0x1.d7d4180000000p-5, 0x1.b3c8000000000p-12, -0x1.074b8a0000000p-5, -0x1.e436800000000p-8, 0x1.b025800000000p-7, 0x1.380bc00000000p-4, 0x1.2427f00000000p-4, 0x1.0203e00000000p-5, 0x1.1d59e40000000p-4, 0x1.3527480000000p-5, 0x1.4ade9c0000000p-4, -0x1.622a880000000p-6, -0x1.cf06980000000p-5, 0x1.eb83800000000p-7, -0x1.84e34e0000000p-5, -0x1.fb01e40000000p-5, -0x1.3691e00000000p-8, 0x1.9cd0500000000p-5, -0x1.2eef3c0000000p-4, 0x1.9e7b300000000p-6, -0x1.b707d60000000p-5, 0x1.160e600000000p-8, -0x1.1748780000000p-4, -0x1.5ad84c0000000p-5, 0x1.36a5540000000p-4, -0x1.a588ac0000000p-6, -0x1.2ece800000000p-8, -0x1.3e4a860000000p-4, 0x1.a9b2a00000000p-8, -0x1.7970f00000000p-6, 0x1.1135800000000p-8, 0x1.6386700000000p-7, -0x1.6f1afa0000000p-5, -0x1.3b6cd60000000p-4, 0x1.6112d40000000p-5, 0x1.3c31e80000000p-4, -0x1.e5e5000000000p-11, -0x1.0053d00000000p-4, 0x1.0d9e400000000p-4, -0x1.d4af000000000p-9, 0x1.979ea80000000p-5, 0x1.1d1d780000000p-5, 0x1.8875e80000000p-6, 0x1.4881400000000p-4, 0x1.a962c80000000p-5, -0x1.f8d7f00000000p-6, 0x1.6c47d00000000p-5, 0x1.a49ff80000000p-5, 0x1.8982500000000p-5, 0x1.b3e7380000000p-5, 0x1.2abfd80000000p-6, -0x1.649ee00000000p-7, -0x1.4f08380000000p-5, -0x1.d770600000000p-8, 0x1.8a0de80000000p-5, 0x1.26aeec0000000p-4, 0x1.f6c5900000000p-5, -0x1.6a8fc00000000p-5, 0x1.5b68b40000000p-5, -0x1.ce4ae40000000p-6, -0x1.88f5c00000000p-7, -0x1.528f600000000p-8, 0x1.7f95400000000p-6, 0x1.24a1280000000p-4, -0x1.060ff00000000p-7, -0x1.253f360000000p-4, -0x1.77de600000000p-7, -0x1.46c67c0000000p-4, 0x1.3a63d80000000p-4, 0x1.4cc1880000000p-4, 0x1.5db6540000000p-5, 0x1.529fb00000000p-6, 0x1.8de4480000000p-6, -0x1.12ea0e0000000p-4, -0x1.1117980000000p-5, -0x1.441bf00000000p-7, -0x1.38c6900000000p-4, -0x1.25c5a20000000p-4, 0x1.0ed7200000000p-4, -0x1.6e2db80000000p-5, -0x1.283f8e0000000p-5, 0x1.b375500000000p-6, -0x1.027f720000000p-5, -0x1.7f273a0000000p-5, 0x1.52ce8c0000000p-5, -0x1.01bc7c0000000p-4, 0x1.df83c00000000p-8, -0x1.4681460000000p-4, -0x1.a7dc080000000p-6, 0x1.1f36700000000p-7, -0x1.0ac9420000000p-4, 0x1.35fb340000000p-5, 0x1.a16de80000000p-5, -0x1.49b86c0000000p-4, 0x1.e9ca900000000p-6, 0x1.11e3340000000p-4, 0x1.dd16300000000p-5, -0x1.4b6f300000000p-7, 0x1.11a8680000000p-5, 0x1.8233d00000000p-5, -0x1.30f1ca0000000p-5, 0x1.206bc40000000p-4, -0x1.6abda60000000p-5, -0x1.03812c0000000p-5, 0x1.81e6a00000000p-5, -0x1.45cdb00000000p-4, 0x1.a18d780000000p-5, -0x1.050faa0000000p-4, 0x1.13b2400000000p-6, -0x1.137dfc0000000p-4, -0x1.33a8c00000000p-7, -0x1.fd87640000000p-5, 0x1.4e70200000000p-8, 0x1.e9acc00000000p-5, 0x1.bf50e80000000p-6, -0x1.3b8ae20000000p-4, 0x1.0a6fb00000000p-5, 0x1.db4d500000000p-6, 0x1.5795a40000000p-5, 0x1.c389c00000000p-7, -0x1.7e9b2c0000000p-6, 0x1.2434580000000p-6, -0x1.0fd0580000000p-4, -0x1.1e34c00000000p-4, 0x1.4a90840000000p-5, 0x1.19c1800000000p-7, -0x1.83ff400000000p-7, 0x1.280bc00000000p-4, 0x1.20d1440000000p-4, 0x1.49c3e00000000p-4, 0x1.adb7b00000000p-5, 0x1.c528380000000p-6, 0x1.595a000000000p-10, -0x1.2805480000000p-4, -0x1.1b44780000000p-4, -0x1.201f9c0000000p-4, -0x1.9d680c0000000p-6, -0x1.1f0aa80000000p-4, 0x1.0c379c0000000p-5, 0x1.49c9700000000p-6, 0x1.4890140000000p-4, -0x1.b91e2c0000000p-6, 0x1.d5c4c00000000p-5, 0x1.d96ee80000000p-6, 0x1.3b6d600000000p-6, 0x1.66dcf00000000p-7, -0x1.0b9c480000000p-6, 0x1.c32ec80000000p-6, 0x1.4bd8000000000p-12, -0x1.ed9b480000000p-5, 0x1.e2a2180000000p-6, 0x1.8adb000000000p-8, 0x1.928f800000000p-5, 0x1.0ef7a80000000p-4, 0x1.96d4200000000p-5, 0x1.490c000000000p-11, 0x1.61e8300000000p-7}
, {-0x1.f537000000000p-6, 0x1.13c0d00000000p-6, 0x1.5f20640000000p-5, 0x1.ec5cb00000000p-5, 0x1.389fe80000000p-5, 0x1.9f30b80000000p-5, 0x1.63955c0000000p-5, -0x1.852d840000000p-6, 0x1.3c3b240000000p-4, -0x1.2b62700000000p-7, -0x1.4902dc0000000p-5, -0x1.4aea7c0000000p-6, -0x1.05a88e0000000p-4, -0x1.484e4e0000000p-4, 0x1.3283140000000p-5, -0x1.c944800000000p-10, 0x1.435da80000000p-4, -0x1.dea7380000000p-5, 0x1.1e7ef00000000p-4, -0x1.c820100000000p-6, 0x1.716c680000000p-5, 0x1.2099740000000p-4, -0x1.146c180000000p-4, 0x1.d45ce80000000p-5, -0x1.2fb3ae0000000p-5, -0x1.3fc63c0000000p-6, 0x1.ad0fa00000000p-5, -0x1.13b3960000000p-5, 0x1.46c4c80000000p-5, -0x1.2c5af80000000p-5, -0x1.ab78180000000p-6, 0x1.b61c000000000p-13, -0x1.b6f1f40000000p-6, -0x1.0ffa700000000p-6, -0x1.07e34e0000000p-5, -0x1.286d400000000p-5, 0x1.716ec00000000p-5, 0x1.4df5000000000p-5, 0x1.3ce1580000000p-4, 0x1.9883000000000p-8, -0x1.0321500000000p-5, 0x1.bd48480000000p-5, 0x1.2efc2c0000000p-4, -0x1.f7d7480000000p-6, -0x1.4dd2480000000p-6, 0x1.25b7d00000000p-5, -0x1.0393b00000000p-6, 0x1.5b46c40000000p-5, -0x1.304e0e0000000p-4, -0x1.4764660000000p-5, 0x1.42d6200000000p-4, 0x1.29b6100000000p-4, 0x1.a769c80000000p-5, -0x1.b394440000000p-5, -0x1.42ba680000000p-6, 0x1.725db00000000p-5, -0x1.919dca0000000p-5, -0x1.292ad60000000p-4, -0x1.b6c8d80000000p-6, 0x1.048e700000000p-4, 0x1.3268180000000p-5, 0x1.3825580000000p-4, 0x1.e4fb480000000p-5, 0x1.e133d80000000p-5, -0x1.4b4eb00000000p-7, 0x1.050aec0000000p-5, -0x1.ddc42c0000000p-6, 0x1.cfce880000000p-5, 0x1.4afe300000000p-6, -0x1.bf17b00000000p-6, -0x1.0218e00000000p-6, 0x1.2642c00000000p-9, -0x1.400c8c0000000p-6, -0x1.12de300000000p-7, -0x1.1d31ce0000000p-5, 0x1.256a9c0000000p-4, 0x1.5b81e40000000p-5, 0x1.4771780000000p-4, -0x1.55466c0000000p-5, 0x1.5566980000000p-6, 0x1.35036c0000000p-4, -0x1.172d540000000p-4, 0x1.0ca8900000000p-5, -0x1.c8965a0000000p-5, -0x1.1ee16c0000000p-4, -0x1.3007ce0000000p-4, -0x1.48c7e20000000p-4, -0x1.b39c340000000p-5, -0x1.2e02040000000p-4, -0x1.d4677c0000000p-5, -0x1.3e00fa0000000p-4, 0x1.7abab80000000p-5, -0x1.4756d40000000p-4, -0x1.8bc9380000000p-6, 0x1.70fea00000000p-5, 0x1.1c7d340000000p-4, -0x1.1dc0da0000000p-4, 0x1.c9af300000000p-5, 0x1.8393d80000000p-6, 0x1.230f940000000p-4, -0x1.a535400000000p-5, 0x1.dfc4180000000p-5, -0x1.4a4e280000000p-6, -0x1.c660280000000p-5, -0x1.12d7de0000000p-4, -0x1.27004e0000000p-5, 0x1.3f29f40000000p-5, 0x1.23de3c0000000p-5, -0x1.1550480000000p-4, -0x1.ee046c0000000p-5, -0x1.aa17d80000000p-5, 0x1.58f7a00000000p-8, 0x1.9d91800000000p-5, 0x1.c349a80000000p-5, 0x1.dd10800000000p-5, -0x1.4e15200000000p-7, -0x1.220e220000000p-5, 0x1.e722000000000p-5, -0x1.b970f00000000p-5, 0x1.be94700000000p-6, 0x1.ecbe400000000p-7, -0x1.c915d00000000p-7, -0x1.ce2cb00000000p-7, 0x1.2b74780000000p-4, -0x1.2ce9c80000000p-6, 0x1.0601700000000p-6, -0x1.2c7ddc0000000p-4, 0x1.828b880000000p-6, 0x1.2e34800000000p-9, -0x1.81ba700000000p-5, 0x1.8d0bf00000000p-5, 0x1.510cb00000000p-6, 0x1.e236380000000p-5, -0x1.42f0fa0000000p-5, -0x1.663c600000000p-8, 0x1.8c13c00000000p-5, 0x1.f632400000000p-8, 0x1.50be400000000p-9, -0x1.2e6ad00000000p-7, 0x1.2268200000000p-8, 0x1.20b4640000000p-4, 0x1.27ab680000000p-4, 0x1.1488900000000p-4, -0x1.f5dad20000000p-5, 0x1.75ad880000000p-5, -0x1.6a4fb00000000p-7, -0x1.a905060000000p-5, 0x1.1a08640000000p-4, 0x1.0583200000000p-7, -0x1.63bf000000000p-11, -0x1.0e83820000000p-4, 0x1.ce70d00000000p-6, -0x1.d3fa320000000p-5, -0x1.2ca3cc0000000p-4, -0x1.41d55a0000000p-4, -0x1.d6b73c0000000p-5, -0x1.742abc0000000p-5, -0x1.180e120000000p-5, -0x1.fe59800000000p-9, -0x1.1f67200000000p-7, -0x1.9423880000000p-6, -0x1.6380400000000p-9, 0x1.454a500000000p-7, 0x1.1107dc0000000p-4, 0x1.18d2000000000p-5, -0x1.53b4920000000p-5, -0x1.2a3e7e0000000p-4, 0x1.de41800000000p-8, 0x1.3836680000000p-6, -0x1.360fb00000000p-4, 0x1.fae6700000000p-5, -0x1.231ff80000000p-6, -0x1.074e000000000p-4, -0x1.74b6aa0000000p-5, 0x1.3f63bc0000000p-4, 0x1.c984300000000p-7, 0x1.848f600000000p-8, 0x1.49def40000000p-4, -0x1.90aa380000000p-6, -0x1.61cda40000000p-5, 0x1.3351cc0000000p-4, 0x1.c929680000000p-5, 0x1.1930a40000000p-5, 0x1.409e380000000p-6, -0x1.c7d2b80000000p-5, -0x1.13e6280000000p-6, 0x1.8cec800000000p-8, -0x1.2343ec0000000p-4, 0x1.10ba180000000p-6, -0x1.2b62200000000p-7, -0x1.9c620c0000000p-5, -0x1.0ce6640000000p-4, 0x1.30be000000000p-7, 0x1.2969ec0000000p-4, 0x1.446e2c0000000p-4, 0x1.5f9f040000000p-5, 0x1.0e93000000000p-10, -0x1.e58c500000000p-7, 0x1.8396200000000p-7, 0x1.f58b780000000p-5, -0x1.8e85600000000p-8, 0x1.1cc1a00000000p-4, 0x1.ef89c80000000p-5, -0x1.d05ef40000000p-6, 0x1.adef080000000p-6, 0x1.eaead00000000p-5, 0x1.504a5c0000000p-5, 0x1.be18400000000p-7, -0x1.1e19e00000000p-4, -0x1.588ee00000000p-8, -0x1.2b319c0000000p-4, -0x1.1ef5420000000p-5, 0x1.9d5a000000000p-9, 0x1.ce43e00000000p-8, 0x1.0d33e00000000p-4, -0x1.4adba20000000p-5, -0x1.da559c0000000p-6, 0x1.3713840000000p-5, 0x1.a8d4b80000000p-6, -0x1.84c5000000000p-7, 0x1.5290580000000p-5, 0x1.bfcfd80000000p-5, 0x1.64ab080000000p-5, -0x1.dd42fc0000000p-5, -0x1.93ece00000000p-8, 0x1.bb81800000000p-8, 0x1.36cccc0000000p-5, 0x1.29807c0000000p-4, 0x1.d204c00000000p-7, -0x1.04c6e40000000p-4, -0x1.4856c00000000p-7, 0x1.0ed5e00000000p-6, 0x1.3c6f700000000p-5, -0x1.30d6800000000p-9, 0x1.8498700000000p-5, -0x1.10855a0000000p-5, -0x1.1e3aa20000000p-4, -0x1.1721200000000p-6, 0x1.7b5e180000000p-5, 0x1.8701800000000p-5, 0x1.7b86480000000p-5, 0x1.f2ff800000000p-5, -0x1.4a81920000000p-4, -0x1.82594a0000000p-5, -0x1.7b30060000000p-5, 0x1.889e800000000p-5, -0x1.987d740000000p-6, -0x1.9215420000000p-5, 0x1.08acb00000000p-7, -0x1.0c13d80000000p-5, 0x1.8c86800000000p-7, 0x1.c36ae00000000p-7, 0x1.3414500000000p-5, 0x1.9bd8200000000p-8, 0x1.0c937c0000000p-5, 0x1.fd6ed80000000p-5, -0x1.317f7a0000000p-4, -0x1.5cbaf40000000p-5, 0x1.ad41300000000p-6, -0x1.cb15a00000000p-5, 0x1.bb2e200000000p-5, -0x1.1c79900000000p-5, 0x1.a859000000000p-8, -0x1.32d6f40000000p-4, 0x1.33bf300000000p-5, -0x1.a632600000000p-5, -0x1.40aef00000000p-4, -0x1.a97f740000000p-5, -0x1.8426000000000p-11, 0x1.cd81800000000p-7, 0x1.20d4700000000p-4, -0x1.ee323c0000000p-6, -0x1.d83fec0000000p-5, 0x1.82d5e00000000p-5, 0x1.1387400000000p-7, 0x1.16c0740000000p-4, -0x1.1f8b680000000p-6, -0x1.eb44a80000000p-5, -0x1.2be2e00000000p-4, 0x1.b239f80000000p-5, 0x1.6c11800000000p-9, 0x1.52c3b00000000p-5, -0x1.0f5d420000000p-5, 0x1.1384540000000p-4, -0x1.1417180000000p-4, -0x1.355f100000000p-7, 0x1.b81e200000000p-7, 0x1.a77f500000000p-5, 0x1.6f93880000000p-5, 0x1.b126280000000p-5, -0x1.dc0ffc0000000p-6, 0x1.42266c0000000p-5, -0x1.7126920000000p-5, -0x1.e899e40000000p-5, 0x1.3f105c0000000p-4, 0x1.3d10a80000000p-6, -0x1.4923c20000000p-4, 0x1.5dc24c0000000p-5, 0x1.9d26500000000p-5, -0x1.03af1c0000000p-5, -0x1.6088a80000000p-5, 0x1.39c1640000000p-4, -0x1.5c5c120000000p-5, -0x1.41affa0000000p-5, 0x1.be1b880000000p-5, -0x1.5a02000000000p-8, -0x1.a968980000000p-6, -0x1.a9e8b00000000p-7, -0x1.bd50200000000p-5, -0x1.28e21c0000000p-4, -0x1.934c0c0000000p-6, -0x1.1f6d260000000p-4, 0x1.b853b00000000p-7, -0x1.36f3b00000000p-4, -0x1.364e8e0000000p-4, 0x1.46f7800000000p-7, -0x1.665b640000000p-5, -0x1.f704400000000p-8, -0x1.0c01300000000p-7, 0x1.774d200000000p-8, 0x1.e566100000000p-7, 0x1.b283f00000000p-5, 0x1.f042a00000000p-6, 0x1.33fd300000000p-6, -0x1.09ceb60000000p-5, 0x1.215ef00000000p-4, 0x1.4bd7400000000p-4, 0x1.3aece80000000p-4, -0x1.4ed1f00000000p-5, -0x1.3db7260000000p-4, -0x1.36901a0000000p-4, 0x1.4092300000000p-6, -0x1.c59bf40000000p-5, -0x1.1b1f8a0000000p-5, -0x1.0185c80000000p-5, 0x1.10e9b00000000p-6, -0x1.dcff900000000p-7, 0x1.1456f00000000p-7, 0x1.0c00400000000p-9, -0x1.27a5180000000p-4, 0x1.4e16e00000000p-8, 0x1.cd90a80000000p-5, -0x1.f16f9c0000000p-5, 0x1.94d0c00000000p-5, 0x1.69a4480000000p-5, -0x1.2b5dcc0000000p-5, 0x1.2ca5780000000p-4, 0x1.fc44100000000p-6, -0x1.10e8e60000000p-4, -0x1.45ceba0000000p-5, -0x1.b4e0200000000p-5, 0x1.8f02180000000p-6, -0x1.f7be940000000p-5, -0x1.10eac00000000p-5, 0x1.0708000000000p-9, 0x1.f130f00000000p-7, -0x1.b0f4080000000p-5, 0x1.4d4ec80000000p-5, -0x1.0167720000000p-4, 0x1.43b31c0000000p-5, -0x1.2e89ac0000000p-4, 0x1.89b1e80000000p-5, -0x1.601db80000000p-5, -0x1.10453a0000000p-5, -0x1.ab96000000000p-11, 0x1.2e3ef00000000p-6, -0x1.eb85300000000p-6, 0x1.99da600000000p-7, 0x1.af98080000000p-5, 0x1.24d6380000000p-4, -0x1.53d9ae0000000p-5, -0x1.f172c00000000p-6, 0x1.3ae8f80000000p-6, 0x1.79c2700000000p-5, 0x1.470ff00000000p-7, -0x1.e354e00000000p-6, -0x1.3426b80000000p-4, 0x1.ec15c00000000p-9, 0x1.072ba80000000p-4, -0x1.91acc40000000p-5, -0x1.8a12840000000p-6, 0x1.de1b200000000p-5, -0x1.8a635c0000000p-5, -0x1.1222300000000p-6, 0x1.0d86680000000p-4, 0x1.ab32c00000000p-9, 0x1.716ea00000000p-8, -0x1.0facd80000000p-5, -0x1.c597000000000p-10, 0x1.51f4200000000p-7, 0x1.9b62000000000p-5, -0x1.3b57dc0000000p-4, -0x1.954c540000000p-6, -0x1.98c8f80000000p-5, 0x1.b007600000000p-8, -0x1.7fbe780000000p-5, -0x1.78a5720000000p-5, 0x1.a5f0c00000000p-8, -0x1.0703080000000p-4, -0x1.7597080000000p-6, -0x1.00cf240000000p-4, 0x1.0a82480000000p-5, 0x1.ffa1700000000p-7, 0x1.e68f980000000p-6, 0x1.85b0c00000000p-8, -0x1.09ed7a0000000p-5, 0x1.6fec280000000p-5, 0x1.16b2200000000p-4, 0x1.324d800000000p-9, -0x1.68d9280000000p-5, 0x1.0fe2d80000000p-6, -0x1.a7d9b80000000p-5, 0x1.3be2580000000p-4, 0x1.88a4100000000p-7, 0x1.a4e1e80000000p-6, 0x1.c138380000000p-5, -0x1.20a1c80000000p-6, 0x1.2fb7380000000p-4, 0x1.9afe580000000p-5, 0x1.e461c00000000p-6, 0x1.a227200000000p-5, -0x1.0d2e440000000p-4, -0x1.2dc3780000000p-6, -0x1.30d6100000000p-4, 0x1.c239c00000000p-5, 0x1.ba4df80000000p-6, -0x1.1bd17a0000000p-4, 0x1.9158800000000p-9, 0x1.702bd80000000p-5, 0x1.1ffe1c0000000p-4, -0x1.70c8400000000p-8, -0x1.06a90c0000000p-4, -0x1.1dc9b00000000p-6, 0x1.9b33280000000p-5, -0x1.07e0280000000p-4, -0x1.2164600000000p-5, 0x1.c13ce00000000p-8, 0x1.c96c580000000p-5, 0x1.b29e800000000p-5, -0x1.f125f80000000p-5, 0x1.95fd980000000p-5, -0x1.3075900000000p-6, 0x1.3b13200000000p-6, 0x1.f16d100000000p-5, 0x1.bbd2f00000000p-5, -0x1.8418e80000000p-6, -0x1.2df58c0000000p-4, 0x1.9566500000000p-7, -0x1.97ef1c0000000p-6, 0x1.05e6a80000000p-5, -0x1.458ef20000000p-4, -0x1.2793580000000p-6, -0x1.9b62800000000p-10, 0x1.1161c40000000p-4, -0x1.2eea500000000p-6, 0x1.bdcab00000000p-5, -0x1.574e800000000p-9, -0x1.4f1d180000000p-5, -0x1.0874bc0000000p-5, -0x1.0b12320000000p-5, -0x1.18f7d60000000p-4, 0x1.022b300000000p-5, 0x1.2f8ab00000000p-7, -0x1.68e4300000000p-5, 0x1.b0d4000000000p-5, 0x1.0e31800000000p-9, -0x1.8f76dc0000000p-6, -0x1.8348580000000p-6, -0x1.ae1e4c0000000p-5, 0x1.c1b8d00000000p-5, 0x1.b97fb80000000p-5, 0x1.2d2f380000000p-4, 0x1.1dbe800000000p-8, 0x1.6f59f80000000p-6, 0x1.969ae00000000p-5, 0x1.b8e6500000000p-5, -0x1.f80e100000000p-7, -0x1.2e01d00000000p-5, -0x1.a3f2f40000000p-5, 0x1.b278800000000p-5, 0x1.ba96100000000p-6, 0x1.881f200000000p-5, -0x1.c7e4e80000000p-6, -0x1.05e6b00000000p-4, -0x1.3e55400000000p-7, -0x1.29c52c0000000p-4, -0x1.bb08900000000p-7, 0x1.73bda80000000p-6, 0x1.c8b4d00000000p-6, -0x1.077b4e0000000p-5, -0x1.035d400000000p-6, 0x1.1f44d80000000p-4, 0x1.f680f80000000p-5, 0x1.3798b00000000p-7, 0x1.b2d2e80000000p-5, -0x1.d589700000000p-6, -0x1.b365000000000p-9, 0x1.427bbc0000000p-4, 0x1.d5ba000000000p-8, -0x1.b311740000000p-6, -0x1.07b1d40000000p-5, -0x1.0631200000000p-7, -0x1.30fb3c0000000p-4, 0x1.db72500000000p-5, -0x1.53b92c0000000p-6, -0x1.b45e0c0000000p-5, 0x1.88f2300000000p-5, 0x1.1a3d640000000p-5, 0x1.087f500000000p-4, -0x1.cef3800000000p-9, -0x1.dfbc320000000p-5, 0x1.3083440000000p-4, 0x1.f4b4900000000p-6, -0x1.2ca5980000000p-6, 0x1.2afd300000000p-4, -0x1.a814400000000p-8, 0x1.e424100000000p-5, 0x1.3d5dc00000000p-5, -0x1.1bcc200000000p-7, -0x1.66072a0000000p-5, 0x1.6175240000000p-5, 0x1.8cf9f00000000p-5, -0x1.ac81100000000p-5, -0x1.b7a3700000000p-5, -0x1.4ca1480000000p-4, 0x1.4127fc0000000p-4, -0x1.7ca1e40000000p-5, -0x1.b8afc80000000p-5, -0x1.3701900000000p-5, -0x1.87af9a0000000p-5, 0x1.1beecc0000000p-4, 0x1.d4bef80000000p-6, 0x1.325df00000000p-6, -0x1.18e3980000000p-4, 0x1.7ff7080000000p-5, -0x1.53ddc00000000p-9, 0x1.3c7afc0000000p-4, -0x1.729e000000000p-9, -0x1.188e000000000p-12, -0x1.4011980000000p-4, 0x1.d890000000000p-13, -0x1.0b12e80000000p-4, -0x1.e132c00000000p-8, 0x1.0704ec0000000p-4, 0x1.c2b0800000000p-5, 0x1.b12f800000000p-10, 0x1.7c22500000000p-7, 0x1.fe2e800000000p-5, 0x1.90b5000000000p-9, -0x1.4e2b7c0000000p-6, -0x1.e70bc80000000p-6, 0x1.08ddac0000000p-5, -0x1.2567be0000000p-5, -0x1.26360a0000000p-5, -0x1.2d71520000000p-5, 0x1.8a5b580000000p-6, 0x1.424ce40000000p-4, 0x1.62f2000000000p-5, -0x1.71233c0000000p-6, 0x1.d8e3d00000000p-7, -0x1.28918a0000000p-5, -0x1.cbd2d40000000p-5, 0x1.0ca6e00000000p-8, -0x1.7b09740000000p-5, 0x1.1f38c00000000p-9, -0x1.796f6c0000000p-5, -0x1.ae46fc0000000p-6, -0x1.cfebc40000000p-5, -0x1.c43e980000000p-6, -0x1.10428a0000000p-4, -0x1.d57dae0000000p-5, 0x1.2327300000000p-7, -0x1.066f340000000p-4, -0x1.c8cc000000000p-12, -0x1.75e2600000000p-6, -0x1.6518ba0000000p-5, -0x1.00c48c0000000p-4, 0x1.3ceb700000000p-7, -0x1.a4a14e0000000p-5, 0x1.63e9000000000p-11, -0x1.91bb560000000p-5, 0x1.25c50c0000000p-4, 0x1.6f15c80000000p-5, 0x1.cd26a00000000p-8, 0x1.7cf2f00000000p-7, -0x1.1d154e0000000p-4, 0x1.134b040000000p-5, 0x1.6f32980000000p-6, 0x1.db56400000000p-5, 0x1.53df400000000p-6, -0x1.46467a0000000p-4, -0x1.5f4ee00000000p-7, -0x1.3655a20000000p-4, -0x1.c940000000000p-12, 0x1.9808900000000p-7, -0x1.77f8e00000000p-7, 0x1.727cf00000000p-5, 0x1.b044700000000p-7, 0x1.2f5da00000000p-6, -0x1.2cc6c00000000p-5, 0x1.0e4c700000000p-5, -0x1.1dbef00000000p-4, -0x1.f45d700000000p-5, 0x1.192b1c0000000p-5, -0x1.2c9a660000000p-5, 0x1.5601180000000p-5, -0x1.f8edec0000000p-5, 0x1.9c50480000000p-6, 0x1.1659f80000000p-5, -0x1.5c1e4c0000000p-6, 0x1.1e27ec0000000p-4, 0x1.e881500000000p-5, -0x1.2a49c80000000p-4, -0x1.fddd280000000p-6, -0x1.16b2800000000p-8, 0x1.1368080000000p-6, 0x1.794bd00000000p-6, -0x1.0c0dfc0000000p-5, -0x1.407d6c0000000p-6, -0x1.3a43c20000000p-4, 0x1.04f9f00000000p-7, 0x1.2a4da00000000p-8, -0x1.1fb4d80000000p-4, -0x1.40ff860000000p-4, 0x1.8b9c780000000p-6, 0x1.39d7580000000p-4, -0x1.f89e900000000p-7, -0x1.0a7d6a0000000p-4, -0x1.772be40000000p-6, -0x1.d20fb80000000p-6, 0x1.ec18b80000000p-5, -0x1.5de8f40000000p-5, -0x1.b8f4200000000p-8, -0x1.e7921a0000000p-5, -0x1.c0adb00000000p-7, 0x1.3288d40000000p-4, -0x1.525ebc0000000p-6, -0x1.9c1ba80000000p-5, -0x1.0dee140000000p-4, 0x1.005e180000000p-4, 0x1.33b2700000000p-4, 0x1.8cd0100000000p-7, 0x1.824d300000000p-6, -0x1.6e3b800000000p-9, -0x1.b17c840000000p-6, 0x1.c347480000000p-6, 0x1.27fc000000000p-6, 0x1.0152600000000p-6, -0x1.c643240000000p-5, 0x1.1fae540000000p-4, -0x1.2d31d80000000p-4, -0x1.b3b2800000000p-10, 0x1.d8d9e00000000p-7, 0x1.f5faa00000000p-5, -0x1.e0976e0000000p-5, 0x1.f0e9e80000000p-5, -0x1.21a5c20000000p-4, -0x1.1821180000000p-4, -0x1.2e23520000000p-4, -0x1.ce01800000000p-6, 0x1.dcc1b00000000p-7, -0x1.3eaf460000000p-5, -0x1.064e400000000p-8, -0x1.123bd20000000p-5, -0x1.7755000000000p-9, -0x1.30c8800000000p-10, -0x1.c52e800000000p-7, 0x1.1eebf00000000p-4, -0x1.42b3740000000p-5, 0x1.21ec2c0000000p-4, 0x1.57f6b00000000p-5, 0x1.5560380000000p-5, 0x1.ee73a80000000p-5, -0x1.040b200000000p-7, -0x1.22b1f20000000p-5, 0x1.1ca9840000000p-4, 0x1.2d1c800000000p-7, 0x1.4f07600000000p-6, -0x1.50a7200000000p-8, -0x1.03510a0000000p-5, 0x1.21e96c0000000p-5, 0x1.4ceda80000000p-4, 0x1.2aa1580000000p-4, -0x1.532d000000000p-11, -0x1.7337000000000p-8, -0x1.3320e80000000p-5, 0x1.03ae140000000p-4, -0x1.e119a00000000p-8, -0x1.b5a2040000000p-5, 0x1.1399380000000p-4, -0x1.4180200000000p-5, -0x1.ba93a00000000p-6, -0x1.06b05e0000000p-4, -0x1.cdf8f40000000p-6, -0x1.850f900000000p-7, 0x1.07f1300000000p-4, -0x1.8d98cc0000000p-5, 0x1.0bb4600000000p-5, 0x1.1748d80000000p-6, -0x1.c282580000000p-5, 0x1.0776900000000p-4, -0x1.eb14000000000p-9, -0x1.ccaf800000000p-10, 0x1.36c4740000000p-5, -0x1.1287fe0000000p-4, -0x1.be90440000000p-6, -0x1.f62bcc0000000p-5, 0x1.8225000000000p-7, -0x1.2fe0800000000p-7, -0x1.465a600000000p-5, -0x1.9cb9c00000000p-8, -0x1.8204400000000p-5, -0x1.7c9d020000000p-5, -0x1.3960280000000p-6, 0x1.54d1080000000p-6, 0x1.14a9100000000p-4, -0x1.30797a0000000p-5, -0x1.9f54600000000p-8, -0x1.3e30860000000p-5, 0x1.3814180000000p-5, 0x1.1e40080000000p-4, 0x1.75b9280000000p-5, 0x1.45e8f80000000p-4, 0x1.a2a3800000000p-9, -0x1.ebc3c00000000p-7, 0x1.73e2000000000p-11, -0x1.3d53f00000000p-7, -0x1.087f180000000p-6, -0x1.8073740000000p-5, 0x1.10d6280000000p-4, 0x1.529de40000000p-5, -0x1.fd58980000000p-5, 0x1.9d8c180000000p-5, -0x1.eb2bd80000000p-5, 0x1.1433400000000p-9, -0x1.3364400000000p-4, -0x1.92ecd00000000p-7, 0x1.18544c0000000p-5, -0x1.e118000000000p-12, 0x1.7984380000000p-5, 0x1.4d5bf80000000p-5, 0x1.4786ec0000000p-4, -0x1.e38c0c0000000p-5, 0x1.488df00000000p-4, 0x1.0bc4180000000p-5, -0x1.ced7e00000000p-8, 0x1.bb26600000000p-7, -0x1.8f12a00000000p-8, 0x1.7654000000000p-5, 0x1.bc20800000000p-5, -0x1.46c2de0000000p-4, 0x1.c1b8c80000000p-6, -0x1.181cf00000000p-7, 0x1.1c3a5c0000000p-4, -0x1.40c8d60000000p-4, 0x1.f719f00000000p-7, 0x1.7e32080000000p-5, -0x1.ead32e0000000p-5, 0x1.34e0940000000p-4, -0x1.2390700000000p-5, 0x1.451c5c0000000p-4, 0x1.cd1cf00000000p-5, -0x1.fd84200000000p-6, -0x1.be93740000000p-6, 0x1.3237000000000p-8, -0x1.da4b1c0000000p-6, -0x1.8ee2ca0000000p-5, 0x1.dc8a880000000p-6, -0x1.38cb2e0000000p-4, -0x1.e2a6c00000000p-8, -0x1.1532600000000p-8, 0x1.9f78b00000000p-7, 0x1.dc88980000000p-6, 0x1.1355700000000p-4, 0x1.8b8b300000000p-7, -0x1.8ceab00000000p-6, 0x1.430a300000000p-7, 0x1.613bc80000000p-6, 0x1.3de1e00000000p-6, 0x1.e706800000000p-5, 0x1.6a61800000000p-10, 0x1.f0a8000000000p-11, 0x1.e149280000000p-5, 0x1.4ccf600000000p-4, -0x1.41ce100000000p-4, -0x1.1119380000000p-4, 0x1.5b57d00000000p-5, 0x1.899a000000000p-6, 0x1.19a43c0000000p-4, 0x1.413d940000000p-4, -0x1.483d800000000p-7, -0x1.3a34a40000000p-4, -0x1.286a1c0000000p-5, -0x1.0461100000000p-7, 0x1.1576cc0000000p-4, -0x1.2b73b00000000p-6, -0x1.454afe0000000p-4, -0x1.fb82500000000p-6, 0x1.4e853c0000000p-5, 0x1.269c800000000p-10, 0x1.0b11000000000p-7, -0x1.18f4f20000000p-5, -0x1.3cd8360000000p-4, 0x1.bdb2400000000p-9, -0x1.2e08520000000p-4, 0x1.90ec600000000p-6, 0x1.2bfde00000000p-7, -0x1.7bcace0000000p-5, 0x1.c95b000000000p-8, -0x1.9203ac0000000p-6, 0x1.8dbe800000000p-7, 0x1.5153480000000p-5, -0x1.ab21e00000000p-8, -0x1.2390b80000000p-5, -0x1.8c39f80000000p-5, 0x1.8495f00000000p-5, 0x1.c1d8c00000000p-6, -0x1.eb1b200000000p-8, 0x1.67dd000000000p-10, 0x1.bc30000000000p-11, -0x1.969da00000000p-7, -0x1.db76240000000p-5, -0x1.f66ab40000000p-6, 0x1.4a03240000000p-4, 0x1.59de380000000p-6, -0x1.d126600000000p-8, -0x1.4b77880000000p-4, -0x1.f985880000000p-5, 0x1.1ab8600000000p-4, -0x1.4d96500000000p-6, 0x1.78b0100000000p-5, 0x1.1fad440000000p-4, -0x1.13afae0000000p-5, -0x1.423e680000000p-4, -0x1.9672440000000p-5, -0x1.62915c0000000p-5, -0x1.75e8c60000000p-5, 0x1.079a440000000p-5, -0x1.08f86c0000000p-4, 0x1.e50c100000000p-6, 0x1.05f3700000000p-7, -0x1.e990a00000000p-8, 0x1.49aa280000000p-4, -0x1.02e5f00000000p-6, -0x1.478dbe0000000p-4, -0x1.1136980000000p-6, -0x1.3a65b80000000p-6, -0x1.a9e8700000000p-6, -0x1.d9a1300000000p-6, -0x1.db5e800000000p-9, 0x1.3c1c580000000p-5, -0x1.5a68500000000p-6, -0x1.c687e00000000p-5, 0x1.1eb2b00000000p-6, -0x1.d59f9e0000000p-5, 0x1.be32f00000000p-6, 0x1.5796400000000p-5, 0x1.3bf2a80000000p-4, 0x1.7e50980000000p-5, -0x1.a92a000000000p-10, -0x1.8ca0400000000p-7, -0x1.6027000000000p-6, -0x1.1c9f920000000p-4, -0x1.dd5a4c0000000p-6, 0x1.1949b00000000p-7, 0x1.cef8d00000000p-6, -0x1.6ddea80000000p-5, -0x1.0d099a0000000p-5, -0x1.5fb6540000000p-5, 0x1.dbaaa00000000p-5, 0x1.fa01380000000p-6, -0x1.0d50780000000p-4, 0x1.1bef400000000p-6, -0x1.ef78680000000p-5, -0x1.2c3a020000000p-4, 0x1.eca8b00000000p-5, -0x1.d9bb500000000p-5, 0x1.3ee0980000000p-6, -0x1.da56ca0000000p-5, 0x1.29bf640000000p-4, 0x1.8b1ce00000000p-5, -0x1.a0bdb00000000p-7, 0x1.f626f00000000p-5, -0x1.32d8660000000p-5, 0x1.0da5040000000p-4, -0x1.1b969a0000000p-5, -0x1.febedc0000000p-5, -0x1.f3d4840000000p-6, -0x1.fc322c0000000p-5, -0x1.b82cf80000000p-5, -0x1.c8358c0000000p-5, 0x1.1b7e600000000p-6, -0x1.01087a0000000p-4, -0x1.872a580000000p-5, -0x1.074f8c0000000p-4, -0x1.7eb4e40000000p-5}
, {-0x1.377ca20000000p-4, 0x1.dcf9900000000p-7, 0x1.0ededc0000000p-4, -0x1.26e5e00000000p-8, 0x1.d09b300000000p-6, -0x1.319b480000000p-4, 0x1.031f900000000p-5, -0x1.ab02800000000p-5, -0x1.28c9300000000p-4, -0x1.d303740000000p-6, 0x1.327e180000000p-4, 0x1.bf0bf00000000p-5, -0x1.5bdde00000000p-8, 0x1.06da6c0000000p-4, -0x1.3c8ac00000000p-7, -0x1.4bbb1a0000000p-5, -0x1.81e1f20000000p-5, 0x1.3889700000000p-4, 0x1.478bf40000000p-4, -0x1.f4d8400000000p-8, -0x1.b7b1c00000000p-7, -0x1.06d9d40000000p-4, 0x1.06cf000000000p-10, 0x1.be92400000000p-8, -0x1.e0dc280000000p-6, -0x1.4cfc820000000p-4, 0x1.593f000000000p-5, -0x1.fbfbc00000000p-7, -0x1.bff3d00000000p-5, -0x1.c8d3180000000p-6, -0x1.b9f5600000000p-5, -0x1.ab56000000000p-9, -0x1.e208d00000000p-5, -0x1.ee56540000000p-5, 0x1.55fae00000000p-7, 0x1.8e52780000000p-5, 0x1.17da500000000p-5, -0x1.1d028c0000000p-4, 0x1.2ada800000000p-10, 0x1.8351880000000p-6, -0x1.75602e0000000p-5, 0x1.295de40000000p-4, -0x1.697eba0000000p-5, -0x1.f035c00000000p-8, 0x1.ea1e900000000p-7, -0x1.9ad21e0000000p-5, -0x1.ea20100000000p-5, -0x1.4965400000000p-7, 0x1.233db00000000p-4, 0x1.779c000000000p-8, 0x1.123d380000000p-6, 0x1.07c7ac0000000p-4, -0x1.ff8db00000000p-5, -0x1.3527640000000p-4, -0x1.c16f0c0000000p-5, 0x1.0e3a2c0000000p-4, 0x1.d4bac00000000p-6, -0x1.4583c20000000p-4, -0x1.faf0e00000000p-6, 0x1.8b2c000000000p-13, -0x1.3921ca0000000p-4, -0x1.2851a80000000p-5, -0x1.2c75be0000000p-5, 0x1.5b00d00000000p-6, -0x1.e9b3380000000p-5, -0x1.6092a00000000p-5, 0x1.3080980000000p-5, 0x1.277be00000000p-5, 0x1.e96d480000000p-5, 0x1.1fa9ac0000000p-5, -0x1.34b2820000000p-5, 0x1.39c2c80000000p-4, 0x1.a0f9500000000p-7, -0x1.46a91c0000000p-5, -0x1.2ccae80000000p-4, -0x1.7dd6280000000p-5, -0x1.58de340000000p-5, 0x1.b352480000000p-5, -0x1.e4eda40000000p-5, 0x1.0a02ac0000000p-4, 0x1.b1fd600000000p-5, -0x1.1083000000000p-6, 0x1.3e77c00000000p-4, -0x1.21b0180000000p-4, -0x1.30d8b00000000p-6, -0x1.2278700000000p-7, -0x1.eb019c0000000p-5, 0x1.a062900000000p-6, 0x1.33ac300000000p-4, -0x1.8a97ee0000000p-5, 0x1.3d32a00000000p-4, -0x1.05c1100000000p-6, 0x1.fa92480000000p-5, -0x1.858ca00000000p-8, -0x1.7e60760000000p-5, -0x1.5c57a20000000p-5, 0x1.9fa7500000000p-6, -0x1.b3e5880000000p-6, -0x1.d4fbe00000000p-8, 0x1.a42be00000000p-6, 0x1.83a3780000000p-6, -0x1.6f22e00000000p-6, 0x1.7ca9b80000000p-6, -0x1.959cf80000000p-6, 0x1.b920d00000000p-5, 0x1.e5da700000000p-7, -0x1.35e1d40000000p-4, 0x1.86e5000000000p-8, -0x1.423a7c0000000p-5, 0x1.b5e2500000000p-5, -0x1.b995200000000p-7, -0x1.0fa3e00000000p-8, -0x1.cefd600000000p-7, -0x1.9788bc0000000p-6, -0x1.40a3c00000000p-4, 0x1.31e3b00000000p-6, -0x1.d8bea20000000p-5, -0x1.fecc900000000p-7, -0x1.40d8040000000p-4, -0x1.21e7e20000000p-5, -0x1.075f7e0000000p-4, -0x1.9975680000000p-6, -0x1.cc19180000000p-5, -0x1.d177780000000p-6, -0x1.45445c0000000p-4, 0x1.2847280000000p-5, -0x1.eb3f160000000p-5, -0x1.8611740000000p-6, -0x1.042da40000000p-4, 0x1.d84a400000000p-6, -0x1.c57ec00000000p-8, -0x1.a888a40000000p-5, 0x1.d686f00000000p-6, -0x1.1c8cb00000000p-5, -0x1.e5ec700000000p-6, 0x1.105fd00000000p-7, 0x1.f5bb400000000p-5, -0x1.c77ac80000000p-6, 0x1.4ddf900000000p-6, -0x1.5a4a800000000p-8, 0x1.0e4d800000000p-6, -0x1.fb2b000000000p-9, -0x1.6e90100000000p-6, 0x1.b615800000000p-7, -0x1.2e76720000000p-4, -0x1.9a5cc40000000p-5, 0x1.e1e0180000000p-6, -0x1.36fc000000000p-8, -0x1.0909400000000p-4, 0x1.2dcdc00000000p-8, 0x1.20a9540000000p-4, 0x1.30057c0000000p-4, 0x1.47065c0000000p-5, -0x1.4542440000000p-5, -0x1.79d2800000000p-7, 0x1.71c5400000000p-9, 0x1.c7a4400000000p-8, 0x1.155f080000000p-5, -0x1.52e3600000000p-8, 0x1.9549d00000000p-6, 0x1.f468900000000p-5, 0x1.2a02600000000p-4, -0x1.4c75400000000p-8, -0x1.24e2ba0000000p-5, -0x1.4c79780000000p-4, 0x1.8e4f580000000p-5, 0x1.6756d80000000p-5, -0x1.9b22800000000p-7, 0x1.d9d2c00000000p-9, -0x1.042f980000000p-4, 0x1.dea8880000000p-5, 0x1.84f2480000000p-5, -0x1.6f472c0000000p-6, 0x1.0606400000000p-4, 0x1.3bbd600000000p-5, -0x1.22e2620000000p-4, 0x1.d1c6e00000000p-7, 0x1.781c280000000p-5, -0x1.fa005e0000000p-5, -0x1.2db6940000000p-4, -0x1.12771c0000000p-5, 0x1.3e21f40000000p-4, 0x1.bf93000000000p-11, -0x1.c08bcc0000000p-5, -0x1.27e3260000000p-4, 0x1.e988c00000000p-6, 0x1.42890c0000000p-4, 0x1.9ef3100000000p-6, -0x1.4ce0780000000p-4, 0x1.adae300000000p-5, 0x1.5e85480000000p-5, 0x1.ce4a280000000p-6, -0x1.16b0d00000000p-7, 0x1.3158740000000p-5, 0x1.273a300000000p-4, 0x1.bf58f00000000p-6, 0x1.2e1f980000000p-6, 0x1.59dce00000000p-5, -0x1.0794100000000p-4, 0x1.2dacac0000000p-4, -0x1.2b4d700000000p-4, -0x1.7ae7b00000000p-7, -0x1.31021c0000000p-5, -0x1.11a3480000000p-5, -0x1.2180b00000000p-7, 0x1.47cf740000000p-5, -0x1.191b9e0000000p-4, -0x1.910f040000000p-5, -0x1.536af80000000p-6, 0x1.55c2700000000p-5, -0x1.6d36b00000000p-6, -0x1.72cc1c0000000p-5, -0x1.236b000000000p-5, 0x1.07adc40000000p-4, -0x1.c851380000000p-6, 0x1.4ad2540000000p-4, 0x1.544ed40000000p-5, 0x1.4768d40000000p-4, -0x1.4b4a260000000p-4, 0x1.f9a2900000000p-6, 0x1.f8e3400000000p-6, -0x1.153f800000000p-4, 0x1.ac13b00000000p-5, -0x1.34a9120000000p-4, 0x1.3c5d600000000p-5, 0x1.e1eee00000000p-6, 0x1.5e38b40000000p-5, -0x1.9320960000000p-5, 0x1.2e86300000000p-4, 0x1.8424c80000000p-5, 0x1.b3c9480000000p-6, -0x1.dd34600000000p-5, -0x1.ee60000000000p-11, 0x1.4d03e00000000p-8, 0x1.d7fd900000000p-5, 0x1.c8a3900000000p-6, 0x1.de38100000000p-5, -0x1.4a33ea0000000p-5, 0x1.6a8f300000000p-7, -0x1.b374f00000000p-5, -0x1.dc83600000000p-6, -0x1.c89fb00000000p-7, -0x1.3fd15e0000000p-4, 0x1.1f71280000000p-5, -0x1.b6b8a00000000p-8, -0x1.f62dac0000000p-6, -0x1.03558e0000000p-4, 0x1.0153280000000p-4, 0x1.fbb3600000000p-6, 0x1.b5ed680000000p-5, -0x1.15de300000000p-5, -0x1.1fc6d00000000p-6, -0x1.3492480000000p-6, -0x1.42800a0000000p-4, 0x1.2b49ac0000000p-4, -0x1.d75b0c0000000p-5, -0x1.b934c00000000p-9, 0x1.45f7500000000p-4, 0x1.3a5de80000000p-5, 0x1.1ecec00000000p-4, 0x1.0a5fcc0000000p-4, -0x1.0c4b8c0000000p-4, 0x1.25ec000000000p-4, 0x1.c187580000000p-5, 0x1.adc3200000000p-5, 0x1.078c2c0000000p-4, 0x1.39ee9c0000000p-4, 0x1.27c8680000000p-4, 0x1.4d18040000000p-5, -0x1.2c9fc00000000p-9, 0x1.3b11440000000p-4, -0x1.ecd1500000000p-7, 0x1.5b30000000000p-10, -0x1.baf5300000000p-7, 0x1.2a41000000000p-9, 0x1.55d2ec0000000p-5, 0x1.47fa6c0000000p-4, -0x1.31a7d60000000p-4, -0x1.86c8da0000000p-5, -0x1.d7b2000000000p-6, -0x1.b54a740000000p-5, 0x1.3797880000000p-6, 0x1.e601500000000p-5, 0x1.c50da80000000p-5, 0x1.cf59b00000000p-5, 0x1.01734c0000000p-4, -0x1.93126c0000000p-5, -0x1.e4bef00000000p-7, 0x1.f5a5080000000p-6, 0x1.8983000000000p-10, 0x1.3990000000000p-4, -0x1.5a1d0c0000000p-5, -0x1.17c7000000000p-6, -0x1.b248f00000000p-6, 0x1.4c174c0000000p-4, -0x1.cf9fa00000000p-7, -0x1.a0f8d60000000p-5, -0x1.eb328e0000000p-5, -0x1.5a8ea00000000p-8, -0x1.320dd80000000p-6, 0x1.1e80a40000000p-4, -0x1.2a76080000000p-4, 0x1.2a76640000000p-5, 0x1.f142500000000p-5, 0x1.243d900000000p-5, 0x1.501c4c0000000p-5, 0x1.4bf1000000000p-9, -0x1.32bcd00000000p-5, 0x1.7124880000000p-6, -0x1.2632ec0000000p-4, -0x1.f5df220000000p-5, 0x1.5012c00000000p-8, -0x1.0dd2f00000000p-6, 0x1.61f51c0000000p-5, 0x1.c052c80000000p-6, -0x1.7add440000000p-5, 0x1.52b4c00000000p-5, 0x1.abcde00000000p-7, 0x1.ca56880000000p-6, 0x1.20b2300000000p-4, 0x1.244c380000000p-4, 0x1.2edc700000000p-5, 0x1.63f3900000000p-6, -0x1.9043000000000p-11, 0x1.452af40000000p-5, -0x1.0c09000000000p-7, -0x1.9f08900000000p-7, -0x1.94ff020000000p-5, -0x1.e347000000000p-5, 0x1.4aae680000000p-4, -0x1.a874880000000p-6, 0x1.c199880000000p-6, -0x1.e572200000000p-6, -0x1.1d2d940000000p-4, 0x1.05aa980000000p-6, 0x1.0064a00000000p-4, 0x1.739d380000000p-5, -0x1.1c8c480000000p-5, -0x1.0175ca0000000p-5, 0x1.d676a80000000p-5, 0x1.5172c00000000p-7, -0x1.c783e80000000p-5, -0x1.d649dc0000000p-5, -0x1.09138c0000000p-4, 0x1.26a9200000000p-4, -0x1.2ed1540000000p-4, -0x1.4714c00000000p-4, 0x1.420acc0000000p-4, 0x1.173d200000000p-7, -0x1.dea6140000000p-6, -0x1.31add60000000p-4, 0x1.3efe300000000p-7, 0x1.e805000000000p-11, -0x1.dc62800000000p-6, -0x1.118e920000000p-4, -0x1.54a2460000000p-5, -0x1.8cd2e00000000p-8, 0x1.1edad00000000p-5, -0x1.4e93e00000000p-8, 0x1.f6f0c00000000p-8, 0x1.2e47f80000000p-6, 0x1.39ff200000000p-7, -0x1.6fadf40000000p-6, -0x1.a9a2f00000000p-6, 0x1.7ac6b80000000p-5, 0x1.2cdabc0000000p-5, 0x1.6aa0200000000p-8, 0x1.a1a1580000000p-5, 0x1.01bf980000000p-6, -0x1.6063c80000000p-6, 0x1.b096f00000000p-5, 0x1.c33e700000000p-7, -0x1.019d1c0000000p-4, -0x1.04e0300000000p-7, -0x1.b7bb480000000p-6, 0x1.7ade300000000p-5, 0x1.cb6bc00000000p-5, 0x1.3f67300000000p-5, -0x1.2cbc5c0000000p-4, 0x1.1fd5280000000p-4, -0x1.f4d35c0000000p-5, -0x1.6e02a00000000p-5, 0x1.da2ef80000000p-5, -0x1.ad40f40000000p-6, -0x1.1b2f920000000p-5, 0x1.476fb80000000p-6, -0x1.706c8a0000000p-5, 0x1.7c6ef00000000p-7, 0x1.58f2180000000p-5, -0x1.3181380000000p-5, -0x1.40de040000000p-6, 0x1.7a45c00000000p-6, 0x1.d27ac00000000p-5, -0x1.06c6ce0000000p-5, -0x1.1683140000000p-4, 0x1.6e44b80000000p-5, 0x1.53ea080000000p-5, 0x1.38de640000000p-4, 0x1.125f000000000p-4, 0x1.0ec5a40000000p-4, -0x1.25bff40000000p-4, 0x1.f76aa00000000p-5, -0x1.495e160000000p-5, 0x1.1b2c140000000p-4, 0x1.5f93180000000p-5, 0x1.ec4fe00000000p-5, 0x1.4722040000000p-4, 0x1.e891700000000p-5, 0x1.90f0400000000p-5, 0x1.44d2d00000000p-4, -0x1.9616960000000p-5, -0x1.691d640000000p-5, -0x1.4fff7c0000000p-6, -0x1.980de00000000p-5, -0x1.34fd900000000p-4, -0x1.308c8e0000000p-4, -0x1.29335c0000000p-5, 0x1.ad04080000000p-5, 0x1.771d400000000p-6, 0x1.d975800000000p-5, 0x1.8fd3f80000000p-5, 0x1.d31f700000000p-6, 0x1.9917600000000p-5, -0x1.0ae52c0000000p-4, -0x1.2db25e0000000p-4, 0x1.8d6de80000000p-5, 0x1.2e82a80000000p-4, 0x1.3321980000000p-4, 0x1.0a4c580000000p-4, -0x1.7035200000000p-8, -0x1.0f466e0000000p-4, 0x1.71bf280000000p-6, -0x1.4ba3aa0000000p-4, -0x1.1db1d60000000p-4, -0x1.3c23000000000p-8, 0x1.3f603c0000000p-4, -0x1.127fb60000000p-4, 0x1.a976b80000000p-5, -0x1.82ccba0000000p-5, -0x1.99ccf80000000p-6, -0x1.17126e0000000p-4, 0x1.4c249c0000000p-4, -0x1.a0ac700000000p-7, 0x1.30ffd80000000p-6, -0x1.106fc80000000p-6, -0x1.e9a8a40000000p-6, 0x1.ff62680000000p-5, 0x1.0beb500000000p-6, -0x1.14fa720000000p-4, -0x1.222d6c0000000p-4, 0x1.dd25d00000000p-7, -0x1.748a120000000p-5, 0x1.0f9ad00000000p-5, 0x1.4933d80000000p-6, 0x1.3dca700000000p-7, -0x1.6a90000000000p-6, 0x1.2e1bdc0000000p-5, -0x1.8033000000000p-11, 0x1.0c5f400000000p-9, -0x1.49d6f00000000p-5, -0x1.3e01740000000p-6, 0x1.58c8c00000000p-9, 0x1.bec8500000000p-5, 0x1.5942180000000p-5, -0x1.0568060000000p-4, 0x1.b72c400000000p-5, -0x1.8165c00000000p-9, 0x1.cdafe80000000p-5, 0x1.18762c0000000p-4, 0x1.a506300000000p-7, 0x1.4a7bb40000000p-4, 0x1.53bb740000000p-5, -0x1.585ffc0000000p-6, 0x1.80b3a00000000p-6, 0x1.c079f00000000p-7, -0x1.2434020000000p-5, -0x1.16c3900000000p-7, 0x1.8857b80000000p-5, 0x1.0c77480000000p-6, 0x1.dc98600000000p-5, -0x1.6d8a100000000p-5, -0x1.2c1a640000000p-5, 0x1.f7ed380000000p-5, -0x1.818d500000000p-5, -0x1.ea3b9c0000000p-6, 0x1.4f75f80000000p-6, 0x1.0ef4380000000p-4, -0x1.2ea0700000000p-4, 0x1.052c000000000p-4, -0x1.07e4880000000p-4, 0x1.7038c80000000p-6, 0x1.3badb80000000p-4, -0x1.17008c0000000p-4, -0x1.d00c000000000p-10, 0x1.4c7f300000000p-5, 0x1.934c480000000p-6, -0x1.41263e0000000p-5, 0x1.6b7e900000000p-5, -0x1.7acfe00000000p-5, -0x1.3c47080000000p-5, 0x1.b2a2b00000000p-6, -0x1.5d6bca0000000p-5, 0x1.0ad5200000000p-4, 0x1.6e0b400000000p-5, 0x1.27cd000000000p-8, -0x1.40bf040000000p-4, -0x1.31d4000000000p-13, 0x1.3c0c280000000p-6, 0x1.c871200000000p-5, 0x1.8b3c400000000p-7, -0x1.cbc3f00000000p-5, -0x1.e2d5280000000p-5, -0x1.dc35400000000p-7, 0x1.218a4c0000000p-4, 0x1.ed82400000000p-7, -0x1.cc26e40000000p-6, 0x1.3855d40000000p-4, 0x1.b9c3000000000p-5, -0x1.7bcbb00000000p-7, -0x1.3ce0340000000p-4, -0x1.36c6180000000p-4, -0x1.5bab400000000p-7, 0x1.7c57180000000p-6, 0x1.c700080000000p-5, -0x1.67c4ea0000000p-5, -0x1.8f3a500000000p-5, -0x1.8608a00000000p-8, -0x1.4c74a00000000p-7, -0x1.cd07d40000000p-5, 0x1.5a46d00000000p-7, -0x1.160a460000000p-4, 0x1.3d5ac80000000p-5, 0x1.738d500000000p-5, 0x1.ad4f900000000p-5, -0x1.74b3e00000000p-8, 0x1.de99500000000p-6, 0x1.59a0200000000p-7, -0x1.02ae340000000p-4, 0x1.2e07c00000000p-4, 0x1.38749c0000000p-4, -0x1.18d5f60000000p-4, 0x1.06be100000000p-5, 0x1.c4bf600000000p-5, 0x1.4f56b40000000p-5, 0x1.ec6a480000000p-6, 0x1.e01e000000000p-12, -0x1.61cb000000000p-11, 0x1.2463bc0000000p-5, -0x1.bac4b00000000p-7, 0x1.0f17280000000p-6, -0x1.09995e0000000p-5, 0x1.7773000000000p-5, 0x1.2f0e480000000p-4, 0x1.3683300000000p-5, -0x1.7f93000000000p-9, 0x1.3173ec0000000p-5, 0x1.fc93400000000p-7, -0x1.ecbf800000000p-10, -0x1.e268980000000p-5, -0x1.6ec9d80000000p-5, 0x1.02dd400000000p-7, 0x1.720fb00000000p-5, 0x1.786a000000000p-6, 0x1.c051500000000p-5, 0x1.3340e40000000p-5, 0x1.4768ec0000000p-4, 0x1.0a4b180000000p-4, 0x1.0fe14c0000000p-5, -0x1.839c300000000p-7, 0x1.7083880000000p-5, -0x1.4a48d80000000p-4, 0x1.0eec240000000p-5, -0x1.07bdb60000000p-4, -0x1.efd3500000000p-7, 0x1.59ae480000000p-6, -0x1.fd764c0000000p-6, 0x1.159cf80000000p-4, -0x1.3292fc0000000p-5, 0x1.b8da200000000p-6, -0x1.93155a0000000p-5, 0x1.3c4d700000000p-4, 0x1.50baa80000000p-6, 0x1.4e61a00000000p-7, 0x1.5b39d00000000p-7, -0x1.6ae3540000000p-6, -0x1.1765be0000000p-4, -0x1.0dff880000000p-6, -0x1.6122200000000p-7, -0x1.e5a1d00000000p-7, 0x1.f373b80000000p-5, -0x1.40bb8e0000000p-5, 0x1.ce2fa00000000p-5, -0x1.098c200000000p-4, 0x1.9ccb500000000p-7, -0x1.d67b500000000p-7, -0x1.07ab760000000p-4, 0x1.6b0fe80000000p-5, -0x1.0c73080000000p-4, 0x1.854b700000000p-5, -0x1.e5910c0000000p-5, 0x1.280ea80000000p-4, 0x1.4ba41c0000000p-5, 0x1.1f6a400000000p-4, -0x1.d7acd60000000p-5, 0x1.2c653c0000000p-4, 0x1.982f180000000p-5, 0x1.f033a80000000p-6, 0x1.21f6b00000000p-7, 0x1.2668fc0000000p-5, -0x1.3490200000000p-8, -0x1.53f67c0000000p-5, 0x1.2292400000000p-9, -0x1.3dad380000000p-6, 0x1.f751880000000p-5, 0x1.8c98a00000000p-5, 0x1.176a240000000p-5, -0x1.0347c80000000p-4, -0x1.72e8840000000p-5, 0x1.4825000000000p-10, -0x1.d0c0400000000p-8, -0x1.119ca80000000p-6, -0x1.31610a0000000p-5, 0x1.05c5900000000p-4, 0x1.6ec1000000000p-8, 0x1.aee9c00000000p-6, 0x1.386ba00000000p-6, 0x1.3773780000000p-4, 0x1.337f900000000p-4, -0x1.3136fc0000000p-4, -0x1.18b7f80000000p-4, 0x1.5fab600000000p-6, -0x1.264a400000000p-7, 0x1.3fcb540000000p-4, 0x1.2a3d580000000p-4, 0x1.fcc3580000000p-5, 0x1.018ce80000000p-6, 0x1.cba1700000000p-5, -0x1.1e13ac0000000p-5, -0x1.6c21b80000000p-5, -0x1.90236c0000000p-5, -0x1.4ab0720000000p-4, 0x1.94bff00000000p-5, 0x1.6945800000000p-9, 0x1.55a90c0000000p-5, 0x1.2836540000000p-4, 0x1.db6fd00000000p-7, 0x1.26503c0000000p-5, -0x1.1c32d00000000p-6, 0x1.4f8e600000000p-5, -0x1.4ce4900000000p-7, 0x1.43d3a00000000p-7, 0x1.f712f00000000p-7, 0x1.34a9500000000p-4, -0x1.771ae00000000p-5, -0x1.1b42200000000p-8, 0x1.1d49580000000p-4, 0x1.37ef3c0000000p-5, -0x1.ba8bc40000000p-5, 0x1.2563b80000000p-4, 0x1.0256240000000p-5, -0x1.229fdc0000000p-4, -0x1.6db8160000000p-5, 0x1.0484f80000000p-5, -0x1.34fea40000000p-4, -0x1.2d6a300000000p-6, 0x1.0d53d00000000p-6, 0x1.1978680000000p-5, 0x1.e13b200000000p-6, -0x1.313b380000000p-4, -0x1.cf8fc40000000p-6, 0x1.03e8000000000p-5, -0x1.6fc0000000000p-13, 0x1.fec9600000000p-5, -0x1.86e6100000000p-5, -0x1.53e5f80000000p-5, 0x1.481dbc0000000p-5, -0x1.1f23280000000p-6, 0x1.4aa8340000000p-4, -0x1.90d73c0000000p-6, -0x1.3877580000000p-6, -0x1.475b340000000p-5, 0x1.8476000000000p-12, 0x1.e24ad00000000p-5, 0x1.f65a080000000p-5, -0x1.2009640000000p-4, 0x1.02e0940000000p-5, -0x1.06d67e0000000p-4, -0x1.ba03180000000p-6, 0x1.373cf80000000p-6, -0x1.da99ec0000000p-5, -0x1.ed4a280000000p-6, -0x1.a3cdc00000000p-7, 0x1.46ea2c0000000p-5, 0x1.3c9e700000000p-4, -0x1.2413b40000000p-4, 0x1.43f6340000000p-5, -0x1.58c4140000000p-5, -0x1.c5352c0000000p-6, -0x1.c77a000000000p-12, 0x1.5935800000000p-8, 0x1.e99f000000000p-9, 0x1.0cbe340000000p-5, -0x1.d8b5d80000000p-6, 0x1.c42b580000000p-5, 0x1.3975940000000p-4, -0x1.92fc400000000p-8, 0x1.6ca4380000000p-6, -0x1.baa4f40000000p-6, -0x1.292ab20000000p-4, 0x1.3d51440000000p-5, -0x1.6e2e100000000p-7, -0x1.152cd20000000p-5, -0x1.eb64480000000p-5, -0x1.5cfa8e0000000p-5, 0x1.1ad8c80000000p-4, -0x1.983e800000000p-5, -0x1.7dfd300000000p-7, -0x1.1c896a0000000p-4, -0x1.60e9400000000p-6, -0x1.45a2c80000000p-6, 0x1.5e03d00000000p-7, 0x1.3413d40000000p-5, -0x1.02ed100000000p-4, -0x1.1968c40000000p-4, -0x1.b74b6c0000000p-5, -0x1.1c2b500000000p-7, -0x1.b9f9480000000p-5, -0x1.779b560000000p-5, -0x1.a8c6c40000000p-5, 0x1.47be400000000p-7, 0x1.a76ec00000000p-5, -0x1.4fd5020000000p-5, -0x1.657f200000000p-7, 0x1.58e4d40000000p-5, -0x1.ef89360000000p-5, 0x1.6dc7200000000p-5, -0x1.6a0f2c0000000p-6, -0x1.6c8cb00000000p-6, 0x1.c28e280000000p-5, 0x1.442fc80000000p-6, 0x1.232d7c0000000p-4, -0x1.2fc8be0000000p-4, -0x1.58ef100000000p-7, 0x1.2480d00000000p-4, 0x1.31f4880000000p-4, 0x1.1ba6000000000p-8, 0x1.9805200000000p-5, -0x1.bd40200000000p-7, 0x1.6963980000000p-5, -0x1.b3ae1c0000000p-6, -0x1.22a9080000000p-5, 0x1.3d7c8c0000000p-5, -0x1.3839000000000p-4, -0x1.fa6b300000000p-7, -0x1.c097400000000p-9, -0x1.03e1f00000000p-4, 0x1.00ced00000000p-4, -0x1.9170d40000000p-5, 0x1.0e3bb40000000p-5, -0x1.3394040000000p-5, 0x1.558f540000000p-5, 0x1.b80ed80000000p-5, -0x1.2001ce0000000p-4, 0x1.e2d3a80000000p-6, 0x1.3dbd800000000p-6, -0x1.296b580000000p-6, -0x1.1bbe200000000p-7, -0x1.4f9db60000000p-5, 0x1.164ef40000000p-4, 0x1.1732700000000p-4, -0x1.1c7b460000000p-4, 0x1.252f8c0000000p-4, -0x1.e9fe160000000p-5, -0x1.bb77900000000p-7, 0x1.092f900000000p-7, 0x1.b64f680000000p-5, -0x1.6ec9800000000p-8, 0x1.50afb80000000p-5, 0x1.18f1680000000p-5, 0x1.157ce40000000p-5, 0x1.ae0c400000000p-8, 0x1.30baa80000000p-4, -0x1.20ad600000000p-8, -0x1.12b2f60000000p-4, -0x1.3738000000000p-6, -0x1.4603d40000000p-5, -0x1.f825480000000p-5, 0x1.3117580000000p-4, -0x1.a6c6880000000p-6, -0x1.02c89c0000000p-5, 0x1.32cf080000000p-4, 0x1.f00e600000000p-7, 0x1.d3d4700000000p-5, 0x1.3a83840000000p-4, 0x1.0fcb600000000p-7, -0x1.6016860000000p-5, -0x1.eea8000000000p-13, -0x1.16e7ce0000000p-4, 0x1.0c3c600000000p-6, 0x1.3476600000000p-5, 0x1.2bbd000000000p-11, -0x1.ae24a00000000p-8, 0x1.456c100000000p-4, 0x1.3f4bb00000000p-6, 0x1.1397440000000p-4, 0x1.7573400000000p-5, -0x1.339f300000000p-4, 0x1.8a17680000000p-5, -0x1.54f1800000000p-6, 0x1.62af900000000p-7, -0x1.639c600000000p-7, -0x1.9b27a40000000p-5, -0x1.738d240000000p-6, -0x1.62438e0000000p-5, 0x1.0f1e200000000p-8, -0x1.ac91a80000000p-5, 0x1.3822c80000000p-6, 0x1.edbdf00000000p-7, -0x1.3e147e0000000p-4, -0x1.3bd8500000000p-4, -0x1.3a04880000000p-4, -0x1.7a251c0000000p-6, -0x1.733a2e0000000p-5, 0x1.dd0d880000000p-5, 0x1.1783700000000p-7, 0x1.21ff700000000p-5, -0x1.d27d240000000p-5, 0x1.bcb3f80000000p-6, 0x1.0895140000000p-4, -0x1.64a0880000000p-5, -0x1.298be80000000p-4, 0x1.0d5e000000000p-7, 0x1.7f59900000000p-5, 0x1.3fba300000000p-5, -0x1.c6b5d00000000p-5, -0x1.64f3540000000p-6, -0x1.1b769e0000000p-5, 0x1.fc73980000000p-6, -0x1.4be5880000000p-6, 0x1.ea35e80000000p-6, -0x1.f1de400000000p-9, -0x1.3527fc0000000p-5, -0x1.38849a0000000p-4, -0x1.b2d8280000000p-6, 0x1.8b28580000000p-5, -0x1.c1e5880000000p-6, 0x1.e078380000000p-5, 0x1.1b16380000000p-6, 0x1.3b64b00000000p-6, -0x1.319ae60000000p-5, 0x1.b800a80000000p-5, -0x1.fa9bb00000000p-7, 0x1.46eae00000000p-4, 0x1.657f380000000p-5, -0x1.aeae040000000p-5, -0x1.5d14260000000p-5, -0x1.8b2f360000000p-5, 0x1.251c8c0000000p-5, 0x1.3c3f0c0000000p-4, -0x1.2549680000000p-4, -0x1.07b42c0000000p-4, 0x1.0d6cd00000000p-7, -0x1.54be260000000p-5, 0x1.3c96600000000p-5, 0x1.e92f800000000p-5, -0x1.c0a5f40000000p-5, -0x1.f4417c0000000p-6, 0x1.d279880000000p-5, 0x1.a5ac480000000p-5, 0x1.9d56b80000000p-5, -0x1.1e2dc20000000p-5, 0x1.e705000000000p-9, -0x1.b9c39c0000000p-5, -0x1.0db7060000000p-5, -0x1.7443c00000000p-6, 0x1.c9d4180000000p-6, 0x1.1c7b700000000p-5, -0x1.7411820000000p-5, -0x1.0ddb080000000p-5, -0x1.7b052e0000000p-5, 0x1.fe2d900000000p-6, -0x1.b907240000000p-5, 0x1.26cdd40000000p-4, -0x1.0826240000000p-4, -0x1.17f1c80000000p-6, -0x1.30996a0000000p-5, -0x1.22d0860000000p-4, 0x1.855ee80000000p-6, 0x1.14d03c0000000p-4, -0x1.039a380000000p-4, 0x1.285e880000000p-4, -0x1.0c80660000000p-4, 0x1.fa74e00000000p-6, -0x1.c1f2780000000p-5, 0x1.e728000000000p-12, -0x1.1e2f1e0000000p-4}
