/**
  ******************************************************************************
  * @file    weights/fc.cc
  * @author  Pierre-Emmanuel Novac <penovac@unice.fr>, LEAT, CNRS, Université Côte d'Azur, France
  * @version 1.0.0
  * @date    24 march 2020
  * @brief   Template generating plain C code for the implementation of Convolutional Neural Networks on MCU
  */

#include <stdint.h>

#define INPUT_SAMPLES 224
#define FC_UNITS 10


const float dense_7_bias[FC_UNITS] = {0x0.0p+0, 0x0.0p+0, 0x0.0p+0, 0x0.0p+0, 0x0.0p+0, 0x0.0p+0, 0x0.0p+0, 0x0.0p+0, 0x0.0p+0, 0x0.0p+0}
;

const float dense_7_kernel[FC_UNITS][INPUT_SAMPLES] = {{0x1.2062280000000p-4, 0x1.53aa080000000p-4, 0x1.35fe100000000p-6, -0x1.3a2e480000000p-5, 0x1.0e5d000000000p-5, 0x1.3fea000000000p-3, 0x1.7f77000000000p-4, -0x1.b457000000000p-9, 0x1.5b90000000000p-13, 0x1.f90ca80000000p-5, -0x1.1efbf40000000p-4, 0x1.3424a00000000p-7, 0x1.226a500000000p-5, 0x1.a3dbc00000000p-8, -0x1.d0acc00000000p-8, 0x1.208ee00000000p-3, -0x1.f678c80000000p-5, -0x1.b520000000000p-8, -0x1.152af00000000p-5, -0x1.e7de260000000p-4, 0x1.a4f3400000000p-4, -0x1.4c6b060000000p-4, 0x1.278c380000000p-5, 0x1.d7a8900000000p-4, 0x1.31d8c80000000p-4, -0x1.077ec80000000p-3, -0x1.4414640000000p-3, 0x1.13abd00000000p-3, 0x1.8c82000000000p-4, -0x1.23d7500000000p-3, 0x1.27779c0000000p-3, -0x1.e06c940000000p-5, 0x1.7d95300000000p-6, 0x1.b7aca00000000p-7, -0x1.bfea2a0000000p-4, -0x1.9564400000000p-5, -0x1.1c159a0000000p-4, -0x1.42241e0000000p-3, 0x1.0560000000000p-15, -0x1.2a04e40000000p-5, -0x1.83b9c00000000p-8, -0x1.b2fbc00000000p-4, 0x1.21a8fc0000000p-4, 0x1.2540380000000p-3, 0x1.2f77a00000000p-5, -0x1.2317280000000p-4, -0x1.459ea60000000p-3, 0x1.b3b5f80000000p-5, 0x1.222b740000000p-4, -0x1.0b5ad00000000p-4, -0x1.2e0fd20000000p-3, -0x1.63a0400000000p-7, -0x1.1454360000000p-4, -0x1.06fc240000000p-3, -0x1.60cd600000000p-6, 0x1.111b700000000p-4, 0x1.62c1f40000000p-4, -0x1.412f9a0000000p-3, 0x1.5ed9400000000p-5, 0x1.d1b9100000000p-4, 0x1.8faeb00000000p-6, 0x1.2dda680000000p-4, -0x1.10c3ae0000000p-4, 0x1.44a6f80000000p-3, -0x1.46fc840000000p-5, -0x1.3bb80a0000000p-3, 0x1.4bbeec0000000p-4, 0x1.9c1b180000000p-4, 0x1.843fa00000000p-5, -0x1.4788800000000p-7, 0x1.46f7fc0000000p-3, -0x1.fdc9600000000p-6, 0x1.8404800000000p-8, -0x1.c73f800000000p-6, -0x1.b4fbe40000000p-4, 0x1.ad2d380000000p-5, -0x1.0b02b40000000p-4, 0x1.f542200000000p-4, -0x1.93841c0000000p-4, 0x1.08a11c0000000p-3, 0x1.0d6c800000000p-6, 0x1.4a9ba80000000p-4, 0x1.0742080000000p-3, -0x1.14beb80000000p-3, 0x1.8a84180000000p-5, 0x1.7019dc0000000p-4, 0x1.e8e1e00000000p-4, -0x1.1aa28c0000000p-4, -0x1.4284220000000p-3, 0x1.be7ad80000000p-5, 0x1.c39cf00000000p-5, 0x1.d432d00000000p-4, 0x1.f997500000000p-4, -0x1.1bfcd20000000p-3, -0x1.e16f600000000p-7, -0x1.47b0ac0000000p-3, -0x1.e4e1240000000p-4, -0x1.49abe00000000p-7, -0x1.cf67940000000p-5, -0x1.6f29aa0000000p-4, 0x1.39613c0000000p-3, -0x1.dcc7980000000p-4, 0x1.430aa00000000p-3, 0x1.c91f880000000p-4, 0x1.af9f700000000p-4, -0x1.84ec800000000p-7, -0x1.79f4b60000000p-4, 0x1.477fe40000000p-4, 0x1.fb78900000000p-4, -0x1.d02ddc0000000p-4, 0x1.2e1e600000000p-4, 0x1.3aa6800000000p-4, 0x1.4446d80000000p-5, 0x1.1ea9740000000p-4, 0x1.28f2840000000p-4, 0x1.274a880000000p-4, 0x1.a662f00000000p-4, -0x1.05bd4e0000000p-3, -0x1.c359080000000p-5, -0x1.b1e14c0000000p-5, 0x1.a97a700000000p-5, -0x1.5395020000000p-4, -0x1.7311dc0000000p-5, -0x1.e07c080000000p-4, -0x1.60ecb40000000p-4, 0x1.328cd80000000p-3, -0x1.0429a00000000p-6, -0x1.3dc7060000000p-3, 0x1.e99ec00000000p-4, 0x1.2392880000000p-3, 0x1.6ff31c0000000p-4, -0x1.2f588c0000000p-5, -0x1.8239a60000000p-4, -0x1.6bf1480000000p-5, -0x1.9026100000000p-4, 0x1.7671980000000p-4, -0x1.74b31e0000000p-4, -0x1.122a920000000p-4, 0x1.1b74780000000p-5, -0x1.14c97c0000000p-3, -0x1.8bc9680000000p-5, -0x1.9852600000000p-7, -0x1.0f93a00000000p-5, -0x1.53b7140000000p-4, 0x1.1126600000000p-3, 0x1.9769600000000p-4, 0x1.f9f0b80000000p-4, -0x1.b48f840000000p-5, -0x1.52300c0000000p-4, -0x1.f67d580000000p-4, 0x1.015f980000000p-5, -0x1.5026a00000000p-6, 0x1.cb54300000000p-4, 0x1.47e5040000000p-4, 0x1.7713900000000p-6, 0x1.2b76b80000000p-4, -0x1.b95a800000000p-5, -0x1.8ea2000000000p-6, -0x1.9b58c00000000p-5, -0x1.7e8a4a0000000p-4, 0x1.a147800000000p-9, -0x1.24df580000000p-3, 0x1.2e6b940000000p-3, -0x1.4546760000000p-3, -0x1.5ba0800000000p-6, -0x1.1726d00000000p-3, -0x1.4523080000000p-3, 0x1.26f77c0000000p-3, 0x1.23cfa00000000p-3, 0x1.32f2680000000p-4, -0x1.4381320000000p-4, -0x1.fefdec0000000p-4, 0x1.90b7c00000000p-8, -0x1.77d3a40000000p-5, 0x1.81c9d80000000p-5, 0x1.0f71180000000p-4, 0x1.c268700000000p-4, -0x1.338e780000000p-3, 0x1.5230500000000p-5, -0x1.1db6120000000p-3, 0x1.7b22c00000000p-4, 0x1.04199c0000000p-4, -0x1.ed1ed40000000p-4, -0x1.cf22280000000p-5, 0x1.4ddfa40000000p-4, 0x1.19ca3c0000000p-3, 0x1.47c0300000000p-4, -0x1.1305100000000p-5, 0x1.96dcb00000000p-4, -0x1.ea06f40000000p-4, 0x1.f325180000000p-4, -0x1.e9dc7a0000000p-4, -0x1.09cb9c0000000p-3, 0x1.4f1b540000000p-4, 0x1.1b39380000000p-4, 0x1.f2dcd80000000p-4, 0x1.1b12600000000p-7, -0x1.160b300000000p-6, -0x1.0b1a660000000p-3, -0x1.0e971e0000000p-3, 0x1.cef2f00000000p-5, -0x1.1f7bd20000000p-4, -0x1.07e3dc0000000p-3, 0x1.2f98dc0000000p-3, 0x1.f6e7100000000p-4, -0x1.9381600000000p-6, 0x1.27af880000000p-5, 0x1.7ff2580000000p-4, -0x1.f463500000000p-6, 0x1.5586040000000p-4, -0x1.ba89dc0000000p-4, -0x1.e1f6420000000p-4, 0x1.5767b80000000p-5, -0x1.f975e00000000p-5, 0x1.9482680000000p-4, -0x1.ac65e00000000p-7, -0x1.e3f3d40000000p-4, 0x1.7cb5280000000p-4, -0x1.6135340000000p-4, 0x1.e7e3b80000000p-4, 0x1.00d7200000000p-7, -0x1.3bafa20000000p-3, -0x1.3c3c1c0000000p-3, 0x1.0ea9b40000000p-3}
, {0x1.d13de00000000p-6, 0x1.42e0480000000p-3, -0x1.17ffd20000000p-3, 0x1.9c40e80000000p-4, -0x1.4f6f660000000p-4, 0x1.cc8d800000000p-4, -0x1.0a7a400000000p-6, -0x1.a345040000000p-5, 0x1.6e90bc0000000p-4, 0x1.1420a00000000p-3, 0x1.1a8c740000000p-4, -0x1.ec7a000000000p-8, 0x1.b15b000000000p-10, -0x1.38e3860000000p-3, 0x1.4f21800000000p-8, -0x1.156d380000000p-3, -0x1.153ce00000000p-4, 0x1.255f780000000p-3, 0x1.31a4280000000p-3, 0x1.1cf8940000000p-4, 0x1.7c7ec00000000p-6, -0x1.60ac0e0000000p-4, 0x1.ab93480000000p-4, -0x1.122d500000000p-6, -0x1.1bb8620000000p-3, -0x1.24361c0000000p-3, -0x1.3874000000000p-6, 0x1.3383280000000p-3, -0x1.c694180000000p-5, 0x1.f747a80000000p-4, 0x1.2152840000000p-3, -0x1.93464c0000000p-4, 0x1.3cadec0000000p-3, 0x1.73dd300000000p-4, 0x1.bf55000000000p-9, 0x1.e0be700000000p-4, -0x1.b8c2800000000p-4, 0x1.28b6a40000000p-3, 0x1.1729d40000000p-3, -0x1.6898c20000000p-4, -0x1.3aac300000000p-4, -0x1.a9e4c00000000p-7, 0x1.ae6d180000000p-4, 0x1.275f540000000p-3, 0x1.1489600000000p-3, -0x1.171e380000000p-3, -0x1.2cf1b20000000p-4, 0x1.7deb080000000p-4, -0x1.0da09a0000000p-4, 0x1.6326480000000p-5, 0x1.3510480000000p-3, 0x1.9b66480000000p-4, 0x1.6139f00000000p-6, -0x1.b838400000000p-6, -0x1.4260740000000p-5, 0x1.afd8500000000p-4, -0x1.ff14400000000p-6, 0x1.8484000000000p-12, -0x1.a7e2d80000000p-5, 0x1.ecd3e00000000p-4, 0x1.4a26400000000p-8, 0x1.dc51400000000p-4, 0x1.e605d80000000p-4, 0x1.5b02880000000p-5, 0x1.7e02700000000p-6, 0x1.7d77000000000p-4, -0x1.9724bc0000000p-4, -0x1.408de00000000p-3, -0x1.513e380000000p-5, -0x1.5c06f00000000p-4, -0x1.d9b8000000000p-9, -0x1.3ab8d00000000p-6, -0x1.f92c740000000p-5, -0x1.b3a1400000000p-4, -0x1.3425e00000000p-6, 0x1.cdfce00000000p-6, -0x1.b4e8e00000000p-6, -0x1.bc09d00000000p-4, 0x1.3218980000000p-4, 0x1.0b99a00000000p-4, -0x1.55c20e0000000p-4, 0x1.4cbd800000000p-7, 0x1.1e6e300000000p-5, 0x1.75c5c80000000p-5, -0x1.4ce5520000000p-4, 0x1.bf87b80000000p-4, -0x1.1296460000000p-3, -0x1.0d530a0000000p-3, -0x1.95ef000000000p-7, -0x1.28b2de0000000p-3, -0x1.68a4d80000000p-4, 0x1.480b100000000p-6, -0x1.039e380000000p-5, 0x1.4fe32c0000000p-4, -0x1.9afa840000000p-4, 0x1.0fa9f80000000p-5, 0x1.2a2ab80000000p-4, 0x1.0c4a200000000p-7, 0x1.4122c00000000p-5, -0x1.a001b40000000p-4, -0x1.823c9c0000000p-4, 0x1.2c37300000000p-4, -0x1.1834aa0000000p-3, 0x1.06c2cc0000000p-3, 0x1.ea83e00000000p-7, 0x1.25723c0000000p-3, -0x1.36d0ae0000000p-3, 0x1.9ae0080000000p-4, 0x1.da59400000000p-4, 0x1.11e8340000000p-4, -0x1.d8abf40000000p-5, -0x1.d8abcc0000000p-4, 0x1.108e280000000p-5, -0x1.8d2ca00000000p-7, -0x1.b104b80000000p-5, 0x1.3873c00000000p-8, 0x1.d8daf80000000p-4, -0x1.69dc9c0000000p-5, 0x1.5f69200000000p-5, 0x1.3018bc0000000p-3, -0x1.ff1e000000000p-6, -0x1.cbf7e00000000p-4, -0x1.b9c2300000000p-6, -0x1.b02f400000000p-7, -0x1.d7d6e00000000p-6, 0x1.d293d00000000p-5, -0x1.b4486c0000000p-5, 0x1.1d2ff40000000p-3, 0x1.4b35700000000p-6, 0x1.f705c80000000p-4, 0x1.8911b80000000p-4, -0x1.3f5e440000000p-4, -0x1.54a6fc0000000p-5, 0x1.1dd1700000000p-3, 0x1.c8fa800000000p-4, -0x1.d013b80000000p-4, 0x1.e046800000000p-7, 0x1.a823600000000p-6, 0x1.3e1df40000000p-3, 0x1.cc17880000000p-4, -0x1.7eeb400000000p-7, 0x1.66b2c00000000p-7, -0x1.1a85d20000000p-3, -0x1.610ada0000000p-4, -0x1.7ce6ea0000000p-4, 0x1.2f4d000000000p-10, 0x1.b758d00000000p-4, 0x1.8a21400000000p-4, 0x1.410f800000000p-4, 0x1.2a44680000000p-3, 0x1.dcb5100000000p-4, 0x1.3a14ac0000000p-4, -0x1.d444e40000000p-4, 0x1.43f3e00000000p-3, 0x1.098dc00000000p-7, 0x1.4d67940000000p-4, 0x1.3483800000000p-6, -0x1.aaec000000000p-8, 0x1.25a4080000000p-4, -0x1.22b8480000000p-4, -0x1.a3c2cc0000000p-5, 0x1.1867900000000p-3, 0x1.d331380000000p-4, -0x1.0f5eac0000000p-4, -0x1.0941c40000000p-3, -0x1.2e3b320000000p-3, 0x1.1bc0380000000p-4, 0x1.1addbc0000000p-3, 0x1.c344880000000p-5, 0x1.152f580000000p-4, -0x1.48db600000000p-4, -0x1.5859640000000p-4, -0x1.297cd80000000p-3, -0x1.4aa0c80000000p-5, -0x1.bd0ce60000000p-4, -0x1.64a4e00000000p-7, -0x1.a4f2340000000p-4, -0x1.2b70780000000p-5, -0x1.401da00000000p-4, 0x1.02a09c0000000p-3, -0x1.3ab47e0000000p-3, 0x1.870ab00000000p-6, 0x1.9120780000000p-4, 0x1.3b4c040000000p-3, -0x1.0da3be0000000p-3, 0x1.acf9480000000p-4, 0x1.9fff700000000p-4, 0x1.c252400000000p-5, 0x1.69ca200000000p-5, -0x1.4d20100000000p-6, 0x1.29d7f00000000p-3, -0x1.6d7ae00000000p-5, 0x1.f2d6f80000000p-4, -0x1.da31e80000000p-4, -0x1.0398380000000p-3, -0x1.a1387a0000000p-4, -0x1.1a2db00000000p-4, -0x1.afae140000000p-4, 0x1.3c58f00000000p-4, -0x1.327e5a0000000p-4, 0x1.ce13780000000p-5, -0x1.64c99e0000000p-4, -0x1.b018600000000p-6, -0x1.c86de80000000p-4, -0x1.78033c0000000p-4, -0x1.2167e40000000p-4, 0x1.f35b180000000p-5, 0x1.c963000000000p-4, 0x1.0238180000000p-5, -0x1.2a11900000000p-3, 0x1.f94a980000000p-4, 0x1.2639b80000000p-3, 0x1.167e900000000p-5, 0x1.7d07c00000000p-4, -0x1.e36e000000000p-8, 0x1.303da00000000p-5, 0x1.1b7f7c0000000p-3, 0x1.da62800000000p-7, -0x1.9edbb80000000p-5, 0x1.76f2c00000000p-6, 0x1.578ab00000000p-6, 0x1.a2ef300000000p-5, -0x1.2e6a320000000p-4, 0x1.61b5c80000000p-4}
, {0x1.d799580000000p-4, -0x1.509c7c0000000p-5, 0x1.a8a5b00000000p-6, 0x1.9fff180000000p-4, 0x1.1eb3140000000p-3, -0x1.39b9d60000000p-3, 0x1.414fe40000000p-3, -0x1.44a04e0000000p-4, -0x1.9d12c00000000p-8, 0x1.0bfe300000000p-4, 0x1.1e4d900000000p-6, 0x1.047f480000000p-5, 0x1.5091980000000p-4, 0x1.f99a500000000p-6, 0x1.3ac8800000000p-6, -0x1.bd16400000000p-6, -0x1.34954c0000000p-4, -0x1.3ff0780000000p-4, -0x1.ecfda00000000p-7, -0x1.c5e4820000000p-4, -0x1.07bbe40000000p-3, 0x1.467ac00000000p-3, 0x1.3cd5f40000000p-3, -0x1.87353a0000000p-4, -0x1.618b780000000p-5, -0x1.1155140000000p-4, 0x1.1cd5500000000p-5, 0x1.476cc00000000p-5, -0x1.600ed80000000p-5, -0x1.64bd100000000p-6, -0x1.ce062c0000000p-5, -0x1.1122b00000000p-5, -0x1.0cb7000000000p-10, -0x1.2d23400000000p-3, -0x1.0838740000000p-4, 0x1.c13ed80000000p-5, -0x1.24ab000000000p-7, -0x1.1f90a20000000p-4, 0x1.5b64a00000000p-5, -0x1.f959680000000p-4, -0x1.e595e00000000p-6, 0x1.985b580000000p-4, -0x1.8fcc260000000p-4, 0x1.d414180000000p-4, -0x1.1f513a0000000p-4, 0x1.47c4980000000p-5, -0x1.8107b00000000p-6, 0x1.0be10c0000000p-4, -0x1.031fba0000000p-3, -0x1.128a580000000p-3, 0x1.f8cb800000000p-5, -0x1.1081080000000p-5, 0x1.9646080000000p-4, 0x1.3886bc0000000p-3, 0x1.1483200000000p-4, 0x1.0d15540000000p-3, -0x1.dd1d400000000p-6, 0x1.8b75200000000p-7, -0x1.4f90c00000000p-6, 0x1.ba87c00000000p-7, -0x1.0af6ee0000000p-4, -0x1.e1d9980000000p-5, 0x1.1712400000000p-3, 0x1.ee06200000000p-7, 0x1.3c4c7c0000000p-3, -0x1.deed280000000p-5, 0x1.78c7e80000000p-5, -0x1.ddedc00000000p-4, 0x1.937dc80000000p-5, -0x1.6303360000000p-4, -0x1.b7735a0000000p-4, -0x1.c8d2c00000000p-8, 0x1.3916b00000000p-6, -0x1.4eac680000000p-5, -0x1.76a9e00000000p-4, 0x1.d597000000000p-5, 0x1.e36d200000000p-6, 0x1.d6ca100000000p-5, -0x1.b530e40000000p-4, -0x1.c32bb60000000p-4, -0x1.40d5540000000p-4, -0x1.767ad00000000p-6, -0x1.0671a00000000p-7, -0x1.63dce80000000p-5, 0x1.2021200000000p-7, -0x1.9961500000000p-6, -0x1.1683a80000000p-4, -0x1.1592280000000p-5, -0x1.c7a4a00000000p-4, 0x1.08fd640000000p-3, 0x1.5c61c40000000p-4, 0x1.99aae00000000p-5, -0x1.f7dfe00000000p-7, 0x1.771fc00000000p-7, -0x1.0f7c1a0000000p-3, 0x1.f8dc280000000p-5, -0x1.0f1f960000000p-3, 0x1.21ac480000000p-3, 0x1.32bc200000000p-6, 0x1.042d440000000p-3, 0x1.e566000000000p-10, 0x1.e806100000000p-5, -0x1.014dc60000000p-3, 0x1.3a9b1c0000000p-3, 0x1.b3fd900000000p-4, -0x1.ff68da0000000p-4, 0x1.e46bc00000000p-4, -0x1.9ccc7c0000000p-4, -0x1.bd26900000000p-6, -0x1.272f140000000p-4, 0x1.3475dc0000000p-3, -0x1.38d5d80000000p-5, 0x1.65d3240000000p-4, -0x1.0069400000000p-4, -0x1.89fa7a0000000p-4, 0x1.f5e6400000000p-4, 0x1.62d7100000000p-4, 0x1.efa2100000000p-4, -0x1.04a0980000000p-3, -0x1.1d81800000000p-8, -0x1.53adfe0000000p-4, 0x1.2cf2800000000p-3, -0x1.846adc0000000p-5, -0x1.27c2220000000p-3, -0x1.676be00000000p-5, -0x1.3bc04a0000000p-3, 0x1.c186a80000000p-4, -0x1.3b2fbc0000000p-4, -0x1.105b000000000p-6, -0x1.87b0ba0000000p-4, -0x1.0d7f400000000p-3, 0x1.ee73880000000p-4, 0x1.470da80000000p-5, 0x1.19d9c40000000p-3, -0x1.1a7d7a0000000p-4, -0x1.19e1de0000000p-3, -0x1.9be28c0000000p-4, 0x1.8099100000000p-6, 0x1.bb3b480000000p-5, -0x1.1f93040000000p-3, -0x1.0377500000000p-3, 0x1.1a4b5c0000000p-3, -0x1.fb94640000000p-4, -0x1.27aad00000000p-3, 0x1.718e200000000p-4, 0x1.8c34d00000000p-4, -0x1.15d3cc0000000p-4, -0x1.20e88c0000000p-4, -0x1.b271340000000p-4, -0x1.298ae00000000p-3, 0x1.874d700000000p-4, -0x1.84b2800000000p-6, -0x1.8660800000000p-8, 0x1.c99d480000000p-4, 0x1.2cf8fc0000000p-4, -0x1.2104ee0000000p-3, -0x1.170d9c0000000p-4, -0x1.478aaa0000000p-4, 0x1.7905800000000p-8, -0x1.9cc87c0000000p-5, 0x1.6b10780000000p-5, -0x1.2c161e0000000p-4, 0x1.c071f00000000p-6, 0x1.e246d00000000p-4, 0x1.ca37800000000p-4, -0x1.3bc8f40000000p-3, 0x1.c86ba80000000p-5, -0x1.10dcdc0000000p-3, -0x1.1991c80000000p-3, -0x1.1b51680000000p-3, -0x1.8bc89a0000000p-4, -0x1.28f7100000000p-3, 0x1.6de4f40000000p-4, 0x1.353f580000000p-5, -0x1.5165900000000p-4, -0x1.20586e0000000p-4, -0x1.9a3d5e0000000p-4, -0x1.5925d40000000p-5, -0x1.06cc4c0000000p-3, 0x1.2c2af00000000p-4, -0x1.04e8a80000000p-5, -0x1.2990140000000p-5, 0x1.041e700000000p-3, -0x1.ebe9700000000p-6, -0x1.4637f40000000p-5, 0x1.4c75cc0000000p-4, 0x1.0821140000000p-4, 0x1.58d3000000000p-10, 0x1.99c0800000000p-5, -0x1.fd21c00000000p-4, 0x1.13eb600000000p-4, -0x1.d650ac0000000p-5, 0x1.fa26400000000p-6, -0x1.1e73a00000000p-3, -0x1.212a200000000p-5, 0x1.3177b80000000p-3, -0x1.1971680000000p-5, -0x1.7109700000000p-5, 0x1.d264280000000p-4, -0x1.c7537c0000000p-4, -0x1.04c6620000000p-4, -0x1.95233e0000000p-4, -0x1.99f2c00000000p-7, -0x1.99e29c0000000p-4, -0x1.8b63680000000p-4, 0x1.04b9740000000p-3, -0x1.488ff40000000p-5, 0x1.9109800000000p-6, -0x1.ec0e160000000p-4, 0x1.23fb5c0000000p-3, 0x1.57f2380000000p-4, -0x1.1eb47a0000000p-3, -0x1.faf2c00000000p-6, 0x1.fd85200000000p-7, -0x1.a31efc0000000p-5, -0x1.2324e80000000p-3, -0x1.1cbbe00000000p-7, 0x1.6d51a40000000p-4, 0x1.5f19d00000000p-4, 0x1.18b0000000000p-8, 0x1.c4e0800000000p-8, 0x1.13f7900000000p-5, -0x1.ed6e880000000p-4, -0x1.8b93900000000p-4}
, {-0x1.5eb9c00000000p-7, -0x1.0adab60000000p-4, -0x1.3111cc0000000p-3, -0x1.33fc980000000p-3, -0x1.6043c00000000p-7, 0x1.62f4a40000000p-4, -0x1.0739020000000p-3, -0x1.b3f8a00000000p-7, 0x1.30ef300000000p-4, 0x1.ed7f180000000p-4, 0x1.2927200000000p-6, -0x1.5fe8d00000000p-5, -0x1.1fb3aa0000000p-4, -0x1.2d53000000000p-6, 0x1.1fd5580000000p-3, -0x1.1816fc0000000p-3, -0x1.e578940000000p-5, -0x1.7d3dde0000000p-4, 0x1.4472200000000p-3, -0x1.2404000000000p-6, -0x1.8f07640000000p-4, -0x1.d95edc0000000p-4, 0x1.c00be00000000p-5, -0x1.02b8700000000p-5, -0x1.1105640000000p-3, 0x1.4ce4d00000000p-6, -0x1.10ae200000000p-3, -0x1.aae1800000000p-9, -0x1.3f63ac0000000p-5, 0x1.f378800000000p-4, -0x1.3c411c0000000p-4, 0x1.2c14a80000000p-3, -0x1.4fc4200000000p-6, -0x1.5efcc80000000p-5, 0x1.596b000000000p-10, 0x1.b57bb80000000p-5, -0x1.3db1d80000000p-4, 0x1.078cf80000000p-5, 0x1.3dd8200000000p-7, -0x1.a53d040000000p-5, -0x1.07da9e0000000p-3, -0x1.f73f800000000p-9, 0x1.525c600000000p-7, 0x1.b887600000000p-4, -0x1.01e6700000000p-3, -0x1.d6154e0000000p-4, -0x1.34d2c00000000p-4, 0x1.d87a080000000p-4, 0x1.2ed4c80000000p-3, 0x1.2f4e280000000p-3, -0x1.cab10c0000000p-4, -0x1.9da1c80000000p-4, 0x1.afa7300000000p-4, -0x1.c7e7a40000000p-4, 0x1.1ffd540000000p-3, 0x1.2556400000000p-8, -0x1.84463a0000000p-4, 0x1.788dc00000000p-4, 0x1.93b0c00000000p-4, -0x1.d23b5c0000000p-5, 0x1.b0c5e00000000p-4, -0x1.7c066a0000000p-4, -0x1.eb14200000000p-6, 0x1.2dafe40000000p-4, 0x1.0578480000000p-5, 0x1.3275e80000000p-5, 0x1.1fff5c0000000p-3, 0x1.8fc1a00000000p-4, 0x1.794df80000000p-4, 0x1.46d5580000000p-3, 0x1.7c00700000000p-6, -0x1.beb4080000000p-4, -0x1.31ab3e0000000p-3, 0x1.0a86500000000p-6, 0x1.c55d780000000p-4, 0x1.0adc000000000p-9, 0x1.8d69c00000000p-5, 0x1.f9ae500000000p-4, -0x1.5785a80000000p-5, -0x1.98cefe0000000p-4, -0x1.7d52ec0000000p-5, -0x1.2e5b340000000p-3, -0x1.88242e0000000p-4, 0x1.6ac4e00000000p-5, 0x1.e733300000000p-4, 0x1.0cac480000000p-4, -0x1.1083ea0000000p-4, -0x1.2b11b60000000p-3, 0x1.72d2200000000p-4, 0x1.fe72300000000p-5, 0x1.a3c5280000000p-4, -0x1.1467ca0000000p-3, -0x1.48ce720000000p-4, 0x1.2c48080000000p-4, -0x1.bf77400000000p-8, -0x1.706a280000000p-4, -0x1.be1f480000000p-4, -0x1.4bf3a60000000p-4, 0x1.32eecc0000000p-4, -0x1.0d89f00000000p-5, -0x1.9b28500000000p-5, 0x1.11f7a80000000p-5, 0x1.5276180000000p-4, -0x1.11cc920000000p-3, 0x1.2a49780000000p-4, 0x1.0c07200000000p-3, 0x1.02a1080000000p-3, 0x1.b681000000000p-4, -0x1.f385560000000p-4, 0x1.1e21980000000p-3, -0x1.abc8480000000p-5, -0x1.8f465c0000000p-4, 0x1.6baf000000000p-8, -0x1.bb76e40000000p-4, -0x1.3c2a8e0000000p-3, 0x1.2f88800000000p-3, 0x1.0818540000000p-3, -0x1.4ec7000000000p-9, 0x1.b95e200000000p-6, 0x1.a800e00000000p-5, -0x1.f36f840000000p-5, -0x1.47575c0000000p-3, -0x1.082ce00000000p-7, -0x1.d024f80000000p-4, 0x1.3746540000000p-4, -0x1.194dbc0000000p-3, -0x1.0e0d400000000p-6, 0x1.847a900000000p-4, 0x1.10d3b00000000p-4, 0x1.94c3280000000p-5, 0x1.ff0e400000000p-4, 0x1.0586bc0000000p-4, 0x1.21e05c0000000p-3, 0x1.3112100000000p-4, -0x1.be99700000000p-6, -0x1.392ca00000000p-7, 0x1.26c58c0000000p-4, -0x1.42f4160000000p-4, 0x1.f26cb00000000p-5, 0x1.ec57a80000000p-4, 0x1.13e71c0000000p-3, 0x1.f2fd900000000p-6, -0x1.de54460000000p-4, -0x1.e618c80000000p-4, -0x1.acf2080000000p-5, 0x1.2482300000000p-3, 0x1.344b780000000p-5, -0x1.0ce55e0000000p-4, 0x1.4d45f80000000p-5, -0x1.0c3d8e0000000p-4, 0x1.2c1e980000000p-5, 0x1.0bd6300000000p-3, -0x1.cb3a280000000p-4, 0x1.3ba9980000000p-4, 0x1.336aa80000000p-4, 0x1.2de4c40000000p-3, -0x1.f51bc80000000p-4, -0x1.32ef940000000p-3, -0x1.40ed020000000p-3, 0x1.1b56b00000000p-5, 0x1.1cec4c0000000p-3, -0x1.9e116e0000000p-4, 0x1.94a7600000000p-4, -0x1.775ed20000000p-4, -0x1.3e7a400000000p-4, 0x1.c3a5980000000p-4, -0x1.01d5800000000p-7, 0x1.983ac00000000p-8, 0x1.8e41000000000p-8, -0x1.36dd120000000p-3, -0x1.2ec8800000000p-9, -0x1.202b4c0000000p-3, 0x1.8eb2900000000p-4, 0x1.d58b900000000p-6, 0x1.4467b40000000p-3, 0x1.654e280000000p-5, 0x1.0c3ca00000000p-5, 0x1.8ef3000000000p-4, 0x1.af2bf80000000p-4, -0x1.b7502a0000000p-4, -0x1.940f8a0000000p-4, 0x1.2739c80000000p-3, -0x1.3ad2d20000000p-3, 0x1.3d92980000000p-5, -0x1.020c380000000p-5, -0x1.371d6c0000000p-3, -0x1.ec722c0000000p-5, -0x1.32933a0000000p-3, 0x1.a980600000000p-4, 0x1.d501e00000000p-4, -0x1.7ee1d80000000p-4, 0x1.d51c500000000p-4, 0x1.3a4e940000000p-3, 0x1.e113d00000000p-4, -0x1.669bb40000000p-5, 0x1.cb36900000000p-4, -0x1.97c32e0000000p-4, -0x1.895a960000000p-4, 0x1.534a980000000p-4, -0x1.c3a3800000000p-8, -0x1.c265000000000p-5, -0x1.9b50200000000p-7, -0x1.460a840000000p-4, 0x1.33b0480000000p-3, -0x1.049fb20000000p-3, 0x1.566d400000000p-8, -0x1.be37700000000p-6, -0x1.1445040000000p-3, -0x1.25e14e0000000p-3, 0x1.95efa00000000p-6, -0x1.6fed400000000p-8, -0x1.0569900000000p-6, 0x1.783d600000000p-6, 0x1.2e19680000000p-4, -0x1.ed5fb80000000p-4, -0x1.24d2c00000000p-7, 0x1.a527780000000p-5, -0x1.459ec00000000p-4, 0x1.e1e3800000000p-6, -0x1.4241060000000p-4, 0x1.7e0de00000000p-5, -0x1.737f8c0000000p-4, -0x1.f4c9200000000p-6, -0x1.ba84940000000p-5}
, {0x1.155db40000000p-4, -0x1.8aca1e0000000p-4, -0x1.d1cfe80000000p-4, -0x1.19616e0000000p-3, -0x1.bbc8660000000p-4, 0x1.ab2d080000000p-4, 0x1.4096340000000p-3, -0x1.2545ce0000000p-3, -0x1.f75d400000000p-4, 0x1.b67a680000000p-5, -0x1.1eb3700000000p-3, -0x1.2d85500000000p-3, -0x1.dd211c0000000p-5, 0x1.c6ee200000000p-7, -0x1.eaddb80000000p-4, -0x1.3cd2580000000p-4, 0x1.63b2800000000p-7, 0x1.cedf900000000p-5, -0x1.8c53f40000000p-4, -0x1.65ba700000000p-6, 0x1.0eb4c80000000p-4, -0x1.a1a2980000000p-5, -0x1.8eeb7c0000000p-4, -0x1.3eccc00000000p-8, 0x1.c0e6400000000p-4, -0x1.9315400000000p-8, -0x1.417de80000000p-3, -0x1.119ea80000000p-4, 0x1.23dcf80000000p-3, 0x1.2f66500000000p-6, 0x1.9ef8300000000p-4, 0x1.6331f80000000p-5, -0x1.3f61740000000p-3, -0x1.15b7000000000p-8, -0x1.1b5d560000000p-4, 0x1.1901d80000000p-4, 0x1.a940280000000p-4, 0x1.ab40a00000000p-6, -0x1.0f96000000000p-7, 0x1.97a7f80000000p-4, -0x1.d9bd560000000p-4, -0x1.8cbb800000000p-6, -0x1.9e606a0000000p-4, -0x1.7b23c00000000p-5, 0x1.5f9af40000000p-4, 0x1.d6ee280000000p-5, 0x1.315ec80000000p-3, 0x1.5ea5280000000p-4, -0x1.50b1dc0000000p-4, -0x1.7d3ee80000000p-4, 0x1.9f45c00000000p-8, 0x1.586e880000000p-4, 0x1.a2c7500000000p-4, -0x1.3750c20000000p-3, -0x1.3bb7140000000p-5, 0x1.9993800000000p-5, -0x1.165a2a0000000p-3, -0x1.600d2c0000000p-5, -0x1.1154e00000000p-5, 0x1.61764c0000000p-4, -0x1.3381000000000p-5, -0x1.253f0e0000000p-3, -0x1.4e98b00000000p-6, -0x1.a97d180000000p-5, -0x1.96b5540000000p-5, -0x1.8a2cec0000000p-5, -0x1.30ce200000000p-4, -0x1.ea38e80000000p-5, 0x1.9333680000000p-5, 0x1.c383280000000p-5, 0x1.190b040000000p-3, 0x1.1565ac0000000p-3, 0x1.b71b400000000p-8, -0x1.586acc0000000p-5, 0x1.79ab780000000p-5, -0x1.016c200000000p-7, 0x1.12d9e40000000p-3, 0x1.7de2800000000p-9, -0x1.1bcf800000000p-3, -0x1.9548000000000p-12, -0x1.cd0cf00000000p-4, 0x1.120f3c0000000p-3, 0x1.edd9600000000p-7, -0x1.0023c20000000p-3, 0x1.f7d0580000000p-4, 0x1.6353d00000000p-6, -0x1.bd96000000000p-5, 0x1.3986f00000000p-3, -0x1.397bc00000000p-6, -0x1.13a6b60000000p-3, 0x1.ff6cd00000000p-4, -0x1.6860b40000000p-5, 0x1.2da7d00000000p-3, -0x1.8cb2460000000p-4, -0x1.a4208c0000000p-5, -0x1.eff5880000000p-5, -0x1.3d78cc0000000p-5, -0x1.1af8ea0000000p-3, -0x1.dbd1f60000000p-4, 0x1.3089ac0000000p-3, 0x1.50b8d00000000p-6, -0x1.70f5960000000p-4, 0x1.44c5880000000p-3, -0x1.3986ac0000000p-4, 0x1.8025200000000p-6, 0x1.aa15600000000p-6, 0x1.3915380000000p-4, 0x1.fea9f00000000p-4, 0x1.2b4db80000000p-4, 0x1.6081300000000p-6, -0x1.7833500000000p-5, 0x1.24ca600000000p-7, -0x1.8d03040000000p-5, -0x1.6b096c0000000p-5, 0x1.21a6200000000p-5, -0x1.840b380000000p-4, 0x1.bcca280000000p-4, 0x1.bb16100000000p-4, -0x1.08ddd80000000p-3, 0x1.8445600000000p-5, 0x1.9441500000000p-4, -0x1.c285c80000000p-4, 0x1.e643500000000p-4, -0x1.0635d20000000p-3, 0x1.4d94800000000p-4, -0x1.d2973c0000000p-4, 0x1.d0d2f00000000p-6, -0x1.40ce3a0000000p-3, 0x1.5033200000000p-5, 0x1.7b6a700000000p-5, -0x1.49cf680000000p-5, 0x1.4292ac0000000p-3, 0x1.3d7a840000000p-3, 0x1.807cf80000000p-4, -0x1.a92c580000000p-4, 0x1.2546780000000p-3, 0x1.0ba2c00000000p-3, -0x1.9a96000000000p-4, -0x1.4836ae0000000p-4, -0x1.431c500000000p-4, 0x1.ef78080000000p-4, 0x1.e0dc580000000p-4, -0x1.4df0a00000000p-7, 0x1.1cc14c0000000p-3, 0x1.2cead80000000p-5, 0x1.30ec100000000p-4, 0x1.3d6f700000000p-3, 0x1.f87bb00000000p-6, 0x1.007b400000000p-3, 0x1.06d0e80000000p-3, 0x1.15f6dc0000000p-3, -0x1.209a800000000p-6, 0x1.8e2bf80000000p-5, 0x1.6f10280000000p-4, -0x1.b12e600000000p-6, -0x1.f8d7600000000p-7, -0x1.a38dc00000000p-8, 0x1.4488a00000000p-3, -0x1.b597000000000p-8, 0x1.9a27580000000p-4, 0x1.87c7400000000p-7, 0x1.af6d000000000p-4, 0x1.41ba000000000p-10, -0x1.7c01c00000000p-8, -0x1.2b28e40000000p-3, -0x1.be3a420000000p-4, 0x1.e66c380000000p-4, 0x1.9dfa280000000p-4, 0x1.0657e80000000p-4, -0x1.194e6e0000000p-3, 0x1.0f06700000000p-3, 0x1.0cdd140000000p-4, 0x1.dbb5080000000p-4, 0x1.291a200000000p-3, -0x1.a6e9200000000p-4, -0x1.d5a32c0000000p-5, -0x1.e6535c0000000p-4, -0x1.31531c0000000p-4, 0x1.9ce8000000000p-4, 0x1.403ed00000000p-5, 0x1.6681400000000p-8, 0x1.0b59b00000000p-3, 0x1.07a0b00000000p-3, -0x1.9097fc0000000p-4, -0x1.5288000000000p-10, 0x1.cfd2c80000000p-4, -0x1.3e0d480000000p-4, 0x1.01afa00000000p-7, 0x1.0471ec0000000p-3, -0x1.82eef40000000p-5, 0x1.1eb4740000000p-4, 0x1.d76f780000000p-5, -0x1.97bb940000000p-4, -0x1.db1f8a0000000p-4, 0x1.a7e4c00000000p-4, 0x1.b502900000000p-5, 0x1.29c50c0000000p-3, 0x1.36b81c0000000p-3, -0x1.1029b00000000p-6, 0x1.81c2280000000p-5, 0x1.404fc80000000p-5, -0x1.31e2d00000000p-6, -0x1.e19dca0000000p-4, -0x1.9e0c580000000p-5, -0x1.12b0660000000p-4, 0x1.b8c4880000000p-5, 0x1.1310dc0000000p-3, 0x1.ea86f80000000p-5, 0x1.11c8500000000p-3, 0x1.90d4d80000000p-4, -0x1.ef6eb40000000p-4, -0x1.6f9ab60000000p-4, -0x1.de43700000000p-6, -0x1.4ab8e00000000p-7, -0x1.b75d600000000p-5, 0x1.4989e80000000p-4, -0x1.fbfea00000000p-6, -0x1.29d84c0000000p-4, 0x1.c2d4080000000p-4, -0x1.1db19c0000000p-3, -0x1.4f11720000000p-4, 0x1.0bea6c0000000p-3, -0x1.94aad40000000p-4, 0x1.ba93000000000p-6}
, {-0x1.a8d2140000000p-5, 0x1.2433a40000000p-3, 0x1.3f30f00000000p-6, 0x1.b5cfa00000000p-5, -0x1.7854760000000p-4, -0x1.0bb2580000000p-3, -0x1.eebef40000000p-5, -0x1.b67bc00000000p-4, -0x1.000f420000000p-4, -0x1.8ea1060000000p-4, -0x1.29272e0000000p-3, 0x1.c172880000000p-4, 0x1.18be780000000p-4, -0x1.6ef91c0000000p-5, -0x1.e6a2d00000000p-5, 0x1.5a7ef40000000p-4, 0x1.fecdc00000000p-8, 0x1.cf09400000000p-5, 0x1.05cbd00000000p-3, 0x1.e1e0d80000000p-4, 0x1.1779400000000p-6, 0x1.52f4a00000000p-6, 0x1.b0f6800000000p-7, -0x1.1700000000000p-11, -0x1.c7bc540000000p-5, 0x1.c751700000000p-5, 0x1.edf4d00000000p-4, -0x1.2533260000000p-4, 0x1.db5c400000000p-7, -0x1.2d0ea00000000p-7, 0x1.4944400000000p-4, 0x1.7b43c80000000p-5, 0x1.4b75440000000p-4, 0x1.6e07580000000p-4, -0x1.11c3c40000000p-4, 0x1.0da8e00000000p-7, -0x1.b8ba200000000p-5, 0x1.253aa40000000p-4, -0x1.62e8e00000000p-6, 0x1.d85a000000000p-7, -0x1.b732c80000000p-4, -0x1.fddbe40000000p-4, 0x1.946b680000000p-5, 0x1.82fb200000000p-7, -0x1.1c31400000000p-5, 0x1.1226340000000p-3, -0x1.c008580000000p-5, -0x1.7d25540000000p-4, -0x1.cac4100000000p-4, -0x1.a97f9c0000000p-4, -0x1.193dae0000000p-3, -0x1.c3ae4c0000000p-5, -0x1.42a63e0000000p-3, -0x1.ebc33a0000000p-4, -0x1.c746120000000p-4, -0x1.93dc100000000p-4, 0x1.f3a6600000000p-4, -0x1.0a48080000000p-4, -0x1.c6a74e0000000p-4, 0x1.00d6fc0000000p-4, -0x1.a77d840000000p-4, 0x1.5e64900000000p-6, -0x1.2a63da0000000p-4, -0x1.3cd6300000000p-6, 0x1.0aa7c00000000p-4, 0x1.d5de380000000p-4, 0x1.c2fe800000000p-6, 0x1.0cfdc00000000p-5, 0x1.2848a40000000p-3, 0x1.3c8c740000000p-4, 0x1.0884e80000000p-4, 0x1.c767800000000p-7, -0x1.41fa2a0000000p-3, 0x1.121ed80000000p-3, -0x1.2fec680000000p-3, -0x1.2b1bd80000000p-5, 0x1.6f46200000000p-6, -0x1.0533800000000p-5, 0x1.eb0eb00000000p-4, -0x1.2eeab20000000p-3, 0x1.d6e9580000000p-5, -0x1.3692300000000p-3, 0x1.8a1af80000000p-4, -0x1.e369e00000000p-4, -0x1.1e8d000000000p-7, 0x1.988a400000000p-5, -0x1.0c85880000000p-4, -0x1.e7aea20000000p-4, -0x1.c851500000000p-6, 0x1.848b800000000p-7, -0x1.09273e0000000p-3, -0x1.d848d60000000p-4, -0x1.6fc9c00000000p-5, 0x1.c668800000000p-4, 0x1.1706280000000p-3, -0x1.3546580000000p-3, 0x1.b087f00000000p-4, 0x1.018ed80000000p-4, 0x1.1a76fc0000000p-4, 0x1.c415c00000000p-6, -0x1.49f8900000000p-5, -0x1.a6eec40000000p-4, 0x1.650f500000000p-5, -0x1.69e1d20000000p-4, -0x1.0c2ec80000000p-4, -0x1.311cd40000000p-5, -0x1.76dc000000000p-5, -0x1.16c16e0000000p-4, 0x1.ba79600000000p-7, 0x1.3d0c880000000p-3, -0x1.2e541a0000000p-3, -0x1.3aa1c80000000p-4, 0x1.d937600000000p-6, -0x1.a32e800000000p-7, 0x1.56a0480000000p-4, -0x1.ee47040000000p-5, -0x1.0e1f060000000p-4, 0x1.dc90680000000p-4, 0x1.6523c00000000p-7, 0x1.aeee700000000p-4, 0x1.ea74d00000000p-6, -0x1.7c18400000000p-6, -0x1.b775900000000p-6, -0x1.74d4240000000p-4, 0x1.5d52980000000p-5, -0x1.7629600000000p-5, 0x1.c438800000000p-5, 0x1.4437b00000000p-3, -0x1.4238920000000p-4, 0x1.5585d00000000p-6, 0x1.7d03400000000p-5, -0x1.72ac620000000p-4, -0x1.d80cac0000000p-4, 0x1.7878d00000000p-5, 0x1.1a10dc0000000p-3, -0x1.cff32c0000000p-4, -0x1.914b000000000p-10, 0x1.3379440000000p-4, -0x1.27ae560000000p-4, -0x1.29d59e0000000p-4, -0x1.8b80640000000p-5, 0x1.54cbdc0000000p-4, 0x1.2276080000000p-4, 0x1.fd4ef80000000p-4, -0x1.981da80000000p-4, -0x1.8bf6860000000p-4, 0x1.404a300000000p-5, 0x1.4255500000000p-5, -0x1.9e3b240000000p-4, -0x1.45143e0000000p-4, -0x1.f980ec0000000p-4, -0x1.1a45ca0000000p-4, -0x1.79bade0000000p-4, 0x1.3911e80000000p-5, -0x1.9d04e00000000p-7, 0x1.2327680000000p-4, 0x1.4e18c00000000p-6, 0x1.832fb80000000p-4, -0x1.0e831a0000000p-3, 0x1.91f4c00000000p-4, 0x1.18c9b00000000p-5, -0x1.ba64000000000p-5, 0x1.08d7e80000000p-3, -0x1.42588a0000000p-3, 0x1.3d09a80000000p-5, 0x1.9f58a00000000p-7, -0x1.2b50d80000000p-3, -0x1.480b340000000p-5, -0x1.bee5000000000p-4, 0x1.6b33e00000000p-6, -0x1.b2d43e0000000p-4, -0x1.3d657c0000000p-3, -0x1.2790080000000p-3, -0x1.b8e4ec0000000p-4, 0x1.44dc3c0000000p-3, 0x1.83da300000000p-4, -0x1.dbd0980000000p-5, -0x1.216b4c0000000p-3, -0x1.341cb40000000p-3, 0x1.a9a0400000000p-5, 0x1.eda2800000000p-9, 0x1.1ed0400000000p-7, 0x1.6eda1c0000000p-4, 0x1.f166c80000000p-5, -0x1.296f000000000p-9, -0x1.9997780000000p-4, 0x1.7f08080000000p-4, 0x1.3c3a800000000p-9, 0x1.be92300000000p-6, 0x1.06a1500000000p-6, 0x1.127d780000000p-4, -0x1.5b8b480000000p-4, 0x1.df0b500000000p-4, 0x1.49255c0000000p-4, -0x1.d656f00000000p-6, -0x1.afa6cc0000000p-4, -0x1.03fdc40000000p-3, -0x1.bd65040000000p-5, -0x1.09ff2c0000000p-4, 0x1.6eb1700000000p-4, 0x1.b896200000000p-6, -0x1.076fd00000000p-3, 0x1.b1e1e00000000p-6, -0x1.04d7980000000p-5, 0x1.a510c00000000p-4, -0x1.0c29800000000p-3, -0x1.bd446c0000000p-5, -0x1.cbde0e0000000p-4, -0x1.8379380000000p-4, 0x1.f20fb00000000p-4, 0x1.357a000000000p-3, 0x1.3b75ec0000000p-3, -0x1.0990ee0000000p-3, 0x1.9cf7180000000p-4, 0x1.3a6d3c0000000p-3, -0x1.2b493c0000000p-3, -0x1.a811ec0000000p-4, -0x1.de1aa00000000p-7, -0x1.2818900000000p-3, 0x1.0babec0000000p-4, 0x1.6ae7c00000000p-4, -0x1.5bba280000000p-4, -0x1.2311120000000p-4, 0x1.5112540000000p-4}
, {-0x1.3a23280000000p-5, 0x1.1015380000000p-4, 0x1.427e740000000p-3, -0x1.b6a8080000000p-5, 0x1.3b66300000000p-6, 0x1.16e5a80000000p-3, -0x1.9a82760000000p-4, 0x1.8da1400000000p-4, 0x1.0b2c940000000p-4, 0x1.d5f4400000000p-4, -0x1.deed000000000p-4, -0x1.0a40160000000p-3, -0x1.fe3b600000000p-4, 0x1.bd92180000000p-5, -0x1.7411260000000p-4, 0x1.7855d00000000p-4, 0x1.c4a7200000000p-4, 0x1.e84a100000000p-4, -0x1.46a8440000000p-3, 0x1.ced7b00000000p-5, 0x1.015c800000000p-3, -0x1.60a1480000000p-4, -0x1.7973e40000000p-5, 0x1.3496300000000p-3, 0x1.19aefc0000000p-3, -0x1.40c4e00000000p-4, 0x1.144d800000000p-3, 0x1.1526a80000000p-3, 0x1.0688c80000000p-4, -0x1.0168f80000000p-5, -0x1.157cb00000000p-4, 0x1.438e2c0000000p-3, -0x1.a2db000000000p-9, -0x1.a4687c0000000p-4, 0x1.c239580000000p-4, -0x1.9bdc000000000p-10, -0x1.a28a6c0000000p-4, 0x1.54b9680000000p-5, 0x1.fbb8000000000p-7, 0x1.1de0d80000000p-4, 0x1.14353c0000000p-4, 0x1.bfb3b00000000p-4, -0x1.34244a0000000p-3, 0x1.af54f80000000p-4, 0x1.6a89000000000p-7, -0x1.05a9d80000000p-3, 0x1.a7e3f80000000p-4, -0x1.6286200000000p-7, 0x1.c2a4780000000p-5, 0x1.0b10a00000000p-7, -0x1.97b6c40000000p-4, -0x1.2023600000000p-6, -0x1.947d8c0000000p-4, 0x1.16e2c00000000p-3, 0x1.95c9d80000000p-4, -0x1.d65d3e0000000p-4, -0x1.2d0e140000000p-5, 0x1.d54d280000000p-4, 0x1.7615e00000000p-7, 0x1.a809a00000000p-4, 0x1.9ddba80000000p-5, -0x1.3710a60000000p-3, -0x1.f735040000000p-5, -0x1.afb4860000000p-4, 0x1.13b1180000000p-3, 0x1.297af00000000p-5, -0x1.059f560000000p-3, 0x1.f578000000000p-7, -0x1.cb176c0000000p-5, -0x1.294a400000000p-3, -0x1.990c200000000p-4, 0x1.dd1b400000000p-5, 0x1.d7f0880000000p-5, -0x1.0064a00000000p-3, 0x1.96da000000000p-4, -0x1.a542a00000000p-5, -0x1.85e95c0000000p-4, -0x1.18de0a0000000p-3, -0x1.d17c300000000p-6, 0x1.8d27080000000p-4, -0x1.a3bf460000000p-4, -0x1.2e79c40000000p-4, 0x1.2732700000000p-4, 0x1.9e59e00000000p-6, 0x1.3828540000000p-3, -0x1.45d00c0000000p-3, -0x1.8f4b680000000p-4, 0x1.1470f40000000p-3, -0x1.192ec00000000p-6, -0x1.c781280000000p-5, 0x1.b5bc100000000p-6, -0x1.3b66b20000000p-3, 0x1.63bf340000000p-4, -0x1.e3638c0000000p-4, 0x1.7c20e00000000p-4, -0x1.dae6800000000p-5, 0x1.9e7d100000000p-6, 0x1.c897f00000000p-5, 0x1.2ba0400000000p-7, -0x1.5033140000000p-4, 0x1.a879880000000p-4, 0x1.36539c0000000p-3, -0x1.19f0520000000p-3, 0x1.b7f1900000000p-4, -0x1.30c9dc0000000p-3, -0x1.cf72ac0000000p-4, -0x1.0b2ad60000000p-3, 0x1.9659900000000p-4, 0x1.2b7c1c0000000p-4, 0x1.17f5e00000000p-7, -0x1.103cc00000000p-3, 0x1.9265800000000p-9, -0x1.2065720000000p-3, 0x1.dd2ab00000000p-6, 0x1.60e16c0000000p-4, 0x1.e858600000000p-5, 0x1.d2e2d00000000p-4, 0x1.a321500000000p-4, -0x1.2647d00000000p-6, 0x1.25bdd00000000p-3, -0x1.cfec000000000p-5, 0x1.1b18c00000000p-8, 0x1.8237200000000p-4, 0x1.0c1ff80000000p-4, 0x1.2c45700000000p-5, -0x1.2c061c0000000p-5, -0x1.3c8c920000000p-4, 0x1.435c000000000p-10, 0x1.95e4200000000p-7, -0x1.bc87b60000000p-4, -0x1.e25a6c0000000p-4, -0x1.5e1ff80000000p-5, 0x1.3b952c0000000p-4, 0x1.aef4880000000p-5, -0x1.1f509a0000000p-3, -0x1.277cbc0000000p-4, 0x1.0617e00000000p-7, 0x1.2948100000000p-4, 0x1.0a0e580000000p-3, 0x1.ef83a00000000p-7, 0x1.1b5bb00000000p-4, -0x1.d6ff600000000p-4, -0x1.0ceca80000000p-3, -0x1.4886960000000p-4, 0x1.0ff6040000000p-3, 0x1.f186680000000p-4, 0x1.820b900000000p-4, -0x1.47b3a20000000p-3, -0x1.e0b9b00000000p-5, -0x1.e382560000000p-4, -0x1.2f30300000000p-6, 0x1.102e500000000p-6, 0x1.9e76200000000p-4, -0x1.3a14fc0000000p-3, 0x1.4230480000000p-3, -0x1.a60caa0000000p-4, -0x1.b45c1c0000000p-5, 0x1.67e7e80000000p-5, -0x1.534cac0000000p-4, 0x1.131f8c0000000p-3, 0x1.83e8300000000p-5, -0x1.6302800000000p-6, 0x1.b457d00000000p-6, 0x1.1147bc0000000p-3, 0x1.524f000000000p-8, -0x1.d9242c0000000p-4, -0x1.1414420000000p-3, 0x1.6607280000000p-4, -0x1.1fac700000000p-3, -0x1.09f6160000000p-3, 0x1.c760680000000p-5, 0x1.a93ce00000000p-6, 0x1.5d3ed80000000p-5, 0x1.26ad4c0000000p-4, -0x1.00fcb80000000p-5, -0x1.2b44c00000000p-3, -0x1.84a1380000000p-4, -0x1.0ad3b00000000p-3, -0x1.09c3a00000000p-3, 0x1.7d1c000000000p-5, -0x1.f863380000000p-4, -0x1.a726100000000p-6, 0x1.214f7c0000000p-3, -0x1.bbb7100000000p-6, -0x1.19ecd00000000p-6, -0x1.d17ab00000000p-4, -0x1.0edef00000000p-3, -0x1.9cbe400000000p-8, 0x1.025f840000000p-3, -0x1.bf207c0000000p-5, -0x1.5392800000000p-6, 0x1.2aa62c0000000p-3, -0x1.22259c0000000p-5, 0x1.a6c0380000000p-5, 0x1.5864a40000000p-4, 0x1.53c02c0000000p-4, -0x1.6968b80000000p-4, 0x1.1f536c0000000p-4, 0x1.6bccf00000000p-6, -0x1.fece700000000p-6, -0x1.1d7f4a0000000p-3, 0x1.eed6c00000000p-4, -0x1.06ee9c0000000p-3, -0x1.a43e6c0000000p-5, 0x1.9ed2e00000000p-4, 0x1.2946b40000000p-3, -0x1.1171c20000000p-3, -0x1.4da1080000000p-4, 0x1.241a800000000p-3, -0x1.3eb8300000000p-6, 0x1.e10c100000000p-4, 0x1.bbeb180000000p-4, -0x1.f2a2e00000000p-4, 0x1.b4d6f00000000p-6, 0x1.4285c00000000p-5, 0x1.02b5e80000000p-3, 0x1.7b12a80000000p-4, -0x1.8237f60000000p-4, -0x1.e7d8a00000000p-4, 0x1.8616880000000p-4, -0x1.b737760000000p-4, -0x1.d465e00000000p-4, -0x1.e5a69c0000000p-5, 0x1.f5fca80000000p-4}
, {-0x1.89e1d00000000p-4, -0x1.cc194c0000000p-5, -0x1.8185dc0000000p-4, -0x1.1cde800000000p-7, 0x1.d40b900000000p-5, 0x1.3d4e5c0000000p-4, 0x1.1c13840000000p-3, -0x1.2fabda0000000p-3, -0x1.382cc00000000p-8, -0x1.243d5a0000000p-4, -0x1.2901ca0000000p-3, 0x1.1f1ec00000000p-3, -0x1.b281420000000p-4, 0x1.6925fc0000000p-4, 0x1.5812b00000000p-4, -0x1.b9b1400000000p-4, -0x1.798a780000000p-4, 0x1.6128600000000p-6, 0x1.0bda880000000p-3, 0x1.3c05700000000p-3, 0x1.dbcfd00000000p-4, 0x1.032efc0000000p-4, -0x1.06cb080000000p-5, 0x1.78e5a00000000p-4, -0x1.8eb2540000000p-5, 0x1.cf03a80000000p-4, -0x1.d9f8700000000p-6, 0x1.7784900000000p-4, 0x1.262ac00000000p-3, -0x1.8c44be0000000p-4, 0x1.2e69f40000000p-3, 0x1.4a82200000000p-6, 0x1.1439f00000000p-3, 0x1.47daf00000000p-5, 0x1.0a02580000000p-3, 0x1.736e400000000p-5, -0x1.c902300000000p-4, 0x1.11aac00000000p-8, -0x1.3d8f040000000p-3, -0x1.cd1fc00000000p-7, -0x1.0cba4c0000000p-3, -0x1.1c160a0000000p-4, 0x1.274e980000000p-3, 0x1.faa5280000000p-4, 0x1.0dffd00000000p-3, 0x1.0537800000000p-8, 0x1.c08e380000000p-5, -0x1.a8ec560000000p-4, -0x1.d560280000000p-4, -0x1.24d80e0000000p-3, -0x1.410bfa0000000p-3, 0x1.357fc80000000p-3, 0x1.d18d580000000p-4, -0x1.2b3d500000000p-5, 0x1.0256e00000000p-7, 0x1.f484100000000p-4, -0x1.8d37e60000000p-4, -0x1.765df00000000p-4, 0x1.cf85400000000p-8, -0x1.c4f2140000000p-4, 0x1.a7e4000000000p-10, 0x1.a9b8780000000p-4, 0x1.4c65a00000000p-4, -0x1.9f19e00000000p-7, -0x1.38b5080000000p-5, 0x1.6055280000000p-5, -0x1.21a33c0000000p-3, 0x1.405ce00000000p-7, -0x1.3a48440000000p-3, 0x1.d456980000000p-5, -0x1.8ce2700000000p-5, -0x1.6ec12e0000000p-4, -0x1.1732340000000p-3, 0x1.392da40000000p-3, 0x1.8b4f600000000p-4, 0x1.f925100000000p-6, 0x1.de87b80000000p-4, 0x1.2febe80000000p-3, 0x1.16bb1c0000000p-3, 0x1.ab87180000000p-4, 0x1.2416180000000p-5, 0x1.9aba000000000p-5, -0x1.814e240000000p-5, -0x1.0dbac00000000p-6, -0x1.6988c00000000p-8, -0x1.26d8900000000p-6, 0x1.3f245c0000000p-3, -0x1.924b8a0000000p-4, 0x1.540e500000000p-4, -0x1.e7e38c0000000p-5, -0x1.5adbe00000000p-6, 0x1.12f3f80000000p-4, 0x1.a5d0f00000000p-4, -0x1.2217080000000p-4, -0x1.b19f500000000p-5, 0x1.13de040000000p-3, -0x1.042ba00000000p-4, -0x1.97163c0000000p-4, -0x1.1292fe0000000p-3, 0x1.0e87380000000p-4, -0x1.a4bd980000000p-4, 0x1.07bee80000000p-4, 0x1.845ee00000000p-7, 0x1.e83a900000000p-6, 0x1.2d40080000000p-4, -0x1.b0c1800000000p-4, -0x1.cacd980000000p-4, 0x1.2906a80000000p-3, 0x1.2994400000000p-5, 0x1.3852c80000000p-4, 0x1.bf0be00000000p-7, 0x1.4cb9a00000000p-6, -0x1.759c600000000p-5, -0x1.57ecb00000000p-6, -0x1.c354380000000p-5, 0x1.3d4ebc0000000p-4, 0x1.1bd8000000000p-11, 0x1.c626780000000p-4, -0x1.626fe40000000p-4, 0x1.6388200000000p-4, 0x1.e92c100000000p-5, -0x1.8a51d40000000p-5, 0x1.7422300000000p-4, -0x1.3c1d480000000p-4, 0x1.8d60f00000000p-5, -0x1.62d7700000000p-6, -0x1.93c1f00000000p-6, -0x1.23ae500000000p-5, -0x1.1cf51a0000000p-3, 0x1.17fc000000000p-9, 0x1.1f7c400000000p-5, 0x1.7af6200000000p-6, -0x1.6e961a0000000p-4, 0x1.16832c0000000p-3, -0x1.02f4280000000p-3, 0x1.bfacd00000000p-6, 0x1.116db40000000p-4, 0x1.7328880000000p-5, -0x1.493f4c0000000p-5, -0x1.3307600000000p-6, 0x1.e481a00000000p-7, -0x1.a16a000000000p-10, 0x1.f651f00000000p-5, -0x1.a9b22c0000000p-5, 0x1.15197c0000000p-3, -0x1.3a997e0000000p-4, -0x1.0fbd480000000p-5, -0x1.2b3fe00000000p-5, 0x1.0ae5e00000000p-4, 0x1.3bf9a80000000p-3, 0x1.4259000000000p-4, -0x1.f2db300000000p-6, 0x1.1dba100000000p-4, 0x1.0caac40000000p-3, 0x1.1b79540000000p-3, -0x1.06d6720000000p-3, -0x1.4b181c0000000p-4, 0x1.2916e80000000p-3, -0x1.134f200000000p-6, 0x1.bfec980000000p-4, 0x1.1718600000000p-5, -0x1.cb8e000000000p-6, -0x1.d850d80000000p-5, -0x1.0196c60000000p-4, -0x1.d1afc40000000p-4, 0x1.0e3e0c0000000p-3, -0x1.2164200000000p-3, 0x1.4853c00000000p-4, 0x1.5181a00000000p-7, -0x1.97d4460000000p-4, 0x1.ba78880000000p-4, 0x1.5a91cc0000000p-4, -0x1.4de82c0000000p-5, 0x1.3744600000000p-3, -0x1.921a8a0000000p-4, -0x1.3751c00000000p-7, 0x1.0ba5500000000p-5, 0x1.f021000000000p-4, 0x1.558cc80000000p-5, 0x1.485b200000000p-6, -0x1.84a0e60000000p-4, 0x1.7d13c00000000p-5, 0x1.9794780000000p-4, -0x1.80f7080000000p-4, -0x1.2aaea20000000p-3, -0x1.3fff500000000p-6, 0x1.5b7bd00000000p-6, 0x1.8942180000000p-5, -0x1.b185000000000p-7, -0x1.07d3a60000000p-4, 0x1.b387a00000000p-5, 0x1.3aa4300000000p-3, 0x1.89a3980000000p-4, -0x1.1652e00000000p-5, -0x1.0c5e620000000p-4, -0x1.0e306a0000000p-3, -0x1.26780c0000000p-3, 0x1.f1bc000000000p-7, 0x1.23bf780000000p-3, -0x1.e927400000000p-5, -0x1.11c4060000000p-3, -0x1.7c21c20000000p-4, -0x1.00959c0000000p-3, -0x1.c4bf280000000p-5, -0x1.9a45880000000p-4, -0x1.5a8b840000000p-4, -0x1.f88b400000000p-4, -0x1.b31db40000000p-5, 0x1.c146700000000p-5, 0x1.da14f00000000p-4, -0x1.efd7800000000p-4, -0x1.08692c0000000p-4, 0x1.e739a80000000p-4, -0x1.b435300000000p-6, -0x1.0fb9e80000000p-4, 0x1.2730080000000p-3, -0x1.12a6e80000000p-3, -0x1.e76cd00000000p-5, -0x1.fbaa720000000p-4, 0x1.aeba900000000p-5, 0x1.3728c40000000p-3, -0x1.4382000000000p-3, 0x1.412de80000000p-3, -0x1.1762ae0000000p-3}
, {-0x1.6c00c60000000p-4, -0x1.2a6f2e0000000p-3, -0x1.d156bc0000000p-4, 0x1.8f4bb00000000p-4, -0x1.2f5d460000000p-4, 0x1.56dc140000000p-4, 0x1.68d6e00000000p-6, -0x1.2213c00000000p-8, 0x1.66a9a00000000p-6, -0x1.9e2cd00000000p-4, 0x1.1a5f4c0000000p-4, 0x1.46dea00000000p-3, 0x1.42faa80000000p-5, 0x1.cf0eb00000000p-6, 0x1.6e15400000000p-5, 0x1.71e4000000000p-8, 0x1.06a3b40000000p-3, -0x1.9910720000000p-4, -0x1.8aa4000000000p-7, -0x1.472c020000000p-3, 0x1.3a32100000000p-5, 0x1.17b91c0000000p-3, 0x1.ccc7200000000p-4, -0x1.c3e74c0000000p-4, -0x1.0d391e0000000p-4, 0x1.761fd80000000p-5, -0x1.9138400000000p-6, -0x1.4b99f00000000p-5, 0x1.43b1280000000p-4, -0x1.9345180000000p-4, -0x1.2170800000000p-4, 0x1.f6fb300000000p-6, 0x1.35a9ec0000000p-4, -0x1.ab5ee00000000p-4, 0x1.4b37300000000p-6, 0x1.9a60e00000000p-7, 0x1.dfdaa00000000p-4, 0x1.b832980000000p-5, -0x1.1a89680000000p-4, -0x1.304ce20000000p-3, -0x1.c9b8040000000p-4, -0x1.e2b6600000000p-4, -0x1.3f84340000000p-3, -0x1.3c2ad00000000p-4, 0x1.6e7f900000000p-6, -0x1.f061dc0000000p-4, 0x1.1c8a780000000p-3, -0x1.2cda180000000p-3, -0x1.f6c50c0000000p-4, 0x1.3fa9bc0000000p-4, 0x1.e0be600000000p-7, -0x1.3280cc0000000p-3, -0x1.35c56c0000000p-4, -0x1.d4c9280000000p-4, 0x1.eff4f80000000p-5, 0x1.36fd700000000p-4, 0x1.3916200000000p-3, -0x1.2a55420000000p-3, 0x1.44ae280000000p-3, -0x1.0ce8220000000p-4, -0x1.a93c000000000p-4, 0x1.8033d80000000p-5, 0x1.8678000000000p-6, -0x1.7563b20000000p-4, -0x1.0063720000000p-3, 0x1.2224680000000p-5, -0x1.c9172c0000000p-5, 0x1.06d81c0000000p-3, 0x1.145f180000000p-5, -0x1.1b51ba0000000p-3, -0x1.17ca380000000p-3, 0x1.e249000000000p-4, -0x1.41aa3e0000000p-3, 0x1.cecec00000000p-4, -0x1.8f0e640000000p-5, 0x1.aac2000000000p-11, 0x1.c138780000000p-4, -0x1.6bab100000000p-4, 0x1.e4a9a80000000p-4, 0x1.c27ea00000000p-5, -0x1.475af20000000p-3, 0x1.e5f0780000000p-4, -0x1.90cf640000000p-4, 0x1.112c240000000p-3, -0x1.5029fe0000000p-4, 0x1.4540ec0000000p-3, -0x1.0e6ad20000000p-3, -0x1.7e2b560000000p-4, 0x1.93e1f80000000p-4, 0x1.40e7dc0000000p-4, -0x1.490bbc0000000p-4, 0x1.a7ff580000000p-4, 0x1.5defb00000000p-6, -0x1.8218040000000p-4, 0x1.fa50880000000p-5, -0x1.3b529a0000000p-4, -0x1.6890e80000000p-5, 0x1.9e20800000000p-6, -0x1.923b800000000p-6, 0x1.38370c0000000p-3, -0x1.35fb000000000p-8, 0x1.d706e80000000p-4, -0x1.32924a0000000p-3, 0x1.0a1ac00000000p-3, 0x1.db33e00000000p-4, -0x1.4163000000000p-3, -0x1.483eb00000000p-5, 0x1.9b59800000000p-9, -0x1.0e672e0000000p-3, -0x1.18c1480000000p-5, -0x1.34fc2a0000000p-3, 0x1.0cc92c0000000p-3, 0x1.c945200000000p-5, -0x1.cfb5b80000000p-5, 0x1.1c3dc00000000p-6, -0x1.600de20000000p-4, -0x1.508d1c0000000p-4, 0x1.24b8100000000p-3, 0x1.a62fa00000000p-5, 0x1.1d84d00000000p-3, -0x1.9726e40000000p-4, -0x1.4179400000000p-6, -0x1.c230440000000p-4, -0x1.3761780000000p-5, -0x1.9876a40000000p-4, 0x1.1cf4e80000000p-3, 0x1.4292a80000000p-5, 0x1.1bbf800000000p-9, -0x1.3619020000000p-3, 0x1.a7c1f00000000p-4, -0x1.41d0f40000000p-3, -0x1.ad0bc00000000p-8, 0x1.4958440000000p-4, -0x1.fd58000000000p-6, 0x1.16d0580000000p-3, 0x1.fa4f100000000p-4, -0x1.878d940000000p-5, -0x1.45baac0000000p-3, 0x1.5f10a40000000p-4, -0x1.0e09c40000000p-3, -0x1.187fa00000000p-5, 0x1.986f400000000p-4, -0x1.4045400000000p-4, -0x1.4c09c80000000p-4, 0x1.d6d5000000000p-9, -0x1.4dda500000000p-5, 0x1.e6b3d80000000p-4, -0x1.69ff480000000p-5, 0x1.120bdc0000000p-3, 0x1.14d7140000000p-3, 0x1.8b0c400000000p-4, 0x1.1e8fe80000000p-3, -0x1.353ef00000000p-3, -0x1.c9f2400000000p-8, 0x1.2494fc0000000p-3, 0x1.0b92480000000p-3, 0x1.6199b00000000p-4, -0x1.11a6000000000p-9, 0x1.cac1400000000p-8, 0x1.1d2d100000000p-5, -0x1.0946ce0000000p-3, -0x1.8d6d400000000p-6, -0x1.4d2ff00000000p-5, 0x1.07b2cc0000000p-3, 0x1.2d4e500000000p-3, -0x1.33e3660000000p-4, 0x1.2f16f00000000p-4, 0x1.2139600000000p-3, -0x1.bcc85c0000000p-4, 0x1.bee8d00000000p-6, 0x1.20b0a80000000p-5, -0x1.b975d00000000p-6, 0x1.3fd75c0000000p-4, 0x1.df9ba00000000p-5, 0x1.2fa5880000000p-3, -0x1.bd53840000000p-4, 0x1.b7fee80000000p-4, -0x1.1353c80000000p-5, -0x1.f47e380000000p-4, 0x1.0641600000000p-4, -0x1.2b71160000000p-3, -0x1.3f829e0000000p-3, 0x1.071a700000000p-3, 0x1.407c100000000p-3, -0x1.880d000000000p-8, -0x1.0e13f80000000p-4, 0x1.c51ac00000000p-4, 0x1.8bdb580000000p-5, -0x1.8c89a40000000p-4, -0x1.70da7c0000000p-4, 0x1.043a400000000p-6, -0x1.13f3da0000000p-4, -0x1.3368940000000p-4, 0x1.fd6bf00000000p-4, 0x1.124ed00000000p-3, -0x1.3565d00000000p-6, -0x1.1af9da0000000p-3, -0x1.102a9a0000000p-3, 0x1.e83b280000000p-4, 0x1.61cbb00000000p-4, -0x1.210bf00000000p-4, -0x1.401cdc0000000p-4, 0x1.1c53580000000p-3, 0x1.400f680000000p-4, -0x1.a2ebe80000000p-4, -0x1.3841320000000p-3, 0x1.52a1180000000p-4, -0x1.dcf2300000000p-5, -0x1.24b2f80000000p-3, -0x1.d1a6f00000000p-6, 0x1.05b7040000000p-3, 0x1.fc71c00000000p-6, -0x1.743cbc0000000p-5, 0x1.92c3780000000p-5, -0x1.e6ae900000000p-6, -0x1.87093c0000000p-4, 0x1.7674b00000000p-6, -0x1.5d06100000000p-5, -0x1.82e8b40000000p-5, 0x1.1e73e00000000p-5, -0x1.75e2520000000p-4, -0x1.3cc8660000000p-3, -0x1.272ca20000000p-3, 0x1.1ab0780000000p-5}
, {-0x1.1437c00000000p-4, 0x1.9c2fd00000000p-4, 0x1.61f9800000000p-7, 0x1.0428a80000000p-5, 0x1.676b900000000p-6, 0x1.80edd00000000p-5, -0x1.b2578c0000000p-4, -0x1.9696000000000p-6, -0x1.3bf0160000000p-4, -0x1.0ec0d40000000p-4, -0x1.e3aa400000000p-4, 0x1.5f2e780000000p-4, -0x1.8508940000000p-4, 0x1.3f77b40000000p-3, -0x1.d25a240000000p-4, -0x1.c6a66c0000000p-5, -0x1.d9be800000000p-7, -0x1.33b8680000000p-5, 0x1.81a5e00000000p-4, -0x1.8232c20000000p-4, -0x1.567fba0000000p-4, -0x1.c3da000000000p-7, -0x1.4171600000000p-3, -0x1.2be9aa0000000p-3, 0x1.9052a80000000p-4, 0x1.37e7580000000p-5, 0x1.99a4c00000000p-6, 0x1.f292d00000000p-6, 0x1.01699c0000000p-3, 0x1.fc2f300000000p-4, -0x1.0133bc0000000p-3, -0x1.9796060000000p-4, 0x1.a698180000000p-5, 0x1.42e1bc0000000p-3, -0x1.7b7d440000000p-4, 0x1.c864e00000000p-7, -0x1.9d52000000000p-4, 0x1.7651200000000p-7, -0x1.2e74200000000p-3, -0x1.18b8600000000p-3, -0x1.97587e0000000p-4, -0x1.06350a0000000p-4, -0x1.435b400000000p-8, -0x1.23bc640000000p-3, -0x1.6a5b660000000p-4, -0x1.58bad00000000p-6, 0x1.f90d800000000p-4, 0x1.0f64e80000000p-3, 0x1.43ec400000000p-7, -0x1.7af9f60000000p-4, 0x1.dda6f00000000p-4, 0x1.fb40000000000p-15, 0x1.ae68180000000p-5, -0x1.990f200000000p-4, -0x1.412a040000000p-3, 0x1.66dc3c0000000p-4, -0x1.1dd4ae0000000p-4, 0x1.008a780000000p-5, 0x1.67aba00000000p-6, 0x1.75a4280000000p-5, -0x1.3d2ddc0000000p-3, -0x1.5ee3200000000p-4, 0x1.06f16c0000000p-4, -0x1.138eda0000000p-4, 0x1.dc73b00000000p-6, 0x1.41e4580000000p-5, -0x1.1172580000000p-3, 0x1.118e280000000p-4, -0x1.0763200000000p-7, -0x1.11ae800000000p-8, 0x1.4fd6a40000000p-4, 0x1.f26e700000000p-5, -0x1.74c9360000000p-4, -0x1.cb8b260000000p-4, 0x1.ed1c600000000p-5, -0x1.8187fc0000000p-4, -0x1.dfa5960000000p-4, -0x1.e2507c0000000p-5, 0x1.0e9ba40000000p-4, 0x1.e8e0800000000p-6, 0x1.ee23980000000p-4, 0x1.5668c00000000p-8, -0x1.7f6eea0000000p-4, 0x1.c158500000000p-4, -0x1.822fec0000000p-5, 0x1.9235a80000000p-4, 0x1.4179880000000p-5, -0x1.695b640000000p-5, 0x1.0e026c0000000p-3, -0x1.bdf69c0000000p-4, -0x1.dba7000000000p-10, 0x1.92f8b80000000p-4, -0x1.950c440000000p-5, 0x1.00ba700000000p-5, -0x1.38e2380000000p-3, -0x1.711e420000000p-4, 0x1.db48e80000000p-5, -0x1.d50c880000000p-4, 0x1.c39f500000000p-5, -0x1.38e07a0000000p-3, -0x1.4575000000000p-4, 0x1.83b1300000000p-4, 0x1.9c40380000000p-5, 0x1.2f271c0000000p-3, -0x1.2f45c60000000p-4, -0x1.bc07b00000000p-5, -0x1.89e7940000000p-4, -0x1.2beb900000000p-3, -0x1.ae36100000000p-5, -0x1.efc1ec0000000p-4, 0x1.2afbe80000000p-3, 0x1.184d1c0000000p-4, -0x1.1a97da0000000p-3, -0x1.3532900000000p-6, -0x1.98eb4c0000000p-5, -0x1.46a3cc0000000p-4, -0x1.26f9e00000000p-4, -0x1.0f0fbc0000000p-4, -0x1.02d2100000000p-5, 0x1.6745980000000p-5, 0x1.2fe0000000000p-3, 0x1.d404700000000p-5, 0x1.11e7480000000p-4, -0x1.6df5240000000p-5, -0x1.286c880000000p-3, -0x1.5d73ac0000000p-5, -0x1.20dbbe0000000p-4, 0x1.3f68140000000p-3, -0x1.687d220000000p-4, -0x1.00299a0000000p-3, 0x1.c023180000000p-5, -0x1.de61400000000p-8, -0x1.52deb40000000p-5, 0x1.bc44580000000p-4, -0x1.b7ddd60000000p-4, -0x1.b82e440000000p-5, -0x1.4680040000000p-5, -0x1.c49f700000000p-6, -0x1.e8275e0000000p-4, 0x1.eb41800000000p-7, -0x1.a48d700000000p-4, 0x1.a220b00000000p-4, 0x1.7f93e80000000p-4, 0x1.b690a00000000p-7, 0x1.40dd6c0000000p-4, -0x1.5e28e00000000p-6, 0x1.aad4b80000000p-5, 0x1.4472900000000p-5, 0x1.144de80000000p-3, 0x1.5e7d400000000p-4, 0x1.e0d2580000000p-4, -0x1.7dc9940000000p-4, -0x1.dd88980000000p-4, -0x1.6c0a000000000p-7, -0x1.6d56680000000p-4, 0x1.30b0580000000p-5, -0x1.cd42000000000p-10, 0x1.538d5c0000000p-4, -0x1.2ccc060000000p-3, -0x1.7f55f80000000p-5, -0x1.f572bc0000000p-5, 0x1.e01d500000000p-4, -0x1.0f51e80000000p-5, 0x1.ed26000000000p-7, -0x1.da19a60000000p-4, 0x1.4075e00000000p-7, -0x1.2c86440000000p-3, -0x1.22aa640000000p-3, -0x1.997dd00000000p-5, 0x1.a1c1280000000p-4, 0x1.4bc5f80000000p-5, -0x1.b5c50c0000000p-4, -0x1.eb291c0000000p-4, -0x1.1011940000000p-3, -0x1.5c4f000000000p-4, -0x1.0f90740000000p-3, -0x1.06566c0000000p-4, 0x1.0f8d700000000p-4, 0x1.12d1800000000p-5, 0x1.cdc4800000000p-6, 0x1.79afa00000000p-5, 0x1.7de3880000000p-5, -0x1.0b1c800000000p-7, -0x1.2f37660000000p-3, 0x1.9f8ae80000000p-5, -0x1.342bfa0000000p-4, -0x1.29dc6c0000000p-4, -0x1.17e5e00000000p-7, 0x1.a78cf00000000p-5, 0x1.048c680000000p-5, -0x1.1aecc80000000p-3, -0x1.8ad5400000000p-4, 0x1.0aa6b80000000p-5, -0x1.79d5000000000p-8, -0x1.5559d00000000p-4, 0x1.8eac680000000p-4, -0x1.0e10ee0000000p-3, -0x1.3cc3c60000000p-4, 0x1.4460100000000p-5, -0x1.d704040000000p-4, -0x1.00aede0000000p-4, 0x1.57b0d00000000p-6, 0x1.3e2cb00000000p-6, 0x1.4c09280000000p-5, -0x1.5f35500000000p-4, -0x1.78c3800000000p-5, -0x1.47cc140000000p-4, 0x1.cf4bf80000000p-4, 0x1.8d8d180000000p-4, -0x1.f601900000000p-4, 0x1.2204400000000p-4, -0x1.8e0a100000000p-4, 0x1.0faa100000000p-5, -0x1.2a65400000000p-4, 0x1.9418780000000p-5, -0x1.7814c00000000p-8, -0x1.1716b00000000p-5, -0x1.6e1c500000000p-6, -0x1.616c720000000p-4, -0x1.068ca60000000p-3, -0x1.3975c80000000p-3, -0x1.18f28a0000000p-3, 0x1.119f600000000p-3, 0x1.f178a00000000p-5}
}
;

#undef INPUT_SAMPLES
#undef FC_UNITS