/**
  ******************************************************************************
  * @file    weights/fc.cc
  * @author  Pierre-Emmanuel Novac <penovac@unice.fr>, LEAT, CNRS, Université Côte d'Azur, France
  * @version 1.0.0
  * @date    24 march 2020
  * @brief   Template generating plain C code for the implementation of Convolutional Neural Networks on MCU
  */

#include <stdint.h>

#define INPUT_SAMPLES 448
#define FC_UNITS 10


const float dense_2_bias[FC_UNITS] = {0x0.0p+0, 0x0.0p+0, 0x0.0p+0, 0x0.0p+0, 0x0.0p+0, 0x0.0p+0, 0x0.0p+0, 0x0.0p+0, 0x0.0p+0, 0x0.0p+0}
;

const float dense_2_kernel[FC_UNITS][INPUT_SAMPLES] = {{-0x1.83ed500000000p-5, 0x1.1743c00000000p-9, -0x1.9f3ea00000000p-6, 0x1.65c5640000000p-5, 0x1.e82f080000000p-6, 0x1.567bea0000000p-4, 0x1.b0f2ec0000000p-5, -0x1.cb12360000000p-4, 0x1.e2a06c0000000p-5, 0x1.40545e0000000p-4, -0x1.b10cec0000000p-4, -0x1.f321a80000000p-5, -0x1.b3d0000000000p-6, 0x1.0313cc0000000p-5, 0x1.49abe00000000p-7, 0x1.7e05b20000000p-4, 0x1.38e13c0000000p-5, 0x1.299a780000000p-6, -0x1.c59ca20000000p-4, 0x1.e410ec0000000p-5, 0x1.7ab79a0000000p-4, -0x1.296f780000000p-4, -0x1.b5cd3c0000000p-4, 0x1.43f3de0000000p-4, -0x1.09a3000000000p-6, -0x1.5060080000000p-4, -0x1.4e4bec0000000p-4, 0x1.ecefbc0000000p-5, -0x1.35431e0000000p-4, 0x1.4d221a0000000p-4, 0x1.a338fe0000000p-4, 0x1.9815680000000p-6, 0x1.9748020000000p-4, 0x1.d08a160000000p-4, 0x1.a9f97c0000000p-5, 0x1.c72c1e0000000p-4, 0x1.c673540000000p-5, -0x1.de4f100000000p-6, 0x1.73983e0000000p-4, -0x1.6a2c600000000p-4, 0x1.597e940000000p-5, -0x1.65d7500000000p-5, -0x1.551a700000000p-4, -0x1.8785a00000000p-4, -0x1.1136620000000p-4, 0x1.1c112e0000000p-4, -0x1.8ab55e0000000p-4, 0x1.bb3d1e0000000p-4, -0x1.4769000000000p-8, -0x1.ed2c680000000p-5, -0x1.52743a0000000p-4, -0x1.cb917e0000000p-4, -0x1.9840fc0000000p-5, 0x1.87c1bc0000000p-5, 0x1.57aa980000000p-6, 0x1.02f0040000000p-5, -0x1.ed41000000000p-10, 0x1.3b7bda0000000p-4, 0x1.1bc56c0000000p-5, -0x1.e4b7380000000p-5, 0x1.8bb78e0000000p-4, -0x1.2b3ba00000000p-7, -0x1.9bb9f80000000p-5, 0x1.41906c0000000p-5, 0x1.005b420000000p-4, 0x1.06ea2e0000000p-4, 0x1.85e90a0000000p-4, 0x1.20dccc0000000p-5, 0x1.0487aa0000000p-4, 0x1.32a8f20000000p-4, 0x1.10e9f40000000p-5, 0x1.1013080000000p-6, -0x1.0b38740000000p-5, 0x1.45b9aa0000000p-4, 0x1.43d8ca0000000p-4, 0x1.263a3c0000000p-5, 0x1.d736500000000p-7, 0x1.ea906c0000000p-5, -0x1.e304000000000p-13, 0x1.8d65ea0000000p-4, 0x1.29e5e00000000p-8, 0x1.ea81180000000p-6, -0x1.8b823e0000000p-4, -0x1.8ba3ec0000000p-5, -0x1.754e000000000p-7, -0x1.8de8480000000p-4, 0x1.049ff60000000p-4, -0x1.ec47800000000p-6, -0x1.f59db20000000p-5, 0x1.cd8fae0000000p-4, -0x1.bc79ca0000000p-4, -0x1.53e8400000000p-7, -0x1.76b13c0000000p-4, -0x1.2dd5640000000p-5, 0x1.e20c4c0000000p-5, 0x1.fffeec0000000p-5, -0x1.b61ec80000000p-5, 0x1.5484860000000p-4, 0x1.6437700000000p-7, 0x1.4f46000000000p-11, 0x1.4911ea0000000p-4, 0x1.44d7000000000p-9, 0x1.01d4780000000p-6, -0x1.2608800000000p-6, 0x1.ef5e300000000p-7, 0x1.2ca31c0000000p-5, -0x1.7e5e080000000p-4, -0x1.8999320000000p-4, -0x1.8ae1000000000p-6, 0x1.e087600000000p-8, -0x1.15dc6c0000000p-4, 0x1.3377c60000000p-4, -0x1.586a140000000p-4, 0x1.2a10a80000000p-6, -0x1.9d23300000000p-6, 0x1.b9af0e0000000p-4, 0x1.31eade0000000p-4, -0x1.9cf8b60000000p-4, -0x1.2840fc0000000p-4, -0x1.d1a7820000000p-5, -0x1.21e9f40000000p-5, -0x1.185cd60000000p-4, 0x1.7105660000000p-4, 0x1.190a460000000p-4, 0x1.75befe0000000p-4, -0x1.3bc7ca0000000p-4, -0x1.c0cfc00000000p-7, 0x1.5d12880000000p-6, 0x1.c188c40000000p-5, -0x1.7f25300000000p-4, 0x1.bf6b340000000p-5, -0x1.5a01440000000p-4, -0x1.2d35dc0000000p-4, -0x1.0091d40000000p-4, 0x1.8dc85e0000000p-4, 0x1.f79aa40000000p-5, -0x1.b532c60000000p-4, 0x1.b63c040000000p-5, 0x1.fe1d140000000p-5, -0x1.7eba480000000p-6, 0x1.0858260000000p-4, -0x1.8d10200000000p-5, 0x1.1f27260000000p-4, -0x1.6991760000000p-4, 0x1.4148ac0000000p-5, -0x1.0878f00000000p-6, -0x1.0fb8700000000p-4, -0x1.e4d6400000000p-6, -0x1.47fbc00000000p-4, -0x1.173fe00000000p-5, 0x1.93dc9c0000000p-5, 0x1.5a99520000000p-4, 0x1.bf2d840000000p-5, 0x1.49eb0a0000000p-4, -0x1.6029640000000p-4, 0x1.84a3040000000p-5, -0x1.b363e00000000p-4, 0x1.0bfe8e0000000p-4, -0x1.092efc0000000p-4, 0x1.681f200000000p-8, 0x1.3483a20000000p-4, -0x1.7e56740000000p-4, -0x1.632d520000000p-4, -0x1.ed7da00000000p-8, -0x1.dcbb040000000p-5, -0x1.ba505c0000000p-4, 0x1.fa19500000000p-7, -0x1.f1e4a00000000p-7, 0x1.cb91160000000p-4, -0x1.b503c20000000p-4, 0x1.1a7c0e0000000p-4, 0x1.80212a0000000p-4, 0x1.511a920000000p-4, -0x1.7abb0a0000000p-4, -0x1.3b4c9c0000000p-4, 0x1.57173a0000000p-4, -0x1.8371600000000p-8, -0x1.643b440000000p-5, -0x1.d150940000000p-5, 0x1.6340d40000000p-5, -0x1.6674680000000p-5, 0x1.ecaac40000000p-5, -0x1.052d740000000p-4, -0x1.2c31ac0000000p-5, 0x1.2374c80000000p-6, 0x1.879c100000000p-7, -0x1.28e0a80000000p-4, 0x1.479f620000000p-4, 0x1.6f42480000000p-6, -0x1.0511780000000p-4, 0x1.4151b60000000p-4, -0x1.8a07880000000p-4, -0x1.af64000000000p-12, -0x1.b0ae4c0000000p-4, 0x1.5473720000000p-4, -0x1.219b480000000p-6, -0x1.0171040000000p-4, -0x1.8923a80000000p-5, -0x1.9615800000000p-4, -0x1.9738e80000000p-4, 0x1.ff63f80000000p-6, 0x1.65dcba0000000p-4, 0x1.6c523a0000000p-4, 0x1.a741340000000p-5, 0x1.af0d800000000p-9, -0x1.7780be0000000p-4, -0x1.630e220000000p-4, -0x1.476d400000000p-4, -0x1.acfb480000000p-4, 0x1.04df060000000p-4, 0x1.756e620000000p-4, -0x1.d72de80000000p-6, -0x1.bbf3800000000p-4, 0x1.dbd4ac0000000p-5, -0x1.0b64440000000p-4, -0x1.d32da40000000p-5, 0x1.5a98520000000p-4, -0x1.5849180000000p-4, -0x1.27ea9a0000000p-4, 0x1.1591420000000p-4, 0x1.1ca5c40000000p-5, 0x1.0ea4ec0000000p-5, 0x1.4e56fc0000000p-5, 0x1.eb9f2c0000000p-5, 0x1.a5159c0000000p-5, -0x1.8a855a0000000p-4, -0x1.7718720000000p-4, -0x1.6ec3200000000p-6, 0x1.0a2c640000000p-5, 0x1.05f6bc0000000p-5, 0x1.30cc3c0000000p-5, 0x1.92fd760000000p-4, -0x1.765c040000000p-4, 0x1.4626a80000000p-6, 0x1.b7ab160000000p-4, -0x1.b87e9c0000000p-5, -0x1.9be0760000000p-4, 0x1.c567720000000p-4, -0x1.bb61320000000p-4, -0x1.238b940000000p-4, 0x1.0e627c0000000p-5, 0x1.ac1ea00000000p-8, 0x1.b759500000000p-7, 0x1.1b88440000000p-5, -0x1.6f51700000000p-4, 0x1.b37fba0000000p-4, -0x1.45248c0000000p-4, -0x1.5e2c700000000p-5, 0x1.5dc6200000000p-8, -0x1.f69c400000000p-6, -0x1.65b1400000000p-6, 0x1.1023f20000000p-4, 0x1.f745fc0000000p-5, 0x1.75534e0000000p-4, -0x1.ef13e00000000p-5, 0x1.86ba640000000p-5, 0x1.c1d1700000000p-7, 0x1.0c15300000000p-7, 0x1.2c181e0000000p-4, -0x1.1127780000000p-5, -0x1.7bb14c0000000p-4, 0x1.5ebb8e0000000p-4, 0x1.0afa040000000p-5, 0x1.78855e0000000p-4, 0x1.ced6780000000p-6, -0x1.08960c0000000p-4, -0x1.1b50f80000000p-5, 0x1.50367a0000000p-4, 0x1.3b48320000000p-4, 0x1.149db60000000p-4, 0x1.1fd1000000000p-10, 0x1.ef751c0000000p-5, -0x1.31b4300000000p-6, -0x1.7e58a00000000p-4, -0x1.7ec9280000000p-6, 0x1.cfde1e0000000p-4, -0x1.b102060000000p-4, 0x1.1482d40000000p-5, -0x1.efc0d00000000p-7, 0x1.77affe0000000p-4, 0x1.21ef840000000p-5, 0x1.4469d20000000p-4, 0x1.02a29e0000000p-4, 0x1.0d3f0a0000000p-4, 0x1.73f0340000000p-5, 0x1.b2668c0000000p-5, -0x1.e3ef100000000p-7, -0x1.fbeb500000000p-5, 0x1.7f41160000000p-4, 0x1.cd5a1e0000000p-4, -0x1.681a700000000p-4, -0x1.b224320000000p-4, 0x1.08e6040000000p-5, 0x1.910da60000000p-4, -0x1.65dc480000000p-6, 0x1.45d31c0000000p-5, 0x1.763bd80000000p-6, 0x1.1e61800000000p-8, 0x1.c54bdc0000000p-5, 0x1.a40b000000000p-11, 0x1.7bfa660000000p-4, 0x1.28d28c0000000p-5, 0x1.84cfda0000000p-4, -0x1.4ddbc80000000p-4, 0x1.b70ab60000000p-4, -0x1.f4e5000000000p-11, 0x1.bebf520000000p-4, -0x1.ca15ce0000000p-5, -0x1.cfdb000000000p-6, 0x1.19f76c0000000p-5, 0x1.69584a0000000p-4, 0x1.2090980000000p-6, 0x1.6dd9620000000p-4, -0x1.dca4000000000p-8, 0x1.46cb940000000p-5, 0x1.aad00a0000000p-4, -0x1.a9e5a00000000p-8, -0x1.1b8a7c0000000p-5, 0x1.0f27ee0000000p-4, -0x1.16b4a00000000p-5, -0x1.59b6260000000p-4, -0x1.4796400000000p-9, 0x1.182a880000000p-6, 0x1.b0a1ec0000000p-5, -0x1.3318d40000000p-5, -0x1.2ccd0c0000000p-5, 0x1.49a4d20000000p-4, 0x1.4cbb700000000p-7, 0x1.39c0840000000p-5, 0x1.6039180000000p-6, -0x1.0621900000000p-4, -0x1.a46e2c0000000p-4, -0x1.608ed40000000p-5, 0x1.a14b4e0000000p-4, -0x1.0748180000000p-5, -0x1.b810280000000p-6, 0x1.f6636c0000000p-5, 0x1.1e11a20000000p-4, 0x1.ae00760000000p-4, 0x1.14f9320000000p-4, 0x1.801a300000000p-7, 0x1.e178e40000000p-5, 0x1.fa81a80000000p-6, -0x1.64fd540000000p-4, -0x1.5483e00000000p-8, 0x1.02bce80000000p-6, -0x1.1a62800000000p-5, -0x1.4072840000000p-4, 0x1.bf67300000000p-7, -0x1.a867000000000p-5, 0x1.cdb4c80000000p-6, -0x1.647aa60000000p-4, 0x1.6a8ac80000000p-6, 0x1.458a0a0000000p-4, -0x1.f56ee00000000p-8, 0x1.bb12000000000p-10, -0x1.0814a00000000p-4, 0x1.9f67960000000p-4, 0x1.91e1a40000000p-5, -0x1.c4f8380000000p-4, -0x1.3574900000000p-7, -0x1.52b4e40000000p-5, -0x1.2e94800000000p-4, -0x1.4e3ac80000000p-5, -0x1.c12fc80000000p-6, -0x1.9d56820000000p-4, -0x1.b5417a0000000p-4, 0x1.a755680000000p-6, -0x1.238a300000000p-5, -0x1.4648f60000000p-4, -0x1.96caa00000000p-4, 0x1.79bb0c0000000p-5, 0x1.c3d6f60000000p-4, -0x1.d931340000000p-5, -0x1.9bbd780000000p-4, 0x1.431c520000000p-4, 0x1.92ae420000000p-4, -0x1.c143b00000000p-6, -0x1.a491fe0000000p-4, -0x1.9d22800000000p-7, 0x1.cc7a0c0000000p-5, 0x1.3402000000000p-8, 0x1.47b3b20000000p-4, -0x1.fab08e0000000p-5, -0x1.19fbc80000000p-5, -0x1.9a4db80000000p-5, -0x1.f276f20000000p-5, 0x1.1c7ee00000000p-8, 0x1.107fa80000000p-6, -0x1.85a5b60000000p-4, 0x1.26d9840000000p-5, 0x1.1041240000000p-5, 0x1.ca18f60000000p-4, -0x1.3d11380000000p-5, 0x1.a7bbd60000000p-4, -0x1.1503360000000p-4, 0x1.0c11cc0000000p-5, 0x1.ada4500000000p-7, -0x1.4173cc0000000p-4, -0x1.fef5400000000p-9, -0x1.7ac4300000000p-7, 0x1.7ed7ba0000000p-4, -0x1.b330a20000000p-5, -0x1.199c700000000p-5, 0x1.2df1480000000p-6, 0x1.65329e0000000p-4, -0x1.565a680000000p-5, -0x1.2b58b00000000p-4, -0x1.559afa0000000p-4, -0x1.1058820000000p-4, -0x1.67a1180000000p-6, -0x1.abdae80000000p-5, 0x1.82c04a0000000p-4, -0x1.b3b3740000000p-5, -0x1.b83f6c0000000p-4, 0x1.5d88560000000p-4, 0x1.31c2aa0000000p-4, 0x1.193c400000000p-8, 0x1.4891940000000p-5, -0x1.4e063c0000000p-5, -0x1.9b08da0000000p-4, 0x1.19e9bc0000000p-5, 0x1.b7c1140000000p-5, -0x1.bb3e760000000p-4, -0x1.35d1980000000p-4, -0x1.7533700000000p-6, 0x1.0d8dfa0000000p-4, 0x1.9ef97a0000000p-4, 0x1.e7c41c0000000p-5, -0x1.d80fae0000000p-5, 0x1.c19e320000000p-4, -0x1.9f13600000000p-4, 0x1.f6b0ec0000000p-5, 0x1.5673280000000p-6, 0x1.452d3c0000000p-5, -0x1.0f4b380000000p-5, 0x1.2f8aba0000000p-4, 0x1.2dd7ca0000000p-4, -0x1.eb8a2e0000000p-5, -0x1.1c30540000000p-5, 0x1.7a73e40000000p-5, -0x1.54def40000000p-4, -0x1.a93d460000000p-4, 0x1.b47dca0000000p-4, -0x1.515a1e0000000p-4, 0x1.859a000000000p-8, 0x1.619bdc0000000p-5, 0x1.c544ee0000000p-4}
, {-0x1.1c38840000000p-5, -0x1.11de940000000p-4, 0x1.138a880000000p-6, -0x1.1339480000000p-6, -0x1.dcedb00000000p-7, -0x1.8d6f000000000p-7, 0x1.52c6040000000p-5, -0x1.b9b75c0000000p-4, 0x1.9d63fe0000000p-4, 0x1.2ab1340000000p-5, -0x1.a3f5040000000p-4, -0x1.05b8fa0000000p-4, -0x1.3ba9f00000000p-5, 0x1.f1e1300000000p-7, -0x1.5620300000000p-7, 0x1.9685580000000p-6, -0x1.5165f00000000p-6, -0x1.aad7a00000000p-4, -0x1.03f1860000000p-4, -0x1.4e84cc0000000p-4, 0x1.26aa9a0000000p-4, 0x1.84332e0000000p-4, 0x1.7994440000000p-5, -0x1.c541800000000p-8, -0x1.c4aa220000000p-4, 0x1.06b4980000000p-6, -0x1.4860380000000p-4, 0x1.15b2580000000p-6, 0x1.b68bac0000000p-5, 0x1.fc05d00000000p-7, 0x1.31ee000000000p-8, 0x1.9ba4100000000p-7, -0x1.d52b300000000p-6, 0x1.548ef20000000p-4, -0x1.24a8340000000p-4, 0x1.ecc1dc0000000p-5, -0x1.d3e2380000000p-4, 0x1.0d35f40000000p-5, 0x1.801b460000000p-4, 0x1.e5fd3c0000000p-5, -0x1.3d2aa20000000p-4, 0x1.b36dc00000000p-8, -0x1.8e02400000000p-8, 0x1.9798ae0000000p-4, 0x1.0123dc0000000p-5, 0x1.158d980000000p-6, 0x1.0eecda0000000p-4, -0x1.0350640000000p-4, 0x1.494d7e0000000p-4, 0x1.8b48f00000000p-7, -0x1.e4ead60000000p-5, 0x1.3fed700000000p-7, 0x1.90d66e0000000p-4, 0x1.f91f780000000p-6, -0x1.09ff400000000p-6, -0x1.e8315a0000000p-5, 0x1.93a4940000000p-5, -0x1.9382000000000p-8, -0x1.2fad680000000p-4, -0x1.f9e86e0000000p-5, 0x1.0edd0c0000000p-5, 0x1.61f3ca0000000p-4, 0x1.df7d500000000p-7, 0x1.303b800000000p-7, -0x1.d8fbc00000000p-9, 0x1.64fff80000000p-6, 0x1.6de3080000000p-6, 0x1.d0a0a80000000p-6, -0x1.2271700000000p-7, -0x1.38bc560000000p-4, 0x1.f2c95c0000000p-5, -0x1.ca87c80000000p-4, -0x1.95ab5e0000000p-4, 0x1.2d2ffe0000000p-4, -0x1.ce5a380000000p-4, -0x1.34ffb40000000p-4, 0x1.5b0ee40000000p-5, 0x1.afa9f40000000p-5, 0x1.6543ee0000000p-4, -0x1.0529600000000p-7, -0x1.71a3a00000000p-8, -0x1.7821540000000p-4, -0x1.128ad00000000p-5, 0x1.9d11ea0000000p-4, 0x1.70d1de0000000p-4, -0x1.c8c5b40000000p-5, -0x1.c8b6660000000p-4, -0x1.10f88c0000000p-4, 0x1.09a1da0000000p-4, -0x1.6a75d80000000p-6, -0x1.c1e33c0000000p-4, 0x1.41379c0000000p-5, -0x1.5b98580000000p-6, 0x1.74471a0000000p-4, -0x1.5f0a1c0000000p-4, 0x1.203d420000000p-4, 0x1.1da34a0000000p-4, 0x1.0522120000000p-4, -0x1.6fe71e0000000p-4, 0x1.5acd180000000p-6, -0x1.6bf5d40000000p-5, -0x1.6ad9800000000p-7, -0x1.d812420000000p-5, 0x1.98a2d20000000p-4, -0x1.cc62760000000p-4, -0x1.790be80000000p-4, -0x1.733f0e0000000p-4, -0x1.7ea4140000000p-5, -0x1.2b2ca00000000p-4, -0x1.76e47c0000000p-5, 0x1.c66a420000000p-4, -0x1.a05d280000000p-4, 0x1.10fa800000000p-8, -0x1.1bfb400000000p-4, -0x1.7c32ce0000000p-4, 0x1.2c171c0000000p-5, 0x1.56a7f00000000p-7, -0x1.79a1f00000000p-5, -0x1.8381f40000000p-5, -0x1.36c2000000000p-5, 0x1.6007020000000p-4, 0x1.3774ae0000000p-4, 0x1.3bc8060000000p-4, 0x1.c39fc20000000p-4, 0x1.a77ba60000000p-4, 0x1.8adf560000000p-4, 0x1.c1311e0000000p-4, 0x1.6463c20000000p-4, -0x1.38f3720000000p-4, -0x1.3e43080000000p-4, 0x1.b8d74a0000000p-4, 0x1.b4200a0000000p-4, -0x1.18bcf40000000p-5, 0x1.c469c80000000p-6, 0x1.4fc1ee0000000p-4, -0x1.3ea2dc0000000p-4, 0x1.c51b120000000p-4, -0x1.5d576e0000000p-4, -0x1.0ef8b20000000p-4, -0x1.c03a600000000p-4, -0x1.b4cba00000000p-8, 0x1.f6f5ec0000000p-5, -0x1.2505d00000000p-7, -0x1.8ae1000000000p-6, -0x1.e84f380000000p-6, -0x1.3b52900000000p-5, 0x1.472d720000000p-4, 0x1.ca7e880000000p-6, 0x1.af1ef60000000p-4, 0x1.b183ae0000000p-4, 0x1.6bb6880000000p-6, 0x1.b756980000000p-6, -0x1.0398460000000p-4, -0x1.8e31e00000000p-8, 0x1.37292a0000000p-4, 0x1.d4d4180000000p-6, 0x1.feb0ac0000000p-5, 0x1.09c3aa0000000p-4, -0x1.36a8a80000000p-5, 0x1.316d3a0000000p-4, -0x1.5ee8920000000p-4, -0x1.b33c900000000p-4, -0x1.ce2e4a0000000p-4, 0x1.1848b80000000p-6, 0x1.a1c0ce0000000p-4, 0x1.7f61f60000000p-4, -0x1.9e72da0000000p-4, -0x1.8c0c700000000p-6, 0x1.d72f040000000p-5, 0x1.c7abec0000000p-5, -0x1.76325c0000000p-4, -0x1.b911a00000000p-4, -0x1.9153380000000p-4, 0x1.8717260000000p-4, 0x1.bbd1ca0000000p-4, -0x1.6c4d480000000p-5, 0x1.587d700000000p-7, 0x1.84ad420000000p-4, 0x1.61c1700000000p-7, 0x1.c699480000000p-6, -0x1.378d240000000p-4, 0x1.d673980000000p-6, -0x1.ac1a8a0000000p-4, -0x1.884b800000000p-4, 0x1.cfdef00000000p-7, 0x1.45189e0000000p-4, -0x1.0446040000000p-5, 0x1.29af0c0000000p-5, -0x1.c94b640000000p-4, 0x1.b795d60000000p-4, 0x1.f67eac0000000p-5, -0x1.0272880000000p-6, -0x1.7b2a680000000p-5, -0x1.3f47140000000p-4, 0x1.9396dc0000000p-5, -0x1.5fe8700000000p-4, -0x1.f9e0600000000p-6, 0x1.115bb20000000p-4, -0x1.d8e6920000000p-5, -0x1.fd07f80000000p-5, 0x1.7057ce0000000p-4, -0x1.78cbb80000000p-5, 0x1.ba020c0000000p-5, 0x1.47e7a20000000p-4, -0x1.a635740000000p-4, 0x1.38ebe60000000p-4, 0x1.cffed80000000p-6, 0x1.da48400000000p-9, -0x1.95753a0000000p-4, 0x1.3484840000000p-5, 0x1.a4d6b80000000p-6, 0x1.c4531e0000000p-4, 0x1.204c7c0000000p-5, -0x1.3106c80000000p-5, -0x1.4a91340000000p-5, 0x1.660e340000000p-5, -0x1.c4a3c00000000p-4, 0x1.b4ef480000000p-6, -0x1.6c4c980000000p-6, -0x1.a92b980000000p-6, -0x1.1c9f880000000p-5, 0x1.7ee3a20000000p-4, -0x1.c9e1ac0000000p-4, 0x1.d67b6c0000000p-5, 0x1.74ae660000000p-4, -0x1.897efc0000000p-4, 0x1.9e448e0000000p-4, 0x1.75dbf00000000p-7, -0x1.37a38c0000000p-4, -0x1.7d33000000000p-10, 0x1.48fe920000000p-4, 0x1.6e10960000000p-4, -0x1.6053000000000p-4, -0x1.1a7c300000000p-5, -0x1.9945c00000000p-4, -0x1.5121100000000p-4, -0x1.674e1c0000000p-4, 0x1.1dff7a0000000p-4, -0x1.47a2500000000p-6, -0x1.f3dc1c0000000p-5, -0x1.d22a880000000p-4, 0x1.67dc780000000p-6, -0x1.c695440000000p-5, -0x1.016e640000000p-4, 0x1.05711c0000000p-5, 0x1.2d10640000000p-5, -0x1.d3a1620000000p-4, -0x1.bd92360000000p-5, 0x1.3f39660000000p-4, -0x1.d1d1900000000p-6, 0x1.f73ea00000000p-8, 0x1.980ee20000000p-4, 0x1.1778280000000p-6, 0x1.17a7440000000p-5, 0x1.bfe66a0000000p-4, -0x1.1688980000000p-4, 0x1.3b1e460000000p-4, -0x1.5c7fe80000000p-6, 0x1.3259080000000p-6, -0x1.4304a80000000p-6, 0x1.5756600000000p-7, -0x1.c004760000000p-5, -0x1.bea52a0000000p-4, -0x1.b9558e0000000p-4, -0x1.0c93100000000p-4, 0x1.278bc00000000p-9, 0x1.59d2060000000p-4, -0x1.a505400000000p-4, 0x1.0ee3fc0000000p-5, -0x1.787d4c0000000p-4, -0x1.a543260000000p-4, 0x1.db805c0000000p-5, -0x1.b759e20000000p-5, 0x1.fb39400000000p-9, 0x1.414a9c0000000p-5, 0x1.99d3200000000p-8, 0x1.880d9a0000000p-4, -0x1.b0b8a80000000p-4, -0x1.1a2a000000000p-12, 0x1.1fd1540000000p-5, -0x1.3b294c0000000p-5, 0x1.24e5a80000000p-6, -0x1.0c48400000000p-8, 0x1.889f980000000p-6, -0x1.77a9a00000000p-7, -0x1.a816400000000p-7, -0x1.ccb9e80000000p-5, -0x1.651cc00000000p-5, 0x1.8f193e0000000p-4, -0x1.c69b280000000p-5, 0x1.37ca880000000p-6, 0x1.3b74b80000000p-6, 0x1.e821cc0000000p-5, 0x1.0f5bde0000000p-4, 0x1.9f19c80000000p-6, 0x1.7108e00000000p-8, -0x1.7318000000000p-5, 0x1.be09940000000p-5, 0x1.03edc60000000p-4, -0x1.2c5f1c0000000p-4, -0x1.82550a0000000p-4, -0x1.3acfac0000000p-4, -0x1.7691c80000000p-6, -0x1.0046200000000p-7, 0x1.f79f080000000p-6, 0x1.161c760000000p-4, -0x1.0ed0dc0000000p-5, 0x1.15f0ec0000000p-5, -0x1.93e7700000000p-4, 0x1.150d3a0000000p-4, 0x1.2cd4080000000p-6, -0x1.5c922a0000000p-4, -0x1.0f129e0000000p-4, 0x1.8fdcf20000000p-4, -0x1.6ee1ec0000000p-4, -0x1.c1d6040000000p-4, 0x1.8c7a2c0000000p-5, -0x1.d1bf680000000p-4, 0x1.910b580000000p-6, -0x1.682c940000000p-4, -0x1.1a17780000000p-5, 0x1.c07e100000000p-7, 0x1.ee32a80000000p-6, -0x1.9285e00000000p-6, 0x1.5f3da80000000p-6, 0x1.2bd48e0000000p-4, -0x1.944fd00000000p-5, -0x1.592f1e0000000p-4, -0x1.8ac9e80000000p-4, 0x1.a63b500000000p-7, -0x1.0d97d00000000p-6, 0x1.4e8dd40000000p-5, -0x1.6617d80000000p-4, 0x1.d60c440000000p-5, 0x1.31a6060000000p-4, 0x1.e008ac0000000p-5, -0x1.41a5c00000000p-4, -0x1.5a64e60000000p-4, 0x1.729b6a0000000p-4, -0x1.8363480000000p-6, -0x1.73d1880000000p-6, 0x1.bfb7340000000p-5, 0x1.7ad36a0000000p-4, -0x1.703b3c0000000p-5, -0x1.78449c0000000p-4, 0x1.362ef00000000p-7, -0x1.ca63020000000p-4, 0x1.8651680000000p-6, -0x1.117d000000000p-9, 0x1.8ab9d60000000p-4, -0x1.3d575c0000000p-4, 0x1.11c8e20000000p-4, -0x1.29ab280000000p-6, -0x1.6cd3e20000000p-4, 0x1.95a1020000000p-4, -0x1.16b5a80000000p-5, -0x1.1fe5620000000p-4, 0x1.003e560000000p-4, -0x1.e7aace0000000p-5, 0x1.779e680000000p-6, -0x1.444f580000000p-4, -0x1.3c5ec80000000p-4, -0x1.2912140000000p-5, 0x1.b973f40000000p-5, -0x1.c8f3500000000p-6, 0x1.a6b2120000000p-4, 0x1.7a1aa60000000p-4, 0x1.c878a60000000p-4, -0x1.f978520000000p-5, -0x1.bd52f80000000p-5, -0x1.bac4ae0000000p-4, 0x1.3292e20000000p-4, -0x1.44b0e40000000p-5, -0x1.14155e0000000p-4, 0x1.470e220000000p-4, -0x1.62bd000000000p-9, -0x1.8afcb40000000p-4, -0x1.8eaa580000000p-4, -0x1.b732da0000000p-5, -0x1.f18d800000000p-10, 0x1.a240fe0000000p-4, -0x1.31ff600000000p-8, 0x1.5b8a220000000p-4, -0x1.abc3000000000p-9, 0x1.9e8b8a0000000p-4, 0x1.b043a60000000p-4, -0x1.8af8800000000p-10, -0x1.bb8c760000000p-5, -0x1.31e6000000000p-7, -0x1.4151780000000p-6, 0x1.0399d20000000p-4, 0x1.d38eca0000000p-4, 0x1.6880080000000p-6, -0x1.65ce040000000p-4, 0x1.7d43ca0000000p-4, -0x1.1aa3740000000p-5, -0x1.2f0c640000000p-4, 0x1.6e59240000000p-5, 0x1.36b6e00000000p-7, 0x1.9ed7060000000p-4, 0x1.4521fc0000000p-5, 0x1.6d8db20000000p-4, -0x1.f1454a0000000p-5, -0x1.8a7f6c0000000p-5, 0x1.ccc6640000000p-5, 0x1.83a54a0000000p-4, -0x1.b87e9c0000000p-5, -0x1.12e3f80000000p-5, 0x1.6f01bc0000000p-5, 0x1.5255280000000p-6, -0x1.6cb9180000000p-4, 0x1.9be2d80000000p-6, -0x1.cd5b000000000p-9, 0x1.3714d20000000p-4, -0x1.4e12000000000p-11, -0x1.be205e0000000p-4, 0x1.7ca0720000000p-4, 0x1.55e2740000000p-5, 0x1.244be40000000p-5, -0x1.74ee200000000p-8, -0x1.8f92c00000000p-5, 0x1.d7b1240000000p-5, 0x1.49dd820000000p-4, 0x1.10b67a0000000p-4, 0x1.28997c0000000p-5, 0x1.8971c40000000p-5, -0x1.0e0a480000000p-6, 0x1.d40c9a0000000p-4, -0x1.8cf91e0000000p-4, 0x1.262b480000000p-6, -0x1.a8c44a0000000p-4, -0x1.62efc60000000p-4, 0x1.82a7cc0000000p-5, -0x1.768bb80000000p-5, -0x1.9a5e400000000p-6, 0x1.b37c3c0000000p-5, -0x1.ae85f80000000p-6, 0x1.a196660000000p-4, 0x1.cdb40c0000000p-5, -0x1.7fdad40000000p-5, -0x1.2c3d160000000p-4, 0x1.2566c80000000p-6, 0x1.d479740000000p-5, -0x1.2836f20000000p-4, -0x1.1ba3080000000p-6, 0x1.46be8c0000000p-5, -0x1.bf8f4a0000000p-4, 0x1.07fdcc0000000p-5}
, {0x1.92d0d20000000p-4, -0x1.117b000000000p-4, -0x1.cfc4800000000p-4, 0x1.0e51dc0000000p-5, 0x1.09c62e0000000p-4, 0x1.69de660000000p-4, -0x1.c4f3200000000p-8, -0x1.9909e00000000p-6, 0x1.8a6f100000000p-7, -0x1.dfd06c0000000p-5, -0x1.47de140000000p-4, 0x1.bdb3bc0000000p-5, -0x1.21a9e80000000p-6, 0x1.0261860000000p-4, 0x1.de07c00000000p-8, -0x1.2b766c0000000p-5, 0x1.5378000000000p-9, 0x1.a194ac0000000p-5, 0x1.f86d400000000p-9, -0x1.15576c0000000p-5, 0x1.216cac0000000p-5, -0x1.b87d1e0000000p-4, -0x1.bc258c0000000p-4, 0x1.3302660000000p-4, -0x1.769a8c0000000p-4, -0x1.17a5560000000p-4, 0x1.9db9480000000p-6, -0x1.6712780000000p-5, 0x1.627bac0000000p-5, -0x1.8550e00000000p-5, -0x1.b0d0fa0000000p-4, -0x1.83ae800000000p-7, 0x1.cac7880000000p-6, -0x1.a92ca00000000p-8, -0x1.1ff1080000000p-4, 0x1.b1842a0000000p-4, -0x1.2bde160000000p-4, -0x1.4069040000000p-5, -0x1.a304c00000000p-8, 0x1.bc498a0000000p-4, 0x1.6ffd8e0000000p-4, 0x1.7c4dca0000000p-4, 0x1.28b5600000000p-8, 0x1.cf535c0000000p-5, -0x1.a44b520000000p-4, 0x1.cc0a000000000p-8, 0x1.3b00540000000p-5, 0x1.507bde0000000p-4, -0x1.1819820000000p-4, 0x1.5bb8000000000p-13, -0x1.2643cc0000000p-5, 0x1.95c3b20000000p-4, 0x1.b0d2880000000p-6, 0x1.a637340000000p-5, -0x1.b7d71a0000000p-5, -0x1.66c0d60000000p-4, -0x1.b2ec200000000p-5, 0x1.c0571a0000000p-4, 0x1.2499b20000000p-4, 0x1.485bca0000000p-4, -0x1.3e48940000000p-4, -0x1.9b61180000000p-5, -0x1.b56eb00000000p-6, 0x1.80049c0000000p-5, -0x1.101a280000000p-5, 0x1.0ba7a80000000p-6, -0x1.e8b59c0000000p-5, 0x1.415fe60000000p-4, -0x1.783e700000000p-6, -0x1.6772d80000000p-4, -0x1.1898ac0000000p-5, 0x1.b380bc0000000p-5, 0x1.f47c840000000p-5, -0x1.44157c0000000p-4, -0x1.74b96c0000000p-4, -0x1.f2df080000000p-6, 0x1.56220a0000000p-4, 0x1.4e5eac0000000p-5, 0x1.69fa180000000p-6, -0x1.bd973e0000000p-5, -0x1.a965900000000p-4, 0x1.6913ba0000000p-4, -0x1.34906c0000000p-4, -0x1.38cde80000000p-4, 0x1.5c44740000000p-5, 0x1.6638520000000p-4, 0x1.cf56560000000p-4, -0x1.2082540000000p-4, -0x1.89e0f80000000p-6, -0x1.d7b4000000000p-8, 0x1.7a459c0000000p-5, -0x1.f87de20000000p-5, 0x1.b623d20000000p-4, 0x1.bba1c60000000p-4, 0x1.7734b60000000p-4, -0x1.3894780000000p-5, 0x1.3031300000000p-7, 0x1.54dca80000000p-6, 0x1.b3597c0000000p-5, 0x1.8c921c0000000p-5, 0x1.a6ab040000000p-5, 0x1.1056040000000p-5, 0x1.8eef940000000p-5, 0x1.fb60fc0000000p-5, 0x1.2251fe0000000p-4, -0x1.665c140000000p-5, 0x1.9f1b000000000p-8, 0x1.36b2e80000000p-6, 0x1.a0c3ca0000000p-4, 0x1.465bb20000000p-4, 0x1.6ec0500000000p-7, -0x1.a6c91a0000000p-4, 0x1.34ab780000000p-6, -0x1.a06a300000000p-7, -0x1.9997f60000000p-4, 0x1.575c400000000p-9, -0x1.33f8e00000000p-4, 0x1.5186380000000p-6, 0x1.399dc00000000p-9, -0x1.e8d9340000000p-5, 0x1.e645240000000p-5, 0x1.70903a0000000p-4, -0x1.d3b3200000000p-4, 0x1.c112c20000000p-4, -0x1.9a5b6c0000000p-4, -0x1.342b300000000p-6, -0x1.6c1ba00000000p-7, -0x1.d4b3fe0000000p-4, -0x1.f5bc420000000p-5, 0x1.4725e40000000p-5, -0x1.8591140000000p-4, -0x1.261fc40000000p-4, -0x1.ab55d80000000p-4, -0x1.4fb8000000000p-8, 0x1.9448c00000000p-8, -0x1.ab5ffa0000000p-4, -0x1.3d73c40000000p-5, 0x1.c6046c0000000p-5, -0x1.1695e00000000p-4, -0x1.2237c20000000p-4, 0x1.ce1b420000000p-4, 0x1.c3bc740000000p-5, -0x1.750a400000000p-7, 0x1.79e3420000000p-4, -0x1.b4cf400000000p-8, -0x1.b9d5a20000000p-4, -0x1.86fd500000000p-4, -0x1.38e8000000000p-8, -0x1.9a9caa0000000p-4, -0x1.4b57640000000p-5, 0x1.783f4a0000000p-4, 0x1.cf37520000000p-4, -0x1.41e6e00000000p-7, 0x1.c9d1e00000000p-8, 0x1.5eba000000000p-11, -0x1.a15a0c0000000p-4, -0x1.6dbc9a0000000p-4, -0x1.1bbd220000000p-4, -0x1.3f2b880000000p-6, 0x1.cf1a9e0000000p-4, -0x1.7768480000000p-6, -0x1.86ac380000000p-4, -0x1.c91d020000000p-4, 0x1.27402e0000000p-4, -0x1.bdcbd00000000p-4, -0x1.901d800000000p-8, -0x1.45999c0000000p-4, 0x1.729c720000000p-4, -0x1.c996fe0000000p-5, 0x1.36b0ac0000000p-5, 0x1.f78b040000000p-5, -0x1.a0195e0000000p-4, -0x1.555f840000000p-4, 0x1.b9547e0000000p-4, -0x1.b41a100000000p-6, 0x1.77052a0000000p-4, 0x1.7157400000000p-8, -0x1.4d97800000000p-5, -0x1.687f000000000p-7, 0x1.79f4520000000p-4, -0x1.8a63bc0000000p-5, 0x1.c7d42a0000000p-4, -0x1.68b8500000000p-5, -0x1.afe94a0000000p-4, -0x1.9dadb00000000p-7, 0x1.708aba0000000p-4, 0x1.5ecccc0000000p-5, -0x1.542f480000000p-5, 0x1.7dbe9c0000000p-5, -0x1.4eda800000000p-5, -0x1.9cf1500000000p-6, -0x1.19f2800000000p-8, 0x1.adbfb60000000p-4, -0x1.c9ded00000000p-5, 0x1.80fab00000000p-7, 0x1.be150c0000000p-5, -0x1.efecc00000000p-9, 0x1.4d59020000000p-4, -0x1.35b4e00000000p-8, -0x1.1af4fa0000000p-4, -0x1.00f72e0000000p-4, 0x1.a68ccc0000000p-5, 0x1.226f720000000p-4, -0x1.21ff4e0000000p-4, 0x1.72d6d20000000p-4, -0x1.5c67c80000000p-4, 0x1.af6f220000000p-4, 0x1.b8ab3c0000000p-5, 0x1.256a440000000p-5, 0x1.eed7a80000000p-6, -0x1.42f1220000000p-4, 0x1.08703e0000000p-4, 0x1.043d020000000p-4, -0x1.3cd1720000000p-4, -0x1.6695200000000p-7, -0x1.db04e00000000p-6, -0x1.0efb180000000p-5, 0x1.1120f40000000p-5, -0x1.4a15c40000000p-5, -0x1.8a95e00000000p-8, 0x1.ec2ca40000000p-5, 0x1.ff925c0000000p-5, 0x1.9c5f480000000p-6, -0x1.ea08ea0000000p-5, -0x1.5971f00000000p-6, 0x1.d28c480000000p-6, -0x1.356aec0000000p-4, -0x1.40912c0000000p-4, 0x1.81bdac0000000p-5, -0x1.2d78380000000p-5, -0x1.ff6e8c0000000p-5, 0x1.c81f4c0000000p-5, -0x1.f54a340000000p-5, 0x1.bdaac80000000p-6, -0x1.913cb00000000p-6, -0x1.b837360000000p-4, -0x1.2b8ee80000000p-5, 0x1.0229360000000p-4, -0x1.3203d00000000p-4, 0x1.2042aa0000000p-4, -0x1.ed63200000000p-6, 0x1.0adc920000000p-4, -0x1.cae9ec0000000p-4, 0x1.4c6ae40000000p-5, 0x1.fc9ffc0000000p-5, -0x1.171cd80000000p-5, -0x1.791e060000000p-4, 0x1.010cf40000000p-5, 0x1.c310b80000000p-6, -0x1.29bfe00000000p-8, 0x1.ba4afa0000000p-4, 0x1.9843880000000p-6, 0x1.494ac60000000p-4, 0x1.887a4a0000000p-4, 0x1.3179ce0000000p-4, 0x1.42b82a0000000p-4, -0x1.f8d3ca0000000p-5, -0x1.8f26940000000p-5, -0x1.1503fc0000000p-5, 0x1.2cceae0000000p-4, 0x1.6859be0000000p-4, -0x1.0c89780000000p-6, -0x1.fda2a80000000p-5, -0x1.1f60780000000p-6, 0x1.5b67340000000p-5, 0x1.13889e0000000p-4, -0x1.97ce0c0000000p-4, 0x1.5f0a9e0000000p-4, 0x1.1786800000000p-10, -0x1.799bec0000000p-4, -0x1.8ee4580000000p-4, 0x1.85d6800000000p-9, 0x1.c33b020000000p-4, 0x1.e10e800000000p-10, 0x1.0fce9c0000000p-5, 0x1.06fea20000000p-4, 0x1.74f7e20000000p-4, -0x1.7633300000000p-5, -0x1.221aa80000000p-4, 0x1.af1e800000000p-8, 0x1.a6a6f60000000p-4, -0x1.cc86100000000p-6, -0x1.9078680000000p-6, 0x1.955e8a0000000p-4, -0x1.a6b22e0000000p-4, 0x1.d0c7760000000p-4, 0x1.67c9860000000p-4, -0x1.f220d00000000p-6, -0x1.3f17600000000p-6, -0x1.a585540000000p-5, 0x1.57dd540000000p-5, 0x1.85b1720000000p-4, 0x1.43db800000000p-7, -0x1.baccb00000000p-4, -0x1.1dfca00000000p-6, 0x1.0e09a40000000p-5, -0x1.0dc6000000000p-5, 0x1.dcaa7c0000000p-5, 0x1.4aed2c0000000p-5, -0x1.a740380000000p-4, 0x1.6d28080000000p-6, 0x1.5b0d2c0000000p-5, -0x1.fe94480000000p-5, -0x1.a8e56c0000000p-4, -0x1.8306e80000000p-4, 0x1.6770740000000p-5, -0x1.8bc7a20000000p-4, 0x1.5882de0000000p-4, 0x1.a1a6560000000p-4, -0x1.14d2240000000p-4, 0x1.4fa0e80000000p-6, -0x1.c643400000000p-9, -0x1.9d567a0000000p-4, -0x1.3b624c0000000p-4, 0x1.5543de0000000p-4, -0x1.4da1e00000000p-6, -0x1.0574880000000p-5, -0x1.2767400000000p-8, -0x1.8139a40000000p-4, 0x1.b6500e0000000p-4, 0x1.6bad260000000p-4, 0x1.d27dda0000000p-4, -0x1.9beca60000000p-4, 0x1.470b780000000p-6, 0x1.10203c0000000p-5, -0x1.7274340000000p-5, -0x1.82b9880000000p-5, 0x1.7a9d540000000p-5, -0x1.def3020000000p-5, 0x1.a068ac0000000p-5, 0x1.b0924c0000000p-5, -0x1.a16b980000000p-5, 0x1.75a8d80000000p-6, -0x1.0330200000000p-8, -0x1.2a679c0000000p-4, 0x1.8747440000000p-5, -0x1.a2479a0000000p-4, -0x1.957ca00000000p-7, 0x1.32985a0000000p-4, -0x1.344dc00000000p-7, -0x1.06b7000000000p-10, -0x1.8ade8c0000000p-5, 0x1.f682240000000p-5, -0x1.6b58be0000000p-4, -0x1.f531e00000000p-6, -0x1.6791a00000000p-7, 0x1.8aa1660000000p-4, 0x1.1c97de0000000p-4, -0x1.8911b00000000p-7, -0x1.14a2f80000000p-6, 0x1.9f72f80000000p-6, 0x1.f95b300000000p-7, 0x1.40b6880000000p-6, 0x1.a6efc80000000p-6, 0x1.cf5cec0000000p-5, 0x1.aa767c0000000p-5, -0x1.7bd8600000000p-5, -0x1.2970700000000p-7, -0x1.81fda80000000p-5, 0x1.0a71fe0000000p-4, 0x1.1aa3740000000p-5, -0x1.6adc800000000p-4, -0x1.570a540000000p-4, -0x1.3ff0a00000000p-8, 0x1.5ba8b80000000p-6, -0x1.67dc760000000p-4, 0x1.3ff6dc0000000p-5, -0x1.b147000000000p-8, 0x1.051d2a0000000p-4, 0x1.af8a580000000p-6, -0x1.5dc7060000000p-4, -0x1.ce81a60000000p-4, -0x1.fe53b00000000p-7, 0x1.9da9940000000p-5, -0x1.6b66300000000p-4, 0x1.a16e2a0000000p-4, 0x1.59bac20000000p-4, 0x1.462db40000000p-5, 0x1.55588e0000000p-4, 0x1.ba063c0000000p-5, -0x1.2d2a440000000p-4, 0x1.9981080000000p-6, -0x1.6cdb380000000p-6, -0x1.a5bf980000000p-4, -0x1.8185300000000p-6, -0x1.b6223e0000000p-4, 0x1.a9beb00000000p-7, -0x1.dfca300000000p-5, 0x1.84b3620000000p-4, -0x1.7176340000000p-4, -0x1.2a15d40000000p-5, -0x1.c5d6ce0000000p-4, 0x1.9066c00000000p-8, 0x1.fe5eb00000000p-7, -0x1.eed5080000000p-6, 0x1.4c9ea00000000p-8, 0x1.c01f5a0000000p-4, 0x1.5506180000000p-6, 0x1.a0965c0000000p-5, 0x1.a9a1a60000000p-4, -0x1.143f680000000p-4, -0x1.99cba40000000p-5, -0x1.1b82960000000p-4, 0x1.5e9e880000000p-6, -0x1.3fda340000000p-4, -0x1.f135260000000p-5, 0x1.1f155a0000000p-4, 0x1.c9fd600000000p-8, -0x1.483b540000000p-5, 0x1.0f568c0000000p-5, -0x1.9113e40000000p-4, -0x1.7752380000000p-4, -0x1.0ceb240000000p-4, 0x1.dcd2d40000000p-5, 0x1.076a920000000p-4, -0x1.205a0c0000000p-4, 0x1.74026e0000000p-4, 0x1.9b20c60000000p-4, 0x1.33c6700000000p-7, 0x1.037ce00000000p-7, 0x1.06ff3e0000000p-4, 0x1.461b0a0000000p-4, 0x1.1aa1ea0000000p-4, -0x1.5d55f00000000p-4, -0x1.ef84d80000000p-5, -0x1.ac19800000000p-6, -0x1.6ee3d80000000p-4, -0x1.bb4a7a0000000p-4, -0x1.0a99e00000000p-7, 0x1.5a5dce0000000p-4, -0x1.83671c0000000p-4, -0x1.3f23d20000000p-4, 0x1.25f6400000000p-8, 0x1.a279200000000p-8, -0x1.9467380000000p-5, 0x1.5977580000000p-6, -0x1.efff200000000p-8, -0x1.d5db5a0000000p-5, -0x1.a1aa6c0000000p-5, -0x1.16f2d80000000p-5, -0x1.07db7c0000000p-4, 0x1.015cf40000000p-5, 0x1.bbdfc80000000p-6, -0x1.7531440000000p-5, -0x1.8f40e00000000p-7, -0x1.5f3e580000000p-6, 0x1.c96e4e0000000p-4, -0x1.2f9f0c0000000p-4}
, {0x1.6752c60000000p-4, 0x1.e465440000000p-5, -0x1.96e9540000000p-5, -0x1.260ac00000000p-8, 0x1.4ba95e0000000p-4, 0x1.171d2a0000000p-4, -0x1.f928c80000000p-6, -0x1.354fe00000000p-4, 0x1.99fd560000000p-4, 0x1.aa23d20000000p-4, 0x1.1878a60000000p-4, -0x1.ad57b40000000p-4, -0x1.4c6b060000000p-4, 0x1.01c3f20000000p-4, -0x1.f6d5080000000p-6, 0x1.a99a1e0000000p-4, -0x1.7c9ef80000000p-4, -0x1.4ae1680000000p-4, 0x1.6b4cba0000000p-4, 0x1.037fb20000000p-4, -0x1.b8cd020000000p-4, 0x1.f40eb80000000p-6, -0x1.fd4bd80000000p-6, 0x1.32a9520000000p-4, 0x1.34d02c0000000p-5, 0x1.c4f8b00000000p-7, 0x1.c46f0a0000000p-4, 0x1.6533f60000000p-4, -0x1.703d500000000p-6, 0x1.1e74380000000p-6, 0x1.57ed760000000p-4, -0x1.2adc4c0000000p-5, -0x1.b95d380000000p-6, 0x1.8ac26a0000000p-4, 0x1.a149be0000000p-4, -0x1.fc9f600000000p-8, -0x1.172c300000000p-7, 0x1.a3d5d00000000p-7, -0x1.4357580000000p-4, -0x1.4fe7000000000p-10, 0x1.823d400000000p-9, 0x1.0355400000000p-7, -0x1.f0764c0000000p-5, 0x1.158fae0000000p-4, 0x1.cac9680000000p-6, -0x1.6f40b20000000p-4, -0x1.8750c00000000p-7, -0x1.b693780000000p-6, 0x1.00c3c20000000p-4, 0x1.a899660000000p-4, -0x1.a611980000000p-5, -0x1.a8d3d00000000p-6, 0x1.d8aa080000000p-6, 0x1.46ea240000000p-5, 0x1.2052ce0000000p-4, 0x1.b653fa0000000p-4, -0x1.ab9df40000000p-4, 0x1.a76dd40000000p-5, 0x1.2839620000000p-4, -0x1.3979ac0000000p-4, 0x1.192b260000000p-4, -0x1.b7ca580000000p-6, 0x1.7ca4400000000p-8, -0x1.c5a9080000000p-6, 0x1.b5a7000000000p-9, 0x1.65e0100000000p-7, -0x1.1cd5180000000p-5, -0x1.aa1aa20000000p-5, 0x1.c82f920000000p-4, 0x1.3c6daa0000000p-4, 0x1.7a44ce0000000p-4, -0x1.19c3440000000p-4, -0x1.51bcf40000000p-4, 0x1.b458360000000p-4, 0x1.64881a0000000p-4, 0x1.34ff8e0000000p-4, 0x1.17b4e60000000p-4, 0x1.4b94280000000p-6, -0x1.9fb4460000000p-4, -0x1.b451e40000000p-4, 0x1.8349020000000p-4, -0x1.1ad6d80000000p-6, -0x1.2cc7200000000p-4, 0x1.c27b8e0000000p-4, 0x1.9e72ee0000000p-4, 0x1.b926680000000p-6, 0x1.549f3a0000000p-4, 0x1.6b6be20000000p-4, 0x1.6c1d5a0000000p-4, -0x1.94c3560000000p-4, 0x1.7a10020000000p-4, -0x1.b400320000000p-4, 0x1.06915c0000000p-5, 0x1.389ab60000000p-4, 0x1.b49f960000000p-4, -0x1.5d7ee80000000p-6, -0x1.eb30380000000p-6, -0x1.48099c0000000p-5, -0x1.132e820000000p-4, 0x1.7c80ec0000000p-5, -0x1.a9c7e00000000p-5, 0x1.8da0be0000000p-4, -0x1.350c780000000p-4, -0x1.629ca80000000p-5, 0x1.8e6ce20000000p-4, 0x1.dc81bc0000000p-5, -0x1.3559200000000p-7, -0x1.e013800000000p-6, 0x1.213f960000000p-4, 0x1.dd1c140000000p-5, 0x1.b4ccbc0000000p-5, -0x1.49fea40000000p-4, -0x1.902a000000000p-9, -0x1.b1add20000000p-5, 0x1.d674800000000p-9, -0x1.491df00000000p-7, -0x1.a56dc80000000p-4, 0x1.77bd4a0000000p-4, 0x1.7f5b780000000p-6, -0x1.253c8c0000000p-5, 0x1.bb976e0000000p-4, -0x1.02c3700000000p-5, -0x1.c748c40000000p-4, -0x1.8ae9200000000p-5, 0x1.6fa3b80000000p-6, 0x1.3c9c200000000p-7, 0x1.dfd6d80000000p-6, 0x1.5892be0000000p-4, -0x1.8d5ba80000000p-6, -0x1.7d52940000000p-4, -0x1.b08bac0000000p-4, 0x1.2aae5c0000000p-5, 0x1.623a440000000p-5, 0x1.6d75d60000000p-4, 0x1.55ae640000000p-5, -0x1.6cb4100000000p-4, -0x1.ed3bf80000000p-5, -0x1.8265dc0000000p-5, 0x1.72d1140000000p-5, 0x1.aa8e100000000p-7, 0x1.a5b0d20000000p-4, 0x1.855f520000000p-4, -0x1.0371980000000p-5, 0x1.928b1e0000000p-4, -0x1.c633000000000p-4, -0x1.cbaa360000000p-4, 0x1.2a48c60000000p-4, 0x1.2cbec00000000p-8, 0x1.4422920000000p-4, 0x1.65a4440000000p-5, -0x1.f3d95e0000000p-5, -0x1.26a3dc0000000p-4, 0x1.4dd2460000000p-4, -0x1.8af8940000000p-5, 0x1.9f1e6a0000000p-4, 0x1.2d65ae0000000p-4, -0x1.3a7f4c0000000p-4, 0x1.869b3a0000000p-4, -0x1.f9f3780000000p-6, 0x1.ae7f520000000p-4, 0x1.556f280000000p-6, -0x1.4afdbc0000000p-4, 0x1.6ba55e0000000p-4, 0x1.21d12e0000000p-4, 0x1.b8957c0000000p-5, 0x1.1d0ab60000000p-4, 0x1.a43f0a0000000p-4, -0x1.ebe6a00000000p-8, -0x1.3d76a40000000p-5, -0x1.6e6e3c0000000p-4, 0x1.6cd9aa0000000p-4, -0x1.c49f580000000p-4, -0x1.b1202e0000000p-5, 0x1.67523c0000000p-5, -0x1.30ee840000000p-4, -0x1.fee1980000000p-5, -0x1.584f120000000p-4, -0x1.eebf760000000p-5, -0x1.43ed600000000p-4, 0x1.ab23340000000p-5, -0x1.abd7960000000p-4, 0x1.f174c80000000p-6, -0x1.8ba4340000000p-5, -0x1.eb71da0000000p-5, 0x1.a6aebc0000000p-5, -0x1.9225a00000000p-8, -0x1.9275da0000000p-4, -0x1.9d57cc0000000p-4, 0x1.4190aa0000000p-4, 0x1.50fea20000000p-4, -0x1.f766280000000p-5, 0x1.c04f660000000p-4, 0x1.92c92e0000000p-4, -0x1.5d6a580000000p-4, 0x1.2ab6000000000p-10, -0x1.6881380000000p-4, 0x1.10bb760000000p-4, 0x1.0f470c0000000p-5, -0x1.d9dbbe0000000p-5, -0x1.a677aa0000000p-4, 0x1.0335400000000p-8, 0x1.570d4c0000000p-5, 0x1.c32b340000000p-5, -0x1.c40f180000000p-5, -0x1.3f0f300000000p-4, -0x1.ace0180000000p-5, -0x1.cc3c000000000p-13, 0x1.a96a160000000p-4, -0x1.b6afcc0000000p-5, -0x1.79fa5a0000000p-4, -0x1.dbaf000000000p-9, -0x1.6a59d80000000p-4, -0x1.66db640000000p-4, -0x1.e975aa0000000p-5, -0x1.bd78800000000p-8, 0x1.acc84a0000000p-4, 0x1.c8789c0000000p-5, -0x1.abca680000000p-6, 0x1.2eed080000000p-6, -0x1.6574980000000p-5, 0x1.d65b7c0000000p-5, -0x1.2ead820000000p-4, -0x1.9e97040000000p-5, -0x1.2d0f180000000p-6, 0x1.c51ae60000000p-4, 0x1.a31bce0000000p-4, -0x1.8605340000000p-5, 0x1.becf4a0000000p-4, 0x1.a75c300000000p-7, 0x1.ac68340000000p-5, 0x1.ab13be0000000p-4, 0x1.acec8a0000000p-4, 0x1.6848b40000000p-5, -0x1.e990680000000p-6, -0x1.a56bf80000000p-6, 0x1.ee09100000000p-7, 0x1.639aa40000000p-5, -0x1.5520740000000p-4, 0x1.ad23d80000000p-6, 0x1.a5ca680000000p-6, -0x1.89f5220000000p-4, -0x1.97836c0000000p-4, -0x1.b9cfa00000000p-5, 0x1.1f552a0000000p-4, 0x1.43e9180000000p-6, 0x1.91d3540000000p-5, 0x1.4d08020000000p-4, 0x1.6241e00000000p-8, -0x1.a1a0b40000000p-5, 0x1.15ee460000000p-4, -0x1.5ff9ec0000000p-5, -0x1.22d3e00000000p-7, -0x1.2cc7100000000p-4, 0x1.ba14d40000000p-5, 0x1.ab7ad40000000p-5, -0x1.d7f7000000000p-10, 0x1.9ea8fe0000000p-4, 0x1.3a24220000000p-4, 0x1.56b48a0000000p-4, -0x1.8bb2c60000000p-4, -0x1.e6d8f40000000p-5, 0x1.c81c920000000p-4, -0x1.3d4b000000000p-7, 0x1.314f420000000p-4, -0x1.a545a00000000p-7, -0x1.ab16260000000p-4, 0x1.502a680000000p-6, -0x1.4363300000000p-5, 0x1.68d35e0000000p-4, 0x1.266a820000000p-4, -0x1.b935900000000p-4, 0x1.1854280000000p-6, 0x1.907ff40000000p-5, 0x1.c7b4960000000p-4, 0x1.ba40480000000p-6, -0x1.8200f80000000p-4, -0x1.7a36620000000p-4, -0x1.cfd3a00000000p-8, 0x1.20661c0000000p-5, -0x1.9f10800000000p-9, -0x1.455ca00000000p-6, 0x1.c53ad60000000p-4, -0x1.f5ca900000000p-5, -0x1.d5efa00000000p-8, -0x1.0c4a800000000p-9, 0x1.29de180000000p-6, -0x1.08ca2e0000000p-4, 0x1.e9ec6c0000000p-5, -0x1.1351600000000p-8, 0x1.1e4eb60000000p-4, -0x1.4febe00000000p-5, -0x1.0cb5a00000000p-4, -0x1.dc1a080000000p-5, 0x1.4c9f060000000p-4, -0x1.3338100000000p-6, -0x1.a2c8ae0000000p-4, -0x1.28d7880000000p-6, -0x1.d8e1500000000p-5, 0x1.e5aad40000000p-5, 0x1.af59bc0000000p-5, 0x1.5f7dca0000000p-4, -0x1.19a8140000000p-4, -0x1.294e400000000p-9, -0x1.55d69c0000000p-5, 0x1.5ca88a0000000p-4, 0x1.719cec0000000p-5, -0x1.10a1ca0000000p-4, -0x1.9d5ca00000000p-8, -0x1.02e0000000000p-8, 0x1.9bf1480000000p-6, 0x1.4503220000000p-4, 0x1.03d9bc0000000p-5, -0x1.3a24280000000p-5, 0x1.61feca0000000p-4, -0x1.d43ab80000000p-6, -0x1.ffbb000000000p-10, -0x1.b8204c0000000p-4, 0x1.ffba240000000p-5, 0x1.28c0e00000000p-7, 0x1.8c401c0000000p-5, 0x1.1241620000000p-4, -0x1.6258840000000p-4, 0x1.c814ba0000000p-4, 0x1.6bf2740000000p-5, 0x1.b492220000000p-4, -0x1.6db2280000000p-5, 0x1.b889a40000000p-5, 0x1.0592040000000p-5, -0x1.99ca180000000p-4, -0x1.6f00340000000p-4, 0x1.5ab2460000000p-4, -0x1.f42aa00000000p-6, -0x1.189ebc0000000p-4, -0x1.b386880000000p-4, -0x1.13f3680000000p-4, -0x1.f407000000000p-8, -0x1.70fd0c0000000p-4, -0x1.559ec00000000p-6, -0x1.6bcb320000000p-4, -0x1.5a7f5e0000000p-4, -0x1.ce9ed60000000p-4, -0x1.ab2ad00000000p-5, 0x1.939a3a0000000p-4, 0x1.14851a0000000p-4, 0x1.77658c0000000p-5, -0x1.e43e020000000p-5, -0x1.c1c0f40000000p-5, -0x1.9e59620000000p-4, -0x1.154cf40000000p-4, 0x1.a225000000000p-9, -0x1.cab1400000000p-6, -0x1.f0e1e20000000p-5, -0x1.aedcb00000000p-5, 0x1.3681fe0000000p-4, 0x1.7476a20000000p-4, 0x1.3cabd20000000p-4, -0x1.acce9c0000000p-4, -0x1.5aa6c00000000p-6, 0x1.3c38de0000000p-4, 0x1.2559480000000p-6, -0x1.15dc000000000p-9, -0x1.b648360000000p-5, -0x1.707f760000000p-4, 0x1.7861e80000000p-6, 0x1.83c20c0000000p-5, -0x1.6a62840000000p-4, 0x1.91b92c0000000p-5, 0x1.1080980000000p-6, 0x1.1823620000000p-4, 0x1.0989860000000p-4, 0x1.00b1ca0000000p-4, -0x1.4618800000000p-8, 0x1.3d06800000000p-10, -0x1.63f2880000000p-4, -0x1.3836540000000p-5, -0x1.9321040000000p-5, 0x1.c6b42a0000000p-4, 0x1.a0e9700000000p-7, 0x1.2d7cd20000000p-4, -0x1.57d2060000000p-4, -0x1.1717b20000000p-4, -0x1.08836c0000000p-4, -0x1.25d7a00000000p-6, -0x1.6ba3300000000p-7, 0x1.23a9760000000p-4, -0x1.a61a440000000p-4, -0x1.a795d60000000p-4, -0x1.5f7c5c0000000p-5, -0x1.92c79a0000000p-4, -0x1.3efe980000000p-5, -0x1.eb73dc0000000p-5, -0x1.5b4a300000000p-4, 0x1.4737ea0000000p-4, -0x1.b4ff0a0000000p-5, 0x1.61921a0000000p-4, 0x1.d918d00000000p-7, -0x1.2ed1f00000000p-6, 0x1.34b1500000000p-7, -0x1.60d4900000000p-7, 0x1.144ed20000000p-4, 0x1.5fc8320000000p-4, -0x1.29c8760000000p-4, -0x1.9978500000000p-6, 0x1.34ada00000000p-8, 0x1.73a6bc0000000p-5, -0x1.7695200000000p-7, -0x1.d4af580000000p-6, 0x1.50318e0000000p-4, -0x1.ed60c00000000p-9, -0x1.7ed2d00000000p-4, 0x1.95e4be0000000p-4, 0x1.4afba40000000p-5, -0x1.cac9f00000000p-4, 0x1.7400a20000000p-4, 0x1.f7996c0000000p-5, -0x1.90a8e00000000p-5, 0x1.ace56a0000000p-4, 0x1.f9f8d00000000p-7, 0x1.0527c20000000p-4, -0x1.16e7e80000000p-5, 0x1.417d3e0000000p-4, -0x1.0283240000000p-4, 0x1.0e569e0000000p-4, -0x1.83fe140000000p-4, 0x1.55a54e0000000p-4, 0x1.0a34720000000p-4, 0x1.c42bae0000000p-4, 0x1.6b4e500000000p-7, 0x1.91f2fe0000000p-4, 0x1.e6ce400000000p-8, 0x1.b8fac80000000p-6, 0x1.7d12420000000p-4, -0x1.7932bc0000000p-5, -0x1.27f4960000000p-4, 0x1.eedae80000000p-6, 0x1.96a9de0000000p-4, -0x1.3261880000000p-4, 0x1.6a03f20000000p-4, -0x1.6d15840000000p-5, -0x1.265d8c0000000p-4, -0x1.3551f80000000p-4, 0x1.d505d40000000p-5, -0x1.a236ec0000000p-5, -0x1.2995f40000000p-4, 0x1.19b66a0000000p-4, -0x1.8820ec0000000p-4, -0x1.7551560000000p-4, 0x1.a106880000000p-6}
, {-0x1.2102fc0000000p-4, -0x1.cb62f00000000p-4, 0x1.04bf9a0000000p-4, -0x1.e1d9420000000p-5, 0x1.7613f40000000p-5, -0x1.ea63200000000p-7, 0x1.5ff2be0000000p-4, -0x1.7ad8d40000000p-4, -0x1.b9cc200000000p-8, -0x1.1c16500000000p-7, 0x1.85e1040000000p-5, 0x1.c43c000000000p-11, 0x1.571fcc0000000p-5, -0x1.4f6f780000000p-6, 0x1.2442420000000p-4, -0x1.d7c7600000000p-7, -0x1.9fabd80000000p-6, -0x1.c337760000000p-5, -0x1.6857040000000p-4, -0x1.04f6740000000p-4, -0x1.3e3d1a0000000p-4, 0x1.40e19c0000000p-5, 0x1.b2884a0000000p-4, 0x1.c16db40000000p-5, 0x1.7c84fa0000000p-4, -0x1.56343c0000000p-5, 0x1.6626ce0000000p-4, -0x1.cd30320000000p-4, 0x1.4d92940000000p-5, -0x1.2165a40000000p-5, 0x1.bed8b20000000p-4, 0x1.85b1120000000p-4, 0x1.7520e60000000p-4, 0x1.a984840000000p-5, -0x1.4197200000000p-5, -0x1.b0d5800000000p-4, -0x1.b0c77a0000000p-4, 0x1.771d040000000p-5, 0x1.8c94000000000p-11, -0x1.c82cf60000000p-4, -0x1.461bd60000000p-4, -0x1.d162b80000000p-4, 0x1.a641740000000p-5, -0x1.0bb4d00000000p-7, -0x1.bd3d820000000p-5, -0x1.2972800000000p-7, -0x1.4fcec00000000p-4, 0x1.982e820000000p-4, 0x1.22b2b60000000p-4, 0x1.3f81b40000000p-5, -0x1.ba98700000000p-5, -0x1.f905300000000p-6, -0x1.ec744c0000000p-5, -0x1.6bcdf20000000p-4, 0x1.fd95240000000p-5, -0x1.ed03500000000p-5, 0x1.7738360000000p-4, 0x1.c3a8540000000p-5, -0x1.5b672c0000000p-4, -0x1.5cd5680000000p-5, -0x1.d2a61e0000000p-4, -0x1.af7b2e0000000p-4, -0x1.14d9c00000000p-5, 0x1.3ee8a60000000p-4, -0x1.79c4120000000p-4, -0x1.f764c80000000p-6, -0x1.2e28e00000000p-4, 0x1.205d660000000p-4, -0x1.8f3e5c0000000p-4, -0x1.7fd7000000000p-10, 0x1.51fa640000000p-5, 0x1.948d420000000p-4, -0x1.9002be0000000p-4, -0x1.2fc3020000000p-4, -0x1.76c5100000000p-6, -0x1.6226b40000000p-4, 0x1.b0fc840000000p-5, 0x1.199b060000000p-4, -0x1.f763a00000000p-6, -0x1.9187d60000000p-4, -0x1.7b0f240000000p-4, 0x1.9772a60000000p-4, 0x1.81025e0000000p-4, 0x1.ee3c5c0000000p-5, -0x1.e44db00000000p-5, 0x1.c5858a0000000p-4, -0x1.2d84180000000p-4, 0x1.014dac0000000p-5, 0x1.cb01b60000000p-4, 0x1.1e8b120000000p-4, -0x1.2e72f00000000p-4, 0x1.b8d3000000000p-9, -0x1.d5b7e00000000p-6, 0x1.3c072a0000000p-4, -0x1.79d73e0000000p-4, -0x1.92bbc00000000p-8, -0x1.e025c00000000p-9, -0x1.6802100000000p-7, -0x1.1dc4f00000000p-5, 0x1.bb01ac0000000p-5, -0x1.8635480000000p-6, -0x1.4fe0940000000p-4, 0x1.ad884a0000000p-4, 0x1.8227400000000p-8, -0x1.4499d40000000p-5, 0x1.8a540c0000000p-5, 0x1.c6dfe80000000p-6, 0x1.0c84ee0000000p-4, 0x1.a7b8e00000000p-8, -0x1.821c400000000p-8, -0x1.46e0ee0000000p-4, -0x1.61fdac0000000p-4, -0x1.a401440000000p-4, -0x1.e290580000000p-6, -0x1.7d76800000000p-6, -0x1.b181c20000000p-4, -0x1.4209d80000000p-4, -0x1.a86ac80000000p-4, 0x1.39c9380000000p-6, -0x1.f0bbb60000000p-5, -0x1.0027800000000p-7, -0x1.2324600000000p-5, -0x1.1a13680000000p-4, -0x1.7134fc0000000p-4, -0x1.26dde20000000p-4, -0x1.3ea3c80000000p-6, -0x1.73f14c0000000p-5, -0x1.9f68040000000p-5, 0x1.fd08400000000p-8, 0x1.1fbad60000000p-4, 0x1.9503500000000p-7, 0x1.6722600000000p-8, 0x1.aa69de0000000p-4, -0x1.7fbf4e0000000p-4, -0x1.57c8860000000p-4, 0x1.5376720000000p-4, 0x1.49fd960000000p-4, -0x1.0b2e800000000p-5, -0x1.0bcf600000000p-5, 0x1.79123c0000000p-5, 0x1.4862920000000p-4, 0x1.6d79860000000p-4, -0x1.b79f200000000p-5, -0x1.c036c40000000p-5, 0x1.914f580000000p-6, -0x1.4300300000000p-5, 0x1.c6f9ec0000000p-5, -0x1.56fb640000000p-4, 0x1.3f8ce60000000p-4, -0x1.3787440000000p-5, -0x1.6a7c200000000p-7, -0x1.d856120000000p-5, -0x1.4db9200000000p-4, 0x1.4e8b400000000p-9, 0x1.fed4a80000000p-6, -0x1.2c5fd80000000p-6, -0x1.e501ba0000000p-5, -0x1.1bb47e0000000p-4, -0x1.7ee3f40000000p-5, -0x1.b433400000000p-9, 0x1.a286880000000p-6, 0x1.95f13e0000000p-4, 0x1.e4e9b00000000p-7, -0x1.ef43800000000p-9, -0x1.4254700000000p-4, -0x1.3249100000000p-4, 0x1.e3f6780000000p-6, 0x1.5f59700000000p-7, 0x1.b20ca40000000p-5, 0x1.4597160000000p-4, -0x1.21edd80000000p-4, 0x1.9d3c540000000p-5, 0x1.2f242a0000000p-4, -0x1.fef0880000000p-5, 0x1.38fee00000000p-7, -0x1.b14be00000000p-4, -0x1.216c840000000p-5, 0x1.bfbbaa0000000p-4, 0x1.aa6f300000000p-7, 0x1.616c940000000p-5, -0x1.78a7c00000000p-7, -0x1.6d88ec0000000p-4, 0x1.3620ea0000000p-4, -0x1.35c8dc0000000p-4, -0x1.443cce0000000p-4, 0x1.064afe0000000p-4, -0x1.8ae5c80000000p-4, 0x1.6895700000000p-7, -0x1.2a73cc0000000p-5, 0x1.e24bbc0000000p-5, 0x1.bef0ee0000000p-4, -0x1.98c6f40000000p-5, -0x1.cf86860000000p-5, 0x1.2685960000000p-4, 0x1.3b23840000000p-5, 0x1.c117280000000p-6, -0x1.2b56840000000p-4, -0x1.845e000000000p-10, -0x1.69a8de0000000p-4, -0x1.5f94660000000p-4, -0x1.7fafae0000000p-4, -0x1.912fd20000000p-4, 0x1.f091a40000000p-5, -0x1.55cc300000000p-6, 0x1.2d9dc40000000p-5, 0x1.6af6c20000000p-4, -0x1.6433be0000000p-4, 0x1.5b3a540000000p-5, -0x1.7f53300000000p-6, -0x1.c6ca600000000p-4, 0x1.c06c480000000p-6, 0x1.51fcfe0000000p-4, -0x1.9488720000000p-4, 0x1.c251060000000p-4, 0x1.41d49e0000000p-4, -0x1.5bc1220000000p-4, -0x1.55c4c00000000p-6, 0x1.8f8a3e0000000p-4, 0x1.6ad05c0000000p-5, -0x1.4af7b40000000p-5, 0x1.57b0900000000p-7, 0x1.4dcb9e0000000p-4, 0x1.6f26b60000000p-4, 0x1.7961e40000000p-5, 0x1.30d3ae0000000p-4, -0x1.0cdaf80000000p-5, 0x1.433b320000000p-4, 0x1.2047640000000p-5, 0x1.defc300000000p-7, -0x1.c59a400000000p-7, -0x1.2aac580000000p-5, -0x1.88cac00000000p-8, -0x1.abaace0000000p-4, -0x1.5b6ba00000000p-8, 0x1.43e57a0000000p-4, -0x1.31dc640000000p-4, 0x1.0693880000000p-6, 0x1.8800780000000p-6, -0x1.588a800000000p-9, -0x1.3054700000000p-7, 0x1.beef960000000p-4, -0x1.b38c600000000p-6, -0x1.966f700000000p-5, 0x1.cb591e0000000p-4, -0x1.7cdd160000000p-4, 0x1.ec3ce40000000p-5, -0x1.44b53e0000000p-4, 0x1.55d35c0000000p-5, 0x1.85138e0000000p-4, 0x1.6b4fc80000000p-6, -0x1.89b5940000000p-4, -0x1.865d720000000p-4, -0x1.f73fd00000000p-7, 0x1.4a93360000000p-4, 0x1.f497c00000000p-9, -0x1.78c43a0000000p-4, 0x1.5f8e440000000p-5, -0x1.38c6600000000p-5, 0x1.5b686e0000000p-4, -0x1.a1d31c0000000p-5, 0x1.1bc9e40000000p-5, 0x1.c545820000000p-4, -0x1.37f4e00000000p-7, -0x1.7bc74c0000000p-4, -0x1.5e82ca0000000p-4, 0x1.60d2ee0000000p-4, 0x1.79b5f60000000p-4, -0x1.5986900000000p-7, 0x1.0bc5aa0000000p-4, -0x1.abc6c20000000p-5, -0x1.c1df000000000p-4, 0x1.73334c0000000p-5, -0x1.515f5a0000000p-4, -0x1.b0899c0000000p-5, 0x1.307c5e0000000p-4, -0x1.7e4eb00000000p-6, 0x1.78db6a0000000p-4, -0x1.4748cc0000000p-5, -0x1.c07c500000000p-6, 0x1.7466640000000p-5, -0x1.b990300000000p-7, 0x1.730cc80000000p-6, -0x1.fe71000000000p-8, -0x1.3b04080000000p-5, -0x1.7d5f6c0000000p-5, -0x1.3389840000000p-4, -0x1.836f100000000p-5, -0x1.5873fc0000000p-4, -0x1.f273000000000p-6, 0x1.1541a00000000p-8, 0x1.0b803e0000000p-4, 0x1.4ea28c0000000p-5, -0x1.bd62ae0000000p-4, 0x1.9f22300000000p-7, -0x1.a074400000000p-5, 0x1.6136800000000p-8, -0x1.6ba4200000000p-6, 0x1.0f75600000000p-8, -0x1.e629d80000000p-6, -0x1.196bee0000000p-4, -0x1.ae6ca20000000p-5, 0x1.45a15c0000000p-5, -0x1.c149760000000p-5, -0x1.a340c00000000p-9, 0x1.ce519c0000000p-5, 0x1.0f45520000000p-4, -0x1.079fb40000000p-5, -0x1.3e093a0000000p-4, 0x1.0ebce40000000p-5, -0x1.9e79080000000p-4, -0x1.c2704e0000000p-4, 0x1.3b46040000000p-5, 0x1.73abe60000000p-4, -0x1.72019c0000000p-4, 0x1.c4b46e0000000p-4, -0x1.cdbc800000000p-8, -0x1.7139480000000p-4, -0x1.8354100000000p-6, 0x1.b2b5d80000000p-6, 0x1.64ea0c0000000p-5, -0x1.5f764c0000000p-5, 0x1.2c9c600000000p-8, -0x1.08c7000000000p-6, -0x1.1352d20000000p-4, -0x1.57769c0000000p-5, -0x1.175a880000000p-6, 0x1.83a8660000000p-4, 0x1.15d9060000000p-4, 0x1.0c69660000000p-4, -0x1.10541a0000000p-4, -0x1.3d6efe0000000p-4, -0x1.2d9af80000000p-6, -0x1.72a3320000000p-4, -0x1.26885c0000000p-4, -0x1.a7a8800000000p-6, 0x1.30b4080000000p-6, 0x1.8a96de0000000p-4, -0x1.ad65700000000p-6, -0x1.0445480000000p-6, -0x1.6f4c600000000p-6, 0x1.6e262a0000000p-4, -0x1.ef4a980000000p-6, 0x1.4b6e6a0000000p-4, -0x1.a2486e0000000p-4, -0x1.459fcc0000000p-4, 0x1.b2dc700000000p-7, -0x1.40943c0000000p-4, -0x1.21c1c00000000p-4, -0x1.55de1c0000000p-4, 0x1.e2eb8c0000000p-5, -0x1.d3cbf60000000p-4, -0x1.c0784a0000000p-5, 0x1.7a35a20000000p-4, -0x1.64817c0000000p-4, 0x1.b3610a0000000p-4, -0x1.4511840000000p-4, -0x1.b61b200000000p-8, -0x1.ecacd80000000p-5, 0x1.0bbc280000000p-6, -0x1.b9d0b00000000p-4, 0x1.6f41340000000p-5, 0x1.9b9e9e0000000p-4, 0x1.f2a0ac0000000p-5, 0x1.2b62c80000000p-6, -0x1.4b3f100000000p-5, 0x1.53971e0000000p-4, 0x1.a922900000000p-7, -0x1.f163560000000p-5, -0x1.053c6c0000000p-4, 0x1.57b0860000000p-4, -0x1.84caf40000000p-4, -0x1.ffa58c0000000p-5, 0x1.da92880000000p-6, 0x1.50cae40000000p-5, 0x1.5be6f60000000p-4, -0x1.2d01d00000000p-6, -0x1.1d6e860000000p-4, 0x1.61cee20000000p-4, -0x1.8405240000000p-4, -0x1.1918840000000p-4, 0x1.0373080000000p-6, -0x1.7c140a0000000p-4, -0x1.32d4380000000p-5, 0x1.2865280000000p-6, -0x1.03b0a80000000p-5, 0x1.37d7c20000000p-4, 0x1.28fe020000000p-4, -0x1.009cb40000000p-4, 0x1.c21bc60000000p-4, -0x1.9aed5c0000000p-4, 0x1.74091c0000000p-5, -0x1.56ade80000000p-6, -0x1.339d240000000p-4, 0x1.42450c0000000p-5, -0x1.07090c0000000p-4, 0x1.79f9d80000000p-6, 0x1.2937180000000p-6, 0x1.0102fa0000000p-4, -0x1.44c7280000000p-6, -0x1.8e92e00000000p-4, 0x1.b3606c0000000p-5, -0x1.63c0f80000000p-4, 0x1.62de920000000p-4, 0x1.4a863e0000000p-4, 0x1.947de00000000p-8, -0x1.c35cd00000000p-7, -0x1.5056ac0000000p-4, 0x1.8eef560000000p-4, -0x1.ad699e0000000p-4, 0x1.165d6c0000000p-5, -0x1.4836a40000000p-4, 0x1.3060220000000p-4, 0x1.0ace740000000p-5, 0x1.70b5f20000000p-4, -0x1.1762700000000p-5, -0x1.8f5e620000000p-4, -0x1.b79d200000000p-7, 0x1.4c043e0000000p-4, -0x1.6d12700000000p-5, -0x1.9d72f40000000p-4, -0x1.cf94800000000p-7, 0x1.57d8b40000000p-5, -0x1.fc714a0000000p-5, 0x1.38bd800000000p-10, -0x1.5f88e60000000p-4, -0x1.29a8e00000000p-4, -0x1.b07b980000000p-5, -0x1.540e400000000p-7, -0x1.6649f80000000p-4, -0x1.88a1900000000p-5, -0x1.c1695e0000000p-4, -0x1.f3e7b00000000p-7, -0x1.216ee40000000p-4, -0x1.5889d00000000p-5, 0x1.9a73320000000p-4, 0x1.ba0d0a0000000p-4, -0x1.1619cc0000000p-4, -0x1.80adc00000000p-4, -0x1.2187b40000000p-5, 0x1.b463520000000p-4, 0x1.30d2e60000000p-4, 0x1.a448f00000000p-7, -0x1.83ba340000000p-5, -0x1.979d300000000p-7, -0x1.352dc00000000p-5, 0x1.98b10c0000000p-5, 0x1.3e1e6c0000000p-5, 0x1.83f2320000000p-4}
, {0x1.8f87ba0000000p-4, 0x1.92f69c0000000p-5, 0x1.57d6bc0000000p-5, -0x1.3f8f3c0000000p-4, -0x1.d9f0000000000p-5, -0x1.6a3e600000000p-5, 0x1.4f8e980000000p-6, 0x1.1240e80000000p-6, 0x1.b915000000000p-9, 0x1.81c95a0000000p-4, -0x1.7e25340000000p-5, 0x1.39d8620000000p-4, 0x1.8457200000000p-8, 0x1.0021f20000000p-4, 0x1.9f93720000000p-4, 0x1.399a3e0000000p-4, -0x1.5b70a80000000p-6, 0x1.d4497e0000000p-4, 0x1.bd725e0000000p-4, 0x1.c144500000000p-7, -0x1.7406e00000000p-8, 0x1.887ada0000000p-4, -0x1.81a0cc0000000p-4, 0x1.42940e0000000p-4, -0x1.90aca00000000p-7, 0x1.7552dc0000000p-5, -0x1.5a20a80000000p-4, 0x1.ac02480000000p-6, -0x1.0fdf180000000p-6, -0x1.8731a00000000p-7, -0x1.e131a00000000p-6, -0x1.b0bac60000000p-4, 0x1.3cdb260000000p-4, -0x1.c98f760000000p-4, 0x1.7fb5de0000000p-4, 0x1.ad92240000000p-5, -0x1.a21f740000000p-5, -0x1.ae67880000000p-6, -0x1.1b4f7c0000000p-5, -0x1.bb1a200000000p-7, -0x1.8025cc0000000p-5, -0x1.8725a00000000p-6, 0x1.e113680000000p-6, 0x1.a047ba0000000p-4, 0x1.9802fa0000000p-4, 0x1.b343e80000000p-6, -0x1.7380600000000p-6, 0x1.52995c0000000p-5, 0x1.fc2e540000000p-5, 0x1.f5d2040000000p-5, 0x1.a1d9ee0000000p-4, 0x1.2faa760000000p-4, 0x1.74df180000000p-6, 0x1.4804320000000p-4, 0x1.24bd440000000p-5, -0x1.7cf9080000000p-6, 0x1.e086240000000p-5, -0x1.2fe0000000000p-8, -0x1.9df4080000000p-5, 0x1.638a420000000p-4, 0x1.3508000000000p-13, 0x1.3a48740000000p-5, -0x1.6d25600000000p-4, -0x1.bb37da0000000p-4, 0x1.b452160000000p-4, -0x1.155b600000000p-5, -0x1.50c96a0000000p-4, -0x1.6959840000000p-4, 0x1.51debc0000000p-5, 0x1.05d5c20000000p-4, -0x1.be4b380000000p-6, -0x1.b3dc000000000p-10, 0x1.44a9c00000000p-7, 0x1.3217140000000p-5, -0x1.10754c0000000p-4, -0x1.19899c0000000p-5, -0x1.3fea680000000p-4, 0x1.75e8ac0000000p-5, -0x1.5d15b80000000p-6, 0x1.60a4620000000p-4, -0x1.fe73d80000000p-6, 0x1.d1499c0000000p-5, -0x1.300f280000000p-4, 0x1.8d32c00000000p-9, 0x1.4667f40000000p-5, -0x1.67cc000000000p-12, 0x1.9022d00000000p-7, 0x1.cc03080000000p-6, 0x1.c6ca6e0000000p-4, 0x1.e41cd00000000p-7, 0x1.edb8680000000p-6, -0x1.c2e2d20000000p-4, -0x1.2312200000000p-7, -0x1.1572700000000p-5, 0x1.69d8220000000p-4, 0x1.149d400000000p-7, -0x1.a371980000000p-4, -0x1.9efa820000000p-4, -0x1.2557e00000000p-4, -0x1.0ccef00000000p-6, 0x1.907b780000000p-6, 0x1.2a07f80000000p-6, -0x1.bfd6480000000p-5, -0x1.677af80000000p-5, 0x1.2bbccc0000000p-5, -0x1.b865000000000p-4, 0x1.cda2a20000000p-4, 0x1.271f460000000p-4, 0x1.aa11880000000p-6, -0x1.abc1080000000p-6, 0x1.2db7ce0000000p-4, -0x1.e73a980000000p-6, -0x1.c6661c0000000p-5, -0x1.9de16e0000000p-4, 0x1.b3e7e20000000p-4, 0x1.0fa2c60000000p-4, -0x1.0691d00000000p-6, 0x1.36d4de0000000p-4, 0x1.8c0f880000000p-6, 0x1.35ea8c0000000p-5, -0x1.1b1f300000000p-5, -0x1.f4e3c00000000p-8, 0x1.9099040000000p-5, 0x1.ef64c00000000p-8, 0x1.347f140000000p-5, -0x1.b033c40000000p-5, -0x1.87bb1c0000000p-5, 0x1.38aa080000000p-6, -0x1.0c3bd00000000p-4, -0x1.7498400000000p-7, 0x1.f57fd80000000p-6, 0x1.c241020000000p-4, -0x1.32774e0000000p-4, -0x1.2034400000000p-4, -0x1.5400300000000p-6, -0x1.4303ac0000000p-5, 0x1.a867280000000p-6, 0x1.0978ee0000000p-4, 0x1.f9499c0000000p-5, -0x1.a74b800000000p-9, 0x1.44a9980000000p-6, 0x1.09a4b60000000p-4, 0x1.5003520000000p-4, -0x1.0c86e00000000p-4, 0x1.4b173a0000000p-4, 0x1.7d84a60000000p-4, -0x1.b221640000000p-4, 0x1.5af70e0000000p-4, 0x1.87ae520000000p-4, 0x1.c240c60000000p-4, -0x1.13b1800000000p-4, -0x1.31ea200000000p-4, 0x1.de16800000000p-10, -0x1.a52a100000000p-6, -0x1.1ffd380000000p-4, -0x1.a31aa00000000p-6, -0x1.9a3e700000000p-6, -0x1.616b6c0000000p-4, 0x1.7a56aa0000000p-4, -0x1.c0e72c0000000p-4, -0x1.dd57000000000p-9, 0x1.2b0f780000000p-6, -0x1.aab3100000000p-4, 0x1.187daa0000000p-4, 0x1.b6e0120000000p-4, 0x1.cf467a0000000p-4, -0x1.8adc7c0000000p-4, 0x1.b910f20000000p-4, -0x1.149d500000000p-4, -0x1.cc49cc0000000p-4, -0x1.2265b00000000p-4, 0x1.1dcfd20000000p-4, 0x1.d9102c0000000p-5, 0x1.a0e5960000000p-4, -0x1.b012400000000p-7, 0x1.2b9c580000000p-6, 0x1.3c21aa0000000p-4, 0x1.0e602e0000000p-4, -0x1.4bb6180000000p-5, 0x1.9ae5ea0000000p-4, 0x1.c72a000000000p-12, -0x1.3f70f80000000p-4, 0x1.47dd5e0000000p-4, 0x1.ef96d80000000p-6, -0x1.6624c00000000p-8, 0x1.454dcc0000000p-5, 0x1.2d0daa0000000p-4, -0x1.c63dc40000000p-5, -0x1.6994000000000p-7, 0x1.4a5d0a0000000p-4, -0x1.5fa7000000000p-4, 0x1.28456c0000000p-5, 0x1.1813d60000000p-4, 0x1.5e5e6e0000000p-4, 0x1.2b5ed40000000p-5, 0x1.beaac60000000p-4, 0x1.f6b3f80000000p-6, -0x1.5549780000000p-6, 0x1.5607780000000p-6, 0x1.4a86220000000p-4, -0x1.cd32e00000000p-6, 0x1.ae08a40000000p-5, -0x1.43fec00000000p-7, 0x1.c00cb40000000p-5, 0x1.b687640000000p-5, 0x1.0a822e0000000p-4, 0x1.b220a60000000p-4, 0x1.3d29140000000p-5, -0x1.87e7c00000000p-6, 0x1.2feeda0000000p-4, 0x1.41e8700000000p-7, 0x1.adf0d80000000p-6, -0x1.c97bb00000000p-5, -0x1.374a4c0000000p-4, 0x1.0f4de20000000p-4, -0x1.bd16f80000000p-4, 0x1.a73cf40000000p-5, 0x1.ab67d00000000p-7, -0x1.e7d7600000000p-8, -0x1.a0a61e0000000p-4, 0x1.8cc5220000000p-4, 0x1.3462520000000p-4, 0x1.df2b640000000p-5, -0x1.2476240000000p-5, -0x1.43fd400000000p-9, -0x1.f80cbe0000000p-5, -0x1.abe3b80000000p-4, -0x1.281a700000000p-5, 0x1.bf2ed40000000p-5, 0x1.902c160000000p-4, -0x1.afbaf60000000p-4, -0x1.0c58580000000p-4, -0x1.a7a8600000000p-4, 0x1.cf99140000000p-5, 0x1.70b79a0000000p-4, -0x1.bea6c00000000p-9, -0x1.b5bfb80000000p-6, 0x1.9e51900000000p-7, 0x1.9b51380000000p-6, 0x1.3b1db80000000p-6, -0x1.a739f40000000p-4, -0x1.8e3bc80000000p-5, 0x1.845cba0000000p-4, -0x1.3c8f4a0000000p-4, 0x1.701b5e0000000p-4, -0x1.39feca0000000p-4, 0x1.33d30c0000000p-5, 0x1.43f3d80000000p-6, -0x1.18812e0000000p-4, -0x1.2691f80000000p-4, -0x1.ce4a820000000p-4, -0x1.11b2000000000p-4, 0x1.26ce420000000p-4, 0x1.07fdb60000000p-4, -0x1.11ac000000000p-13, -0x1.c9d62c0000000p-5, 0x1.a7cb760000000p-4, -0x1.6168200000000p-5, -0x1.9f29200000000p-5, 0x1.3802ce0000000p-4, 0x1.83a6040000000p-5, -0x1.e253e00000000p-7, -0x1.02680c0000000p-5, 0x1.2888460000000p-4, 0x1.5c5eae0000000p-4, 0x1.1cd50c0000000p-5, -0x1.9c3d240000000p-5, -0x1.4ac8000000000p-13, -0x1.3297440000000p-4, 0x1.bf16da0000000p-4, 0x1.262e940000000p-5, 0x1.849d2a0000000p-4, 0x1.4ecef20000000p-4, 0x1.b4bec60000000p-4, 0x1.17a2e60000000p-4, 0x1.ddd1000000000p-11, 0x1.10a4480000000p-6, 0x1.884d080000000p-6, -0x1.71fedc0000000p-4, -0x1.94bb520000000p-4, -0x1.6b78ca0000000p-4, -0x1.41c3a80000000p-5, 0x1.7304560000000p-4, -0x1.c6223c0000000p-4, -0x1.a652180000000p-4, -0x1.08dc680000000p-4, -0x1.9c87700000000p-6, 0x1.7a54ea0000000p-4, 0x1.cdfc900000000p-7, -0x1.bd60f00000000p-5, 0x1.06362a0000000p-4, 0x1.0a970a0000000p-4, 0x1.8601a60000000p-4, -0x1.ae7d8a0000000p-4, -0x1.2d398c0000000p-5, -0x1.238a100000000p-5, 0x1.1b6e540000000p-5, -0x1.4efb8c0000000p-4, 0x1.f69bf40000000p-5, -0x1.aa2ef20000000p-5, 0x1.9300980000000p-6, 0x1.a6b7120000000p-4, -0x1.b4aec00000000p-8, 0x1.93dc740000000p-5, 0x1.65e0a40000000p-5, 0x1.9d50860000000p-4, -0x1.5073c00000000p-6, 0x1.2d683c0000000p-5, -0x1.817c240000000p-5, -0x1.7e51700000000p-5, 0x1.8645120000000p-4, 0x1.08bdd80000000p-6, 0x1.26ac460000000p-4, 0x1.3334000000000p-9, -0x1.e510000000000p-15, -0x1.4d91200000000p-4, 0x1.2902fe0000000p-4, 0x1.87fd1a0000000p-4, 0x1.a9ed7c0000000p-5, -0x1.ccc69c0000000p-5, 0x1.0d5c460000000p-4, 0x1.3807a20000000p-4, -0x1.9d9a5c0000000p-5, 0x1.136c080000000p-6, 0x1.2ea3ba0000000p-4, -0x1.a87fca0000000p-4, 0x1.8fa4ea0000000p-4, -0x1.b533340000000p-4, 0x1.bc661c0000000p-5, 0x1.6183260000000p-4, -0x1.2864c00000000p-4, -0x1.0b57140000000p-4, 0x1.c211320000000p-4, 0x1.6dabd60000000p-4, -0x1.739ee20000000p-4, -0x1.60ef700000000p-5, 0x1.18722e0000000p-4, -0x1.26f6200000000p-5, 0x1.a2fa700000000p-7, 0x1.4a0bbe0000000p-4, 0x1.b22c260000000p-4, 0x1.17a5f60000000p-4, 0x1.8300bc0000000p-5, -0x1.352cf00000000p-7, 0x1.2e86560000000p-4, -0x1.6e16300000000p-4, -0x1.88a1ea0000000p-4, 0x1.475aae0000000p-4, -0x1.5250f80000000p-5, -0x1.b031600000000p-7, -0x1.490c580000000p-6, -0x1.2ddfa00000000p-6, -0x1.9744700000000p-5, -0x1.565e300000000p-5, 0x1.d621b80000000p-6, 0x1.1071b80000000p-6, 0x1.d06fd40000000p-5, 0x1.bce8020000000p-4, -0x1.9501b00000000p-5, -0x1.a60e4e0000000p-4, -0x1.b49eaa0000000p-4, -0x1.12bba00000000p-4, -0x1.d1790a0000000p-5, -0x1.6346220000000p-4, -0x1.ade20e0000000p-4, -0x1.fcf6ce0000000p-5, 0x1.0dda620000000p-4, 0x1.83dcf40000000p-5, 0x1.5e01740000000p-5, -0x1.bceaee0000000p-5, -0x1.120a000000000p-10, -0x1.d37f780000000p-6, 0x1.59b5dc0000000p-5, -0x1.0691040000000p-5, -0x1.b874880000000p-6, 0x1.d34b940000000p-5, -0x1.815e200000000p-4, 0x1.1c40ca0000000p-4, 0x1.8fbd9a0000000p-4, 0x1.175f0e0000000p-4, -0x1.0180960000000p-4, -0x1.303de00000000p-4, -0x1.45e0fa0000000p-4, -0x1.65c6240000000p-5, 0x1.ab88360000000p-4, -0x1.709d380000000p-4, 0x1.3a3b720000000p-4, 0x1.45d3ac0000000p-5, 0x1.254c560000000p-4, -0x1.b6a9c20000000p-4, -0x1.99ea080000000p-5, -0x1.729c600000000p-6, 0x1.bc0fcc0000000p-5, 0x1.5603360000000p-4, 0x1.2b99de0000000p-4, -0x1.d63d620000000p-5, 0x1.9f855e0000000p-4, 0x1.ee94e40000000p-5, 0x1.da59800000000p-8, -0x1.4c04d80000000p-4, 0x1.7620460000000p-4, -0x1.b490a80000000p-6, -0x1.9358000000000p-13, 0x1.6a3d920000000p-4, 0x1.1602fc0000000p-5, 0x1.8f3fee0000000p-4, 0x1.4a6b420000000p-4, 0x1.9aa5560000000p-4, 0x1.1f2a2c0000000p-5, 0x1.788b320000000p-4, 0x1.5291c20000000p-4, -0x1.388bd40000000p-5, 0x1.cfc77a0000000p-4, -0x1.5f37780000000p-5, -0x1.0c88ac0000000p-4, 0x1.0d22640000000p-5, -0x1.cdbb100000000p-7, -0x1.8c23240000000p-4, -0x1.72c15a0000000p-4, -0x1.420fd40000000p-5, 0x1.c591720000000p-4, -0x1.9fc3ec0000000p-5, -0x1.100aac0000000p-4, -0x1.ab3e380000000p-6, 0x1.90d7860000000p-4, 0x1.fc209c0000000p-5, 0x1.b779180000000p-6, 0x1.8bb3b80000000p-6, -0x1.a81c100000000p-4, 0x1.00f6940000000p-5, -0x1.9676200000000p-7, 0x1.8923240000000p-5, -0x1.0133e80000000p-4, -0x1.0102140000000p-4, 0x1.16b8200000000p-8, 0x1.8b39940000000p-5, -0x1.d1e6940000000p-4, 0x1.200ee80000000p-6, -0x1.48e4f80000000p-6, -0x1.6823060000000p-4, 0x1.73cf240000000p-5, 0x1.a7728e0000000p-4, 0x1.196dc00000000p-9, 0x1.85be100000000p-7, -0x1.244d960000000p-4, 0x1.72993e0000000p-4, 0x1.01cb460000000p-4, -0x1.d36e400000000p-4}
, {-0x1.8f38440000000p-4, -0x1.74bf800000000p-6, -0x1.2d86780000000p-5, -0x1.7379d40000000p-4, -0x1.c5bf920000000p-4, -0x1.d786380000000p-5, -0x1.1491d00000000p-4, 0x1.01739a0000000p-4, 0x1.af22ca0000000p-4, -0x1.c876780000000p-4, 0x1.191ea80000000p-6, -0x1.ebba400000000p-8, -0x1.53af440000000p-5, -0x1.16230c0000000p-4, -0x1.22acfc0000000p-5, -0x1.5347500000000p-4, -0x1.8e92d00000000p-5, 0x1.5dc1120000000p-4, 0x1.7149e20000000p-4, 0x1.66e8ca0000000p-4, -0x1.543fb00000000p-7, 0x1.8792e80000000p-6, -0x1.3178d00000000p-4, -0x1.d0fe1c0000000p-4, 0x1.58904c0000000p-5, -0x1.d629ec0000000p-5, 0x1.2acd4e0000000p-4, 0x1.d221c60000000p-4, 0x1.8ed6fc0000000p-5, 0x1.859a480000000p-6, 0x1.77795e0000000p-4, -0x1.0e8dbc0000000p-4, 0x1.c4b14c0000000p-5, 0x1.76822c0000000p-5, 0x1.01f22a0000000p-4, -0x1.0a2a1c0000000p-5, 0x1.c1f32e0000000p-4, -0x1.426cc40000000p-5, -0x1.4ada680000000p-6, 0x1.1178840000000p-5, -0x1.309f240000000p-5, -0x1.89ae800000000p-10, 0x1.fc4bb80000000p-6, 0x1.087dd80000000p-6, -0x1.c261560000000p-4, -0x1.a79d220000000p-4, 0x1.8fd0f40000000p-5, -0x1.06a6c00000000p-6, 0x1.73974e0000000p-4, -0x1.6ae15c0000000p-4, -0x1.3802b80000000p-6, 0x1.af284a0000000p-4, -0x1.0cf3d00000000p-5, -0x1.baf2480000000p-6, 0x1.2f7da60000000p-4, 0x1.48edf40000000p-5, -0x1.69c5b60000000p-4, -0x1.67dda00000000p-6, -0x1.e254780000000p-6, 0x1.dea3d00000000p-7, -0x1.0243240000000p-5, -0x1.5d83680000000p-4, -0x1.0416100000000p-4, -0x1.44115e0000000p-4, -0x1.472e380000000p-4, 0x1.d3170c0000000p-5, -0x1.3dcf5e0000000p-4, -0x1.b6ab060000000p-4, -0x1.3993600000000p-4, 0x1.0fc35e0000000p-4, 0x1.ecdbd80000000p-6, 0x1.1690080000000p-6, -0x1.a4d1600000000p-4, -0x1.c93e1c0000000p-5, -0x1.d715040000000p-5, 0x1.cf529e0000000p-4, 0x1.89f0c20000000p-4, -0x1.8a99f00000000p-6, -0x1.9050920000000p-4, 0x1.80b6720000000p-4, -0x1.3616000000000p-9, -0x1.5a14d00000000p-5, -0x1.7beb620000000p-4, 0x1.b6b7620000000p-4, 0x1.7fa5ce0000000p-4, -0x1.177d540000000p-4, -0x1.7556380000000p-6, -0x1.9605d80000000p-6, 0x1.042b120000000p-4, -0x1.f8b8600000000p-8, -0x1.a162a20000000p-4, -0x1.96916e0000000p-4, -0x1.b756480000000p-6, 0x1.bcbb320000000p-4, -0x1.387ec20000000p-4, 0x1.53c0d60000000p-4, -0x1.2ad2420000000p-4, -0x1.e500400000000p-6, -0x1.4b06760000000p-4, 0x1.33e16c0000000p-5, -0x1.599fb00000000p-7, 0x1.1d3c9e0000000p-4, 0x1.6369840000000p-5, 0x1.d2a23a0000000p-4, 0x1.794b760000000p-4, -0x1.012a240000000p-4, -0x1.7da0d60000000p-4, -0x1.a4a7b00000000p-5, 0x1.10399a0000000p-4, -0x1.2539a00000000p-4, -0x1.3b0d140000000p-4, -0x1.356bc80000000p-6, 0x1.ba6c080000000p-6, -0x1.bcfc620000000p-4, 0x1.0c1cda0000000p-4, 0x1.d9f4b40000000p-5, -0x1.eab3000000000p-6, -0x1.185cd00000000p-4, 0x1.8b80780000000p-6, 0x1.7c73a60000000p-4, -0x1.6d3be40000000p-4, -0x1.9dc8240000000p-5, -0x1.1eb34c0000000p-4, -0x1.618ac80000000p-4, 0x1.3dad1e0000000p-4, 0x1.07cc820000000p-4, 0x1.8c336e0000000p-4, -0x1.4820500000000p-7, -0x1.ae9d7a0000000p-4, -0x1.6969e20000000p-4, 0x1.61f1240000000p-5, -0x1.123ec00000000p-4, 0x1.579efa0000000p-4, -0x1.b6ba300000000p-4, 0x1.3b60b00000000p-7, -0x1.b148280000000p-4, 0x1.3885340000000p-5, -0x1.2bca8c0000000p-5, -0x1.3dad900000000p-6, -0x1.8096e00000000p-6, 0x1.08c1080000000p-6, 0x1.b10d9e0000000p-4, -0x1.d4d5d00000000p-7, -0x1.39400c0000000p-5, 0x1.097ce40000000p-5, -0x1.3f21700000000p-5, 0x1.d2c4c00000000p-8, 0x1.0b797e0000000p-4, 0x1.71b5760000000p-4, 0x1.423cd60000000p-4, 0x1.f64b2c0000000p-5, -0x1.9c3fce0000000p-4, -0x1.3fcdfc0000000p-5, -0x1.5fc1e40000000p-5, -0x1.84c0d00000000p-6, 0x1.35ff320000000p-4, 0x1.00b3560000000p-4, -0x1.0263940000000p-5, -0x1.e9f4c60000000p-5, 0x1.c973d80000000p-6, -0x1.37c7a80000000p-4, 0x1.f02f800000000p-10, 0x1.b510860000000p-4, -0x1.b2cec40000000p-4, -0x1.63f2bc0000000p-4, -0x1.0119080000000p-4, -0x1.a453a40000000p-4, -0x1.77ccd40000000p-4, 0x1.99e9840000000p-5, -0x1.4fbc700000000p-4, 0x1.a868780000000p-6, -0x1.a728300000000p-5, 0x1.063f4a0000000p-4, 0x1.65a06e0000000p-4, 0x1.64617c0000000p-5, 0x1.2643920000000p-4, -0x1.48d3480000000p-4, -0x1.a3ec240000000p-5, 0x1.74a4da0000000p-4, 0x1.1c45da0000000p-4, -0x1.3274a40000000p-4, -0x1.1b40d40000000p-4, 0x1.b4bd800000000p-9, 0x1.69d56c0000000p-5, -0x1.bb48fe0000000p-5, -0x1.0a6b200000000p-4, -0x1.8e5a740000000p-4, -0x1.571ac80000000p-4, 0x1.2cc07a0000000p-4, 0x1.d99d240000000p-5, 0x1.0821780000000p-6, 0x1.dd65880000000p-6, 0x1.f59ecc0000000p-5, 0x1.5390a00000000p-7, 0x1.7da3e60000000p-4, -0x1.0ac1640000000p-4, 0x1.9ab5820000000p-4, -0x1.dd28f40000000p-5, 0x1.8b7b400000000p-8, 0x1.1c49260000000p-4, -0x1.7ad2200000000p-8, 0x1.d3bb3c0000000p-5, 0x1.ba2c5e0000000p-4, -0x1.1faf140000000p-4, -0x1.0cd75c0000000p-4, -0x1.217d380000000p-4, -0x1.c067fc0000000p-4, 0x1.3d23700000000p-7, 0x1.35b3320000000p-4, -0x1.ca5faa0000000p-4, 0x1.33c6bc0000000p-5, -0x1.4742e00000000p-4, -0x1.78db000000000p-7, 0x1.73a65a0000000p-4, 0x1.66d1040000000p-5, 0x1.94164c0000000p-5, -0x1.0bb6b40000000p-4, -0x1.a8b5200000000p-8, 0x1.92079a0000000p-4, -0x1.5d09780000000p-6, 0x1.c28f980000000p-6, -0x1.54c1000000000p-10, -0x1.61bc240000000p-4, 0x1.ed29140000000p-5, -0x1.ea4d5c0000000p-5, -0x1.a26a060000000p-4, 0x1.9517b40000000p-5, -0x1.80d7a00000000p-8, 0x1.ddd1700000000p-7, 0x1.d1aef40000000p-5, 0x1.ac65d00000000p-7, -0x1.0bb8a40000000p-5, -0x1.55adf20000000p-4, 0x1.63f1900000000p-7, 0x1.169abe0000000p-4, -0x1.2371be0000000p-4, 0x1.0b72000000000p-11, 0x1.237a220000000p-4, -0x1.f2485c0000000p-5, -0x1.8e2bfc0000000p-5, 0x1.ab02080000000p-6, 0x1.5a0cdc0000000p-5, 0x1.a6b9be0000000p-4, -0x1.d294260000000p-5, 0x1.ccb8220000000p-4, 0x1.4170540000000p-5, 0x1.7014120000000p-4, 0x1.0f46020000000p-4, -0x1.3234b80000000p-6, 0x1.5edfe80000000p-6, -0x1.cda0060000000p-4, -0x1.6c95800000000p-4, -0x1.5404e00000000p-7, 0x1.92c3a60000000p-4, -0x1.a64aea0000000p-4, 0x1.dbb4980000000p-6, 0x1.b418cc0000000p-5, 0x1.7636120000000p-4, 0x1.67f24a0000000p-4, 0x1.139b1a0000000p-4, -0x1.b812280000000p-5, -0x1.a4e8e00000000p-5, 0x1.86a1680000000p-6, 0x1.128c000000000p-8, -0x1.9248280000000p-4, -0x1.b71bbc0000000p-4, 0x1.3c9a7a0000000p-4, -0x1.3f61000000000p-4, 0x1.9de5360000000p-4, -0x1.011e540000000p-4, 0x1.ea32a40000000p-5, 0x1.2138d60000000p-4, 0x1.0718720000000p-4, -0x1.1d2bdc0000000p-5, -0x1.7dfc2c0000000p-5, -0x1.d9dc000000000p-13, 0x1.5b5ce40000000p-5, 0x1.088e520000000p-4, -0x1.16ba440000000p-4, -0x1.8cbb920000000p-4, 0x1.97bb600000000p-8, -0x1.98f8400000000p-9, 0x1.4d27680000000p-6, 0x1.b833b40000000p-5, -0x1.11fc300000000p-4, 0x1.b033e80000000p-6, -0x1.2972900000000p-4, -0x1.c491c00000000p-6, 0x1.af97900000000p-7, -0x1.d3ebb20000000p-5, 0x1.d598980000000p-6, -0x1.2494000000000p-5, 0x1.8b38540000000p-5, -0x1.81d6000000000p-6, -0x1.57602c0000000p-4, 0x1.b1834e0000000p-4, -0x1.48d0640000000p-4, -0x1.79878c0000000p-5, -0x1.f2faf80000000p-6, -0x1.47867e0000000p-4, 0x1.7967ae0000000p-4, -0x1.0f95300000000p-4, 0x1.c1aa180000000p-6, 0x1.e77d240000000p-5, -0x1.e119e40000000p-5, -0x1.0665200000000p-4, 0x1.906ddc0000000p-5, 0x1.b0f6160000000p-4, -0x1.8f2be80000000p-4, 0x1.3ba6500000000p-7, 0x1.df254c0000000p-5, 0x1.2abe8c0000000p-5, 0x1.a2288e0000000p-4, 0x1.bc1e840000000p-5, -0x1.0bfab00000000p-5, -0x1.abb1de0000000p-4, -0x1.4644200000000p-4, -0x1.ab04d00000000p-5, -0x1.288e800000000p-4, -0x1.e198d20000000p-5, -0x1.86e2c00000000p-9, 0x1.72aeec0000000p-5, 0x1.76488a0000000p-4, 0x1.76af540000000p-5, 0x1.46ae800000000p-10, 0x1.f4a1880000000p-6, -0x1.743b4c0000000p-5, 0x1.dd09b00000000p-7, 0x1.a3f1e80000000p-6, -0x1.749bec0000000p-4, -0x1.47f9080000000p-4, 0x1.92f83e0000000p-4, -0x1.9a8cc80000000p-4, -0x1.2dfad00000000p-5, -0x1.99b0640000000p-5, -0x1.1033200000000p-7, 0x1.2f63c80000000p-6, 0x1.b4b83c0000000p-5, 0x1.8117a80000000p-6, -0x1.abef0c0000000p-4, -0x1.e037b00000000p-7, 0x1.83b5d00000000p-7, -0x1.feee700000000p-7, -0x1.4ec3d80000000p-4, 0x1.d2564a0000000p-4, 0x1.5d83ce0000000p-4, 0x1.871aa20000000p-4, -0x1.6dc5080000000p-6, 0x1.c1a0160000000p-4, 0x1.33f5d20000000p-4, -0x1.2442600000000p-8, -0x1.5a0a480000000p-5, -0x1.1ead2c0000000p-4, 0x1.92f4640000000p-5, -0x1.6a3fce0000000p-4, -0x1.ddeb120000000p-5, -0x1.77e4780000000p-4, 0x1.d26ba40000000p-5, -0x1.1de5ac0000000p-5, -0x1.3924a00000000p-7, 0x1.678a060000000p-4, 0x1.14b2b60000000p-4, -0x1.0a499c0000000p-4, 0x1.51e0020000000p-4, 0x1.b1f32c0000000p-5, 0x1.234c260000000p-4, -0x1.eb40a40000000p-5, 0x1.9bc98c0000000p-5, 0x1.fa14a80000000p-6, -0x1.0b88000000000p-4, 0x1.f20f700000000p-7, -0x1.0dea3c0000000p-5, -0x1.447ad00000000p-7, 0x1.3cc3220000000p-4, -0x1.69446e0000000p-4, -0x1.e610e00000000p-5, 0x1.d3e7660000000p-4, 0x1.5c7cb40000000p-5, -0x1.d8ab840000000p-5, 0x1.6f4d540000000p-5, 0x1.056a7e0000000p-4, 0x1.2c6d120000000p-4, -0x1.6a47c20000000p-4, 0x1.5f96420000000p-4, -0x1.6533c80000000p-4, 0x1.86a8900000000p-7, -0x1.64f5400000000p-8, 0x1.6d312a0000000p-4, 0x1.f00bb00000000p-7, -0x1.642e640000000p-4, 0x1.2a559e0000000p-4, -0x1.7d13780000000p-6, 0x1.86ee660000000p-4, 0x1.39b9b60000000p-4, -0x1.2535c80000000p-6, 0x1.b5d4b20000000p-4, -0x1.2ea5a40000000p-5, -0x1.a2b0a60000000p-4, -0x1.6a608c0000000p-5, 0x1.c846b00000000p-7, -0x1.8331400000000p-8, 0x1.500f3a0000000p-4, -0x1.d2f1080000000p-4, 0x1.26210e0000000p-4, 0x1.372c060000000p-4, -0x1.32441c0000000p-5, 0x1.49ff020000000p-4, 0x1.5f49f00000000p-7, -0x1.d326f00000000p-4, -0x1.b34ab20000000p-4, 0x1.1602b80000000p-6, -0x1.68d1c80000000p-6, 0x1.15924a0000000p-4, 0x1.9de9f40000000p-5, -0x1.8f59740000000p-5, 0x1.28c91a0000000p-4, 0x1.0b33400000000p-9, -0x1.edc9180000000p-5, 0x1.416e540000000p-5, -0x1.c931de0000000p-4, -0x1.affc160000000p-4, 0x1.34b0b20000000p-4, 0x1.7e9dcc0000000p-5, -0x1.fdfe280000000p-6, -0x1.928d420000000p-4, 0x1.b9c7960000000p-4, -0x1.c0f89a0000000p-5, 0x1.314cc40000000p-5, 0x1.9b296a0000000p-4, -0x1.fc75b00000000p-6, -0x1.01c0d40000000p-5, -0x1.a172500000000p-7, 0x1.0ab5660000000p-4, 0x1.c40c040000000p-5, 0x1.bda1ac0000000p-5, -0x1.417bf00000000p-7, -0x1.29a0100000000p-6, -0x1.49e2340000000p-5, -0x1.d7a0400000000p-8, -0x1.a808260000000p-4, 0x1.de59400000000p-8, 0x1.45918a0000000p-4, 0x1.40413e0000000p-4, 0x1.0bf1f00000000p-7, 0x1.a040cc0000000p-5, 0x1.0a1b920000000p-4, 0x1.90524c0000000p-5, -0x1.38e3000000000p-9}
, {-0x1.a0cefc0000000p-4, -0x1.e4c7780000000p-6, 0x1.9616ac0000000p-5, -0x1.b2ad2c0000000p-5, 0x1.8ad7860000000p-4, -0x1.0a31680000000p-4, 0x1.7c93f80000000p-6, -0x1.1d04240000000p-4, 0x1.0933f40000000p-5, -0x1.08dee60000000p-4, -0x1.2b4c800000000p-10, -0x1.7c7da80000000p-5, 0x1.a059ec0000000p-5, -0x1.92e52a0000000p-4, 0x1.98cb5e0000000p-4, -0x1.5f59a00000000p-5, 0x1.1380f20000000p-4, -0x1.5ab0c00000000p-4, 0x1.30ea920000000p-4, 0x1.4ba76a0000000p-4, 0x1.975cd00000000p-7, 0x1.db0ff00000000p-7, 0x1.ef7ce40000000p-5, 0x1.d311f00000000p-7, 0x1.4f030e0000000p-4, 0x1.043cb40000000p-5, 0x1.a450fc0000000p-5, 0x1.4069ec0000000p-5, 0x1.ba6ee60000000p-4, -0x1.057dec0000000p-4, -0x1.08bbe80000000p-4, -0x1.0e76bc0000000p-5, -0x1.dd95800000000p-7, 0x1.0412c80000000p-6, -0x1.6f20980000000p-5, 0x1.56035e0000000p-4, -0x1.c84a400000000p-6, 0x1.b4a8a80000000p-6, -0x1.0398f00000000p-4, -0x1.6693e20000000p-4, -0x1.320e700000000p-4, -0x1.71cde80000000p-4, -0x1.45b9240000000p-4, -0x1.f7872c0000000p-5, 0x1.a9490c0000000p-5, 0x1.c474c20000000p-4, -0x1.131e0e0000000p-4, 0x1.eacf480000000p-6, -0x1.a9b5380000000p-4, -0x1.9a5e400000000p-9, 0x1.22df0a0000000p-4, -0x1.06026e0000000p-4, -0x1.5a84c00000000p-9, 0x1.7a70ec0000000p-5, -0x1.3acd700000000p-4, -0x1.a4372c0000000p-5, -0x1.ee3fba0000000p-5, 0x1.ae8b320000000p-4, 0x1.7b14180000000p-6, -0x1.51c0a40000000p-5, -0x1.d831640000000p-5, -0x1.d08b7c0000000p-5, 0x1.f7f0a80000000p-6, -0x1.0208a80000000p-6, 0x1.a029d00000000p-7, 0x1.820d9e0000000p-4, -0x1.3a08600000000p-4, -0x1.2dea460000000p-4, 0x1.7a45d00000000p-7, 0x1.966f0a0000000p-4, -0x1.5961320000000p-4, -0x1.190d5c0000000p-5, -0x1.a94c180000000p-6, 0x1.1a1ff20000000p-4, 0x1.b9306a0000000p-4, 0x1.643fa80000000p-6, 0x1.02dc000000000p-10, 0x1.77215e0000000p-4, -0x1.d72f100000000p-6, -0x1.be9a900000000p-7, -0x1.6587cc0000000p-4, 0x1.43e2b20000000p-4, 0x1.3da1b20000000p-4, 0x1.48cf000000000p-11, 0x1.a7fbb40000000p-5, 0x1.5a46900000000p-7, 0x1.cf60760000000p-4, -0x1.20ab0c0000000p-4, 0x1.82bcbc0000000p-5, -0x1.9fbb660000000p-4, -0x1.3490c40000000p-4, -0x1.5daf300000000p-4, 0x1.b0d9b80000000p-6, 0x1.d681040000000p-5, 0x1.1385fc0000000p-5, -0x1.01d2300000000p-7, -0x1.1c2c9c0000000p-5, 0x1.56ac6a0000000p-4, -0x1.1213920000000p-4, -0x1.a10b540000000p-4, 0x1.221aea0000000p-4, -0x1.f4172c0000000p-5, -0x1.8053e60000000p-4, 0x1.826c0c0000000p-5, 0x1.8b60b00000000p-7, -0x1.2a8c0a0000000p-4, -0x1.2ecb480000000p-6, -0x1.53ee400000000p-9, -0x1.4af6540000000p-4, 0x1.22ebce0000000p-4, -0x1.5103700000000p-5, 0x1.6c34aa0000000p-4, 0x1.8b07fc0000000p-5, -0x1.1561180000000p-6, 0x1.5631e20000000p-4, -0x1.6291840000000p-4, 0x1.4f0fee0000000p-4, 0x1.65cf040000000p-5, 0x1.33fb4c0000000p-5, 0x1.6020ca0000000p-4, -0x1.9f50520000000p-4, -0x1.9b68200000000p-6, 0x1.6c0be60000000p-4, -0x1.6370900000000p-5, -0x1.8b1b6e0000000p-4, 0x1.baaa260000000p-4, 0x1.f6ee900000000p-7, -0x1.2969b00000000p-6, 0x1.a11f860000000p-4, -0x1.c3cfc00000000p-7, 0x1.0e0be00000000p-7, -0x1.af9f000000000p-4, 0x1.1226f40000000p-5, 0x1.3eef000000000p-11, 0x1.91dcc00000000p-9, 0x1.4021040000000p-5, -0x1.09b70c0000000p-4, 0x1.baf3fa0000000p-4, -0x1.757a740000000p-4, -0x1.7ead860000000p-4, 0x1.24ae640000000p-5, 0x1.e47dc80000000p-6, -0x1.b10fe60000000p-4, -0x1.de76680000000p-6, -0x1.51f7fc0000000p-5, -0x1.4b66600000000p-4, 0x1.7ffeda0000000p-4, 0x1.c209d00000000p-7, 0x1.a5fa7c0000000p-5, 0x1.a1a5dc0000000p-5, -0x1.2d2a900000000p-6, -0x1.877b8e0000000p-4, 0x1.4577500000000p-7, -0x1.17f6480000000p-4, 0x1.71d5980000000p-6, -0x1.eee0080000000p-6, 0x1.e197b80000000p-6, 0x1.6d9ab40000000p-5, -0x1.c3a1220000000p-4, 0x1.8b202c0000000p-5, 0x1.b2ed340000000p-5, -0x1.6f2ad60000000p-4, 0x1.1f83fa0000000p-4, 0x1.a3e6d20000000p-4, -0x1.2328c00000000p-8, -0x1.9edc8c0000000p-4, -0x1.81eb560000000p-4, -0x1.43175c0000000p-5, -0x1.5761e40000000p-4, -0x1.7d03000000000p-5, -0x1.6c990c0000000p-5, 0x1.6a45de0000000p-4, -0x1.e79a280000000p-6, -0x1.51771a0000000p-4, -0x1.146c360000000p-4, 0x1.6ace620000000p-4, 0x1.183dbc0000000p-5, 0x1.7326d40000000p-5, 0x1.1117ac0000000p-5, 0x1.d38ac80000000p-6, 0x1.677e420000000p-4, 0x1.2197520000000p-4, 0x1.a1696c0000000p-5, 0x1.9db2f60000000p-4, 0x1.e2b37c0000000p-5, 0x1.3f95720000000p-4, -0x1.7679100000000p-5, -0x1.9639580000000p-6, -0x1.9c3b500000000p-5, 0x1.5fa2fc0000000p-5, -0x1.bc0e080000000p-5, 0x1.88c10a0000000p-4, 0x1.5d12d60000000p-4, 0x1.832b820000000p-4, 0x1.d0efde0000000p-4, -0x1.c2d0280000000p-6, 0x1.9a3b9a0000000p-4, -0x1.97b0dc0000000p-4, -0x1.1f69d40000000p-4, -0x1.6d3a840000000p-4, 0x1.2a44800000000p-10, -0x1.6b6c5e0000000p-4, 0x1.3b0ffc0000000p-5, 0x1.808f960000000p-4, 0x1.301f600000000p-7, -0x1.0c64400000000p-4, 0x1.56b45c0000000p-5, -0x1.b99f9c0000000p-5, 0x1.3795e00000000p-7, -0x1.5c90c20000000p-4, -0x1.4632700000000p-6, 0x1.3aef080000000p-6, -0x1.05ac900000000p-7, 0x1.c3e62c0000000p-5, -0x1.08ab880000000p-6, 0x1.3eedc40000000p-5, -0x1.6e2b780000000p-6, -0x1.61a2640000000p-4, -0x1.396fc80000000p-4, -0x1.5e03000000000p-5, -0x1.09d38c0000000p-4, -0x1.cfb6d00000000p-7, -0x1.c23a1c0000000p-5, 0x1.c154da0000000p-4, 0x1.7288d00000000p-7, 0x1.61a1da0000000p-4, -0x1.a8bc000000000p-8, -0x1.454f900000000p-4, 0x1.9447760000000p-4, 0x1.734e080000000p-6, -0x1.2743d60000000p-4, 0x1.fa71140000000p-5, 0x1.a839100000000p-7, 0x1.3a09c40000000p-5, -0x1.7ab42c0000000p-5, -0x1.8329000000000p-6, -0x1.9196680000000p-4, -0x1.6838280000000p-6, -0x1.4ddc780000000p-4, -0x1.2a034a0000000p-4, -0x1.bc09000000000p-6, 0x1.005e3c0000000p-5, 0x1.239abc0000000p-5, -0x1.8f7b700000000p-7, -0x1.5a55e80000000p-4, -0x1.af29160000000p-5, -0x1.c6da800000000p-10, 0x1.74d8000000000p-11, -0x1.2f8e800000000p-5, 0x1.a4b60e0000000p-4, -0x1.a52ec00000000p-8, 0x1.cc0b7a0000000p-4, 0x1.9227820000000p-4, 0x1.d3e13a0000000p-4, 0x1.8a16620000000p-4, -0x1.04ec080000000p-6, -0x1.17eda00000000p-8, -0x1.291cf20000000p-4, -0x1.67f03c0000000p-4, 0x1.b5087a0000000p-4, -0x1.7300980000000p-5, -0x1.b6387a0000000p-5, 0x1.0d1c1e0000000p-4, -0x1.8404f80000000p-4, 0x1.12b91a0000000p-4, -0x1.6dbc080000000p-4, 0x1.acd8a80000000p-6, -0x1.3b0dd00000000p-6, 0x1.84d2bc0000000p-5, -0x1.368bd00000000p-4, -0x1.f9f9100000000p-7, -0x1.be5d7c0000000p-4, -0x1.2745180000000p-5, 0x1.3c40980000000p-6, 0x1.749f0a0000000p-4, 0x1.dd0e700000000p-7, 0x1.d6ef6c0000000p-5, -0x1.9d1bca0000000p-4, -0x1.7e29200000000p-7, 0x1.2a324e0000000p-4, 0x1.fa4dbc0000000p-5, -0x1.6e2bf00000000p-7, -0x1.2f07ac0000000p-4, -0x1.c9b9c80000000p-5, 0x1.82bf280000000p-6, 0x1.c53ade0000000p-4, 0x1.ec52c40000000p-5, -0x1.d2cb6e0000000p-5, -0x1.c83c300000000p-6, -0x1.84b0e80000000p-6, -0x1.37319c0000000p-5, 0x1.e359c80000000p-6, -0x1.53101e0000000p-4, -0x1.c6e63e0000000p-5, -0x1.c431c00000000p-4, -0x1.b0ff800000000p-9, -0x1.9d3f400000000p-5, -0x1.1d8a100000000p-6, 0x1.9e60e20000000p-4, 0x1.4800800000000p-7, 0x1.81e9be0000000p-4, -0x1.f3e9640000000p-5, 0x1.b3bd5a0000000p-4, 0x1.5e73760000000p-4, -0x1.0c4e200000000p-5, 0x1.14e2fe0000000p-4, 0x1.6674c80000000p-6, 0x1.0e41440000000p-5, -0x1.540a260000000p-4, 0x1.1c25ec0000000p-5, -0x1.9a9e700000000p-4, 0x1.ce31000000000p-11, 0x1.056e880000000p-6, 0x1.1a81c00000000p-8, 0x1.bfcbb80000000p-6, -0x1.7834200000000p-6, 0x1.bc12980000000p-6, 0x1.1a32280000000p-6, -0x1.ace76c0000000p-5, -0x1.d42a4e0000000p-4, 0x1.b61ce80000000p-6, 0x1.7ea49c0000000p-5, -0x1.1f3a800000000p-7, -0x1.329ad00000000p-7, -0x1.d1a4000000000p-12, 0x1.dbc8ec0000000p-5, -0x1.9144380000000p-4, -0x1.a46f2c0000000p-4, 0x1.586d9a0000000p-4, 0x1.c46e1c0000000p-5, 0x1.b78ac80000000p-6, 0x1.08bffe0000000p-4, -0x1.3434900000000p-5, -0x1.3e91340000000p-4, -0x1.dbe9b00000000p-7, 0x1.5b39280000000p-6, -0x1.72322a0000000p-4, 0x1.9494f20000000p-4, -0x1.3c663a0000000p-4, -0x1.83fb380000000p-5, -0x1.327f000000000p-4, -0x1.2f68540000000p-5, -0x1.8eae2c0000000p-4, 0x1.1577120000000p-4, -0x1.b41f380000000p-5, -0x1.fc26aa0000000p-5, 0x1.2dafcc0000000p-5, -0x1.4abb200000000p-4, 0x1.cc18260000000p-4, -0x1.89fb100000000p-6, -0x1.cebea00000000p-4, -0x1.05cf620000000p-4, 0x1.46f5b60000000p-4, -0x1.126e6c0000000p-5, -0x1.cc49200000000p-8, -0x1.8748320000000p-4, 0x1.e166040000000p-5, -0x1.1474f80000000p-6, 0x1.25091c0000000p-5, -0x1.3941200000000p-6, 0x1.35dc920000000p-4, 0x1.675f540000000p-5, -0x1.945e580000000p-6, -0x1.37ab080000000p-6, -0x1.b506100000000p-6, -0x1.70511c0000000p-5, 0x1.91e4f80000000p-6, -0x1.6f02a80000000p-4, -0x1.d440040000000p-4, 0x1.9046700000000p-7, -0x1.2102800000000p-8, 0x1.3152900000000p-7, 0x1.aaf9300000000p-7, -0x1.b0e2080000000p-4, 0x1.27758a0000000p-4, 0x1.72977e0000000p-4, -0x1.14d4300000000p-7, -0x1.38f9e40000000p-4, -0x1.29d0880000000p-4, -0x1.b613820000000p-4, -0x1.99ca440000000p-5, -0x1.baa4dc0000000p-5, 0x1.a105980000000p-6, 0x1.21f6540000000p-5, 0x1.6df8620000000p-4, -0x1.d4c0c80000000p-4, 0x1.cc60500000000p-7, -0x1.3dddc40000000p-4, -0x1.9bcf9c0000000p-5, -0x1.713d920000000p-4, -0x1.6d862c0000000p-4, -0x1.2f89300000000p-7, -0x1.0a18b60000000p-4, 0x1.848df00000000p-7, 0x1.cbd89a0000000p-4, 0x1.baacba0000000p-4, -0x1.7f73f00000000p-4, 0x1.6511380000000p-6, 0x1.201ea20000000p-4, -0x1.ccacf80000000p-5, 0x1.30d06c0000000p-5, -0x1.bd03c40000000p-4, 0x1.ce5fd20000000p-4, -0x1.5a32e80000000p-4, 0x1.82f9820000000p-4, 0x1.4ee5380000000p-6, -0x1.b68a160000000p-4, 0x1.3b2f040000000p-5, -0x1.0291400000000p-4, 0x1.02c0760000000p-4, 0x1.28db2a0000000p-4, 0x1.40f4d40000000p-5, 0x1.7aa0340000000p-5, 0x1.abb3200000000p-8, -0x1.5ba0000000000p-7, 0x1.4262400000000p-7, 0x1.b0da560000000p-4, 0x1.5526be0000000p-4, -0x1.1234580000000p-6, 0x1.8e36ac0000000p-5, 0x1.e026980000000p-6, -0x1.7e461c0000000p-4, 0x1.80fa380000000p-6, -0x1.5bf2de0000000p-4, 0x1.b627900000000p-7, -0x1.33fec00000000p-4, -0x1.42aca00000000p-6, 0x1.4b019c0000000p-5, 0x1.4581520000000p-4, 0x1.dc128c0000000p-5, -0x1.521dc00000000p-6, 0x1.9667000000000p-10, 0x1.df6a800000000p-8, 0x1.15bc1e0000000p-4, -0x1.0309600000000p-4, -0x1.3c25720000000p-4, 0x1.75d6300000000p-7, 0x1.b9a4ec0000000p-5, 0x1.70983e0000000p-4, -0x1.e83e800000000p-6, 0x1.16b2a20000000p-4, 0x1.df0f3c0000000p-5, -0x1.961fc40000000p-5, 0x1.39f43a0000000p-4, 0x1.26f2e00000000p-8, 0x1.b68e580000000p-6, -0x1.aef84c0000000p-4, -0x1.c2a5300000000p-4}
, {0x1.558a260000000p-4, -0x1.977a100000000p-4, -0x1.3b29800000000p-7, 0x1.71fe2e0000000p-4, -0x1.09372c0000000p-4, 0x1.78020c0000000p-5, -0x1.2e3ef80000000p-6, -0x1.3aacbc0000000p-4, -0x1.ad93e80000000p-4, -0x1.597a940000000p-5, -0x1.28af780000000p-5, -0x1.b7f8020000000p-5, -0x1.4febc40000000p-5, 0x1.0b92ca0000000p-4, 0x1.925fec0000000p-5, -0x1.f58a580000000p-6, 0x1.351a7e0000000p-4, -0x1.d37aec0000000p-4, 0x1.4deb780000000p-6, 0x1.0f26200000000p-7, 0x1.2d956e0000000p-4, 0x1.e1007c0000000p-5, 0x1.05d8060000000p-4, -0x1.ada0d60000000p-5, 0x1.15ac260000000p-4, -0x1.96ed0c0000000p-5, 0x1.e9ab500000000p-7, -0x1.3047d60000000p-4, -0x1.6a8f020000000p-4, 0x1.286f760000000p-4, -0x1.5f270a0000000p-4, -0x1.bdb4000000000p-9, 0x1.14c85a0000000p-4, -0x1.6aa7220000000p-4, 0x1.817fc80000000p-6, -0x1.c5487c0000000p-5, 0x1.b44e340000000p-5, -0x1.5a89700000000p-4, -0x1.ccb1aa0000000p-4, -0x1.f597b00000000p-5, -0x1.3697420000000p-4, 0x1.1eeb620000000p-4, -0x1.548bd40000000p-5, -0x1.6ed4300000000p-5, -0x1.7b76c80000000p-4, 0x1.4915480000000p-6, 0x1.47f3fa0000000p-4, -0x1.c573b00000000p-6, 0x1.c2de400000000p-8, -0x1.210fa80000000p-4, -0x1.a815940000000p-5, -0x1.1f37de0000000p-4, -0x1.b5df8c0000000p-5, 0x1.94c1f60000000p-4, -0x1.0b19600000000p-5, -0x1.e654940000000p-5, -0x1.5f80d00000000p-7, -0x1.31f0440000000p-5, 0x1.83137e0000000p-4, 0x1.67acae0000000p-4, 0x1.8f1ed80000000p-6, 0x1.90ada80000000p-6, -0x1.2602620000000p-4, -0x1.621d240000000p-4, -0x1.4d4ed40000000p-4, -0x1.3380880000000p-5, -0x1.7dc5d00000000p-5, 0x1.7806260000000p-4, -0x1.9f28aa0000000p-4, 0x1.1a9f220000000p-4, -0x1.3d7a300000000p-6, 0x1.459c0c0000000p-5, -0x1.0b8fc80000000p-5, 0x1.87dbe60000000p-4, 0x1.4963360000000p-4, -0x1.3923a80000000p-4, -0x1.b1f6280000000p-6, 0x1.c7191e0000000p-4, -0x1.aa6d960000000p-4, 0x1.31fb4a0000000p-4, -0x1.4f67680000000p-5, -0x1.9f26440000000p-5, -0x1.e433320000000p-5, -0x1.9b79500000000p-5, 0x1.8fecb60000000p-4, 0x1.9418e40000000p-5, 0x1.e591e40000000p-5, -0x1.6f3eb20000000p-4, 0x1.326ce20000000p-4, 0x1.0b2b6a0000000p-4, -0x1.845dd00000000p-5, -0x1.0e65bc0000000p-4, 0x1.f378380000000p-6, 0x1.36adb80000000p-6, 0x1.a5eb580000000p-6, -0x1.7353f80000000p-6, 0x1.a420660000000p-4, 0x1.eb80380000000p-6, -0x1.1d99640000000p-4, -0x1.04c0a20000000p-4, 0x1.3f7afa0000000p-4, 0x1.6e26960000000p-4, 0x1.ca017e0000000p-4, 0x1.8f8edc0000000p-5, 0x1.6a44a60000000p-4, 0x1.aa0af40000000p-5, -0x1.4b2d8c0000000p-4, -0x1.4cf58c0000000p-4, 0x1.be05d60000000p-4, 0x1.b9865e0000000p-4, -0x1.5faff40000000p-4, -0x1.6db7500000000p-5, 0x1.885d8e0000000p-4, 0x1.adcb460000000p-4, -0x1.9fe7940000000p-5, -0x1.f1e6d80000000p-5, -0x1.ca3c260000000p-5, -0x1.5e3c580000000p-6, 0x1.3f0f320000000p-4, -0x1.711b200000000p-4, 0x1.2c4b0e0000000p-4, 0x1.d5ad980000000p-6, -0x1.76bc480000000p-4, 0x1.2c8d160000000p-4, -0x1.e726000000000p-7, -0x1.970cfc0000000p-5, -0x1.1f5da40000000p-4, 0x1.b9238c0000000p-5, 0x1.b9f3b80000000p-6, 0x1.4c11ea0000000p-4, 0x1.0eb3440000000p-5, -0x1.7de1b80000000p-6, 0x1.764c100000000p-7, 0x1.0bab8a0000000p-4, 0x1.28ffb80000000p-6, 0x1.10166c0000000p-5, -0x1.58cc880000000p-6, 0x1.a9506a0000000p-4, 0x1.e6969c0000000p-5, 0x1.641ba60000000p-4, -0x1.d44ff60000000p-5, -0x1.2f77800000000p-5, -0x1.10fd360000000p-4, -0x1.bb28920000000p-4, -0x1.3f0e0c0000000p-5, 0x1.924a5a0000000p-4, -0x1.0267c00000000p-6, 0x1.e44b940000000p-5, 0x1.cf82de0000000p-4, 0x1.970f0c0000000p-5, 0x1.c0eadc0000000p-5, 0x1.8144f20000000p-4, -0x1.b7d5300000000p-7, 0x1.f7f0480000000p-6, 0x1.a46bd20000000p-4, 0x1.7cc21a0000000p-4, -0x1.08bf900000000p-7, 0x1.7d8d420000000p-4, -0x1.f009000000000p-10, -0x1.a9d6b00000000p-7, 0x1.c861f00000000p-7, -0x1.098ba80000000p-6, 0x1.fee3a80000000p-6, -0x1.31bce80000000p-4, -0x1.291aea0000000p-4, 0x1.9dde4c0000000p-5, 0x1.946fde0000000p-4, -0x1.ccd8020000000p-5, -0x1.7032700000000p-6, -0x1.3de7e40000000p-4, 0x1.10c6020000000p-4, -0x1.8229c60000000p-4, 0x1.773c3e0000000p-4, 0x1.a79b2c0000000p-5, -0x1.8841320000000p-4, -0x1.89741c0000000p-5, -0x1.27d7e40000000p-4, -0x1.6affe00000000p-6, -0x1.a9a4f80000000p-5, -0x1.cd39300000000p-6, -0x1.07296a0000000p-4, 0x1.79342c0000000p-5, -0x1.ba68240000000p-4, -0x1.7fa0480000000p-5, -0x1.d46cf80000000p-4, 0x1.8d412a0000000p-4, 0x1.4aec3a0000000p-4, -0x1.84c2140000000p-5, 0x1.594b400000000p-7, -0x1.57ce0c0000000p-4, -0x1.55a7d00000000p-7, 0x1.f16e000000000p-12, -0x1.795edc0000000p-5, 0x1.e0ef280000000p-6, -0x1.29b0bc0000000p-4, -0x1.6593d80000000p-6, -0x1.bb23f60000000p-5, 0x1.78ff680000000p-6, -0x1.9951da0000000p-4, -0x1.2d9ce80000000p-5, -0x1.2466580000000p-5, 0x1.5de31a0000000p-4, 0x1.f473f40000000p-5, 0x1.e818940000000p-5, -0x1.3cda600000000p-8, 0x1.27b8040000000p-5, -0x1.113ae80000000p-4, 0x1.1c9e280000000p-6, 0x1.a852b80000000p-6, -0x1.99ca500000000p-5, 0x1.57a0260000000p-4, -0x1.ee69000000000p-8, -0x1.370db80000000p-5, 0x1.637fae0000000p-4, 0x1.4599a80000000p-6, 0x1.00d6200000000p-8, 0x1.d4f1bc0000000p-5, -0x1.23f4f80000000p-5, -0x1.0e6af80000000p-4, -0x1.44d4dc0000000p-4, 0x1.1224320000000p-4, -0x1.2f2a4c0000000p-5, 0x1.f2c1900000000p-7, -0x1.61e4f00000000p-7, -0x1.7da9500000000p-5, 0x1.4abede0000000p-4, 0x1.3c4dc20000000p-4, -0x1.0706880000000p-4, 0x1.1e23ae0000000p-4, 0x1.694eda0000000p-4, 0x1.b7fd480000000p-6, -0x1.62bfc80000000p-5, 0x1.c6f2420000000p-4, 0x1.3994420000000p-4, 0x1.712b6e0000000p-4, 0x1.3540680000000p-6, 0x1.5e7d5c0000000p-5, 0x1.34b8340000000p-5, 0x1.c2b5140000000p-5, 0x1.4dbcc40000000p-5, 0x1.cdfe280000000p-6, -0x1.83dd2c0000000p-5, -0x1.006c600000000p-8, -0x1.c061ea0000000p-4, 0x1.2750380000000p-6, 0x1.9f10760000000p-4, -0x1.2059a80000000p-6, -0x1.1384860000000p-4, -0x1.e133f00000000p-7, 0x1.5b4dba0000000p-4, -0x1.8889460000000p-4, 0x1.1bbe3c0000000p-5, 0x1.2f45da0000000p-4, 0x1.f7e0400000000p-8, -0x1.2afd440000000p-5, 0x1.8d39c20000000p-4, -0x1.b8ea480000000p-4, -0x1.4c2ff80000000p-4, 0x1.468a420000000p-4, -0x1.a4137e0000000p-4, 0x1.0298260000000p-4, 0x1.9aff280000000p-6, -0x1.4099500000000p-7, -0x1.99df900000000p-6, -0x1.a375280000000p-6, -0x1.2447080000000p-5, 0x1.12317c0000000p-5, 0x1.b051b40000000p-5, -0x1.d9fe300000000p-7, -0x1.5e00bc0000000p-4, 0x1.e7ac800000000p-10, 0x1.a19a420000000p-4, -0x1.7809c00000000p-4, 0x1.b119d60000000p-4, -0x1.68a1b40000000p-5, 0x1.bcbaf00000000p-7, 0x1.9ccae60000000p-4, 0x1.29672c0000000p-5, -0x1.6b26d00000000p-4, 0x1.3bbd1e0000000p-4, 0x1.b711660000000p-4, 0x1.324fee0000000p-4, -0x1.ad1b800000000p-5, 0x1.1bb0560000000p-4, 0x1.c5b3860000000p-4, 0x1.975a840000000p-5, -0x1.f963600000000p-6, -0x1.6f2e3c0000000p-4, 0x1.d266480000000p-6, 0x1.15f4200000000p-8, -0x1.62e5380000000p-4, 0x1.0679000000000p-7, -0x1.311c040000000p-5, -0x1.a2ecc00000000p-7, -0x1.a1f6500000000p-5, 0x1.bb12d00000000p-7, 0x1.5d9dd40000000p-5, -0x1.a2e7ee0000000p-4, -0x1.89ea8c0000000p-4, -0x1.e7145a0000000p-5, -0x1.4ce39c0000000p-4, -0x1.3c78600000000p-8, -0x1.5bf0f00000000p-6, -0x1.0c1e500000000p-7, -0x1.6242cc0000000p-5, -0x1.530cc00000000p-7, -0x1.cd3f400000000p-6, 0x1.7147220000000p-4, -0x1.6550be0000000p-4, 0x1.e7b0380000000p-6, 0x1.a88e1a0000000p-4, -0x1.b39a640000000p-4, -0x1.3cceac0000000p-4, -0x1.baae0c0000000p-4, 0x1.b29f1a0000000p-4, 0x1.51b8920000000p-4, 0x1.e87b900000000p-7, -0x1.2b4fac0000000p-5, -0x1.5fcea80000000p-5, -0x1.b8208c0000000p-4, 0x1.c7a1e60000000p-4, 0x1.a2a4260000000p-4, 0x1.0d924e0000000p-4, -0x1.ce6ab20000000p-4, -0x1.61b4c20000000p-4, 0x1.9e9bea0000000p-4, 0x1.7a198a0000000p-4, 0x1.4050d20000000p-4, 0x1.19b9b80000000p-6, 0x1.ff62400000000p-9, 0x1.4845740000000p-5, -0x1.e7da400000000p-9, 0x1.1af0140000000p-5, 0x1.41a1760000000p-4, 0x1.316c8e0000000p-4, -0x1.4951fc0000000p-5, -0x1.b7b2a40000000p-4, -0x1.014a140000000p-5, 0x1.ef91c40000000p-5, -0x1.393cc80000000p-6, 0x1.38581c0000000p-5, -0x1.5dcab00000000p-5, 0x1.c230700000000p-7, 0x1.0566ac0000000p-5, 0x1.8ccbec0000000p-5, -0x1.7f4bb40000000p-4, -0x1.341f840000000p-5, 0x1.e8b1140000000p-5, -0x1.daf4c00000000p-7, 0x1.c1daa00000000p-8, 0x1.9ff8f80000000p-6, 0x1.dfc2b40000000p-5, 0x1.6578de0000000p-4, -0x1.1cf0900000000p-4, -0x1.381d480000000p-6, -0x1.1664b00000000p-6, 0x1.d017240000000p-5, -0x1.7e0aa00000000p-4, 0x1.b3ec480000000p-6, 0x1.b7064e0000000p-4, 0x1.a3711a0000000p-4, -0x1.7958e80000000p-4, 0x1.7e2f820000000p-4, 0x1.a463280000000p-6, 0x1.0882ac0000000p-5, 0x1.c988bc0000000p-5, 0x1.231cdc0000000p-5, 0x1.fefa440000000p-5, 0x1.1a43d20000000p-4, -0x1.0d54ec0000000p-5, -0x1.7013680000000p-4, -0x1.b5c5640000000p-5, -0x1.b237000000000p-5, -0x1.b337d80000000p-5, -0x1.7000120000000p-4, -0x1.635f200000000p-8, -0x1.7b65980000000p-6, 0x1.8990980000000p-6, 0x1.f685d80000000p-6, -0x1.a0975c0000000p-4, -0x1.48c7180000000p-6, 0x1.35dec80000000p-6, 0x1.003d120000000p-4, 0x1.0b20820000000p-4, 0x1.619e180000000p-6, -0x1.5c0eb80000000p-6, -0x1.76077e0000000p-4, 0x1.d54ac00000000p-9, 0x1.3cdb380000000p-6, 0x1.99042a0000000p-4, -0x1.7cddbe0000000p-4, -0x1.039a5c0000000p-4, -0x1.5896300000000p-7, 0x1.ad7e5e0000000p-4, -0x1.cb38040000000p-4, -0x1.4db0e20000000p-4, 0x1.ac0fe80000000p-6, 0x1.a0e6f60000000p-4, 0x1.1b87400000000p-7, 0x1.80b7f60000000p-4, 0x1.56d6560000000p-4, -0x1.b5ab000000000p-11, 0x1.1cfec40000000p-5, -0x1.985e9a0000000p-4, -0x1.21ef000000000p-11, 0x1.7611700000000p-7, -0x1.48a4a40000000p-5, -0x1.5d56740000000p-5, -0x1.f651f00000000p-7, -0x1.5c28380000000p-6, -0x1.82508c0000000p-4, 0x1.532fbe0000000p-4, -0x1.0ff5ee0000000p-4, -0x1.ccc2b80000000p-6, 0x1.8f9d0c0000000p-5, 0x1.13bd540000000p-5, 0x1.0a38ee0000000p-4, -0x1.1daa280000000p-5, 0x1.f37f4c0000000p-5, 0x1.cf4b1c0000000p-5, -0x1.1d33a00000000p-6, 0x1.5fc83e0000000p-4, -0x1.f222f00000000p-5, -0x1.62a9fc0000000p-4, 0x1.4050140000000p-5, -0x1.4fc0cc0000000p-5, 0x1.42f5340000000p-5, -0x1.4b14580000000p-4, -0x1.f142400000000p-9, -0x1.0a80400000000p-8, -0x1.7eba840000000p-5, -0x1.38db600000000p-7, -0x1.aadf800000000p-4, 0x1.28d3300000000p-7, -0x1.127b500000000p-7, -0x1.d308520000000p-4, 0x1.91c21a0000000p-4, -0x1.1864300000000p-7, 0x1.09fe220000000p-4, 0x1.5213dc0000000p-5, 0x1.0fdd100000000p-7, -0x1.8951580000000p-4, 0x1.119d7c0000000p-5, 0x1.1b6e000000000p-8, 0x1.012e0c0000000p-5, 0x1.587fb60000000p-4, -0x1.cbecb60000000p-4, 0x1.ddeb600000000p-8}
