/**
  ******************************************************************************
  * @file    weights/fc.cc
  * @author  Pierre-Emmanuel Novac <penovac@unice.fr>, LEAT, CNRS, Université Côte d'Azur, France
  * @version 1.0.0
  * @date    24 march 2020
  * @brief   Template generating plain C code for the implementation of Convolutional Neural Networks on MCU
  */

#include <stdint.h>

#define INPUT_SAMPLES 224
#define FC_UNITS 10


const float dense_8_bias[FC_UNITS] = {0x0.0p+0, 0x0.0p+0, 0x0.0p+0, 0x0.0p+0, 0x0.0p+0, 0x0.0p+0, 0x0.0p+0, 0x0.0p+0, 0x0.0p+0, 0x0.0p+0}
;

const float dense_8_kernel[FC_UNITS][INPUT_SAMPLES] = {{-0x1.973a300000000p-4, 0x1.ccc0000000000p-5, -0x1.4305800000000p-8, 0x1.b1ec180000000p-5, 0x1.2b95480000000p-3, 0x1.3bb5a00000000p-6, -0x1.0403ee0000000p-3, -0x1.76e9700000000p-6, 0x1.868be00000000p-7, -0x1.5150500000000p-6, -0x1.d9bc380000000p-4, -0x1.a7a2200000000p-6, 0x1.2351540000000p-4, -0x1.8264860000000p-4, -0x1.73faf00000000p-6, 0x1.1971f00000000p-4, -0x1.40d7460000000p-3, -0x1.6bc5000000000p-10, 0x1.325c140000000p-3, -0x1.b0b1000000000p-7, 0x1.347fb00000000p-3, 0x1.5c37bc0000000p-4, 0x1.0a44500000000p-4, -0x1.442de00000000p-3, 0x1.0553000000000p-7, 0x1.c5bac00000000p-4, -0x1.20dc800000000p-3, 0x1.7d7f780000000p-4, 0x1.6956fc0000000p-4, -0x1.f55f600000000p-6, 0x1.ad23c00000000p-5, 0x1.4d70780000000p-5, 0x1.1ebf300000000p-4, 0x1.12d8100000000p-5, -0x1.f0c6940000000p-5, -0x1.cec3020000000p-4, -0x1.35a1100000000p-6, -0x1.6c505c0000000p-4, -0x1.ef73c00000000p-5, 0x1.e024c80000000p-4, -0x1.7008ec0000000p-5, -0x1.3382ec0000000p-4, -0x1.5889b40000000p-5, 0x1.cc02080000000p-4, -0x1.f38c200000000p-6, 0x1.bbbd280000000p-4, -0x1.d883000000000p-4, -0x1.4f9fcc0000000p-4, 0x1.173e440000000p-3, 0x1.e11e200000000p-7, -0x1.00de7c0000000p-3, 0x1.9d4d100000000p-5, -0x1.9a6c7c0000000p-4, -0x1.3aa5400000000p-6, 0x1.13326c0000000p-3, 0x1.45e9280000000p-3, -0x1.2690000000000p-6, 0x1.75a3400000000p-7, 0x1.7488180000000p-5, 0x1.17b7d80000000p-3, 0x1.4177b00000000p-5, -0x1.656dc00000000p-7, -0x1.6031980000000p-4, 0x1.5f88500000000p-6, 0x1.4070880000000p-3, 0x1.09bd340000000p-4, -0x1.de2bb80000000p-5, 0x1.0be67c0000000p-3, 0x1.e669800000000p-4, 0x1.bc8a600000000p-7, -0x1.98ca3c0000000p-5, -0x1.0acd000000000p-3, 0x1.8837900000000p-4, 0x1.9c78380000000p-4, 0x1.e31ca00000000p-4, -0x1.4431c80000000p-3, 0x1.73e7200000000p-4, -0x1.4a44fc0000000p-4, 0x1.9c22100000000p-6, 0x1.5566a80000000p-5, -0x1.a8f5dc0000000p-5, -0x1.d8ba200000000p-6, 0x1.1645900000000p-5, 0x1.f792180000000p-4, 0x1.9154500000000p-6, 0x1.a8dce00000000p-5, -0x1.fd14a00000000p-6, 0x1.2886480000000p-3, 0x1.d367f80000000p-4, -0x1.fa13660000000p-4, 0x1.9174c80000000p-4, 0x1.525b980000000p-4, 0x1.0cdb180000000p-3, 0x1.d7d1100000000p-4, -0x1.518fe00000000p-4, -0x1.3f0e340000000p-3, -0x1.8e54160000000p-4, 0x1.c3f5a00000000p-5, -0x1.0263a80000000p-5, -0x1.f4ea940000000p-4, 0x1.af62800000000p-4, -0x1.3a84940000000p-3, -0x1.0f3a000000000p-9, -0x1.11b0fe0000000p-3, -0x1.ce59800000000p-8, -0x1.26bf800000000p-8, 0x1.3ec2680000000p-3, 0x1.df9f800000000p-9, 0x1.c176900000000p-4, 0x1.4decd00000000p-4, 0x1.6328600000000p-5, -0x1.0090000000000p-12, -0x1.33fcd20000000p-3, -0x1.f00a1c0000000p-4, -0x1.dbbb4e0000000p-4, 0x1.46bcb40000000p-4, -0x1.49784c0000000p-4, 0x1.3181c00000000p-7, 0x1.9c49500000000p-4, 0x1.5ce7300000000p-6, 0x1.ff3e400000000p-5, 0x1.2f5ec00000000p-3, -0x1.1639a40000000p-4, -0x1.d41d300000000p-5, 0x1.abd9f80000000p-5, 0x1.2d8db40000000p-3, -0x1.1df1d00000000p-6, 0x1.9925880000000p-4, -0x1.35ddc40000000p-4, -0x1.95c4400000000p-5, -0x1.663c900000000p-6, -0x1.cc35a00000000p-6, 0x1.36ce500000000p-5, 0x1.1271300000000p-6, -0x1.c45d640000000p-5, 0x1.074c6c0000000p-4, 0x1.8601f80000000p-5, -0x1.4326620000000p-3, 0x1.2ebf780000000p-5, 0x1.6ba5600000000p-4, -0x1.7271180000000p-5, -0x1.4828e80000000p-4, 0x1.08fed40000000p-3, -0x1.3037b00000000p-4, -0x1.1c79280000000p-3, 0x1.84f4a80000000p-4, -0x1.6bad100000000p-4, -0x1.baaf2c0000000p-5, -0x1.7d96fa0000000p-4, 0x1.9090880000000p-4, -0x1.7b300c0000000p-4, 0x1.2d3df00000000p-3, -0x1.2208000000000p-3, -0x1.db4a800000000p-6, 0x1.a54f980000000p-4, -0x1.cfd7600000000p-6, -0x1.3b00240000000p-5, -0x1.0eb86c0000000p-4, -0x1.3fc9800000000p-7, -0x1.a459000000000p-5, -0x1.265d680000000p-3, -0x1.c0e52c0000000p-5, -0x1.41bfb80000000p-3, 0x1.5370700000000p-6, -0x1.6f86540000000p-5, -0x1.dcc38e0000000p-4, -0x1.46ea1e0000000p-3, -0x1.8b92c20000000p-4, 0x1.6c0fb80000000p-5, -0x1.e6d2940000000p-4, -0x1.0f3e5a0000000p-3, 0x1.0d6a280000000p-5, 0x1.8517900000000p-5, 0x1.2a76a00000000p-3, 0x1.44b55c0000000p-3, 0x1.3d60ec0000000p-3, 0x1.78a0980000000p-5, 0x1.bc26100000000p-6, 0x1.1a835c0000000p-3, 0x1.8dae500000000p-4, 0x1.abb5780000000p-5, -0x1.d69ce40000000p-5, -0x1.4361600000000p-5, 0x1.79b2e00000000p-7, 0x1.32a7400000000p-3, 0x1.d49a700000000p-4, 0x1.7b86e00000000p-5, 0x1.cc76400000000p-5, -0x1.1bc9760000000p-3, 0x1.8bf9680000000p-4, 0x1.1e0e1c0000000p-3, 0x1.e9b0d80000000p-4, 0x1.0cc4940000000p-4, 0x1.a612800000000p-4, 0x1.049b440000000p-3, -0x1.d1e49c0000000p-4, 0x1.69e3f00000000p-4, -0x1.df701a0000000p-4, -0x1.7507400000000p-8, -0x1.1ff1780000000p-4, -0x1.4ee3d00000000p-6, -0x1.d70cd40000000p-4, 0x1.04e9700000000p-3, -0x1.0b1ca40000000p-3, 0x1.b9f5900000000p-6, -0x1.de24000000000p-8, 0x1.8c7c000000000p-4, -0x1.dc3e740000000p-5, -0x1.e44d800000000p-7, -0x1.e291080000000p-5, 0x1.289d180000000p-5, -0x1.9c52cc0000000p-5, -0x1.22a7ce0000000p-3, 0x1.17c9000000000p-3, 0x1.061a400000000p-5, 0x1.604b4c0000000p-4, -0x1.d705420000000p-4, -0x1.13f0da0000000p-4, 0x1.a0bb780000000p-4, 0x1.f459c80000000p-4, -0x1.a2e6000000000p-6, -0x1.055b580000000p-3, 0x1.e703e80000000p-4, -0x1.91af2c0000000p-5}
, {0x1.ed92b00000000p-4, 0x1.4635980000000p-4, 0x1.2352f80000000p-4, 0x1.3758080000000p-3, -0x1.04daf60000000p-3, -0x1.cb89940000000p-5, -0x1.7929120000000p-4, -0x1.a575400000000p-6, -0x1.3875500000000p-3, 0x1.4167700000000p-5, 0x1.5c48f00000000p-6, 0x1.70a1300000000p-5, -0x1.4624420000000p-3, 0x1.ad01a80000000p-4, -0x1.f136d40000000p-4, -0x1.39b9c60000000p-3, -0x1.747a300000000p-4, -0x1.5e586a0000000p-4, -0x1.f03f980000000p-5, 0x1.4081940000000p-3, 0x1.69a8600000000p-4, 0x1.3fae3c0000000p-3, 0x1.ade8200000000p-4, -0x1.0ba4400000000p-8, 0x1.fcb1300000000p-6, 0x1.05b0300000000p-3, -0x1.a079480000000p-4, 0x1.deefe00000000p-6, 0x1.151b9c0000000p-3, 0x1.8035980000000p-5, 0x1.1896d80000000p-5, -0x1.3274f20000000p-4, 0x1.820f900000000p-5, -0x1.2be0000000000p-8, -0x1.8213e00000000p-6, 0x1.2616b00000000p-3, 0x1.3381400000000p-5, -0x1.5aa4740000000p-5, 0x1.54d0780000000p-5, 0x1.b8b1180000000p-5, 0x1.6fea000000000p-10, -0x1.ad3ec80000000p-4, -0x1.985e440000000p-4, -0x1.35217c0000000p-5, -0x1.54a9a00000000p-6, -0x1.9ce4500000000p-4, -0x1.1855600000000p-3, 0x1.f8e9d00000000p-6, -0x1.4614e20000000p-3, -0x1.468e4e0000000p-4, 0x1.a788c00000000p-7, 0x1.bd6e000000000p-4, 0x1.fdc6300000000p-5, -0x1.43c5f00000000p-5, -0x1.a8c2740000000p-5, -0x1.f874c00000000p-7, 0x1.de7c800000000p-4, -0x1.27f5f40000000p-4, 0x1.03a7f40000000p-3, 0x1.afa5580000000p-4, 0x1.2b230c0000000p-3, -0x1.7096c00000000p-4, -0x1.1bf9e60000000p-3, 0x1.f1c1880000000p-4, 0x1.a78e880000000p-5, 0x1.0dc19c0000000p-3, -0x1.3018620000000p-3, 0x1.2738240000000p-3, 0x1.1753440000000p-3, -0x1.63468c0000000p-4, -0x1.e13f3c0000000p-4, -0x1.6d8dda0000000p-4, 0x1.9aef780000000p-4, -0x1.63d4440000000p-5, -0x1.d7cc6c0000000p-5, -0x1.3ec74a0000000p-3, -0x1.551b860000000p-4, -0x1.06eb060000000p-4, 0x1.213c000000000p-3, 0x1.21c3100000000p-3, 0x1.db33b00000000p-4, 0x1.0742f80000000p-4, 0x1.0007300000000p-3, -0x1.4a2e9a0000000p-4, 0x1.31c4ec0000000p-4, -0x1.4b1d800000000p-9, -0x1.5af90c0000000p-4, 0x1.9e08100000000p-4, 0x1.33f7a80000000p-3, -0x1.cbffd80000000p-5, 0x1.83c8800000000p-5, 0x1.c9ae200000000p-7, 0x1.0535480000000p-5, 0x1.9210c80000000p-4, -0x1.b427500000000p-4, 0x1.4139540000000p-3, -0x1.77e4b00000000p-4, -0x1.7092260000000p-4, -0x1.81a7d00000000p-4, 0x1.7b2bc00000000p-8, 0x1.61a4f00000000p-5, -0x1.4613c00000000p-6, -0x1.7847400000000p-5, -0x1.1b85240000000p-3, -0x1.ce75b40000000p-5, 0x1.4454c40000000p-4, 0x1.9426f00000000p-6, -0x1.d8ab140000000p-5, -0x1.1617180000000p-4, -0x1.8e97180000000p-5, -0x1.84b7000000000p-5, -0x1.3982f80000000p-3, -0x1.14f37a0000000p-3, 0x1.217be40000000p-3, -0x1.dffe9e0000000p-4, -0x1.480dec0000000p-5, -0x1.d188f00000000p-4, 0x1.c1df200000000p-5, -0x1.f831e00000000p-6, 0x1.0b64880000000p-5, -0x1.b07eb00000000p-4, 0x1.088a480000000p-3, -0x1.07ad900000000p-6, -0x1.26af500000000p-3, 0x1.8801800000000p-5, 0x1.2615880000000p-3, -0x1.76b4c40000000p-4, -0x1.84cd180000000p-5, -0x1.23e5d80000000p-4, 0x1.cb15100000000p-4, 0x1.382ee40000000p-3, 0x1.0067e80000000p-3, -0x1.0294cc0000000p-3, 0x1.8193d80000000p-4, 0x1.46f9000000000p-10, 0x1.a0e4b80000000p-4, 0x1.136bd40000000p-3, -0x1.bc5b480000000p-4, -0x1.8bb0580000000p-4, -0x1.fe3df00000000p-4, -0x1.c853f80000000p-5, 0x1.4526180000000p-4, -0x1.83ad300000000p-6, -0x1.762c2c0000000p-5, 0x1.2fd1a00000000p-6, -0x1.29290a0000000p-4, 0x1.b756b80000000p-4, 0x1.00a8200000000p-7, 0x1.2937c00000000p-3, 0x1.3a7c400000000p-7, -0x1.6cf5180000000p-5, -0x1.a94e000000000p-6, 0x1.c613000000000p-9, -0x1.1312c00000000p-6, 0x1.5551c00000000p-6, 0x1.ac6fb00000000p-5, -0x1.30836c0000000p-5, 0x1.080f3c0000000p-3, 0x1.1adaac0000000p-4, 0x1.009b800000000p-8, 0x1.dead800000000p-5, 0x1.7c81c80000000p-4, 0x1.1cdee80000000p-3, -0x1.11241a0000000p-3, 0x1.f432800000000p-6, -0x1.5dfee80000000p-5, -0x1.017bb00000000p-3, -0x1.13d9800000000p-7, 0x1.ae03000000000p-6, 0x1.db86880000000p-4, 0x1.4745880000000p-5, -0x1.26ac2c0000000p-4, 0x1.60fa100000000p-6, 0x1.ee11580000000p-4, 0x1.7ad4d00000000p-6, 0x1.8dee080000000p-4, -0x1.1f828a0000000p-4, 0x1.a0cb100000000p-5, -0x1.b397000000000p-7, 0x1.9968800000000p-4, -0x1.fdf7b80000000p-4, 0x1.1ea8a40000000p-4, 0x1.289ed80000000p-3, -0x1.d10ce00000000p-6, -0x1.dffb500000000p-6, -0x1.fce3800000000p-4, 0x1.78daf00000000p-6, 0x1.bd62880000000p-4, 0x1.ec84600000000p-4, -0x1.6f57600000000p-7, -0x1.3d86b20000000p-4, 0x1.82b8280000000p-4, 0x1.5c28000000000p-11, -0x1.c21e4c0000000p-4, 0x1.b3af000000000p-7, 0x1.c503880000000p-4, 0x1.27e46c0000000p-4, -0x1.28d7840000000p-3, 0x1.2aca840000000p-3, -0x1.332d980000000p-3, -0x1.39e85a0000000p-4, 0x1.2ef7c40000000p-3, 0x1.bf90b00000000p-4, -0x1.2057ac0000000p-4, 0x1.acdd100000000p-4, -0x1.9d5d000000000p-6, 0x1.8fccc80000000p-5, -0x1.f437200000000p-5, -0x1.7d17800000000p-6, -0x1.6832980000000p-5, -0x1.23a3440000000p-3, 0x1.2872040000000p-3, -0x1.7fee000000000p-6, -0x1.b2e7500000000p-6, 0x1.d712b80000000p-4, -0x1.d225900000000p-6, 0x1.dd21d80000000p-5, 0x1.0636400000000p-8, 0x1.6bb3140000000p-4, 0x1.4995000000000p-4, 0x1.6b28000000000p-5, 0x1.d5c6300000000p-4, -0x1.982a440000000p-5, -0x1.8962e80000000p-5}
, {0x1.174df00000000p-5, 0x1.9acaa00000000p-5, 0x1.41351c0000000p-3, 0x1.d987c00000000p-6, 0x1.42f3f80000000p-4, -0x1.20503a0000000p-3, 0x1.fc5b780000000p-4, -0x1.34f9d20000000p-3, -0x1.dcd57c0000000p-4, 0x1.8fdec00000000p-8, -0x1.c109080000000p-5, -0x1.59aa580000000p-5, 0x1.0833900000000p-6, -0x1.15c0800000000p-4, 0x1.fb35b80000000p-4, 0x1.45ec380000000p-3, -0x1.ea6d3c0000000p-4, 0x1.56e2280000000p-5, 0x1.24a8600000000p-7, -0x1.236bbe0000000p-4, 0x1.1e244c0000000p-4, -0x1.c002d40000000p-5, 0x1.aa88000000000p-8, 0x1.72dae80000000p-4, 0x1.15eed00000000p-4, -0x1.2af03a0000000p-3, -0x1.9a3bcc0000000p-5, 0x1.4553540000000p-3, -0x1.3e391e0000000p-4, -0x1.d30cf00000000p-6, 0x1.85b5200000000p-5, 0x1.3711a80000000p-4, -0x1.00bff60000000p-4, -0x1.f904580000000p-4, 0x1.badf900000000p-6, 0x1.cd6f200000000p-4, 0x1.3438dc0000000p-3, -0x1.0afb240000000p-3, -0x1.c16b080000000p-4, -0x1.695e700000000p-5, 0x1.98f9380000000p-4, -0x1.28923e0000000p-3, 0x1.54c1c40000000p-4, -0x1.36aef40000000p-3, 0x1.8d6ef80000000p-4, 0x1.046a8c0000000p-4, -0x1.484bdc0000000p-4, 0x1.818e500000000p-4, 0x1.1b81580000000p-3, 0x1.7955800000000p-4, 0x1.08da340000000p-3, 0x1.4bd4800000000p-4, 0x1.d1aae80000000p-4, -0x1.0fc1a80000000p-3, -0x1.2ec5360000000p-3, -0x1.3c81440000000p-3, -0x1.09b7680000000p-5, -0x1.4b4af00000000p-6, 0x1.a228b80000000p-5, 0x1.05dd580000000p-3, 0x1.d6fef80000000p-5, 0x1.18fd680000000p-3, -0x1.5e49c40000000p-4, -0x1.0dd7fc0000000p-3, -0x1.1809400000000p-8, -0x1.2ea8e20000000p-4, -0x1.a496500000000p-6, -0x1.76926c0000000p-5, 0x1.15cec00000000p-3, -0x1.57a3980000000p-5, 0x1.0af0a00000000p-6, -0x1.bb09480000000p-4, -0x1.1302aa0000000p-3, 0x1.e9efb80000000p-4, -0x1.6cfb920000000p-4, -0x1.5b77d40000000p-4, -0x1.e3bef00000000p-5, 0x1.7eafd00000000p-6, -0x1.046f000000000p-8, 0x1.6580b00000000p-5, 0x1.4444dc0000000p-3, -0x1.4074220000000p-3, 0x1.b53bf00000000p-4, 0x1.f82b400000000p-8, -0x1.8a17e60000000p-4, 0x1.bcb9c80000000p-4, 0x1.d07bf80000000p-4, -0x1.3b59d40000000p-3, 0x1.858a600000000p-6, -0x1.338dc00000000p-7, -0x1.7251a00000000p-4, 0x1.211b6c0000000p-3, -0x1.c9c2040000000p-5, 0x1.37853c0000000p-3, -0x1.ddea3c0000000p-4, 0x1.40df340000000p-3, -0x1.45279e0000000p-3, -0x1.05f7fe0000000p-3, -0x1.54e0e00000000p-5, -0x1.23d6ca0000000p-3, -0x1.3f10a60000000p-3, 0x1.ff13580000000p-4, 0x1.272c640000000p-3, -0x1.af6f400000000p-6, -0x1.953d100000000p-4, 0x1.2a89780000000p-3, 0x1.e0b1600000000p-5, -0x1.101cc00000000p-4, -0x1.382ba80000000p-3, -0x1.7b51b00000000p-6, -0x1.a61d300000000p-6, 0x1.7f91d00000000p-4, 0x1.8b48380000000p-4, -0x1.f0da080000000p-5, 0x1.21f37c0000000p-4, 0x1.d581000000000p-10, -0x1.d473c00000000p-7, 0x1.13b6380000000p-3, -0x1.0599f40000000p-3, -0x1.7a41a80000000p-4, -0x1.3f56be0000000p-3, -0x1.6065000000000p-8, 0x1.de59900000000p-4, 0x1.56e42c0000000p-4, -0x1.2287b80000000p-4, 0x1.574e000000000p-8, -0x1.6f229e0000000p-4, -0x1.2bfcf60000000p-3, 0x1.dcadf80000000p-4, -0x1.3874560000000p-3, -0x1.620fd20000000p-4, -0x1.c577e80000000p-4, 0x1.340dbc0000000p-3, 0x1.c5d3b00000000p-5, -0x1.7a29b60000000p-4, 0x1.0c36540000000p-3, -0x1.1e3e440000000p-3, -0x1.1228ee0000000p-4, -0x1.207f680000000p-3, -0x1.1238420000000p-3, 0x1.2b2c580000000p-5, -0x1.d6250a0000000p-4, -0x1.b46c880000000p-5, -0x1.ead05a0000000p-4, 0x1.44fec00000000p-6, 0x1.6dfdfc0000000p-4, -0x1.5d40c00000000p-4, -0x1.ba6a3c0000000p-5, -0x1.61a4200000000p-6, 0x1.affb000000000p-7, -0x1.82dc9c0000000p-5, -0x1.311e640000000p-3, -0x1.f4f26e0000000p-4, -0x1.b3ea000000000p-8, -0x1.1b9ed00000000p-5, -0x1.2d659c0000000p-3, 0x1.5f64980000000p-4, 0x1.bae9600000000p-4, -0x1.77ce900000000p-6, 0x1.e46ad80000000p-5, -0x1.31d7d20000000p-3, 0x1.75cc580000000p-4, -0x1.8d20200000000p-7, -0x1.cff6040000000p-4, 0x1.e0b9080000000p-5, 0x1.b524f80000000p-4, 0x1.c5c4e00000000p-5, -0x1.4849560000000p-4, 0x1.e2c3600000000p-6, 0x1.358c880000000p-4, -0x1.65e89c0000000p-5, -0x1.2933440000000p-3, -0x1.6db9a00000000p-6, -0x1.4fbcdc0000000p-5, -0x1.faa7300000000p-6, -0x1.3792bc0000000p-3, 0x1.9697200000000p-4, -0x1.d1e9680000000p-4, -0x1.03733c0000000p-3, -0x1.c1e9400000000p-4, 0x1.e961c00000000p-7, 0x1.e10f980000000p-4, 0x1.2138600000000p-6, 0x1.a4c8700000000p-4, -0x1.3b6be20000000p-3, 0x1.4928900000000p-5, 0x1.168b380000000p-5, -0x1.2023a00000000p-7, 0x1.311b740000000p-3, -0x1.128fd80000000p-5, -0x1.26fd840000000p-3, -0x1.3263540000000p-5, -0x1.e87ed00000000p-6, -0x1.8062c00000000p-4, 0x1.6502040000000p-4, -0x1.d8ac080000000p-5, 0x1.4086200000000p-3, -0x1.7f250e0000000p-4, 0x1.2079a00000000p-4, -0x1.6d62900000000p-6, 0x1.0689800000000p-3, 0x1.f10fe80000000p-5, 0x1.c213b80000000p-5, -0x1.242ba80000000p-4, 0x1.60dab00000000p-5, -0x1.074f1a0000000p-3, 0x1.fc15d80000000p-5, 0x1.2d47b80000000p-4, 0x1.072e5c0000000p-4, -0x1.943bc00000000p-6, -0x1.3247e00000000p-5, -0x1.73b88c0000000p-5, -0x1.053c500000000p-5, 0x1.e50e380000000p-4, 0x1.fd07000000000p-4, 0x1.bba1b00000000p-4, -0x1.b288600000000p-7, -0x1.d33dcc0000000p-5, -0x1.6457d80000000p-4, 0x1.fd21c00000000p-6, 0x1.8371f80000000p-4, -0x1.2b8a000000000p-9, -0x1.008b180000000p-3, -0x1.51f8700000000p-5}
, {0x1.0762ec0000000p-4, -0x1.488c300000000p-5, -0x1.123e900000000p-3, -0x1.0a68fa0000000p-3, 0x1.d80f800000000p-5, 0x1.2c3f200000000p-6, -0x1.07b4900000000p-3, 0x1.ba66b80000000p-4, 0x1.2730e40000000p-3, 0x1.1170cc0000000p-3, -0x1.58ac040000000p-4, 0x1.0ed9c40000000p-4, -0x1.b67c400000000p-6, 0x1.e3fe780000000p-4, 0x1.4b91e40000000p-4, -0x1.1d971c0000000p-4, -0x1.f89b400000000p-6, -0x1.9848ce0000000p-4, -0x1.36178c0000000p-3, 0x1.e2ca800000000p-8, -0x1.9136640000000p-4, -0x1.79dd0e0000000p-4, 0x1.198f340000000p-3, 0x1.a67b500000000p-4, -0x1.7148fa0000000p-4, 0x1.73d9600000000p-4, -0x1.cc62a00000000p-6, -0x1.fe6b180000000p-4, -0x1.bd0a800000000p-7, 0x1.98a5f80000000p-5, -0x1.1864600000000p-7, 0x1.717e200000000p-6, -0x1.4a047c0000000p-5, -0x1.0d38c20000000p-3, 0x1.ab73200000000p-4, 0x1.8b6d180000000p-4, 0x1.59cd180000000p-5, -0x1.e1de5c0000000p-4, -0x1.e45a500000000p-4, -0x1.06d3720000000p-3, 0x1.335dfc0000000p-3, 0x1.ce2b800000000p-9, -0x1.38c0da0000000p-3, 0x1.2f9e400000000p-4, 0x1.e814580000000p-4, 0x1.db8fa00000000p-4, 0x1.4059780000000p-5, 0x1.6f68000000000p-8, 0x1.038a1c0000000p-3, 0x1.b221880000000p-4, 0x1.1944000000000p-6, -0x1.2649400000000p-6, -0x1.8382800000000p-8, 0x1.12e2ec0000000p-4, 0x1.b165900000000p-6, -0x1.aa65200000000p-6, 0x1.f3df900000000p-4, -0x1.7438e40000000p-5, -0x1.2660100000000p-5, 0x1.1e685c0000000p-4, 0x1.2feca00000000p-7, 0x1.26ac200000000p-4, -0x1.4455de0000000p-3, -0x1.327a960000000p-4, 0x1.64e9b00000000p-5, 0x1.546a400000000p-7, -0x1.40cf5e0000000p-3, 0x1.f88e900000000p-4, 0x1.d601700000000p-6, 0x1.12b1280000000p-5, -0x1.6313b40000000p-5, 0x1.24f0f80000000p-4, 0x1.1958c40000000p-3, -0x1.6785940000000p-5, 0x1.6b00880000000p-4, 0x1.f4c1a00000000p-4, 0x1.7098680000000p-4, -0x1.3531300000000p-3, -0x1.019e560000000p-3, 0x1.9045d80000000p-5, -0x1.49c8ce0000000p-4, 0x1.24aa100000000p-6, 0x1.0cb9b00000000p-3, 0x1.0ba0980000000p-5, -0x1.2595de0000000p-4, 0x1.1d17d80000000p-3, 0x1.d112180000000p-5, -0x1.1ffe4c0000000p-3, -0x1.7a11400000000p-7, -0x1.f072080000000p-5, -0x1.06122c0000000p-4, -0x1.2f0c5e0000000p-3, -0x1.613d900000000p-5, 0x1.ae60280000000p-5, 0x1.b52b300000000p-4, -0x1.0282f00000000p-3, 0x1.249b9c0000000p-3, -0x1.f115700000000p-5, 0x1.3acbc00000000p-7, 0x1.548b000000000p-8, -0x1.63b8900000000p-5, 0x1.018cd80000000p-5, 0x1.da7d980000000p-5, 0x1.52b9a40000000p-4, -0x1.b02c8a0000000p-4, -0x1.9253c80000000p-4, 0x1.e003680000000p-4, -0x1.fe482e0000000p-4, -0x1.2a53800000000p-8, 0x1.5669d00000000p-6, -0x1.2025da0000000p-3, -0x1.8dbef80000000p-4, 0x1.2b1fa80000000p-3, 0x1.7eba700000000p-4, 0x1.1af9180000000p-3, -0x1.7852560000000p-4, -0x1.55542c0000000p-4, 0x1.17a4f80000000p-4, -0x1.1a48300000000p-3, -0x1.eec2860000000p-4, -0x1.bc16040000000p-5, 0x1.f2c7000000000p-4, -0x1.9accc00000000p-7, 0x1.32f9f00000000p-5, -0x1.782f780000000p-5, 0x1.142b580000000p-4, 0x1.15d3500000000p-5, 0x1.bbc1580000000p-4, -0x1.fd2a3c0000000p-5, 0x1.00b4c00000000p-6, 0x1.e9e4980000000p-5, 0x1.3f99400000000p-5, -0x1.e558fe0000000p-4, 0x1.7aa8780000000p-5, 0x1.078bc00000000p-7, -0x1.3c89000000000p-10, -0x1.a85e580000000p-4, -0x1.23ee440000000p-3, -0x1.d77c500000000p-4, 0x1.2653280000000p-3, 0x1.8a7dc00000000p-6, 0x1.0d02d00000000p-6, 0x1.91a1d00000000p-5, 0x1.7325f00000000p-6, 0x1.bd50300000000p-4, -0x1.c9c6900000000p-6, -0x1.dbd8800000000p-9, 0x1.7efa100000000p-4, 0x1.4d14400000000p-8, -0x1.6d37620000000p-4, 0x1.a9bd800000000p-8, -0x1.306aca0000000p-3, 0x1.55bdf80000000p-4, -0x1.97a81e0000000p-4, -0x1.19bba00000000p-6, -0x1.a740460000000p-4, 0x1.08df000000000p-3, -0x1.4a43f20000000p-4, -0x1.09b09c0000000p-3, 0x1.c3c2100000000p-4, -0x1.8b4ff40000000p-5, 0x1.c630600000000p-4, 0x1.9bfd180000000p-4, -0x1.2d53220000000p-3, 0x1.1412340000000p-4, 0x1.c9b0280000000p-4, -0x1.c6ef200000000p-5, 0x1.4bf5740000000p-4, 0x1.069c800000000p-3, -0x1.093b500000000p-6, -0x1.60dd400000000p-5, 0x1.1b0d600000000p-6, 0x1.a60fc00000000p-4, -0x1.43ac8e0000000p-3, -0x1.aa87c80000000p-5, -0x1.ef43240000000p-5, 0x1.ff20680000000p-5, 0x1.2c36e80000000p-3, 0x1.c210a00000000p-7, -0x1.7501380000000p-4, -0x1.b407180000000p-4, 0x1.397c100000000p-3, -0x1.2e6b180000000p-3, 0x1.ef79380000000p-4, -0x1.8ed0960000000p-4, 0x1.4383200000000p-4, -0x1.2800900000000p-5, 0x1.b07d000000000p-5, 0x1.a085300000000p-6, 0x1.d80b000000000p-9, -0x1.2da4000000000p-9, 0x1.d674500000000p-4, 0x1.5814800000000p-5, 0x1.e23c500000000p-4, -0x1.005c900000000p-3, -0x1.0fcee00000000p-5, 0x1.174efc0000000p-4, -0x1.3e001c0000000p-4, 0x1.1c6e300000000p-4, -0x1.efe43c0000000p-4, -0x1.5964300000000p-6, 0x1.b6cac80000000p-4, -0x1.2cb7000000000p-9, -0x1.20303c0000000p-5, -0x1.ac8e5c0000000p-5, 0x1.289b680000000p-3, -0x1.94c00c0000000p-5, -0x1.4319800000000p-7, 0x1.1886a80000000p-5, -0x1.8449f00000000p-6, 0x1.2e57b00000000p-5, 0x1.2ac4340000000p-4, 0x1.61c0f40000000p-4, 0x1.68f7900000000p-6, 0x1.f31b700000000p-5, 0x1.28b0300000000p-3, -0x1.3167800000000p-6, 0x1.9145680000000p-4, -0x1.325e2a0000000p-4, 0x1.b671e80000000p-5, -0x1.08ec800000000p-5, 0x1.ba13480000000p-5, 0x1.b064100000000p-4, 0x1.d7b8000000000p-10}
, {-0x1.087f000000000p-9, -0x1.2ee29c0000000p-3, -0x1.0fe6400000000p-6, -0x1.b294300000000p-4, -0x1.15b3400000000p-8, 0x1.3ee7a80000000p-4, -0x1.8076340000000p-5, 0x1.0a7ad40000000p-3, -0x1.da3d500000000p-4, 0x1.8e9ac00000000p-4, -0x1.f191b20000000p-4, -0x1.a87c0c0000000p-4, -0x1.91c8600000000p-6, 0x1.e311e00000000p-4, -0x1.304e800000000p-5, 0x1.10d0640000000p-3, -0x1.7499d00000000p-4, 0x1.13220c0000000p-3, -0x1.a50e700000000p-6, -0x1.39d6980000000p-3, -0x1.06adc20000000p-3, 0x1.6867f00000000p-6, 0x1.4817400000000p-4, -0x1.2ba3780000000p-5, -0x1.3cf5600000000p-3, -0x1.ea4ae40000000p-4, 0x1.9c02900000000p-5, 0x1.f7cab00000000p-4, -0x1.6c47400000000p-6, -0x1.8fc7800000000p-4, -0x1.1de97e0000000p-3, 0x1.c9bc000000000p-10, -0x1.7aecca0000000p-4, 0x1.85abf00000000p-4, -0x1.ff25e00000000p-4, 0x1.2cfa4c0000000p-4, 0x1.4e03500000000p-4, 0x1.9bce080000000p-5, -0x1.5c99b00000000p-6, -0x1.4b461c0000000p-4, -0x1.b56a800000000p-5, 0x1.40bfe80000000p-3, -0x1.9f79980000000p-5, 0x1.2501d00000000p-3, 0x1.564f180000000p-4, -0x1.33cb000000000p-3, -0x1.8eab000000000p-10, 0x1.a903300000000p-4, 0x1.8386100000000p-4, -0x1.a4f1700000000p-5, -0x1.fffdb00000000p-6, 0x1.2e8b900000000p-6, 0x1.31010c0000000p-3, 0x1.be57e00000000p-7, 0x1.097db80000000p-3, -0x1.0c43580000000p-5, 0x1.7209000000000p-10, -0x1.5364360000000p-4, -0x1.bd14620000000p-4, 0x1.4f64900000000p-6, 0x1.f5be080000000p-4, 0x1.98a2700000000p-4, -0x1.1a9dbe0000000p-4, 0x1.e02d580000000p-5, 0x1.fbe1d80000000p-4, -0x1.fff1340000000p-5, -0x1.ce19a00000000p-4, 0x1.7da2a80000000p-4, -0x1.9773f40000000p-5, 0x1.09f3000000000p-3, 0x1.1cedb00000000p-3, -0x1.61e8800000000p-5, 0x1.a789800000000p-5, 0x1.37e4c80000000p-4, 0x1.227e980000000p-3, -0x1.08d5280000000p-3, -0x1.1e128c0000000p-3, 0x1.33432c0000000p-3, 0x1.d47a400000000p-4, -0x1.faacb00000000p-4, -0x1.e268b60000000p-4, -0x1.8cfa2c0000000p-4, 0x1.d480000000000p-7, 0x1.b67c980000000p-4, -0x1.09dfca0000000p-4, -0x1.2fcfec0000000p-4, -0x1.95e35c0000000p-4, -0x1.f3b5800000000p-4, 0x1.1d0f940000000p-3, 0x1.ea84a00000000p-4, 0x1.162bf40000000p-3, 0x1.ba28c00000000p-5, -0x1.2766840000000p-5, -0x1.59df620000000p-4, -0x1.40e8860000000p-3, -0x1.0f2d140000000p-3, 0x1.3cfa940000000p-3, -0x1.1f51800000000p-5, 0x1.44aea00000000p-3, -0x1.4718740000000p-4, -0x1.b822200000000p-7, 0x1.3462bc0000000p-4, 0x1.a6b0280000000p-4, 0x1.1086c00000000p-4, -0x1.b32e320000000p-4, 0x1.c094a00000000p-5, 0x1.3d61680000000p-5, 0x1.292e500000000p-5, 0x1.f4e6a00000000p-7, -0x1.d8b9a60000000p-4, 0x1.c37e000000000p-9, 0x1.c098e00000000p-6, -0x1.12aea20000000p-3, -0x1.a5ab300000000p-4, 0x1.4707840000000p-3, -0x1.61fa200000000p-7, 0x1.44df840000000p-3, 0x1.608d6c0000000p-4, -0x1.a2a7bc0000000p-4, -0x1.5b91720000000p-4, -0x1.ced2800000000p-4, 0x1.f277280000000p-4, -0x1.29d50a0000000p-3, 0x1.a3a3900000000p-5, -0x1.04c6e20000000p-3, -0x1.87c5b40000000p-5, 0x1.2b96100000000p-4, -0x1.7d3da00000000p-4, 0x1.3ab8ec0000000p-4, 0x1.323b880000000p-4, 0x1.325bb40000000p-3, 0x1.0f98600000000p-3, -0x1.eb00c00000000p-6, 0x1.c47d880000000p-4, -0x1.5258520000000p-4, 0x1.b800a00000000p-5, 0x1.07270c0000000p-3, -0x1.1eb0f00000000p-3, -0x1.4612000000000p-5, -0x1.ea7ebc0000000p-5, 0x1.311e8c0000000p-4, 0x1.7f1d300000000p-6, 0x1.78f3000000000p-4, 0x1.36c8340000000p-3, -0x1.69502e0000000p-4, -0x1.27a3c00000000p-3, 0x1.f244e00000000p-5, -0x1.d6c4ec0000000p-5, 0x1.ea0bb80000000p-4, 0x1.6560e80000000p-5, 0x1.204dac0000000p-3, 0x1.176f180000000p-5, 0x1.3479e00000000p-4, 0x1.3350cc0000000p-4, 0x1.7a0f900000000p-4, 0x1.4f84400000000p-6, 0x1.2b82200000000p-4, -0x1.0ce9360000000p-3, 0x1.3d21700000000p-3, 0x1.1b4f340000000p-4, -0x1.fb86040000000p-4, -0x1.5063000000000p-6, 0x1.35db200000000p-3, -0x1.696f5e0000000p-4, -0x1.2ddb660000000p-4, -0x1.ab9d100000000p-6, -0x1.3b16220000000p-3, 0x1.5662400000000p-7, 0x1.7c15900000000p-4, 0x1.beb8280000000p-4, 0x1.25bcf00000000p-4, 0x1.1b7e600000000p-3, -0x1.3163900000000p-4, 0x1.026b540000000p-3, -0x1.a915880000000p-4, -0x1.ceee980000000p-5, 0x1.1aae500000000p-5, -0x1.225dba0000000p-3, -0x1.203a740000000p-4, -0x1.80eab20000000p-4, 0x1.0ec63c0000000p-3, 0x1.117a3c0000000p-3, 0x1.8986680000000p-4, 0x1.e7c1b00000000p-5, 0x1.e004180000000p-5, 0x1.f20c200000000p-7, 0x1.a846d80000000p-4, 0x1.2be9700000000p-6, 0x1.2952600000000p-7, 0x1.6de4140000000p-4, -0x1.0d27060000000p-3, 0x1.2c725c0000000p-4, -0x1.a7be6a0000000p-4, -0x1.a6fda80000000p-4, -0x1.c697540000000p-4, -0x1.21925e0000000p-4, 0x1.d680500000000p-5, -0x1.48d8a00000000p-6, 0x1.8548700000000p-4, 0x1.2cd6200000000p-5, 0x1.463a400000000p-3, -0x1.2626c80000000p-3, -0x1.0a68900000000p-3, 0x1.41b3c80000000p-4, 0x1.a96fd00000000p-5, -0x1.ddf2e00000000p-4, -0x1.4095ec0000000p-3, -0x1.f56d480000000p-5, -0x1.153a080000000p-3, 0x1.e33bd00000000p-6, 0x1.4e19000000000p-8, -0x1.00dae00000000p-6, 0x1.cf14800000000p-6, -0x1.cd43580000000p-4, -0x1.bd58000000000p-4, 0x1.1c2de80000000p-5, -0x1.103dc80000000p-5, -0x1.da95e00000000p-6, 0x1.645b000000000p-4, -0x1.332da60000000p-3, 0x1.3074800000000p-3, 0x1.fdc4b00000000p-4, -0x1.ee38f00000000p-6, 0x1.a740080000000p-4}
, {0x1.f1dc680000000p-4, -0x1.9000580000000p-4, -0x1.1cb5680000000p-3, -0x1.6848b20000000p-4, -0x1.1776e40000000p-3, 0x1.1aa9740000000p-3, 0x1.d0dda00000000p-6, -0x1.450db60000000p-3, 0x1.5f1d600000000p-4, 0x1.72e5800000000p-5, 0x1.057ebc0000000p-3, -0x1.4616ce0000000p-4, 0x1.68097c0000000p-4, -0x1.3720280000000p-3, -0x1.444d660000000p-3, 0x1.cf5ec80000000p-4, 0x1.16ac780000000p-3, 0x1.b92a400000000p-6, 0x1.a5caa00000000p-4, -0x1.0ed5a60000000p-4, 0x1.9286f00000000p-6, -0x1.a8c31a0000000p-4, 0x1.67fe280000000p-5, -0x1.016cb80000000p-3, -0x1.4cde660000000p-4, 0x1.5b33000000000p-10, 0x1.01a6a00000000p-5, -0x1.ca1e540000000p-5, 0x1.7ee9a00000000p-7, 0x1.1fc9900000000p-4, 0x1.3ce9180000000p-5, -0x1.325df80000000p-5, 0x1.5370940000000p-4, -0x1.e064580000000p-4, 0x1.21a9f80000000p-5, -0x1.b646440000000p-4, 0x1.a09ef00000000p-6, 0x1.04af900000000p-4, 0x1.92a8b00000000p-4, 0x1.a32c900000000p-4, -0x1.f80eac0000000p-4, 0x1.f419b00000000p-4, 0x1.a95ea80000000p-5, -0x1.982c100000000p-4, 0x1.2576480000000p-3, 0x1.6dfee80000000p-4, -0x1.b905460000000p-4, -0x1.6eba000000000p-6, -0x1.27599c0000000p-3, 0x1.42e65c0000000p-3, 0x1.6483280000000p-4, 0x1.59e4b40000000p-4, -0x1.179dec0000000p-4, 0x1.5bef540000000p-4, -0x1.0a73b80000000p-5, -0x1.5ceaa00000000p-7, 0x1.5699b40000000p-4, 0x1.9342000000000p-6, -0x1.09e1300000000p-4, 0x1.2bc5980000000p-3, 0x1.3de4000000000p-11, -0x1.0722e00000000p-5, 0x1.82fd100000000p-6, 0x1.569a000000000p-8, 0x1.de28600000000p-5, 0x1.4a95f80000000p-5, 0x1.352d600000000p-4, -0x1.917f0c0000000p-5, -0x1.1490560000000p-4, -0x1.0d3c480000000p-4, 0x1.228b700000000p-5, -0x1.3adade0000000p-3, 0x1.35c9e00000000p-5, -0x1.cd87300000000p-4, -0x1.c7a3c00000000p-6, -0x1.a7b2900000000p-5, 0x1.c898800000000p-4, -0x1.28385e0000000p-4, -0x1.f1baf80000000p-4, 0x1.b34dc00000000p-4, -0x1.371b320000000p-3, 0x1.c796f00000000p-6, 0x1.f1a0700000000p-4, 0x1.b6fda00000000p-5, -0x1.d302800000000p-7, -0x1.21400a0000000p-3, -0x1.282c600000000p-7, -0x1.e3625a0000000p-4, -0x1.9606100000000p-6, -0x1.2b9ee20000000p-3, -0x1.348b980000000p-3, 0x1.7cf5800000000p-5, 0x1.feece00000000p-7, -0x1.9a244e0000000p-4, 0x1.63d5580000000p-4, -0x1.618ff40000000p-5, 0x1.c1c5e80000000p-5, 0x1.ecb5680000000p-5, -0x1.a42be00000000p-7, -0x1.e8669e0000000p-4, -0x1.41b2ca0000000p-4, 0x1.2c7de80000000p-3, 0x1.c1f2780000000p-4, -0x1.02ae660000000p-3, -0x1.2887780000000p-4, 0x1.b9e8000000000p-4, -0x1.75f5560000000p-4, -0x1.f9a0b00000000p-6, 0x1.ea9a280000000p-4, 0x1.e153c00000000p-6, -0x1.bdc5f80000000p-5, -0x1.48d9f00000000p-6, 0x1.fa32100000000p-4, 0x1.90ad400000000p-4, 0x1.43e8680000000p-4, 0x1.126e380000000p-4, -0x1.f430800000000p-9, 0x1.cd58700000000p-4, 0x1.3f63280000000p-4, -0x1.4a0ed00000000p-6, -0x1.e39b980000000p-4, -0x1.3159c00000000p-5, 0x1.075d540000000p-3, -0x1.7f81da0000000p-4, 0x1.4f37480000000p-4, -0x1.4082f20000000p-4, -0x1.bc58140000000p-4, -0x1.ca77f80000000p-4, 0x1.ae0b180000000p-4, 0x1.d2a8400000000p-6, 0x1.6087000000000p-8, -0x1.20c9e20000000p-3, 0x1.08ad6c0000000p-4, 0x1.15c16c0000000p-3, -0x1.199f460000000p-3, 0x1.807dd80000000p-4, -0x1.32223c0000000p-3, 0x1.13f49c0000000p-4, -0x1.26d5ec0000000p-5, -0x1.224fe00000000p-3, 0x1.c7d8380000000p-4, -0x1.2b7bea0000000p-4, -0x1.0616a80000000p-3, 0x1.224dc00000000p-3, -0x1.3ce6e80000000p-3, -0x1.c79d4c0000000p-4, -0x1.bd9f4c0000000p-4, 0x1.ed35480000000p-5, 0x1.bbee900000000p-4, -0x1.bb0e400000000p-4, -0x1.2f20a00000000p-4, -0x1.d095900000000p-6, -0x1.3ee4120000000p-3, -0x1.2b13460000000p-3, 0x1.4480980000000p-4, -0x1.f6ea8c0000000p-4, 0x1.a7aa880000000p-4, 0x1.7dfb600000000p-4, 0x1.2e9a200000000p-6, 0x1.9db5000000000p-4, 0x1.eaf7a80000000p-4, -0x1.0216560000000p-3, -0x1.02f4400000000p-5, -0x1.a720880000000p-4, -0x1.52657c0000000p-5, -0x1.9b7a600000000p-6, -0x1.e24ce40000000p-4, -0x1.29e7640000000p-4, -0x1.5cdc900000000p-6, 0x1.1d70140000000p-4, 0x1.2bda440000000p-4, -0x1.124ac20000000p-4, 0x1.3467380000000p-3, -0x1.0447300000000p-3, 0x1.1b65100000000p-3, 0x1.61c4f80000000p-5, -0x1.a6372e0000000p-4, 0x1.1dd8980000000p-3, 0x1.9d3df00000000p-5, -0x1.21a1d00000000p-5, -0x1.5025820000000p-4, 0x1.a1d3600000000p-5, -0x1.96b92a0000000p-4, 0x1.d34bf80000000p-4, 0x1.04b69c0000000p-3, 0x1.1819000000000p-3, 0x1.d9eb800000000p-6, -0x1.d7b6ec0000000p-4, 0x1.3153180000000p-3, -0x1.4172c60000000p-4, -0x1.9221e80000000p-4, 0x1.cf22000000000p-4, 0x1.2eb4d00000000p-4, -0x1.dcda000000000p-8, 0x1.2222cc0000000p-4, 0x1.172f940000000p-3, -0x1.1ec4f80000000p-3, -0x1.5f737c0000000p-4, 0x1.0725700000000p-3, 0x1.d971300000000p-4, 0x1.79edc00000000p-6, 0x1.b1ab800000000p-5, 0x1.d902380000000p-4, -0x1.5283200000000p-6, 0x1.326ba80000000p-3, 0x1.f365100000000p-4, -0x1.1b04000000000p-9, -0x1.12783c0000000p-4, 0x1.322e680000000p-4, 0x1.a985900000000p-5, -0x1.4994140000000p-5, -0x1.28f7c20000000p-3, -0x1.457d5c0000000p-3, 0x1.dd4f880000000p-4, 0x1.16d2ec0000000p-4, -0x1.07b5aa0000000p-4, 0x1.92a0100000000p-6, 0x1.371e580000000p-3, -0x1.25a8f60000000p-3, -0x1.0ff8c80000000p-3, -0x1.0e90e40000000p-3, 0x1.2982fc0000000p-4, -0x1.8262600000000p-7, 0x1.3808740000000p-4}
, {0x1.6b4d280000000p-4, -0x1.a1b39c0000000p-4, 0x1.05da500000000p-6, 0x1.0263240000000p-3, -0x1.e2d1a00000000p-6, 0x1.cf6e500000000p-5, 0x1.3f473c0000000p-3, -0x1.218bbe0000000p-3, -0x1.2075f00000000p-4, -0x1.eda5600000000p-5, 0x1.8503a00000000p-5, 0x1.591fdc0000000p-4, -0x1.783fa40000000p-4, -0x1.0ee6dc0000000p-3, 0x1.bea2a80000000p-4, -0x1.8474b40000000p-4, 0x1.0565140000000p-3, 0x1.8b70600000000p-5, -0x1.18fe260000000p-3, -0x1.d5ada80000000p-5, -0x1.42c7b00000000p-4, 0x1.2836d80000000p-5, 0x1.6c897c0000000p-4, -0x1.a308e00000000p-6, 0x1.a347000000000p-10, 0x1.dfe0280000000p-5, -0x1.df8e160000000p-4, 0x1.0379340000000p-4, -0x1.741d3c0000000p-4, 0x1.033da00000000p-4, 0x1.123d380000000p-3, 0x1.fd49380000000p-5, -0x1.e820000000000p-15, 0x1.152cf00000000p-6, -0x1.f0e93e0000000p-4, -0x1.18bc840000000p-4, -0x1.3a3ec20000000p-3, -0x1.6e8cfa0000000p-4, 0x1.7cbce00000000p-6, 0x1.34f6d00000000p-6, -0x1.2a95bc0000000p-4, -0x1.57772c0000000p-5, -0x1.0207620000000p-3, -0x1.2f3aa40000000p-3, -0x1.90e62c0000000p-4, 0x1.2fb8880000000p-5, -0x1.3b9ee80000000p-5, 0x1.f898300000000p-5, 0x1.7233f80000000p-4, -0x1.a46f800000000p-9, 0x1.4276e00000000p-7, -0x1.d47d940000000p-5, -0x1.181d820000000p-3, -0x1.487df00000000p-4, -0x1.0fdfb00000000p-5, -0x1.15c0ba0000000p-3, -0x1.1a14400000000p-3, -0x1.3046d20000000p-3, -0x1.ea80920000000p-4, -0x1.aa22aa0000000p-4, 0x1.d8b4200000000p-5, -0x1.fbffd40000000p-4, -0x1.369f500000000p-6, 0x1.3119800000000p-4, 0x1.67c2580000000p-4, -0x1.d8842a0000000p-4, -0x1.3b99200000000p-6, -0x1.c783200000000p-7, -0x1.97bfc00000000p-7, 0x1.314bc00000000p-3, 0x1.addfe00000000p-4, 0x1.334cdc0000000p-3, 0x1.13c3e40000000p-4, 0x1.27c53c0000000p-4, -0x1.b099c00000000p-6, 0x1.1d856c0000000p-4, -0x1.e8a9640000000p-4, -0x1.c319240000000p-5, 0x1.5fa2400000000p-6, -0x1.4ed8b80000000p-4, -0x1.c80fa00000000p-7, 0x1.7239680000000p-4, 0x1.e273000000000p-4, -0x1.1d53b20000000p-3, -0x1.da18900000000p-5, 0x1.63e7d00000000p-6, -0x1.7e2aa00000000p-6, 0x1.7e75000000000p-10, -0x1.181f200000000p-3, 0x1.9c30800000000p-9, 0x1.2cd5e40000000p-3, -0x1.27b1b00000000p-6, 0x1.9967080000000p-4, -0x1.66ab3c0000000p-5, -0x1.1bd5580000000p-5, 0x1.2fcd4c0000000p-3, 0x1.2521680000000p-5, -0x1.9866300000000p-4, 0x1.7df4b00000000p-4, 0x1.25f0680000000p-3, 0x1.168c100000000p-4, 0x1.c942c00000000p-7, 0x1.f650f00000000p-4, -0x1.2ee63c0000000p-3, -0x1.7675d00000000p-6, 0x1.cc61700000000p-4, 0x1.44ef2c0000000p-3, 0x1.3fca680000000p-5, 0x1.7477a00000000p-4, -0x1.648ff00000000p-6, -0x1.015a620000000p-3, 0x1.99fe900000000p-4, -0x1.b893100000000p-6, 0x1.5df8740000000p-4, -0x1.3b94740000000p-4, 0x1.df99600000000p-4, 0x1.4029780000000p-4, 0x1.29db480000000p-3, -0x1.e6f9d00000000p-4, -0x1.66b42a0000000p-4, 0x1.b206700000000p-4, 0x1.ccd9d80000000p-5, -0x1.31b76a0000000p-3, -0x1.5c2fd00000000p-4, -0x1.52ec660000000p-4, -0x1.8ef2d00000000p-4, -0x1.18dbc00000000p-6, 0x1.34c3c80000000p-3, 0x1.04ce840000000p-3, 0x1.c820200000000p-4, -0x1.1c88740000000p-3, -0x1.8283b00000000p-6, -0x1.4ecec00000000p-8, -0x1.08522c0000000p-3, -0x1.81dbd00000000p-4, 0x1.1b90680000000p-5, -0x1.1900f80000000p-4, -0x1.32508e0000000p-4, -0x1.6f44d00000000p-6, -0x1.567f340000000p-5, 0x1.d881880000000p-4, -0x1.c4907a0000000p-4, 0x1.4287340000000p-4, -0x1.1a94e00000000p-3, 0x1.ac69880000000p-5, 0x1.1e896c0000000p-3, -0x1.0831f80000000p-5, 0x1.0991080000000p-5, -0x1.0562fe0000000p-4, 0x1.6e28940000000p-4, -0x1.b3799c0000000p-5, -0x1.3834240000000p-3, -0x1.736ee40000000p-5, 0x1.00da600000000p-4, -0x1.50e1bc0000000p-4, -0x1.09c1c00000000p-3, -0x1.f0a8a00000000p-5, -0x1.c6672c0000000p-4, 0x1.be99400000000p-4, -0x1.dee23c0000000p-4, 0x1.03fa280000000p-3, 0x1.4ebbd00000000p-4, 0x1.186acc0000000p-3, 0x1.1ad1a00000000p-4, 0x1.339cc80000000p-3, -0x1.df98400000000p-5, 0x1.13d2300000000p-4, -0x1.3bffc00000000p-7, 0x1.b72cb00000000p-6, -0x1.21bc900000000p-3, 0x1.472d0c0000000p-3, -0x1.b2236c0000000p-5, -0x1.310e940000000p-5, -0x1.cc27400000000p-6, -0x1.7fc7960000000p-4, 0x1.71d1280000000p-4, 0x1.4547740000000p-3, 0x1.09fb180000000p-4, -0x1.5830200000000p-6, 0x1.d2e6e00000000p-6, 0x1.11bd700000000p-5, -0x1.d5d1360000000p-4, -0x1.bcb7e00000000p-4, 0x1.4138a80000000p-3, -0x1.2e2a1a0000000p-3, 0x1.1b35b00000000p-3, -0x1.b088f80000000p-4, 0x1.8b0d200000000p-6, 0x1.b30fc80000000p-5, -0x1.a1e1a80000000p-4, 0x1.be42800000000p-8, -0x1.00fb120000000p-3, -0x1.ea5cf00000000p-5, -0x1.7b2aec0000000p-4, 0x1.760f800000000p-7, 0x1.62c79c0000000p-4, 0x1.f4cd680000000p-4, 0x1.c304180000000p-4, 0x1.24df980000000p-3, 0x1.11e0c00000000p-5, 0x1.220e380000000p-4, -0x1.bbe2740000000p-5, 0x1.3dffb00000000p-6, 0x1.354a580000000p-3, 0x1.44a5f00000000p-3, 0x1.4745e00000000p-3, 0x1.2b00f00000000p-6, -0x1.7bbfe00000000p-6, -0x1.35a25a0000000p-4, 0x1.d07fe00000000p-5, -0x1.ca719a0000000p-4, -0x1.a228ca0000000p-4, -0x1.64df1c0000000p-5, 0x1.b333280000000p-5, 0x1.7923d00000000p-5, 0x1.df1b400000000p-6, 0x1.00d0200000000p-6, 0x1.be3fa00000000p-4, -0x1.a19c1c0000000p-5, 0x1.b45b500000000p-6, 0x1.0431280000000p-5, 0x1.7d05700000000p-6, -0x1.4135000000000p-6, 0x1.2ff9cc0000000p-4}
, {-0x1.96c24c0000000p-4, -0x1.0767200000000p-3, -0x1.f2a2400000000p-8, -0x1.ca46200000000p-5, 0x1.a199e80000000p-4, 0x1.de14980000000p-5, -0x1.e8cb100000000p-4, 0x1.e9b8c00000000p-8, -0x1.8af8d60000000p-4, -0x1.f0a0f20000000p-4, 0x1.e4c2e80000000p-5, 0x1.32ba600000000p-6, -0x1.16e4c00000000p-8, 0x1.2d18280000000p-5, -0x1.77d4840000000p-4, -0x1.e703f00000000p-5, 0x1.6b2d400000000p-4, -0x1.233ec00000000p-4, 0x1.1b99a00000000p-6, 0x1.2032700000000p-4, 0x1.cbb7800000000p-4, 0x1.09a7e00000000p-6, -0x1.841d840000000p-4, -0x1.56698c0000000p-4, 0x1.1188c80000000p-3, -0x1.07ee400000000p-6, -0x1.ea570e0000000p-4, -0x1.5e5dbe0000000p-4, -0x1.546ea00000000p-4, 0x1.19c5d00000000p-3, 0x1.42aec80000000p-3, 0x1.69f65c0000000p-4, 0x1.92fea80000000p-5, 0x1.a1b9980000000p-5, 0x1.1d9fb80000000p-3, 0x1.7fa8980000000p-4, 0x1.9078080000000p-4, 0x1.7314a80000000p-4, -0x1.3215400000000p-6, -0x1.dc29600000000p-6, -0x1.aa42d80000000p-4, -0x1.6d8e2c0000000p-4, 0x1.3ec8100000000p-3, 0x1.7eb1d80000000p-5, -0x1.a265f40000000p-4, -0x1.c83c400000000p-8, -0x1.9ab7a00000000p-7, -0x1.9cb5700000000p-5, 0x1.404a900000000p-6, -0x1.3d54c60000000p-4, 0x1.0ef6d00000000p-3, 0x1.2ca0f00000000p-5, 0x1.8324000000000p-4, 0x1.90c9a00000000p-5, -0x1.a37ba00000000p-4, 0x1.244dac0000000p-3, -0x1.0c71280000000p-5, 0x1.3ae4e40000000p-3, 0x1.dba9e00000000p-4, -0x1.eebd600000000p-7, 0x1.d005c80000000p-4, 0x1.b3afa00000000p-4, -0x1.2068720000000p-3, -0x1.a71e860000000p-4, -0x1.9d6c000000000p-7, -0x1.412ef60000000p-4, 0x1.9cd2f80000000p-4, -0x1.1003f80000000p-5, -0x1.40edd40000000p-5, -0x1.f335700000000p-4, -0x1.0590720000000p-3, -0x1.2483600000000p-5, -0x1.eadb800000000p-9, -0x1.4317a00000000p-5, -0x1.adb4ac0000000p-5, 0x1.04c7200000000p-3, 0x1.ee3a100000000p-6, 0x1.8f10100000000p-5, 0x1.38937c0000000p-3, -0x1.9349a80000000p-5, 0x1.19dc640000000p-3, 0x1.cf0e600000000p-6, 0x1.0a400c0000000p-3, -0x1.d35b700000000p-6, 0x1.2994ec0000000p-3, 0x1.0c12ec0000000p-3, 0x1.0e53f00000000p-5, 0x1.23a5300000000p-6, 0x1.03f4a00000000p-6, 0x1.cccd680000000p-4, 0x1.e902400000000p-8, 0x1.47a4e00000000p-5, -0x1.6e69d00000000p-6, 0x1.e912300000000p-5, -0x1.6b0d600000000p-4, -0x1.0551300000000p-6, 0x1.51c8c00000000p-6, 0x1.6b91b00000000p-6, 0x1.23a2fc0000000p-3, -0x1.c0b4720000000p-4, -0x1.8516320000000p-4, 0x1.2b01e40000000p-4, 0x1.4044380000000p-3, -0x1.454e200000000p-4, 0x1.e3ac100000000p-5, 0x1.8d41900000000p-6, 0x1.0e15680000000p-3, 0x1.e263800000000p-7, 0x1.aa36a00000000p-4, -0x1.8080100000000p-6, 0x1.d2a8d80000000p-4, -0x1.9769580000000p-4, -0x1.7cba520000000p-4, 0x1.202c840000000p-4, -0x1.54db840000000p-5, -0x1.f78fd00000000p-6, 0x1.41fdf80000000p-4, -0x1.4b7e8e0000000p-4, -0x1.e03b000000000p-7, 0x1.3b05340000000p-3, 0x1.aa12180000000p-4, 0x1.5c2c740000000p-4, 0x1.8b1be00000000p-7, -0x1.3863140000000p-3, 0x1.134be80000000p-3, -0x1.f061180000000p-4, -0x1.56d81e0000000p-4, -0x1.892a300000000p-4, 0x1.5818f00000000p-4, -0x1.7369600000000p-6, -0x1.ba02b00000000p-6, 0x1.0410000000000p-4, -0x1.e170640000000p-5, 0x1.23e1700000000p-3, 0x1.c689300000000p-4, -0x1.2a17000000000p-6, -0x1.1ce03e0000000p-4, 0x1.b45e880000000p-4, 0x1.1a26d80000000p-3, -0x1.32ce940000000p-3, 0x1.034ab40000000p-3, 0x1.3906980000000p-3, -0x1.12c46a0000000p-4, -0x1.2327800000000p-6, -0x1.1911c40000000p-3, 0x1.13c0540000000p-4, 0x1.0f16d00000000p-5, 0x1.8dfb400000000p-4, 0x1.2ddad00000000p-6, -0x1.89b5a80000000p-4, 0x1.ce20100000000p-4, 0x1.d477000000000p-5, 0x1.bc0d400000000p-7, -0x1.c7fd8a0000000p-4, 0x1.46dfc00000000p-6, 0x1.2136340000000p-3, 0x1.40c8f00000000p-3, -0x1.c9c26c0000000p-5, -0x1.ad83460000000p-4, -0x1.b8b5000000000p-9, -0x1.e13c1c0000000p-5, -0x1.f1f8940000000p-4, 0x1.3523680000000p-5, 0x1.01aae00000000p-4, -0x1.3946b80000000p-3, -0x1.cae2400000000p-4, 0x1.2800800000000p-3, -0x1.d22cc00000000p-4, 0x1.18d9280000000p-3, 0x1.2e96b80000000p-3, 0x1.05bc780000000p-4, 0x1.8522500000000p-6, -0x1.ef59f60000000p-4, -0x1.04bc9e0000000p-3, -0x1.28cdf80000000p-4, 0x1.3af1780000000p-3, -0x1.13796a0000000p-3, -0x1.e52f140000000p-5, 0x1.3ea8000000000p-6, -0x1.40f1e40000000p-3, 0x1.798c600000000p-5, 0x1.9506680000000p-4, 0x1.64bd200000000p-4, -0x1.5995c40000000p-5, -0x1.3fb0700000000p-3, -0x1.45ec600000000p-4, -0x1.c48a400000000p-8, -0x1.3891320000000p-3, -0x1.60261a0000000p-4, 0x1.680ba40000000p-4, 0x1.8089800000000p-4, -0x1.2ed9440000000p-3, 0x1.f4b8700000000p-4, 0x1.c79e700000000p-4, -0x1.4b55f00000000p-6, -0x1.d272ec0000000p-5, -0x1.8262520000000p-4, -0x1.696da40000000p-5, 0x1.24df480000000p-3, 0x1.12d7dc0000000p-4, 0x1.721d300000000p-5, 0x1.a98cf80000000p-4, -0x1.9067f00000000p-6, 0x1.b7af580000000p-4, -0x1.9d40f00000000p-4, -0x1.cae2b00000000p-4, 0x1.78aa000000000p-11, 0x1.53c37c0000000p-4, -0x1.8f854a0000000p-4, -0x1.af9a4c0000000p-4, -0x1.f12fbc0000000p-4, 0x1.6ea3c00000000p-5, -0x1.309d340000000p-4, -0x1.72bb3c0000000p-4, -0x1.46492c0000000p-5, -0x1.4898980000000p-5, 0x1.9073a00000000p-6, -0x1.1ecd740000000p-3, -0x1.4ff8000000000p-10, 0x1.310bc80000000p-4, 0x1.5316e80000000p-5, 0x1.9606f80000000p-4, -0x1.408b7e0000000p-3, 0x1.32989c0000000p-3}
, {0x1.2f151c0000000p-3, -0x1.da42d80000000p-4, 0x1.8874680000000p-4, -0x1.e5818c0000000p-5, -0x1.348e0e0000000p-3, 0x1.80e0d00000000p-4, 0x1.e9c2d00000000p-4, 0x1.e40b500000000p-6, 0x1.04176c0000000p-3, -0x1.b829880000000p-5, -0x1.ecfd7c0000000p-5, 0x1.4f24300000000p-6, 0x1.89f0e00000000p-4, -0x1.6b13b00000000p-6, 0x1.15c5080000000p-3, -0x1.2dcba00000000p-7, 0x1.1372c00000000p-8, -0x1.9b33200000000p-6, 0x1.d344000000000p-4, -0x1.19f9080000000p-3, 0x1.3794e80000000p-3, -0x1.b84c000000000p-4, 0x1.274a500000000p-3, -0x1.a7153c0000000p-5, 0x1.5c69000000000p-6, -0x1.56c4960000000p-4, 0x1.9a17600000000p-5, -0x1.c197b40000000p-4, -0x1.68f8c00000000p-8, 0x1.be00e80000000p-4, -0x1.5dc32e0000000p-4, 0x1.7cfe180000000p-4, 0x1.bc2fd00000000p-4, -0x1.0759a20000000p-3, -0x1.2a36e60000000p-4, -0x1.54342e0000000p-4, 0x1.98a6600000000p-5, 0x1.57ab880000000p-4, -0x1.d5b2000000000p-10, 0x1.aac8000000000p-8, -0x1.9656200000000p-5, -0x1.8645140000000p-4, -0x1.2f2e740000000p-3, -0x1.66aaf00000000p-6, 0x1.05a4780000000p-5, -0x1.04e51c0000000p-3, 0x1.5d9b880000000p-5, -0x1.e450800000000p-5, -0x1.640ea00000000p-5, 0x1.f5fb400000000p-8, 0x1.75d1200000000p-7, -0x1.2d77100000000p-3, -0x1.16adb80000000p-5, 0x1.006b680000000p-5, 0x1.24f2ec0000000p-3, 0x1.74f6100000000p-4, 0x1.8a88c00000000p-4, 0x1.b818980000000p-4, 0x1.9e9d580000000p-4, -0x1.1e81d00000000p-5, 0x1.3c44b00000000p-3, 0x1.3c4d980000000p-5, 0x1.41cb440000000p-3, 0x1.3e4b700000000p-5, 0x1.9150600000000p-5, 0x1.652d740000000p-4, 0x1.15a5fc0000000p-3, -0x1.1061180000000p-5, 0x1.07d9380000000p-4, -0x1.8ebe800000000p-7, -0x1.97c96c0000000p-4, 0x1.3f3dcc0000000p-4, -0x1.1a080a0000000p-3, 0x1.e6e8c00000000p-4, -0x1.9131780000000p-4, -0x1.0bbf8e0000000p-3, -0x1.19befc0000000p-3, -0x1.3b520a0000000p-3, 0x1.4eb6200000000p-4, -0x1.30efac0000000p-5, 0x1.2764400000000p-7, -0x1.c3b96c0000000p-5, 0x1.1de6880000000p-4, 0x1.2bf3280000000p-3, -0x1.bb9c0c0000000p-4, -0x1.c8e5400000000p-8, 0x1.a197480000000p-4, 0x1.0b04d00000000p-6, -0x1.1ca5800000000p-6, -0x1.8e11600000000p-6, -0x1.6e6ab60000000p-4, 0x1.a106400000000p-4, -0x1.a489ec0000000p-5, -0x1.c8fffc0000000p-4, -0x1.23227c0000000p-4, 0x1.be15a00000000p-6, -0x1.913f800000000p-6, -0x1.9e870c0000000p-4, 0x1.383f1c0000000p-3, -0x1.7902700000000p-5, -0x1.dfeb480000000p-5, -0x1.0b14280000000p-3, 0x1.327f300000000p-5, -0x1.eb2fc00000000p-5, 0x1.18f45c0000000p-4, -0x1.aa993c0000000p-5, 0x1.61cbcc0000000p-4, -0x1.03ae620000000p-3, 0x1.5dbde00000000p-6, 0x1.f9e1100000000p-6, 0x1.5edff80000000p-5, 0x1.377aac0000000p-3, -0x1.fad0980000000p-4, -0x1.e8e9720000000p-4, 0x1.239f9c0000000p-3, -0x1.3724c40000000p-3, 0x1.b727000000000p-10, 0x1.a859d00000000p-4, -0x1.5436580000000p-5, 0x1.3063300000000p-6, 0x1.5aa9a00000000p-4, -0x1.ddfd7c0000000p-4, 0x1.54820c0000000p-4, -0x1.4bbba00000000p-6, 0x1.ac03b80000000p-4, 0x1.679bd80000000p-5, 0x1.33e6a80000000p-3, 0x1.96cf580000000p-4, -0x1.97133c0000000p-4, -0x1.3e97ea0000000p-4, -0x1.22d3bc0000000p-5, -0x1.3e96120000000p-3, -0x1.2ad4900000000p-3, -0x1.93c8f80000000p-4, -0x1.17f8600000000p-7, 0x1.22a6680000000p-3, -0x1.243ad40000000p-3, 0x1.1488c80000000p-4, -0x1.1f06760000000p-3, 0x1.dc78300000000p-6, 0x1.2a798c0000000p-3, -0x1.9774a00000000p-6, -0x1.7b09800000000p-5, 0x1.3f19dc0000000p-4, -0x1.befe100000000p-5, -0x1.30fb900000000p-3, 0x1.6b8cd00000000p-5, 0x1.d243080000000p-5, -0x1.4bc0f00000000p-6, -0x1.3669100000000p-6, 0x1.1e6fa80000000p-3, 0x1.6546480000000p-4, 0x1.a693400000000p-4, -0x1.20c2400000000p-7, -0x1.68c7d00000000p-6, -0x1.17c7bc0000000p-3, -0x1.e07d300000000p-6, -0x1.09f9f80000000p-3, 0x1.c2d8080000000p-4, -0x1.8b21300000000p-4, -0x1.e968e80000000p-5, 0x1.956fb00000000p-6, 0x1.3908700000000p-3, -0x1.9b2d7a0000000p-4, -0x1.4412b80000000p-5, -0x1.f7781c0000000p-5, -0x1.a4ce4a0000000p-4, -0x1.9f751c0000000p-5, -0x1.10ee8e0000000p-4, 0x1.477da40000000p-3, -0x1.af1eb00000000p-4, 0x1.edd4e80000000p-4, -0x1.20c3b40000000p-3, -0x1.4545000000000p-9, -0x1.2cd0e80000000p-4, 0x1.bdb0480000000p-4, 0x1.060fe40000000p-4, 0x1.c1d3c00000000p-8, 0x1.1346380000000p-3, -0x1.653ea00000000p-4, 0x1.068a080000000p-5, 0x1.b076c00000000p-5, 0x1.20850c0000000p-3, -0x1.189a720000000p-3, 0x1.9e49100000000p-4, 0x1.a00e600000000p-6, 0x1.0ddbd80000000p-3, 0x1.ce86800000000p-7, -0x1.1076760000000p-3, -0x1.cbb1740000000p-4, 0x1.70b0580000000p-5, -0x1.36c2dc0000000p-5, -0x1.8072500000000p-6, -0x1.418d0e0000000p-3, -0x1.d7a5400000000p-6, -0x1.a002440000000p-5, 0x1.1ee4480000000p-5, 0x1.c491d00000000p-4, -0x1.04d4660000000p-4, -0x1.77d5f40000000p-5, -0x1.73fbda0000000p-4, 0x1.44007c0000000p-3, -0x1.331f800000000p-3, 0x1.6f00980000000p-4, 0x1.d3be800000000p-8, -0x1.1a00120000000p-3, -0x1.8cf37c0000000p-5, 0x1.05558c0000000p-3, 0x1.d4af980000000p-4, -0x1.6cc2800000000p-8, -0x1.a84f680000000p-5, 0x1.ebed380000000p-4, -0x1.b6c1160000000p-4, -0x1.1cf08a0000000p-4, 0x1.9624800000000p-5, -0x1.76d65a0000000p-4, -0x1.f2fcf40000000p-5, -0x1.0e38800000000p-6, -0x1.306d7c0000000p-5, 0x1.f206000000000p-7, -0x1.eef0400000000p-6, 0x1.9321480000000p-4, 0x1.6c54d80000000p-4, -0x1.0ab4520000000p-4}
, {0x1.58417c0000000p-4, 0x1.eca6f80000000p-4, 0x1.97c6680000000p-5, -0x1.3bf7200000000p-6, 0x1.9d55d00000000p-5, 0x1.860aa80000000p-4, -0x1.b1e0340000000p-4, -0x1.44bf360000000p-4, 0x1.211cac0000000p-3, -0x1.20615c0000000p-4, 0x1.0128280000000p-3, 0x1.7bcb380000000p-4, -0x1.5bba480000000p-5, -0x1.1895a80000000p-5, 0x1.f31fb00000000p-5, 0x1.7dcb680000000p-4, -0x1.f4d1680000000p-4, -0x1.8cd3040000000p-4, -0x1.97d7600000000p-7, 0x1.a82f400000000p-6, -0x1.7484900000000p-5, 0x1.9248a80000000p-5, -0x1.691db40000000p-4, 0x1.4f78700000000p-6, -0x1.b10a980000000p-4, 0x1.d1e7d00000000p-4, 0x1.8057200000000p-5, 0x1.8c77600000000p-4, -0x1.3563300000000p-3, -0x1.ada8c00000000p-4, 0x1.7bc8b00000000p-6, 0x1.039b300000000p-4, -0x1.63704c0000000p-4, -0x1.29ea980000000p-4, 0x1.3239ac0000000p-3, -0x1.2403c80000000p-3, 0x1.3a02540000000p-4, 0x1.2151440000000p-4, 0x1.3356c00000000p-3, -0x1.3ee7f40000000p-3, -0x1.06d0e00000000p-6, 0x1.0cbdd80000000p-5, -0x1.2cbd600000000p-3, -0x1.1fbc600000000p-6, 0x1.ca1ba00000000p-7, 0x1.f8ef600000000p-4, -0x1.0143540000000p-3, 0x1.5763300000000p-4, 0x1.18d74c0000000p-3, -0x1.4061460000000p-4, 0x1.765bf00000000p-4, 0x1.7b1cf00000000p-5, 0x1.ad47a00000000p-4, 0x1.4333f00000000p-3, 0x1.6197500000000p-5, 0x1.755d480000000p-5, 0x1.d5dc500000000p-4, -0x1.ccbccc0000000p-5, -0x1.3fd6440000000p-3, 0x1.54510c0000000p-4, 0x1.e029d80000000p-4, 0x1.81c5280000000p-4, -0x1.66b5c00000000p-8, -0x1.87dc860000000p-4, -0x1.b5f7020000000p-4, 0x1.210e200000000p-6, 0x1.0204440000000p-3, -0x1.7819900000000p-6, 0x1.0bc4940000000p-3, -0x1.29c6aa0000000p-3, -0x1.e9a5080000000p-4, 0x1.1d9c800000000p-8, -0x1.a756740000000p-4, 0x1.9700400000000p-5, -0x1.09c4640000000p-3, 0x1.73a3880000000p-4, 0x1.4482b40000000p-3, -0x1.36bb000000000p-6, -0x1.4377680000000p-3, -0x1.3ee1680000000p-3, -0x1.15dbd80000000p-3, -0x1.086ef00000000p-4, -0x1.7383cc0000000p-5, 0x1.fd79800000000p-5, -0x1.2aa2aa0000000p-3, -0x1.6735700000000p-5, 0x1.623ee80000000p-5, -0x1.dc54640000000p-5, 0x1.af25a80000000p-4, 0x1.3865b00000000p-3, -0x1.cc7bc80000000p-4, -0x1.63c8900000000p-6, 0x1.3dfa4c0000000p-3, -0x1.1ce8400000000p-3, 0x1.df21200000000p-5, -0x1.10dbec0000000p-3, -0x1.9323120000000p-4, 0x1.41fdd80000000p-3, -0x1.7bdf400000000p-6, -0x1.96dd700000000p-5, -0x1.31f7f20000000p-3, 0x1.1fb8100000000p-4, -0x1.11e2000000000p-11, 0x1.f8ace00000000p-7, -0x1.3ed7660000000p-3, -0x1.10ce400000000p-8, 0x1.f58d080000000p-4, 0x1.bfb8800000000p-6, 0x1.59a1800000000p-9, -0x1.1a23c40000000p-3, -0x1.7e830c0000000p-4, -0x1.086a5e0000000p-4, 0x1.741e300000000p-4, 0x1.ec6c800000000p-9, 0x1.b4ccc80000000p-5, 0x1.137ee00000000p-3, -0x1.4fdfd00000000p-4, 0x1.f521600000000p-6, -0x1.9b01400000000p-5, 0x1.f1bed80000000p-5, -0x1.4e3cc00000000p-8, 0x1.d600f80000000p-4, 0x1.d666200000000p-6, -0x1.bf09000000000p-8, 0x1.068ab40000000p-3, 0x1.287e6c0000000p-4, 0x1.ed0ea00000000p-6, -0x1.fc3ac40000000p-5, -0x1.1b665c0000000p-3, -0x1.d727e40000000p-4, -0x1.5635640000000p-5, -0x1.eb01e00000000p-5, -0x1.127d280000000p-3, 0x1.35dba40000000p-4, -0x1.0c49f00000000p-5, 0x1.6252c00000000p-5, -0x1.12f9b20000000p-3, 0x1.2b237c0000000p-3, -0x1.3c2bb20000000p-4, -0x1.0832340000000p-4, -0x1.117e820000000p-3, -0x1.26100c0000000p-4, -0x1.5875200000000p-5, -0x1.8239d80000000p-5, 0x1.3b87840000000p-3, -0x1.af67800000000p-5, -0x1.11f5280000000p-5, -0x1.12fc180000000p-4, -0x1.df98d00000000p-4, 0x1.24accc0000000p-4, 0x1.1102f80000000p-4, 0x1.40ccb00000000p-5, 0x1.182a700000000p-4, -0x1.09871e0000000p-3, -0x1.021d9a0000000p-3, 0x1.d820c00000000p-8, -0x1.00f8ce0000000p-4, -0x1.1053300000000p-4, -0x1.3b6be60000000p-4, 0x1.ddc0d80000000p-5, 0x1.28fa500000000p-6, -0x1.3c87120000000p-3, 0x1.f922500000000p-4, -0x1.d81e000000000p-10, -0x1.2b669a0000000p-3, -0x1.12e46a0000000p-3, 0x1.cca2b00000000p-6, -0x1.cee7d00000000p-6, -0x1.88ad680000000p-4, 0x1.5cc8e40000000p-4, 0x1.14dba40000000p-3, 0x1.22270c0000000p-3, 0x1.0882080000000p-3, -0x1.e662400000000p-4, -0x1.0b69480000000p-3, -0x1.ab6bd80000000p-4, -0x1.16d6c00000000p-6, -0x1.47baaa0000000p-3, -0x1.05d2600000000p-5, -0x1.5c1f5c0000000p-4, 0x1.5a5d700000000p-5, 0x1.12e66c0000000p-3, -0x1.ccc6980000000p-4, -0x1.1d12ce0000000p-4, -0x1.679cc00000000p-8, -0x1.0489f40000000p-3, -0x1.a936ea0000000p-4, -0x1.f43ed00000000p-5, -0x1.3b8ff40000000p-3, 0x1.1156ac0000000p-3, -0x1.dd172e0000000p-4, 0x1.ddd0000000000p-14, -0x1.21f9580000000p-3, 0x1.3b3fac0000000p-4, 0x1.b0e8280000000p-4, -0x1.322dec0000000p-5, 0x1.2658500000000p-6, -0x1.cd19000000000p-6, 0x1.cb75680000000p-4, 0x1.3cd6700000000p-3, 0x1.4320480000000p-5, -0x1.9585a40000000p-5, 0x1.be63f00000000p-6, 0x1.1399940000000p-4, 0x1.5e29000000000p-8, 0x1.31c3840000000p-4, 0x1.dcd3200000000p-4, 0x1.0a396c0000000p-4, -0x1.38a62c0000000p-4, -0x1.db4f000000000p-6, 0x1.2d19d80000000p-3, -0x1.aa492c0000000p-5, 0x1.154ad00000000p-4, 0x1.c5cb980000000p-4, 0x1.11be200000000p-7, -0x1.3ec6d40000000p-4, -0x1.e08d7c0000000p-5, -0x1.fa3d140000000p-4, 0x1.eb33900000000p-4, 0x1.b579880000000p-4, -0x1.8b43fa0000000p-4, -0x1.2dba040000000p-3, -0x1.0ec75a0000000p-4, -0x1.669bfe0000000p-4}
}
;

#undef INPUT_SAMPLES
#undef FC_UNITS